<unk>
<cls>
<sep>
!
"
#
$
&
'
(
)
*
,
-
.
/
0
1
2
3
4
5
6
7
8
9
:
;
=
?
\
_
a
b
c
d
e
f
g
h
i
j
k
l
m
n
o
p
q
r
s
t
u
v
w
x
y
z
the
to
of
in
and
on
for
that
##,
#39;s
##.
with
as
its
at
is
by
has
it
new
said
an
from
his
will
was
after
have
be
their
##s
are
over
(reuters)
he
but
us
two
first
ap
--
this
more
up
one
they
last
against
than
about
who
world
were
into
company
not
been
york
inc.
had
out
president
u.s.
monday
when
wednesday
tuesday
oil
thursday
would
united
which
reuters
three
friday
could
yesterday
million
government
##'s
corp.
people
quot;
or
next
group
some
security
announced
software
percent
time
game
microsoft
prices
minister
second
international
year
today
most
said.
may
off
former
##ing
week
can
years
all
internet
team
officials
##:
if
other
#39;
back
sunday
iraq
washington
win
state
european
four
top
just
before
##ed
federal
victory
according
says
day
prime
national
killed
american
billion
you
what
saturday
computer
during
while
made
states
third
major
league
between
business
least
no
plans
down
largest
news
end
record
sales
home
reported
chief
san
market
technology
city
british
##"
night
&lt;a
online
make
set
since
lead
her
##)
2004
court
another
afp
police
take
service
won
#39;t
south
being
five
open
search
john
through
help
cup
bush
agreed
season
maker
there
companies
now
deal
because
giant
iraqi
only
##d
final
shares
bank
music
coach
red
report
early
them
expected
china
military
country
london
under
...
leader
including
many
hit
web
north
mobile
get
co.
no.
left
series
##?
even
way
space
still
rose
like
high
so
him
latest
olympic
palestinian
biggest
wednesday.
stocks
union
official
general
##ly
released
industry
talks
##e
executive
profit
trade
tuesday.
part
services
wireless
10
how
big
move
thursday.
nuclear
##s,
friday.
##..
bid
six
where
monday.
nearly
games
much
stock
say
global
plan
higher
days
economic
held
phone
data
despite
presidential
took
west
boston
##a
start
israeli
##y
##s.
financial
foreign
players
##er
google
public
called
should
england
any
earnings
fell
following
number
test
cut
found
used
gold
growth
head
investors
network)
(sports
football
month
india
key
quarter
leading
buy
points
past
war
play
months
russian
windows
francisco
election
troops
australia
near
year.
both
also
use
around
research)
system
year,
air
beat
version
strong
nations
round
your
users
killing
put
several
firm
pay
car
ahead
night.
japan
recent
run
wall
per
chicago
do
such
street
seven
drug
forces
baghdad
might
sox
reports
ibm
loss
man
release
agency
australian
dollar
whether
media
video
late
##n
apple
gaza
athens
scored
work
free
attack
fourth
long
sunday.
press
french
michael
weeks
she
championship
commission
rival
##r
agreement
crude
los
close
northern
un
go
monday,
quote,
profile,
southern
japanese
thursday,
scientists
support
tuesday,
tokyo
offer
told
consumer
yesterday.
due
research
friday,
without
digital
canadian
price
political
systems
third-quarter
##t
saying
champions
leaders
across
central
launched
workers
department
champion
using
##'
become
give
little
conference
energy
making
amp;
wednesday,
player
contract
peace
america
manager
best
right
hurricane
share
quarterly
power
meeting
keep
taking
decision
army
world's
half
oracle
running
here
university
yesterday,
lower
operating
##o
few
straight
among
saturday.
launch
led
lost
senior
intel
interest
winning
face
posted
good
demand
russia
did
angeles
men
october
those
eight
return
chairman
economy
week,
almost
increase
##i
st.
david
communications
house
signed
attacks
management
pakistan
season.
title
capital
september
bomb
grand
accused
warned
campaign
##-based
board
inc.,
information
mark
20
defense
network
own
jobs
came
party
##m
customers
nation
we
likely
thousands
today.
got
helped
away
products
charges
amid
began
nasa
sunday,
bill
office
going
place
rise
same
november
iran
pc
showed
houston
less
health
ended
come
exchange
school
center
secretary
florida
results
already
behind
europe
television
militants
judge
peoplesoft
sun
hopes
reserve
again
program
future
well
gave
show
small
trying
sell
11
battle
case
uk
match
shot
company,
possible
field
toronto
california
linux
within
better
job
stores
association
yankees
club
opening
source
baseball
death
real
members
fans
died
times
corporate
race
force
week.
#151;
aimed
nine
george
offering
east
starting
star
german
until
trading
chinese
outside
women
reached
western
control
korea
step
earlier
local
texas
12
site
life
access
continued
line
once
yasser
region
white
takeover
each
growing
main
popular
years,
paul
authorities
france
look
trial
##es
britain
injured
see
years.
african
administration
israel
personal
taken
division
filed
opposition
tax
costs
designed
begin
failed
yards
human
investment
raised
efforts
fall
reach
old
elections
went
yet
looking
quarterback
study
18
insurance
action
manchester
##0
meet
analysts
chip
concerns
rate
sports
too
(cp)
revenue
tony
darfur
indian
paris
it's
radio
saturday,
toward
medal
soldiers
fight
legal
production
find
annual
finally
gas
hours
server
enough
kerry
must
sony
##l
allow
further
powerful
oct.
food
net
stop
15
getting
great
effort
ever
hostage
need
then
giants
2005
strike
williams
far
ago
tour
hold
product
provide
rates
securities
sept.
airlines
every
desktop
green
(ap)
working
coming
violence
sent
cost
never
ago,
morning
continue
low
arrested
change
countries
canada
soon
weekend
development
executives
italian
known
cell
democratic
e-mail
money
researchers
seattle
visit
performance
selling
charged
current
large
council
al
boost
law
electronics
fund
hundreds
labor
private
season,
airline
asked
##on
##...
30
fired
miami
americans
decided
claims
fuel
germany
suspected
bankruptcy
fighting
rising
unveiled
attempt
drop
full
retail
vote
islamic
cash
side
sold
store
14
##5
approved
pressure
moved
basketball
engine
nov.
2004,
call
night,
turned
teams
heart
holding
ltd.
mike
aid
##;
barrel
increased
confirmed
try
atlanta
bay
muslim
college
competition
named
(afp)
available
fire
planned
steve
##al
investigation
opened
rights
based
claimed
ruling
received
added
consumers
fresh
giving
100
holiday
spokesman
worth
supply
regulators
august
sign
arafat
iraq,
networks
13
above
seen
afghanistan
given
arsenal
computers
corp.,
having
rally
rebels
unit
wants
family
rebel
stake
hard
profits
suicide
want
alleged
bring
spending
average
chance
##ers
goal
louis
forecast
stadium
madrid
medical
able
advanced
bowl
devices
guard
short
16
philadelphia
captain
dead
finance
though
asian
build
create
survey
today,
africa
order
whose
airways
detroit
does
euro
it.
station
baghdad,
##3
moscow
touchdown
17
nfl
turn
month,
playing
blue
history
market.
militant
millions
proposed
ceo
ipod
25
company's
our
retailer
staff
tv
beijing
focus
gains
ready
##2
coast
others
(cbs.mw)
19
fears
##7
sale
threat
became
eu
interim
sudan
defeat
flight
urged
career
officer
operations
accounting
calif.
list
played
point
area
iraq.
along
let
tech
##4
spain
u.n.
leaving
started
these
threatened
black
weapons
employees
hope
young
cent
forced
markets
lawsuit
returned
minnesota
ruled
citing
name
##h
comes
technologies
##1
##6
losing
people,
storage
##k
offered
says.
although
experts
calls
hospital
seeking
beating
drive
initial
month.
middle
soccer
blair
problems
leave
december
sans
special
afghan
closer
target
very
ago.
charge
evidence
quarter,
ryder
dollars
challenge
later
runs
safety
##an
say.
commercial
director
lines
satellite
sources
town
##),
ariel
children
enterprise
singapore
rejected
warning
building
potential
consecutive
dropped
forward
brought
cricket
olympics
##c
phones
huge
fifth
island
push
country's
ending
##9
electronic
kept
face="verdana,ms
policy
serif,arial,helvetica"
wounded
##p
know
risk
sending
businesses
issued
threw
formula
offensive
w.
claim
equipment
missing
tournament
insurgents
jones
ministry
remain
scheduled
ban
eastern
makes
rivals
total
yahoo
futures
davis
clear
credit
johnson
avoid
developed
storm
body
kidnapped
think
heavy
acquire
##man
acquisition
closed
entertainment
settle
hostile
remains
nation's
supreme
greece
hoping
send
winter
##8
double
my
organization
published
groups
committee
host
outlook
previous
prison
met
newspaper
wanted
level
minutes
rest
##g
position
saw
striker
why
expects
caused
congress
ground
issue
recently
24
miss
role
attorney
bad
track
woman
xp
terrorist
50
struck
save
21
golf
important
raise
york,
appeared
spanish
suspended
mission
zealand
abu
slightly
strip
travel
nba
process
pulled
develop
introduced
motor
application
controversial
delta
statement
explosion
singh
company.
justice
rocket
single
tiger
helping
spent
premier
reduce
showing
vladimir
hong
probably
ran
roger
sharon
cuts
de
joint
kansas
sharply
virginia
##en
2004.
republican
result
speed
below
jason
losses
standard
cleric
open-source
crisis
water
cisco
concern
device
city,
drugs
james
percent,
voters
##-
##in
associated
beginning
light
remained
takes
file
korean
tim
athens,
event
inning
shopping
provider
reported.
troubled
aircraft
broke
planning
struggling
boeing
broadband
civil
game.
road
tennis
airport
buying
calling
colin
dutch
proposal
applications
member
something
##th
highest
project
tom
announce
don
facing
massive
##,000
##ment
domestic
fraud
ireland
merger
needed
passed
arrived
chips
##ion
time,
illegal
stage
carrier
join
negotiations
pass
stay
vice
wounding
cleveland
course
ivan
looks
pace
chelsea
extended
ordered
palestinians
summer
##le
front
revealed
sites
draw
million,
time.
mortgage
park
protect
##u
debt
dell
disney
aug.
candidate
industrial
movie
nextel
signs
thought
country.
earth
semiconductor
shows
exploded
homes
issues
watch
(nasdaq:
himself
parts
post
spacecraft
suffered
training
browser
care
playoff
update
worst
break
developing
fiscal
howard
secure
things
advertising
figures
italy
moving
parliament
sharp
camp
changes
gain
improve
armed
brown
form
intelligence
expectations
poor
system.
believe
carolina
dispute
pakistani
rules
wal-mart
debate
dvd
oakland
confidence
hockey
yukos
cable
decline
instead
question
serious
worries
(nyse:
business.
richard
shareholders
becoming
dallas
ford
games.
longer
paid
telephone
woods
appears
falling
jerusalem
##b
group,
market,
supplies
40
different
firms
innings
manufacturing
kong
memory
together
tried
allowed
discovered
guilty
hand
##ting
boss
defending
impact
pilots
card
defensive
jump
slow
##).
marketing
pittsburgh
raising
range
talk
thanks
23
microsystems
announcement
winner
arab
expand
months,
science
sprint
cardinals
deadly
itself
banks
continues
jose
offers
replace
terror
daily
features
hollywood
related
london,
looked
pitcher
wide
appeal
astros
grew
iraq's
owner
terms
##us
complete
settlement
telecommunications
tough
criminal
putin
built
joined
million.
practice
alan
goals
injury
inside
download
prices.
prix
royal
streak
witnesses
##rs
plane
residents
##x
consider
content
nhl
senate
traders
baltimore
japan's
jumped
asia
assault
diego
uranium
andy
arizona
faces
montreal
needs
nokia
positive
world.
ball
blow
chain
heating
jets
worldwide
holdings
ministers
protection
them.
twice
approval
completed
considering
embassy
jeff
live
previously
questions
warner
22
hamid
masters
moon
seems
spot
adding
cause
deficit
finished
touchdowns
weather
bringing
didn
film
hewlett-packard
martin
alex
include
inflation
machines
treasury
voting
border
code
purchase
seconds
allegations
hotel
nothing
really
relief
##able
atomic
denied
english
funds
lot
mac
miles
states.
upcoming
##ic
(ticker)
apparently
classic
missed
bought
chris
hurt
independent
plant
shiite
significant
states,
voted
2006
created
dec.
michigan
toll
venture
gulf
maker,
saddam
saudi
series.
terrorism
2-0
am
block
declared
game,
operation
prepared
preparing
racing
allows
banking
familiar
hits
irish
kevin
lawsuits
regional
sudanese
system,
themselves
king
often
patriots
pm
probe
quot;.
robert
setting
week's
fla.
high-speed
motors
msn
prize
stadium.
stewart
crucial
debut
protest
qualifying
barry
historic
notre
operator
republic
##a,
base
bonds
ohio
reportedly
antitrust
bombing
common
july
rookie
taiwan
carrying
defence
direct
express
january
now,
includes
living
putting
sanctions
sen.
surprise
boosted
easy
entered
majority
march
months.
term
\$50
allegedly
corporation
headed
mexico
##ling
community
expect
nov
prosecutors
team.
believes
christmas
crashed
critical
servers
success
2003
makers
progress
trophy
##-year-old
begun
bush's
carlos
damage
details
##ive
6-4
auction
craig
sir
&lt;font
crew
doctors
message
pair
quot;the
recovery
##ry
2005.
admitted
always
emergency
software.
trip
wake
##-yard
##or
26
auto
certain
dozens
greek
history.
oct
pension
said,
sydney
tools
washington,
yen
benefits
itunes
rather
tehran
weak
brazil
finding
gets
joe
lift
newsfactor
passes
stand
##ch
corp.'s
done
income
involved
ivory
owners
panel
period
turning
discuss
image
pack
#39;re
1-0
check
colorado
continuing
software,
developer
filing
producer
sought
successful
27
district
handheld
mutual
natural
pushed
sure
com
indonesian
orders
shut
sixth
climate
closing
improved
indonesia
interview
points,
region.
turkey
##z
breaking
charles
dolphins
increasingly
surged
believed
election.
merck
numbers
portable
powell
students
technology.
vowed
2005,
alliance
karzai
missile
output
problem
rare
resolution
rule
session
strategy
tonight
##less
associates
games,
infotype=info
promised
qtype=sym
separate
testing
brian
claiming
quickly
rallied
review
upset
via
acquired
budget
co.,
coalition
decide
demands
investigating
prices,
programs
seek
thailand
traditional
utah
200
28
crowd
don't
driver
fallujah
receiver
speculation
ten
day.
donald
gary
lawyers
unless
veteran
widely
allowing
areas
billion,
changed
denver
disappointing
display
doing
renewed
room
year's
(quote,
edged
handed
managers
nintendo
ninth
traffic
mass
nikkei
percent.
pga
tampa
tight
##!
computing
defeated
extra
hamas
linked
liverpool
package
pedro
rangers
remote
scoring
services.
similar
spend
wayne
amp;t
analyst
bodies
nascar
processor
seventh
supporters
value
victims
walt
watchdog
##e,
commissioner
corp
customer
gunmen
launching
rain
species
withdraw
##\the
##re
bombs
finish
increasing
index
jacques
##ne
(dow
add
arms
backed
blast
expansion
expressed
knee
placed
afternoon
declined
keeping
pt.
scandal
sector
act
flu
heading
larry
ottawa
pervez
retailers
surgery
tennessee
tool
van
##bn
##nt
ask
compete
dame
day,
enron
holy
summit
##ation
cubs
cutting
drove
eighth
extend
hostages
jewish
murder
pacific
preliminary
prevent
pull
remaining
sea
soldier
ability
entire
fast
kill
land
officially
property
radical
sport
technical
##f
60
delay
eagles
firefox
homer
resigned
resume
advantage
china,
fastest
greater
inc.'s
it,
mozilla
patent
retirement
row
threatening
tiny
##\
deliver
draft
election,
faster
hot
micro
pro
response
that's
unbeaten
unions
virgin
virus
ways
#39;ve
announcing
cents
championship.
nigeria
opec
shooting
size="-2"
beyond
captured
deep
hardware
hurricanes
indianapolis
involving
pcs
refused
spam
sri
amd
anaheim
brussels
generation
industry.
kashmir
ron
score
soaring
word
##te
\$1
angels
broken
business,
highs
lose
mars
partnership
post&lt;/b&gt;&lt;/font&gt;
request
strength
again.
cabinet
hands
kabul
partners
steel
activity
appear
documents
economy.
halt
matter
novell
opportunity
shipping
tests
thing
##ia
cincinnati
dow
eased
faced
indiana
musharraf
os
professional
report.
voice
wave
3-0
accept
appeals
bin
carry
chart)
crash
edition
goods
internal
mets
nationwide
oklahoma
ongoing
upgrade
vehicle
bank,
blood
decades
deputy
newly
parent
perhaps
smith
wales
##el
##ness
##ts
agent
candidates
creating
delayed
design
emerged
men's
picked
plc
september,
treatment
atlantic
attacked
conflict
copyright
deadline
directors
failing
levels
premiership
records
seed
super
##est
advance
doesn
dramatic
jail
reporting
service,
throughout
train
washingtonpost.com
images
instant
moves
overall
possibly
quite
violent
caught
cingular
fourth-quarter
frank
injuring
onto
people.
shuttle
visiting
withdrawal
##v
china's
earthquake
goes
hearing
means
passenger
person
picture
scott
view
vijay
\$10
motion
parties
story
surge
verizon
zone
##is
cars
considered
driven
heat
insisted
jet
kofi
mixed
peter
reason
scientific
wild
##ton
assets
construction
flights
gained
officers
pushing
seized
ship
sides
sued
tackle
broadcast
long-term
recording
refugee
telecom
ag
approach
commerce
georgia
gone
links
smaller
##ie
agree
bryant
difficult
him.
model
names
regular
sentenced
solid
team,
tie
2-1
arrest
attention
color="#666666"&gt;&lt;b&gt;-the
dozen
ebay
egypt
housing
isn
opener
pledged
priority
bob
county
drew
kind
labour
polls
##ter
bears
bobby
conditions
decade
electric
fellow
joining
lifted
monetary
newcastle
service.
social
won't
##ies
chances
climbed
convention
days,
exports
la
platform
traded
##\to
29
400
currency
feature
files
jakarta
java
jim
journal
june
pick
provided
receive
swiss
technology,
towards
world,
##ful
airbus
carried
doubled
jury
marsh
najaf
pleaded
size="-2"\
ties
wins
##ge
##ted
august,
bus
century
comments
communist
enter
explorer
internet.
limited
october,
signing
stars
thomas
clash
embattled
environmental
federer
flat
managed
open.
potentially
reaching
secret
seemed
##led
500
age
governments
legislation
offset
province
quarter.
waiting
brazilian
dismissed
gives
immediately
vendor
weekend.
1,000
additional
arm
capital,
crimes
days.
dodgers
doesn't
flash
inc
martha
situation
stem
streets
vioxx
##st
bird
bit
convicted
dominated
fannie
matt
offense
tomorrow
ali
banned
didn't
egyptian
enrichment
lack
region,
scores
idea
iraqis
largely
milan
pitched
restructuring
retailer,
solar
standards
authority
award
driving
ease
everything
expos
improving
massachusetts
poised
president,
sales.
stepped
threats
unlikely
vehicles
beta
city.
expanding
jan.
ken
kobe
manning
martinez
option
prince
2002
berlin
book
effect
either
heard
lawmakers
morning,
networking
shift
size
slipped
smart
stopped
stronger
taliban
typhoon
uefa
votes
##ra
chase
grow
iranian
marathon
read
returning
sunday's
anniversary
braves
cancer
described
products.
samsung
abuse
anyone
auburn
bills
criticism
eye
hitting
introduce
knew
providing
scotland
wait
watched
##."
##ist
address
apparent
closely
highly
las
overnight
rock
targets
account
andre
bell
cards
earned
haiti
hole
investor
program.
rebounds
steps
tell
theft
tigers
##i,
##ity
##se
35
cannot
compared
country,
jack
mining
osama
produced
roddick
son
begins
channel
disease
doubt
hall
messages
overtime
poll
vs.
80
curt
edge
hear
hussein
preseason
rescue
responsible
suit
cities
cold
demanding
expanded
hat
jersey
nigerian
plus:
reduced
speech
state.
targeting
annan
he's
landmark
leadership
lee
partner
paying
prisoners
redskins
resolve
rolled
sets
winds
##ble
activities
arthritis
cbc
companies,
connection
couple
date
deals
equity
gordon
matches
movies
predicted
produce
successfully
sunni
tied
writes
7-6
accusing
agencies
cover
deal.
delivered
emerging
engineers
jr.
manufacturer
najaf,
turkish
two-run
words
##-year
adrian
antonio
capacity
causing
currently
fighters
hewitt
however,
minister,
resources
seem
suffering
##ous
justin
profit,
prove
providers
quit
relations
seoul
serve
southeast
toshiba
user
##ian
2000
6-3,
anything
companies.
developers
diplomats
figure
greatest
illegally
industry,
maria
patients
spread
women's
wrong
##-up
##land
##um
anticipated
assistant
bomber
championships
events
failure
fine
followed
lawyer
lleyton
long-awaited
magazine
options
orleans
perfect
struggled
trouble
usa
##\on
300
bottom
database
especially
explosives
governor
lows
pitch
planet
retired
rushed
suggested
talking
us-led
weeks,
##.n:
##o,
accepted
blockbuster
chechen
heavyweight
history,
passengers
tens
aside
clashes
ensure
gaming
group.
identity
lake
measures
quot;i
second-largest
state,
stephen
terrorists
twins
universal
##\and
##it
##ve
al-sadr
allawi
blew
customers.
freed
institute
lowest
ousted
rich
schilling
warming
weeks.
6-2
aug
bangladesh
everyone
format
helicopter
hired
investigators
me
militia
multiple
nobel
petroleum
postseason
resignation
up.
versions
##et
amount
feel
mostly
mount
news,
presence
recall
unprecedented
vienna
brokerage
core
estimated
fear
forest
included
insurgent
journalists
lay
mine
planes
possibility
vendors
weekend,
ben
camera
combat
coup
gathered
individual
kidnappers
manmohan
messaging
regulatory
representatives
services,
serving
sex
soft
solution
three-game
wi-fi
##ar
##ty
6-4,
attempts
bitter
books
britain's
easier
fierce
four-year
graphics
injury.
lewis
maybe
minute
qualifier
steady
tropical
wenger
wife
##er,
appointed
bankrupt
bbc
blamed
cast
catch
critics
dec
felt
ltd.,
marked
p.m.;
pacers
separatist
sharing
shots
studios
\$2
and,
beckham
benefit
bombings
brand
cassini
child
confident
dangerous
flagship
fought
foundation
founder
franchise
immediate
kenneth
markets.
more.
ravens
roundup
ryan
slam
strategic
watching
works
##y,
billion)
choice
formally
gates
margaret
microsoft's
rockets
truck
worried
barcelona
busy
email
estimates
favorite
morgan
owned
publisher
shock
systems,
victory.
##-related
andrew
arsene
cleared
headquarters
india,
internet,
playstation
promises
saturn
shrine
systems.
there's
two-year
virtual
wasn
anthony
awarded
columbia
costs.
cup.
determine
distribution
fields
jobs,
monthly
nl
one-day
privately
program,
religious
sbc
sparked
sweeping
##a.
##as
#39;ll
6-3
ancient
bigger
civilians
clothing
cooperation
deaths
drivers
increases
lanka
mean
prepare
safe
##&lt;/p&gt;
##w
athletics
broker
coaches
evening
extending
famous
government.
jailed
songs
targeted
title.
website
worker
worlds
zimbabwe
astronauts
chiefs
copies
ice
million)
nortel
patch
sales,
squad
starts
subject
##\in
dick
elected
fish
lineup
manufacturers
raid
space.com
worm
barely
barrel,
homeland
lives
mayor
p.m.
square
transfer
##,"
##ping
2,
aboard
boxing
china.
democrats
existing
fly
flying
frances
marines
opponents
organizations
protocol
qaeda
task
unexpected
##.com
##d,
##t,
assembly
backing
centre
ceremony
disputed
doping
education
effective
focused
forecasts
greenspan
hamm
navy
orlando
pharmaceutical
provides
second-quarter
series,
string
sudan's
sweep
ad
astronomers
el
elections.
engineering
first-half
foods
knocked
leg
love
machine
palm
plan.
proved
reports.
rooney
showdown
suspects
war.
well,
widespread
##\of
argentina
colts
competitive
dan
fed
ferguson
holds
jackson
knows
league.
mp3
players,
plenty
republicans
schedule
security,
sees
silicon
someone
##ized
2003,
\$3
aol
caribbean
disaster
extension
lowered
next-generation
schools
steelers
tries
units
usatoday.com
warnings
wickets
2001
boosting
democracy
discovery
hackers
kim
luxury
packers
phil
phoenix
products,
scientist
status
welcomed
combined
commander
discount
euros
growth.
heads
inquiry
mariners
morning.
networks.
ranking
up,
##men
aims
approve
boy
circuit
disc
era
eyes
falluja
here.
hp
india's
phones.
sluggish
soared
struggle
subscribers
##os
6-2,
athletic
class
coca-cola
comeback
committed
crowded
delhi
deutsche
dominant
economy,
exactly
factory
fair
full-year
gasoline
golden
isn't
laws
lions
mae
manage
mclennan
measure
reform
syria
ziff
##ant
##ey
##on,
cool
defended
governing
homered
interior
kabul,
medals
processors
race.
returns
simply
solutions
supposed
unexpectedly
vast
vietnam
willing
##id
1-1
70
again,
agents
alternative
billion.
broad
can't
coaching
corruption
earn
employee
expectations.
kmart
mosque
philippines
photo
plc,
shareholder
vodafone
11,
adobe
ads
answer
baghdad.
carter
convoy
demanded
explosions
five-year
harry
payment
pictures
relationship
semifinals
share,
shown
stormed
them,
uses
"the
capture
cellular
easily
fees
field.
file-sharing
future.
heavily
industries
jose,
november,
offices
patrick
plays
plot
promote
prompted
prompting
sean
serena
sometimes
surrounding
unemployment
users.
worked
##at
##la
##red
(newratings.com)
all-time
appearance
aviation
capable
cuba
democrat
eliot
holes
ii
infrastructure
low-cost
ncaa
notebook
one.
overseas
positions
promising
quick
quot;a
secretary-general
sexual
stood
walk
whole
wind
##ier
##ir
##ize
##line
##out
##r,
##tion
2006.
31
czech
deadliest
drives
expected,
government,
hotels
leader,
lets
mountain
musab
one-year
pitching
representing
restore
ricky
screen
supplier
two-day
viruses
##ce
back.
billions
bloody
dream
female
friendly
friends
intended
kodak
link
malaysia
marine
prospects
referendum
shipments
shoppers
strained
successor
ukraine
##n,
64
aggressive
aiming
contracts
edwards
effects
fix
hugo
japan,
marking
meant
miller
orange
reading
regarding
results.
seeks
silver
##ine
1,
accounts
ailing
alive
bar
casino
citigroup
citizens
desert
environment
eve
flaw
forcing
formal
kicked
linebacker
moment
northeastern
parents
passing
projects
promise
searching
settled
tentative
##il
65
adam
backup
band
browns
celtic
commitment
connecticut
consortium
diplomatic
fact
floods
follow
freeze
gymnastics
identified
malicious
meetings
membership
meters
motorola
original
remove
responsibility
russia's
studio
suspend
thrown
##na
all-star
battered
cameras
capsule
cases
condition
conservative
equatorial
fenway
hills,
invasion
northeast
revised
rome
santa
slowed
stronghold
that,
toyota
trend
##ary
aim
baseman
civilian
conducted
creation
ernie
europe.
financing
firing
fully
hoped
outfielder
randy
rushing
snow
st
supercomputer
taxes
they're
##.5
##\a
##ating
actually
asking
collapse
detained
high-end
models
mr
pfizer
piece
pipeline
prominent
reporters
river
rocked
slide
swedish
##\said
##ate
15,
compensation
congressional
delivery
home.
maintain
milwaukee
nick
olympics.
pole
pretty
recorded
surprising
survived
xbox
3-1
30,
airlines,
businesses.
chad
challenges
complex
employment
fined
genesis
girl
jordan
laden
landing
larger
life.
modern
ny
sentence
suspension
tested
##ke
##ring
##son
april
coal
competing
competition.
entering
europe,
expert
favor
fox
granted
humanitarian
imposed
influence
july,
netherlands
ocean
optimistic
park.
practices
relatives
revenues
surging
swept
various
##-old
##-point
##ll
##ns
##to
agassi
career-high
concerned
go-ahead
henry
hour
infoworld
invest
jeanne
marion
pistons
plants
record.
regulator
stands
suggesting
three-year
##ma
##ta
ally
carl
club.
daniel
defender
downloads
fan
grabbed
growth,
hailed
harmony
hunt
israel's
movement
native
nets
page
pounded
recovered
roll
rout
sharapova
sound
split
spokeswoman
utility
william
withdrew
##com
##way
afghanistan,
allen
arafat,
audio
brands
completing
determined
estate
families
feared
final.
first-round
id
illinois
jays
muslims
newest
now.
operators
out.
parliamentary
particularly
quoted
scottish
seat
severe
shook
siege
teammates
telling
##-7
2.
arabia
arctic
beach
buffalo
criticized
enforcement
experience
fewer
gaining
gov.
happy
horse
online.
outsourcing
phones,
replaced
rolling
strikes
subsidiary
urging
##ide
48
amsterdam
angry
austria
blackberry
bronze
brother
clemens
court.
curb
delhi,
description:
directly
elections,
europe's
eventually
father
hollinger
impose
initiative
learn
london:
overhaul
phelps
quest
rafael
ring
seeing
slowing
stunning
walked
weaker
yahoo!
yankee
##ning
49
billionaire
center.
competitors
eli
france,
inventories
ip
letter
midfielder
organisation
prospect
quietly
recover
replacing
spitzer
starter
stations
stayed
strengthen
supporting
##-day
##ner
(computerworld)
10,000
allies
america's
bridge
controversy
crm
devastating
els
facility
indians
indies
kyoto
leads
managing
nasdaq
palace
paper
peer-to-peer
quality
rugby
site.
suspect
throwing
trust
turns
u.s...
vaccine
valuable
##r.
##ur
##ure
(cnn/money)
6-1
abducted
bankruptcy.
bruce
chancellor
cos.
crackdown
data.
defend
dropping
fate
gap
government's
imports
intense
iyad
landed
malcolm
schumacher
simple
sky
symantec
three-run
vegas
appealed
chapter
clinched
contract.
editor
fit
funding
handset
indicated
injuries
jonathan
network.
northwest
plunged
rebel-held
sadr
shawn
stalled
table
tap
transport
unable
wildlife
##-like
##-run
##da
45
atop
brain
brawl
briton
bush,
certainly
com.
computers,
cross
exhibition
finishing
flew
henman
ian
january.
juan
limit
marks
maryland
photos
population
reforms
rental
sense
setback
standing
triggered
valley
venezuela
versus
weighed
win.
worry
##ally
##d.
20,
bigley
celebrated
chemical
foot
infringement
ipo
islands
materials
processing
proposals
resort
rounds
rovers
transportation
weekly
weight
##ated
##co
##e.
##ent
1.
2006,
90
affect
art
attacks,
destroyed
endangered
eric
hill
hiring
kerry's
minority
netscape
pentagon
pilot
prior
publicly
reds
replacement
slowdown
spyware
switch
terry
thinking
treat
type
unusual
##00
##000
##age
##er.
33
acknowledged
al-qaeda
ankle
athletes
attack.
availability
conspiracy
erupted
federation
feet
forces.
grid
impressive
laid
licensing
momentum
pain
payments
pentium
present
prosecutor
quot;we
receiving
remember
ripped
roy
security.
so-called
sweden
temporary
titles
urban
vikings
you're
##ging
adopted
al-qaida
blame
chirac
clean
doubts
electoral
explain
india.
opponent
optimism
penalty
producing
profits.
relatively
removed
sentiment
showed.
solaris
suite
territory
titan
war,
wider
write
##-0
##-game
##ck
10th
150
32
bids
blasts
brett
celebrate
challenger
engineer
engines
export
fallen
fallujah,
graeme
halliburton
instruments
mind
minor
offerings
others,
palmone
peacekeepers
piracy
pulling
repair
retire
seasons
shanghai
stretch
suggests
thanksgiving
victories
wage
welcome
##cy
##n:
##ps
##the
alexander
ambassador
awaited
ballots
beaten
cape
church
clearing
congo
costs,
eliminate
eriksson
involvement
left,
license
material
mother
oil-rich
older
peyton
posting
producers
programme
ranks
rapid
rapidly
releasing
robust
sitting
tobacco
tommy
usually
##-style
##ding
2001,
agreeing
busch
ca
california,
cells
countries.
earnings.
easing
enable
entry
exclusive
expected.
guantanamo
inaugural
jobless
loan
marlins
memphis
negotiators
overcame
players.
require
service)
space.
trials
wta
&lt;p&gt;&lt;/p&gt;&lt;p&gt;
\$500
aaron
ac
aerospace
automaker
bond
cavaliers
condemned
dealers
devil
formed
fueled
high-tech
icc
junior
learned
manned
modest
mortar
occupied
orbit
over.
phase
politicians
rebound
resistance
retain
seriously
team's
titans
unveil
updated
updates
victory,
visitors
##izing
12th
asset
australia's
away.
bidding
brief
brothers
charlotte
christian
couldn
dave
derek
executive,
expensive
forget
germany,
him,
jointly
journalist
kurt
nec
overcome
powers
protests
ranked
sept
shoulder
signal
significantly
southeastern
spring
stern
student
tournament.
trail
upon
##ization
##ly,
##nce
3g
chile
cowboys
crack
crown
deploy
devices.
employers
everton
grant
high-profile
investments
israelis
l.
leaves
maccentral
out,
postponed
races
raptors
rupert
speaking
supermarket
sustained
upbeat
us,
viktor
##-3
##ri
(idg
3,000
34
\$5
addition
beleaguered
case.
factories
firm,
improvement
islamabad,
lindsay
locked
longtime
lynch
munich
observers
operations.
patents
places
port
protesters
questioned
ray
siemens
spirit
state's
suspicion
taylor
telescope
third-largest
triumph
va.
waters
##c)
##h,
##ro
amelie
barrels
brad
chosen
clinch
clinton
concluded
contest
copy
crime
crystal
delhi:
electricity
ends
forum
hike
hills
integration
mail
park,
paula
pounds
spammers
succeed
tape
violating
wholesale
##field
##ing,
##nd
##o:
66
affairs
ambitious
antivirus
assassination
battled
buried
carriers
cautious
center,
chavez
clinical
closest
conduct
damaged
danger
down.
ethnic
experimental
garcia
handle
honda
kennedy
lifting
seahawks
slashed
surface
teammate
trafford
victim
village
winter.
witness
##&lt;/p&gt;&lt;p&gt;
##-month
##-out
##ise
##tic
#39;d
amazon.com
apart
bernie
birds
calm
capabilities
charging
children,
client
computers.
danny
feeling
florida.
freshman
happened
home,
islamabad
jeremy
kremlin
laboratory
listed
longest
lying
mauresmo
negative
ntt
pact
quot;,
recalled
revive
rick
ride
senator
september.
spoke
steven
sue
teenager
too.
true
unix
written
york.
##es,
##ley
17,
2,000
\$1.
accident
acquiring
activists
alitalia
analysis
aren
bloomfield
bolster
charlie
counting
destruction
disk
dubbed
economists
established
expectations,
fort
hamilton
investigate
language
lebanon
lived
lucrative
lunar
magic
mich.
monitor
moqtada
newspapers
prescription
quarterfinals
rape
reserves
sap
shaquille
sirius
slid
suddenly
telecoms
text
there.
thin
throw
volume
weakness
##and
##ged
2003.
automotive
basic
campaign.
celtics
cornerback
deployment
f.
fill
healthy
inning,
intends
jaguar
lakers
life,
lycos
muqtada
myanmar
nation.
persuade
philippine
pool
raiders
re-election
required
rodriguez
route
sensitive
storms
sven-goran
vital
wasn't
way.
wimbledon
wired
##&lt;/strong&gt;
1/2
3-2
apple's
ata
attacks.
battling
box
buyout
cairo
cap
capital.
choose
color
eddie
effectively
electrical
filled
gun
itanium
jon
kick
reducing
scene
site,
so,
stepping
surprised
tokyo's
top-ranked
troy
volatile
wearing
##ds
##ised
##up
800
alleging
australia.
ballot
changing
demand.
detonated
divided
dividend
door
emerge
exit
finds
gear
half.
humans
improper
juventus
korea's
lebanese
policies
presented
risks
shortly
talks.
thai
ticket
unique
virtually
wine
winners
work.
##ca
##day
##k,
##ng
10,
aide
applications.
beheaded
cash.
catholic
earthquakes
ferrari
finals
freedom
guerrillas
insurer
kenya
khartoum
monitoring
negotiating
network,
oracle's
outcome
packed
pennsylvania
permanent
pirates
radcliffe
reality
realnetworks
refugees
reputation
reveal
sat
singles
ukraine's
verge
vulnerable
warplanes
wild-card
##ms
4-0
\$100
announces
batting
battles
belgian
cheney
coach,
customers,
dead.
eastman
end.
giant,
integrated
latin
loss,
mysterious
nasa's
originally
orioles
others.
owen
path
player,
player.
preview
province,
reasons
shi'ite
slammed
southwest
struggles
supported
##ard
##t.
#39;m
alert
becomes
blocked
city's
conrad
dealing
diamondbacks
dual-core
earnings,
enterprises
february
florida,
gathering
iowa
loyal
merrill
microsoft,
october.
olympics,
paris,
percentage
plus
recovering
reporter
settlements
settlers
survivors
terrorism,
test.
tickets
touch
tourists
##am
##m,
##ze
adds
america,
chain,
coverage
deal,
disclosed
fashion
featuring
grenade
guide
hopeful
judges
launches
libya
lockout
lure
melbourne
necessary
norwegian
ones
pursue
resumed
second-half
sells
served
shaukat
sporting
suggest
switzerland
trapped
wireless,
wonder
##head
##ism
##m)
##ned
a.
abandoned
all.
also:
announced.
arafat's
attract
beach,
chen
contractor
controls
death.
envoy
gartner
hosts
install
keeps
markets,
networks,
news.
normal
officials.
owns
powered
process.
releases
selected
semi-finals
soon.
strip.
strongest
suing
topped
us.
##-1
##-10
##-6
2012
abbey
ace
arrival
attend
better-than-expected
blu-ray
connections
contact
delegation
ds
elena
espn
exporters
fred
hasn
here,
knicks
laptop
loans
ltd
maoist
miners
mississippi
november.
opens
operator,
press.
purchased
rays
rebounded
seats
share.
slowly
spaceshipone
spectacular
stadium,
striking
stripped
uncertainty
wizards
##ka
##king
##ual
11th
angel
beijing,
chargers
clues
concessions
dark
detailed
disruptions
escaped
first-quarter
guy
houses
hundred
insists
inventory
jay
jerry
kyle
mahmoud
medal.
physical
publishing
ramallah,
rating
shop
skipper
slash
song
specific
street,
supplies.
tottenham
toys
valued
vince
##\for
##do
##ers,
14,
18th
al-jazeera
arena
assists
ayad
blasted
briefly
chipmaker
co
daimlerchrysler
darfur,
dc
defeating
docomo
drawn
force,
glazer
helps
intellectual
islamist
line.
luis
marat
nepal
night's
one,
pricing
sender
show.
spy
swimming
terrorism.
tumbled
tycoon
ukrainian
wisconsin
##-off
##cing
##ger
##ped
##tle
##tor
##ver
27,
9,
adopt
afternoon,
animation
baby
ballmer
bank.
canceled
capped
challenging
cheaper
checks
chrysler
court,
davenport
demonstrated
depot
flag
forbes.com
hassan
kazaa
khan
louisiana
mary
museum
neck
none
penalties
pop
quiet
registered
relay
shared
tel
tensions
tivo
understand
variety
venezuelan
vision
vivendi
whom
##-sized
##time
16,
18,
article
branson
britain,
bt
collapsed
components
crisis.
cup,
cyber
dna
domain
elite
encounter
fled
ghraib
hu
iran's
jamal
madison
murdoch
nc
omar
online,
permission
portfolio
raids
reliever
sep
submarine
thinks
tore
u.s.-led
visited
vulnerability
##my
##no
##one
##ue
##y.
6-1,
600
accusations
action.
advocates
agreements
beslan
broadcasting
broncos
buildings
colombia
connect
cuban
delegates
desperate
evolution
field,
four-game
gateway
handling
hire
indicted
japan.
jobs.
keith
lab
legislative
locker
magazine.
match.
merge
operate
privacy
protecting
roman
slight
staged
subsidies
tender
trading.
tyler
unknown
vulnerabilities
washington.
##ay
##han
##ious
##ries
2004)
24,
anger
atmosphere
attempted
bankruptcy,
celebration
classic.
complaint
completely
console
containing
delays
devastated
distance
equipment,
erp
establish
hunting
identify
imac
importance
job.
johnny
lehman
luke
malaysian
mr.
neither
owens
peak
polish
raw
roughly
scale
sector.
semifinal
serie
short-term
sort
stakes
tells
temporarily
touchdowns,
usual
views
walker
withdrawn
##-hit
##ving
2-2
4,
abandon
afternoon.
al-zarqawi
animals
audience
australia,
away,
balance
bambang
bull
charley
combination
competitor
conglomerate
d.
departure
devices,
document
emissions
farm
foreigners
fossil
freddie
helens
incumbent
kerry,
magnitude
matchup
milestone
mourinho
multimedia
nearby
oakland,
phillies
phishing
plotting
problems.
puts
refusing
season-high
silvio
susilo
telephony
trojan
trucks
twin
veritas
violated
voip
##-4
##-backed
##ed,
##ing.
12,
13,
1999
64-bit
active
approximately
bid.
coach.
compound
controlled
eclipse
gift
j.
langer
later,
open,
opposed
over,
pharmaceuticals
playoffs
politics
prepares
ramirez
revolution
rush
sank
saturday's
start-up
stocks.
tanks
teamed
teenage
terrell
torn
travelers
tribal
tribunal
two-time
unit,
uprising
urgent
waves
weapons.
##de
##ered
##ina
##ish
##ler
##ol
##q
##wood
2000,
aides
arbitration
atp
bay,
blackburn
branch
career.
cargo
comcast
comfortable
count
dealt
disappointed
dubai
engine,
extreme
greenhouse
gross
haven
helicopters
hellip;.
high-definition
interested
knockout
library
mainly
mexican
missiles
moderate
montgomerie
napster
opinion
pages
place.
plans.
poland
pursuit
ralph
repeat
roebuck
safin
semi-final
shipped
sox,
spurred
standoff
stockholm
top-seeded
visa
volkswagen
warn
win,
writer.
##ible
##ists
##j
##que
##s)
1.5
250
67
afghanistan's
astronaut
basque
breaks
bright
buyers
differences
diplomat
e-mail,
enjoyed
favourite
flooding
hubble
infected
internet-based
items
jeffrey
kuwait
last-minute
lebron
line,
lsu
meets
mounting
mourning
narrow
nations,
nato
occurred
outstanding
pioneer
planets
popularity
pressed
pyongyang
raises
rates.
reiterated
remarkable
resorts
richest
rivalry
salvation
space,
suzuki
threaten
tracking
treated
u2
vancouver
warns
weapons,
wrapped
##ded
##ed.
##mer
##p)
##sh
41
biotechnology
blog
breakthrough
calif.,
cartel
cbs
chose
coast,
component
emc
flood
ichiro
ill
intention
junk
long-running
miguel
moments
mystery
off.
p2pnet.net
pensions
power.
priced
rumsfeld
santander
shrugged
stanley
stolen
style
suffer
teams.
there,
threatens
today's
undisclosed
unsolicited
videotape
writer
##per
2002,
26,
36
5,000
america.
animal
banning
birmingham
blade
born
boycott
broader
canada,
connected
declining
down,
earnhardt
farmers
fighter
guerrilla
guinea
halo
incident
introducing
matthew
month's
nature
president.
primary
ruud
saving
shadow
shortstop
six-month
slower
soyuz
stemming
strip,
three-day
toy
walking
wreckage
##ance
##les
55
700
\$55
absence
anti-spam
aziz
bayern
beef
benchmark
birth
captors
clearly
conference.
damages
dawn
downtown
else
engaged
event.
explosive
grace
greg
harvard
liquid
officer,
optical
pending
philips
plea
pope
predict
programs.
proof
record,
rescuers
research.
results,
shape
shows.
signals
statistics
street.
third-generation
treaty
waited
##:nyse
##ky
##net
##ors
##ware
achieve
actions
airline,
applied
attorneys
battery
belgium
chechnya
clients
climb
cnn
commission,
complaints
counterpart
del
delivering
discussions
dominate
earlier,
enables
estimate
except
favre
finland
forces,
friend
garden
genetic
google,
hosted
installed
jacksonville
maurice
moon,
nvidia
office.
offshore
panthers
pieces
prix.
professionals
promoting
radar
regain
resolving
sacked
sears,
secured
sight
slugger
strongly
successive
term.
viacom
what's
williams,
yellow
##-inch
##ad
##ham
##ko
#39;neal
19,
arrive
augusto
bankers
bound
brings
centers
communication
contract,
corey
countries,
dairy
dale
disarm
distributed
distributor
eisner
encourage
encouraged
exploration
f1
falls
finale
handsets
hughes
identification
independence
individuals
influential
investors.
is,
kiev
liberty
limits
manny
news:-
on.
outgoing
patrol
penn
pirated
producer,
ratings
regime
regions
roster
secretly
sit
society
spurs
statement.
stunned
tons
trump
tsunami
tyrone
way,
well.
##-born
##\that
##an,
##b)
##bly
##by
##ers.
##ice
##n)
##ow
28,
38
academy
advice
affected
aren't
attacking
attendants
basis
bernard
businessman
button
dialogue
doubles
drawing
films
fines
flow
funeral
generic
grip
hamstring
hanging
incoming
insurers
interactive
interesting
kidnapping
lcd
midway
mosul
nuggets
perform
pointed
pollution
profitable
ranging
reader
reflecting
reliance
robinson
shutout
specialist
statements
survey.
swing
techweb
title,
todd
treo
unanimously
union,
venus
violations
workers,
##-hour
##.8
##ba
##ell
##li
29,
6,
academic
administrator
applications,
arguments
attacker
automatic
bangkok
bombed
booming
buoyed
bush.
catcher
collect
dead,
detainees
frankfurt
frozen
gay
gmail
haitian
hampshire
hardly
houston,
idc
ivan.
january,
kuala
leader.
lone
manager,
manuel
map
minneapolis
nicolas
nobody
one-time
orbiting
ortiz
ownership
peru
problem.
queen
rams
recommended
researcher
retreat
right,
sa
sam
samples
sao
souness
strengthening
studies
supports
timberwolves
tonight.
users,
workers.
worse
##30
##a)
##ence
##ld
##n.
##well
21,
7,
aging
all-around
alongside
anaheim,
anderson
attempting
bcs
berth
california.
contain
crossing
d.c.
drink
filmmaker
floor
globe
half,
happen
highway
husband
jean-bertrand
junichiro
lenovo
medicine
metres
nor
norway
office,
organizers
pcs.
philip
portland
programming
qantas
restaurant
resulted
rfid
robot
season-ending
slobodan
snap
steep
swap
theory
times.
tougher
upper
yankees.
##):
##ions
##l,
##ny
##sing
0.1
10-year
23,
agency.
arriving
august.
bases
conceded
couldn't
counter
cycling
decade,
decades,
deeper
doctor
dominance
earth.
estimates,
fbi
guards
harrington
house,
inspired
israel.
lackluster
landslides
list.
maintained
memorial
mitsubishi
negotiate
netflix
news:
partial
party.
peoplesoft's
plan,
please
pound
poverty
report,
rice
rio
roma
signaled
slip
solve
stores,
svetlana
taipei
tonight,
trees
veterans
war-torn
##-man
##-million
##ak
##der
##go
##hip
##ton,
&lt;p&gt;\&lt;/p&gt;&lt;p&gt;
22,
abdullah
acting
agriculture
all,
alone
angeles,
athens.
buenos
bureau
carrier,
charges.
chilean
chips,
coffee
collection
craft
decisive
disrupted
downloading
first,
football.
formerly
found.
genocide
grab
hedge
holmes
investing
laboratories
likes
long-distance
mutu
obtained
operations,
picking
platform.
policemen
quot;it
rains
reject
represents
revenue.
rod
round.
rover
rwandan
sacramento
salary
shed
shell
shortage
sidelined
sites.
spreading
sudden
surprisingly
syrian
testimony
theo
uncovered
upgrading
violence.
wars
xm
##-ranked
##ched
##ff
##ha
25,
37
75
argentine
array
arts
attackers
back-to-back
bear
bounced
capping
case,
colleagues
comprehensive
costly
countrys
crushed
deciding
die
dramatically
dust
elsewhere
embargo
exercise
facilities
fatal
first-ever
fixed
focusing
gather
guidant
gunfire
hague
here's
integrate
issues.
jintao
lord
militiamen
moscow,
notice
overturn
padres
playoffs.
praised
raymond
release.
remainder
remarks
revenge
riding
rutherford,
salt
scheme
sears
shares.
stores.
straw
testified
undergoing
unit.
unrest
us-based
wrote
xinhua
yudhoyono
##-17
##-foot
##back
##bs
##i.
##ls
##tive
62
abusing
adviser
ahmed
amateur
anwar
artest
australians
auto:
bench
brewers
computer,
constitution
convince
dennis
deployed
disappointment
dollars,
emotional
en
escape
expecting
extremely
flaws
friday's
frustrated
google's
h.
household
instead,
insurgency
inter
interests
jamaica
mad
metal
music,
nation,
nations.
new,
performance.
pledge
professor
questionable
race,
raided
rates,
right-hander
rivals.
rockies
say,
standings
station,
teaming
throws
times,
union.
unveiling
waste
weakened
widened
yesterday's
##-in
##ical
##in,
##me
##pe
##rt
##ves
49ers
7,000
advisory
africa's
ambitions
asia,
awaiting
ballistic
bangalore,
barrel.
bigley,
bloc
blue-chip
bolton
built-in
cash,
caution
champion,
clubs
command
confirm
continental
dedicated
delaware
drugs.
dutch/shell
falcons
false
g5
halfway
handing
hero
ibrahim
icon
koizumi
learning
mavericks
money.
oldest
ontario
overshadowed
provider,
reaction
renault
rose,
savings
sealed
serb
siliconvalley.com
stable
stuck
submitted
suisse
td
thierry
tracks
trademark
trial.
unchanged
unwanted
upheld
usc
visits
work,
##-level
##.3
##her
##l.
##ov
##ron
##zed
#146;s
1.0
13th
30-year
5-2
abbas
abc
albert
awards
blocks
boom
brokers
championship,
cheap
clashed
cloud
coastal
collective
controlling
donovan
ed
end,
enhanced
ever,
fedex
fool
geneva
goldman
guns
imam
injury,
kelly
kids
lead.
lpga
madrid,
mercury
midnight
occupation
oscar
outlook.
ovitz
paypal
quarters
recalling
reduction
regulations
residential
revealing
scandal.
spain.
spotlight
strain
ted
valencia
windows,
yen.
##-2
##-5
##ied
##m.
##ris
##ters
##ved
100th
42
68
8,
activist
agency,
ansari
asbestos
author
back-to-school
bengals
breeders
browser,
campaigning
celebrating
change.
circulation
column
companys
compromise
consumers.
conventional
covering
cracked
culture
darren
doubleheader
experienced
feels
followers
halted
heated
homes,
ibm,
imminent
linux,
llc
marcus
marwan
nfc
nj
northwestern
outlined
plagued
projected
qualify
racist
rail
regular-season
restructure
rises
sachin
safely
seemingly
sexually
shattered
sudan,
summer,
swift
symbian
talent
tendulkar
thatcher
thousand
undergo
underwent
unidentified
web-based
wnba
##ball
##ction
##ics
##ite
(nl):
2001.
78
aired
alaska
attack,
austrian
bali
batteries
bowl.
challenged
colombian
constitutional
courts
custody
division.
drama
external
fake
fame
freestyle
gambling
gamers
groups,
handful
hd
homers
hosting
in.
introduction
investors,
jennifer
kazakhstan
laws.
letting
liberation
lock
mass.
massacre
master
nationals
neighboring
nepalese
nistelrooy
on\wednesday
peacekeeping
peoplesoft,
play,
pose
praise
preparation
priest
properties
prosecution
quarterbacks
reign
representative
resign
rivers
said...
sec
singer
sp2
store,
stroke
substantial
talked
tamil
textile
victor
zurich
##-american
##berg
##l)
##mb
##ments
##o.
##ress
##sa
##t)
54
activated
adapters
adults
agenda
asia-pacific
avert
back,
board.
burning
campaign,
campbell
campus
clock
convincing
correct
debt.
doors
employees,
escalating
expenses
experiment
exporter
germany.
grizzlies
improvements
industry's
inq7
islamabad:
killer
kingdom
lane
libraries
m.
may,
mistakes
norodom
obtaining
offer.
portsmouth
preparations
price.
product.
purdue
quarter-finals
raced
register
rejecting
responded
rural
saved
selection
shoot
slumped
soldiers,
spotted
stages
stick
stuff
tire
tired
tokyo,
tourist
villa
writing
##-pound
##25
##ening
##ering
##g)
##gs
##house
##ming
#148;
3,
44
5-1
\$4
acquisitions
agrees
alabama
andreas
annika
apartment
arguing
asks
authentication
aware
bargaining
beer
berlusconi
bode
borrowing
camp,
cancel
career,
cellphone
change,
cnet
commission.
commit
coordinator
cow
decades.
dipped
distribute
dollar,
dr.
emirates
explore
fifa
forthcoming
girls
guidance
guys
hassan,
heels
herself
hours.
ibm's
incentives
incidents
infineon
initially
investigations
issuing
jimmy
knocking
leftist
legend
legendary
liberal
lingering
listen
man,
manhattan
milosevic
monitors
note
officials,
oil-for-food
party,
pat
pitcairn
plead
policy.
poured
pressing
profits,
pullout
restive
reveals
shaky
slipping
sorenstam
spate
state-run
strengthened
subscription
syracuse
tailback
technique
texas,
transaction
triple
uk,
ultimately
undermine
voter
water,
whales
wilson
wire
workforce
wouldn
yet.
##-9
##-led
##-minute
##-time
##0,
##10
##bn)
##d)
##ial
##man,
##op
(bloomberg)
2000.
4-2
5,
7-5
\$24
\$41
\$7.7
advances
bayer
beheading
bhp
blaming
boys
bruised
c.
calendar
camps
carbon
commanders
contributed
corner
cuts.
damaging
data,
defense.
direction
dollar.
dunhill
fact,
falluja,
fans,
gm
institutions
javier
jumping
klitschko
likud
long,
louisville
lyon
matched
mcdonald
mci
meaning
mickelson
mild
missouri
mvp
numerous
on\thursday
oregon
pennington
personnel
pinochet
play.
points.
postal
prize.
proceedings
qualcomm
reacted
rein
release,
repeated
runs,
santiago
school.
scrap
sergio
shane
shi
sliding
southampton
sox.
spaniard
staying
stealing
steroid
sworn
technologies,
trading,
treasuries
undefeated
yugoslav
##-member
##ee
##ga
##ification
##ities
##ney
100,000
35th
56
6-0
approached
arafat.
area.
arnold
assessment
assigned
audit
barred
best-selling
betting
bluetooth
chair
chaos
club,
collected
conflict.
corporation,
counted
cruised
currencies
damascus
demand,
disrupt
duty
e-mails
ecclestone
estimates.
exporting
fast-growing
fleet
follows
forecasts,
gains.
gerhard
harder
holder
hornets
hours,
implement
indicating
invited
journey
jp
kings
lashed
leaders,
men,
mph
nervous
outbreak
panama
plastic
rivals,
rules.
searched
section
sights
sophisticated
spike
sprinters
street's
suggests.
three-month
touched
tradition
trainer
vote.
yao
##ia,
##ified
##ile
##maker
##u,
...\\
160
2002.
39
anywhere
appliance
assist
attended
beijing.
beneath
beslan,
bet
bilateral
bounce
brady
buccaneers
bulls
canada's
casey
casting
competition,
darfur.
daughter
definitive
dictator
disclose
displays
dr
dragged
dreamworks
dumped
embarrassing
embrace
empire
equivalent
factor
fail
fans.
filling
francisco,
frequency
gen.
harris
house.
im
insisting
international,
jeeves
josh
law.
losses.
lots
mainland
marched
meanwhile,
middlesbrough
midst
municipal
on\tuesday
ordering
outskirts
par
participate
patches
peaceful
period.
pete
phone.
portal
premium
processes
provincial
publishers
questioning
record-breaking
represent
requiring
respect
rival,
romanian
run-up
russia,
rwanda
sachs
scandal,
second-biggest
settling
shake
sheffield
smallest
smashed
smoke
southwestern
spark
sparking
spending.
stopping
surrounded
switches
televisions
thwart
traveling
twist
valentino
vitali
wells
winless
wish
yankees,
##-8
##.4
##.6
##bury
##down
##ja
##ks
##load
##ut
4-1
achieved
anticipation
arrests
assured
banker
bat
before.
benitez
blocking
brent
cambodia
catching
cd
championships.
charlotte,
conference,
conway
detected
detention
difference
drinks
earlier.
equipped
fraud.
genetically
goalkeeper
golfer
halftime
high,
i'm
intent
ireland.
iron
jakarta,
lance
laser
league,
mariano
mcnair
narrowly
oil.
panels
partly
performed
persistent
politician
power,
project,
qwest
rankings
reversing
risen
room.
run,
run.
seasons.
sheikh
simultaneously
snapped
soviet
spain,
speak
spin
stiff
stock.
stole
turmoil
turnaround
uncertain
villagers
warriors
washington:
yet,
yushchenko
##-13
##-21
##-controlled
##-long
##.7
##cs
##dy
##ify
##im
##ire
##res
(new
21st
4-3
accord
anti-virus
architect
backs
bernhard
blockade
boston,
browser.
bryan
bullpen
burst
burt
carries
cease-fire
closure
collaboration
comply
consulting
conviction
convinced
copyrighted
disabled
duties
e-commerce
eager
engineered
england,
extraordinary
featured
feed
felix
fledgling
founders
fulham
generated
gibbs
glass
gotten
gray
greeted
ground.
hal
higher.
hometown
hurdle
ill.
impossible
innovative
inspector
joseph
krispy
licenses
listing
longhorn
mcafee
microsoft.
militias
muscle
painkiller
performances
platforms
pocket
polling
porto
posts
prison,
process,
product,
rally.
restrictions
roads
robotic
row,
rss
scaled
scan
scare
securing
shares,
shocked
shootout
sick
simon
steal
strange
telstra
term,
three-week
two-thirds
underlying
useful
weapon
willingham
year-end
"a
##-14
##bed
##ct
##gb
##io
##lan
##ons
##tors
##z,
(m)
20,000
31,
84
\$200
\$53
abuja
abuses
accepting
admitting
air.
amazon
answers
apply
aristide
asylum
automakers
barrage
bundesliga
caracas,
charges,
chicken
children.
coast.
computer.
coveted
crowds
directories
downloaded
dual
excess
excited
executive.
file-swapping
findings
firewall
forms
france.
gene
generally
giambi
halifax
heisman
high.
highlight
hunger
jpeg
kenyan
latham
leisure
linking
lumber
meyer
mistake
modestly
more,
move,
overwhelming
paramilitary
policy,
position.
reflect
requested
respond
s.
saints
same-store
seal
six-party
sport.
stability
stanford
starbucks
steroids
stocks,
symbol
tying
unleashed
unmanned
viewing
wade
walter
##--and
##-free
##0,000
##05
##5,
##\with
##f)
##ked
##off
##p,
##rie
##room
##ute
##ville
#39;ite
(pti):
2008
4,000
\$300
acrobat
africa,
arrives
aung
austin
aviv
bag
barrichello
belarus
bid-rigging
birdie
branded
cancelled
cited
cocaine
commanding
cybersecurity
decisions
dig
discussed
division,
dressed
east.
error
errors
europeans
expense
experiments
extremists
fall.
fernando
firm.
format.
fraud,
fund,
gearing
germany's
grown
hidden
hybrid
imagine
in\the
indefinitely
indexes
initiatives
intensified
israel,
ivan,
jenson
korea,
kreme
lending
losses,
maine
management,
marriage
militants.
minutes,
modified
oust
preventing
production.
project.
readers
resource
reverse
roadside
rocky
rubens
santana
schwab
sideline
sinai
spain's
sr.;
structure
sutton
tomorrow.
tossed
tour.
town,
turf
windows.
wing
wondering
##\its
##\u.s.
##ants
##ching
##em
##ick
##le,
##ra,
##sed
##ya
1,500
4-6,
51
7-5,
86
\$400
advisers
africa.
aftermath
appointment
argument
badly
bee
billy
bolstered
bone
brink
brown,
burned
campaigns
cars,
category
challenge.
charge.
cheese
chemicals
clara,
clinching
colo.
conducting
contested
course,
covered
creative
crisis,
decade.
december,
deficit.
designer
desire
dot-com
ever.
extradition
forecast,
fortified
glenn
hasn't
hearts
hitachi
honor
hottest
informed
inventories.
jazz
labels
leaders.
mall
marshall
minds
missing.
mix
mohammad
monopoly
moss
nelson
offering,
one-stroke
opteron
oversight
own.
people's
pierce
pornography
pride
printer
problems,
production,
productivity
promotion
rebuild
reminder
removing
romania
ross
select
servers.
shy
signaling
so.
spending,
strokes
submit
summer.
survival
truce
unlike
urge
vonage
vote,
warned.
wealth
wright
yes,
##&gt;
##-making
##-under
##om
##ot
##ten
##van
1.3
10.
47
activities.
ag,
aggressively
airport.
anil
anti-terrorism
apparel
architecture
argued
asia.
association,
bellwether
calgary
carmaker
class-action
climbing
comment
cost-cutting
crushing
death,
demonstrators
detect
disciplinary
discussion
diving
do.
drive.
durable
eating
entirely
ericsson
family,
fcc
firmly
ganguly
gaza.
generate
gerrard
hat-trick
hospitals
in,
innovation
institutional
is.
island,
issues,
job,
kicks
liable
linux.
loss.
mainstream
maker's
manila
md.
megawati
mosul,
nbc
opportunities
palmsource
posed
principle
pro-democracy
programs,
proprietary
protected
protection.
prototype
referee
regulation
responding
restaurants
reviews
robots
rogers
royals
server,
servers,
shops
siebel
slew
slum
sounded
spare
steam
stories
strike.
study.
suse
taiwanese
tehran,
thaksin
that.
this,
thomson
trade.
trillion
ugly
ultimate
underground
withdrawing
worldwide,
wouldn't
zook
##&lt;br&gt;&lt;font
##-end
##-mile
##\it
##es.
##ese
##ins
##key
##pping
##table
##ti
##tte
##ul
##zing
(xinhuanet)
2007.
20th
46
52
63
abruptly
ankara
assistance
avoided
bea
casualties
ceasefire
columnist
combine
conclusion
contentious
corporations
council,
creditors
currency.
declaration
delaying
demonstration
distributing
dreams
economies
electronics,
eserver
evacuate
fa
fidel
five-month
fixing
florida's
folks
foxborough
free-agent
frustration
giant's
groups.
harm
healthcare
hungarian
information.
interface
jaguars
joins
jordanian
june.
kenteris
knowledge
married
michelle
militants,
mills
mounted
movies,
name.
naval
ordinary
pakistan,
pleading
pointing
portion
prestigious
princess
prisoner
processors.
rbi
reggie
research,
robin
rough
said\on
samarra
sco
screensaver
shui-bian
skills
smooth
soon,
sounds
speeds
speedway.
spots
spur
spurrier
studying
suu
tank
thoughts
tip
tomorrow,
tracy
tree
tribute
understanding
unfair
upgraded
volleyball
walls
weighing
wrigley
writers
##-owned
##500
##:nasdaq
##ab
##di
##en,
##iest
##ory
##over
##rate
##ss
(al):
3-6,
43
\$25
\$250
adoption
ahead.
area,
armstrong
automatically
bearing
benefited
board,
bombardier
braced
brazil's
brussels,
businesses,
checkpoint
clients.
clippers
co.'s
commodity
communities
congolese
conocophillips
damon
decision.
died.
displaced
duke
earliest
efforts.
executives,
exploit
fielder
future,
gunners
holders
jerome
joey
johan
joy
knock
kuznetsova
landslide
levels,
ligament
luxembourg
march,
mastercard
medallist
mexico,
mortgages
nights
nv
opera
origin
posing
presidency
proving
purchases
reeling
rejection
resident
resolved
revolutionary
rossi
row.
sample
says,
sebastien
sister
slump
spam,
sprinter
stamp
stored
stretched
success.
swung
thrilling
towns
volcano
warm
west.
worms
york:
##".
##7.
##burg
##c.
##lin
##ore
##tt
##use
15,000
2.5
69
aids
alcoa
avoiding
balco
bangalore
behavior
blazers
bold
bombers
bosnian
boston's
captive
council.
courtroom
crop
cruise
eliminated
eliminating
ellison
enters
example
exciting
expo
fingerprint
footage
fun
furious
gonaives,
governance
hammered
hand,
hang
hawks
hospitality
hovered
inched
interfax
interstate
italy's
june,
kathmandu
katie
lawrence
layer
lengthy
list,
machines,
maker.
manager.
mandate
margin
mario
mastermind
medics
midsize
moore
multibillion-dollar
music.
negotiator
off,
on,
orlando,
oxygen
padraig
plug
port-au-prince,
preserve
puerto
recently,
recognition
relentless
reports,
restate
rob
russia.
seconds.
seize
seizing
spencer
sponsored
store.
stressed
suns
tear
tears
temperatures
tightened
toronto,
toxic
triggering
two-week
types
wear
wrong.
yards,
##50
##au
##au)
##den
##ess
##ising
##nts
##pa
##ration
##s"
##un
17th
5-0
700th
\$35
acc
accelerate
act,
afc
affecting
aged
amazing
appearing
arena.
arroyo
battleground
berti
birdies
blown
bmw
cambridge
charlton
commentary
compact
concert
confusion
crater
december.
declaring
denying
derail
derby
development,
diesel
dominating
drugs,
elderly
eligible
enhancements
enjoy
eurozone
fallujah.
firms,
forecast.
foster
franklin
giant.
grey
grocery
headlines
high-level
homes.
hunters
investigated
jimenez
judgment
july.
kraft
lights
lined
lockheed
madrid.
marc
mercantile
minister.
mojave,
murdered
nairobi
nice
notorious
opposing
outright
pakistan's
past.
pcs,
precious
predicting
president's
print
profile
punch
requires
roared
sale.
sandwich
school,
sergei
session.
ships
slain
small,
sourav
soybean
speedway
sprained
staging
start.
state-owned
stated
substance
sugar
surgery,
suspicious
sven
talks,
tenn.
titan,
transition
tribune
typical
use.
wis.
zone,
##-wicket
##.2
##.com,
##4.
##60
##75
##ably
##be
##end
##fully
##gy
##pc
(sw)
120
130
30,000
6,000
\$20
administration's
aluminum
anti-doping
arabic
barclays
base,
beats
birthday
branches
brandon
bypass
cds
channels
charity
chicago,
cia
clarke
click
complained
concrete
coughlin
discussing
disease,
disease.
divisions
dog
doughnuts
drug,
e-mail.
eagle
east,
embryonic
enemy
evening,
event,
exposed
fares
features.
fishing
fortune
founded
gaza,
guarantee
half-life
havana
healthdaynews
hefty
hiding
hip
ind.
inmates
ipod.
island.
jurors
killed.
libyan
location
male
marred
meteor
miner
motley
msft)
offseason
orthodox
particular
paving
practices.
priority.
programme.
propelled
protesting
rallying
rank
recruits
refusal
reorganization
repeatedly
revenue,
revered
reversed
reward
right.
rights.
schwarzenegger
sequel
sharon's
skies
sophomore
specification
station.
succeeded
surfers
tapped
thabo
topping
township,
trafford.
trio
trophy.
tvs
ual
viewers
violation
weaker-than-expected
you've
younger
##-24
##-billion
##.o:
##2,
##aries
##ened
##fied
##ford
##km
##lt
##most
##mp
##point
##tling
##uring
#39;.
/&gt;
0-0
1996
5-4
76ers
\$30
abroad
acquitted
amounts
anastasia
ann
argue
assets.
atrocities
automated
award.
baghdad's
baghdad:
banks,
beltran
boston.
bud
cement
champ
cheered
chief,
clubhouse
collins
collision
compatible
confirmation
conn.
conservation
contention
contribute
cooling
copper
corp,
counterparts
crawford
crunch
dean
declines
desperately
destroy
detroit.
disputes
dogs
drinking
earth,
edging
eleven
encouraging
endorsed
equal
exceed
faith
favour
festival
fights
force.
fortunes
framework
gators
glimpse
ideas
immigration
implementation
intel,
intervention
investor's
ira
kidney
knee.
looming
lucent
lunch
method
miami,
ming
misleading
nearing
neighborhood
obtain
odds
organized
palmer
peterson
poorest
pounding
profit.
promoted
provisional
pursuing
railway
rebels.
rebounds,
relative
rely
restoring
revamped
rivera
routine
screens
scrutiny
seoul,
spectrum
start,
stats,
suggestions
surveillance
sydney:
tea
teachers
test,
they've
timing
traces
truly
tunnel
underway
violence,
viruses,
visual
voluntary
watchers
willie
york's
##--
##-down
##-on
##-only
##-sponsored
##-than-expected
##.1
##9.
##b,
##bility
##ily
##ni
##our
##play
##sion
##ster
##tes
##ugh
##va
##vy
##wing
administrators
afghanistan.
aftershocks
agreement,
announcements
anti-spyware
apologized
appetite
assassinated
be.
billiton
border="0"/&gt;&lt;a
bradley
broaden
cal
camp.
cayman
choosing
cloning
coles
commissions
compiled
confrontation
costa
counterfeit
creates
cultural
dangers
defense,
dementieva
destroying
device,
directed
dodge
double-digit
doug
draws
enrichment,
entrepreneur
examine
execution
finalized
four-day
frontier
g4
gang
gerry
gesture
gillette
grounds
health,
height="1"
hendrick
hinted
hispano
honeywell
hurdles
impending
innings,
innocent
invitational
issue.
italy,
kashmir,
kentucky
liga
lou
masters.
matter.
mbeki
mere
mikhail
missions
mood
mound
moya
narrowed
news.com
painful
pakistan.
palestinians.
patient
philippines.
picks
plans,
pledges
politically
prevented
primarily
printers
purportedly
putt
ratified
recognize
reigning
relieved
rep.
routed
sciences
second-round
sinn
skip
stance
survive
sweet
tense
theme
then,
thought,
thursday's
trains
troops.
university,
vogts
volvo
wangari
werder
width="1"
year-earlier
##-winning
##2.
##ges
##he
##ians
##ique
##med
##mi
##nes
##p.
##pers
##star
##town
##ular
##work
2004-05
2007,
\$15
adams
airports
americans,
amit
amp;m
analysts'
aston
astrazeneca
attending
bail
bargain
beirut
bulk
but,
buys
buzz
cendant
ceo,
cigarette
concept
consolidation
crossed
cuts,
cy
debt,
declare
defiant
definition
dent
efficient
embedded
england.
fixes
fl
france's
fueling
fujitsu
funded
gadgets
gazprom
giants.
go.
graham
group's
happens
haven't
high-performance
hub
inches
interception
isolated
kent
maintenance
matching
measuring
medicare
meeting.
messenger
metro-goldwyn-mayer
millennium
motorsports
myskina
n.c.
nazi
nightmare
o'neal
parmalat
payroll
payrolls
pitches
poll.
possible.
processor,
pump
qcat=news"&gt;msft.o&lt;/a&gt;
registration
reluctant
resulting
retains
revealed.
revived
scrambled
seeds
seller
senators
shaun
shield
singh,
skype
smoking
sosa
speaker
specifically
spell
stock,
stops
suburban
superb
support.
swapping
sydney,
tighten
touted
town.
trained
turner
union's
united.
variant
verdict
vioxx,
volunteers
westwood
whatever
willis
woes
wound
year-ago
yields
##&lt;/a&gt;
##-16
##-era
##-nation
##-record
##-shot
##20
##\as
##bo
##ern
##h.
##hing
##ison
##ity.
##more
##o)
##ta,
&lt;br&gt;&lt;font
(eu)
19th
\$160
\$2.
action,
addresses
advancing
ala.
alberta
alexandria,
americans.
arlington,
artificial
athlon
batch
bay.
bc
bloomberg
booked
bowl,
brilliant
britains
browsers
buyer
cat
chasing
cink
columbus
columbus,
come.
consulate
contained
control.
correspondent
counts
damage.
department.
disgraced
dismal
diversified
dollars.
downgraded
downward
dwight
edward
elect
employees.
empty
evacuated
exceeded
fails
family.
fend
finnish
fischer
flurry
forge
francis
gatlin
geoff
gop
grim
guarded
hacker
harrison
harsh
hearings
hernandez
highs.
homer,
hopkins
hungary
inc,
invitation
jake
jazeera
judicial
keynote
keys
kicker
laura
law,
leaked
legacy
lilly
loaded
locations
man.
margins
maximum
medalist
mice
midday
migration
mohamed
motorcycle
n.y.
nominee
official.
old,
opener.
oslo
otherwise
p2p
pa
packing
palestinians,
passes,
pioneering
plunge
portuguese
processor.
protection,
province.
ratings)
rattled
recommendations
robbie
rumors
santiago,
sharman
simplify
slalom
sources.
speaks
spinning
spring,
streak.
surfaced
switching
tactics
technological
televised
temple
threat.
torre
tragedy
tripled
trojans
ucla
unity
unveils
villages
wallace
wanting
website.
wrist
yukos,
zdnet
##&lt;font
##0.
##1.
##800
##\after
##\percent
##ang
##ft
##g,
##ion.
##ix
##k.
##ker
##lines
##lo
##port
##ried
##uk
(news
200-meter
2008,
99
\$49
\$54
abidjan
administration.
amnesty
approaching
artillery
association.
ayatollah
bakar
barrier
baseball's
bill.
blind
blowing
body,
breakaway
breathing
britain.
broadcaster
brutal
burn
california's
causes
chat
checking
citizen
clijsters
collapse.
confirming
confirms
critically
danish
development.
dip
discover
dominican
drought
employed
epic
equipment.
euro,
executed
far,
foray
forecasts.
fraudulent
fumble
georgian
guaranteed
guillermo
heightened
hung
hydrogen
import
indy
injuries.
inspectors
johannesburg
johansson
jones,
khartoum,
label
league's
lies
likelihood
linda
lines.
lobby
located
lowering
mainframe
may.
measured
meat
mel
middleweight
mobile-phone
najaf.
nike
offense.
on\friday
oval
parcells
participants
petition
pitchers
planet.
psv
qualified
quincy
quot;this
rampant
recommend
regulators.
rescued
retreated
riot
rotation
rubber
salvador
salvage
sanjay
satellites
scenes
schroeder
sector,
severely
shark
shinawatra
silence
silverstone
singled
somewhat
sore
tearing
technologies.
terror.
texans
torrential
trigger
truth
ufj
unlimited
upward
warming,
warren
wife,
york-based
##,000.
##-ever
##-line
##.9
##\more
##ach
##ations
##c,
##ett
##g.
##hood
##i)
##iled
##ly.
##rd
##rk
##sm
14th
18-month
61
650
\$48
abuja,
addressing
admits
ahmad
anonymous
antarctic
assess
atlanta,
avenue
b.
barbados
behalf
belief
benson
bones
brazil,
breach
canaveral,
capturing
castro
christopher
combines
communications,
contenders
creator
cska
cuba,
curse
dating
debate,
deficit,
definitely
directory
disaster.
disruption
dissident
drug.
drugmaker
dug
dvds
dynamic
eagerly
enhance
enjoying
enough.
environmentalists
essential
expands
exports.
expressing
failures
famed
fatah
favored
fragile
functions
funds,
giants,
glory
griffin
guillen
himalayan
hotly
il
inc.\
indication
inflated
infrastructure.
jammu
kashmir.
kickoff
kostas
kurdish
lines,
lower-than-expected
makers,
merely
mighty
mile
mini
mission.
mls
moon.
nasty
no,
nokia,
noted
notes
observatory
offense,
oil,
olusegun
operates
packages
paradorn
passage
pc.
possession
practice.
price,
primera
prize,
proceed
profit-taking
qualifiers
rate,
reaches
reaffirmed
recovery.
resuming
rim
rise.
samarra,
secretary,
sessions
shipment
sites)
sites,
skin
soil
solo
spam.
supersonics
tall
telekom
television.
thatcher,
threats,
throne
tournament,
trade,
unauthorized
universe
upgrades
vaughan
ward
warlord
##-19
##-enabled
##-meter
##-one
##-oriented
##-page
##\by
##da,
##field,
##gan
##mo
##pped
##py
##rin
##rn
##s:
##set
##ux
##ville,
##weight
##with
(nnn):
1.7
15th
17-year-old
1990s.
2008.
5-3
71
89
\$12
\$40
abused
accelerated
admit
affiliate
agreement.
all-out
ambush
animated
ankle.
attached
await
berkeley,
biotech
blunkett
boat
books,
breast
bug
canada.
carling
chip,
chips.
classified
cleaning
code.
compliance
concerning
conflicts
contains
contender
crashing
da
deeply
degree
delphi
devils
dhaka
entrance
evening.
extinction
factors
fall,
formats
francisco.
gamble
gartner.
gauge
good.
greece,
haul
henrik
hostages,
hurting
idaho
imaging
india:
indicate
indoor
injured.
inner
interviews
jolted
justine
killings
lenders
levels.
lists
lowe
matches.
mcnabb
microprocessor
mines
mo.
morris
mountains
mumbai:
mylan
nevada
normally
pa.
plate
policeman
presidents
public.
quarterfinal
quebec
quotas
rally,
recorders
regained
retained
sabotage
sanctions.
scam
second.
segment
shifting
shrinking
six-year
slashing
spot.
sql
startup
steering
surpassed
surrender
television,
tension
terrorists,
thailand,
theater
thick
tipped
turnovers
undisputed
vatican
vera
viewed
violate
visible
wally
web.
weigh
women,
##-1)
##-percent
##-under-par
##11
##15
##3.
##\against
##\from
##ade
##ans
##ber
##has
##ino
##is,
##making
##ral
##sky
##some
##ties
##ward
(3g)
225
6-0,
85
accuses
affordable
alonzo
annually
appealing
auditors
automobile
baseball,
bernabeu
bolstering
bowler
bucks
buddhist
burma
cairo,
carly
ceiling
celebrity
character
chess
christmas.
committee,
contingent
coulthard
course.
debates
deficits
diet
diverted
downing
drops
earth's
elements
enabling
engine.
england's
eta
evacuation
exploring
fiat
fiery
firm's
flown
football,
frequent
grave
haas
hand-held
health.
henin-hardenne
highbury
highlights
houston.
huskies
identifying
immediately.
immigrants
imprisoned
installing
involves
ipod,
jean
jermaine
jeter
jumper
kid
killed,
labs
lethal
linux-based
manufactured
mardy
media,
metropolitan
mexico.
microsofts
mourners
mps
nottingham
oao
object
odd
of\the
organization.
outfit
papers
parade
petrol
philadelphia,
pile
piracy.
planetary
powerbook
prayers
prison.
procedure
proposing
rarely
redmond
restart
retiring
said:
sammy
scandals
scattered
sidelines
spree
stronger-than-expected
superstar
support,
suspensions
tackling
tenure
thought.
toolbar
touting
travis
troop
tuesday's
two-shot
ubs
wages
washington's
wedding
window
wmc
woolworths
wrestling
yuan
##&lt;/i&gt;
##-dollar
##-size
##1,
##35
##bridge
##ch,
##eer
##ees
##ets
##fe
##gle
##long
##n&lt;/a&gt;
##ome
##pt
##so
##space
##tel
##woman
0.2
1998
20-year-old
2007
30.
57
7.
900
\$1.5
actor
adult
afghans
afp.
aires
airplane
application.
april,
armored
artists
associate
ati
backers
banner
baton
bill,
body.
border,
border.
borders
boxes
bremen
broadcasters
card.
centrino
century,
chairman,
cheer
co-founder
community.
complicated
considers
consolidate
contributions
converted
criticised
denounced
deny
designs
developments
disclosure
downhill
duncan
edmonton
elbow
erik
ethics
exchange.
exercised
experts.
far.
flee
flexible
forbes
general,
glaciers
google.
guided
hair
half-year
hardie
higher-than-expected
highs,
ignored
information,
invented
involve
jan
jboss
lauren
lender
listening
load
logic,
lumpur
managerial
market's
mate
minutes.
mmo2
neighbouring
news)
nissan
not,
obvious
officer.
one-third
operation.
organizing
outer
outs
palestine
performance-enhancing
period,
peruvian
place,
portugal
produces
racial
record-high
remembered
reported,
requirements
researchers.
retief
reuters.
rewards
ricardo
routing
sa,
safer
schedule.
seasons,
separatists
shelves
shortfall
slapped
squeezed
staff.
stoked
stuart
stun
sukarnoputri
surgery.
t-mobile
tale
tariffs
teams,
terminate
thigh
third-
thompson
three-time
thus
tightening
toss
trailing
transform
traveled
trends
typically
uk.
unclear
uniform
united,
value,
vienna,
voluntarily
vowing
water.
web,
weren
whenever
wide-ranging
worldwide.
you'll
zone.
##--a
##-28
##-area
##-bound
##-friendly
##-made
##-management
##-rich
##-saving
##-week
##-wide
##\\google
##city
##isation
##ki
##od
##or,
##r)
##rich
##rs,
##rs.
##tions
##ua
##ulation
##ured
##what
#39;keefe
(or
1.4
100-meter
53
6-5
70,000
admission
afford
aircraft,
airport,
alter
another.
arm,
assets,
bakeries
bargains
before,
behead
belichick
bellsouth
better.
blues
bromwich
buses
cafes
canas
charley,
clemson
consensus
constellation
contribution
cooper
coors
coral
cox
criminals
cycle
cyclist
cyprus
deadline.
deliberately
departments
deploying
describe
designated
determination
earthlink
editors
entry-level
examining
exchanges
explorer.
extensive
factions
fairly
fat
faulty
fc
feat
fidelity
finals.
fitting
flushing
foiled
forecasters
format,
foxboro,
governors
grenada
grilled
gymnast
handsets.
hemisphere
hilton
hospital.
hunter
hynix
hypersonic
improperly
indonesia's
inspection
intensive
interference
investigation.
ireland's
jockey
keyboard
km
knowing
lara
lead,
left-hander
letters
licensed
lightning
lucky
maathai
machine.
macromedia
media.
missing,
mondavi
monitor.
narrower
nigeria's
northrop
opposite
organization,
organize
outlook,
overcoming
overture
peace.
peninsula
pivotal
placing
police.
ponting
powerhouse
prized
pujols
pulls
randolph
real-time
relating
reviewing
road.
rocco
rome,
routers
saga
scrambling
seattle,
secrets
sends
sharon,
spa
species,
srichaphan
story.
substantially
sun,
sun.
talented
target.
telegraph
torture
tyson
u.k.
universities
upstart
vacant
venezuela's
vincent
voiced
war-ravaged
was,
washed
wednesday's
weren't
witnessed
x86
yield
zvonareva
##-20
##-field
##-market
##-state
##\\the
##\will
##ced
##for
##hot
##if
##ifying
##ited
##kers
##of
##ose
##phone
##po
##ray
##tain
##ung
##val
##wa
##world
##x,
##zi
(and
1,200
15.
19-year-old
2.8
20.
72
\$3.
\$47
\$7
amendment
anti-terror
asia's
barring
basket
berkeley
bid,
bobcats
bullish
burden
bury
captivity
celebrex
century.
characters
circulating
clark
clive
clutch
combining
completion
continent
contractors
control,
corps
crush
defeats
delivers
derailed
disastrous
dispute.
doomed
efforts,
eindhoven
enabled
explicit
explorer,
fee
fell,
figured
fire,
flat-panel
forgotten
fractured
frenchman
fundamental
gadget
gloria
ground,
grumman
guerrero
hamza
harmful
head.
heritage
higher,
himself.
honored
hotmail
howard,
hussein's
implantable
indicates
injured,
iraqs
islam
jail.
jiri
junta
karl
katerina
kidd
lakshmi
lasting
laurent
layoffs
leap
leinart
level,
line-up
london.
loss-making
lukoil
macintosh
management.
mark.
marvel
marxist
mason
medley
memories
metals
michigan,
money,
moons
mouse
musicians
nathan
nationally
needs.
neil
nfl's
objections
offer,
offering.
options.
outages
outlooks
overnight.
overwhelmingly
pause
pays
platform,
poses
predicts
prix,
qaeda-linked
quot;in
reasons.
records,
redknapp
reference
reliable
retailing
revamp
richardson
roethlisberger
rule.
runoff
sack
sandy
saying.
season's
season:
shaken
side.
slim
smile
standard.
stellar
stone
subscribers.
sudan.
supercomputing
superior
surviving
suspending
territories
territory.
testify
thanou
the\world's
though,
threats.
thunderbird
toppled
trades
trial,
trinidad
troops,
trusted
tx
unofficial
wannstedt
websites
well-known
winter,
won,
x-43a
##-0)
##-driven
##-processor
##100
##200
##ats
##can
##cked
##ek
##ery
##ip
##ity,
##mate
##oned
##os,
##ram
##rm
##ts,
1-aa
18-year-old
2.0
4.
7-6,
abbas,
abdul
adelaide
airline.
angeles.
another,
ariz.
around.
banknorth
barrett
beauty
biological
blogs
bloodiest
boards
bogus
boise
bunch
call.
cancer.
canon
carmelo
chains
chaotic
children's
close.
clouds
code-named
colgate-palmolive
collaborate
colombia's
competitors.
conclude
conditions.
convert
cooperate
counties
deadlock
debts
decline.
demolition
depth
desktops
dinner
dirty
discs
divide
doc
dsl
dump
dumping
eat
edgar
egypt's
euro.
exchange,
explanation
fallout
figures.
filing.
form.
foul
function
galaxy
genes
go,
goosen
hammer
health-care
highlighted
homecoming
hospital,
hour.
hungry
i've
implementing
indoors
influenza
informal
ink
insider
international.
jacksonville,
julius
know,
kristen
laptops
leak
legally
lexmark
lion
litigation
lives.
lockout.
loeb
log
loses
louis,
loved
mae,
mars,
mgm
middleware
midsession
miracle
moscow.
much-anticipated
mud
mumbai,
nationalist
nfl.
not.
noticed
oil-producing
other.
owes
partially
perez
pill
pink
plasma
podium
point.
poll,
populous
positioning
potent
powell,
properly
punish
quot;halo
radiation
rainy
range.
receives
rejoin
respected
retailers,
rigged
roh
rubble
russians
scientists.
searches
sergeant
severance
shaking
shoe
shortages
slated
sleep
slovakia
snatched
sooners
stage.
subscriber
suits
tag
tatiana
tayyip
toughest
tourism
transmission
trimmed
tune
u.s.-based
university.
wachovia
wimax
worldcom
wrap
wraps
youngest
youth
zoo
##-12
##40
##95
##ain
##ane
##ars
##ative
##book
##box
##cent
##ero
##itation
##ition
##lands
##late
##nation
##ness,
##ou
##tar
##vers
##view
##water
##we
##yard
##zy
#39;s,
0.3
200,000
50,000
\$600
\$85
a.m.
abrupt
access.
acts
advised
airliners
allawi,
ancestor
angered
archaeologists
areas.
arlington
arrington
attractive
authorities.
authorized
bae
banco
battle.
besides
boris
bout
brewer
byron
caesars
cameras,
cancer,
capability
capriati
centre.
cents,
champagne
charter
checked
chicago.
chipset
composite
consumers,
contacts
dc,
debris
decides
defied
delighted
dhaka,
disappeared
discusses
dusty
e.
elephants
elimination
elizabeth
everybody
everywhere
faction
fda
final,
finances
flawed
fleming
floated
food,
formation
forming
ft.com
fuels
funai
funds.
g.
he'll
heathrow
hijacked
hostage,
hoya
ignoring
iii
illness
imported
injuries,
intercepted
jiang
kellogg
kirk
lady
landscape
lankan
laying
long-standing
machines.
manufacture
manufacturer,
mcgrady
me,
medium
mental
minimum
mitchell
monaco
monday's
motogp
nascent
nashville,
nightclub
novel
numbers.
obstacle
parliament,
payton
performance,
pipelines
pockets
point,
politics.
pop-up
prefer
presentation
pressured
printing
proper
proven
quake
randall
range,
realize
record-setting
regulate
reserve.
restored
rocks
ronald
routes
runner
runners
rutan
sainsbury
sale,
samuel
science.
scrapping
seasonal
second-seeded
seven-month
shia
shower
slumping
snatch
songs,
speedy
spring.
squeeze
srinagar,
staples
steadily
stomach
strategies
strategy,
stream
strict
subsidiary,
summary
sure,
surrendered
tanker
taste
techniques
tendered
thedeal.com
tokyo.
transactions
trim
uk's
unarmed
unearthed
unilever
unnamed
venerable
venue
virginia,
virus,
warming.
weakening
where:
woo
you.
##-match
##/new
##3,
##80
##\an
##\have
##ates
##burg,
##c.n:
##cted
##cus
##fer
##force
##ho
##ia.
##ig
##in.
##rating
##ric
##rry
##run
##ship
##sy
##ub
##ude
(amd)
12,000
16th
3.5
3.7
77
abandoning
adjust
adjusted
administrative
adwords
aerial
airing
al-zarqawi,
album
alicia
anxious
archrival
assurance
award,
baron
baseball.
beaches
belgrade
belonging
bets
bloggers
bowed
breath
brisk
buckingham
builds
burgeoning
cabrera
canadians
cardiovascular
cards.
casinos
childhood
chip.
cluster
cole
confidential
conservationists
convention,
crashes
dashed
defying
democracy.
descended
describes
develops
dire
discrimination
downgrade
dublin
earning
economy's
embryos
entitled
erdogan
extremist
fading
features,
ferdinand
fighting.
first-place
flared
floating
focuses
forged
free!
functionality
funk
generating
geographic
goal.
gold.
graduate
greene
grows
hate
highlighting
holdings,
horror
hudson
imposing
incentive
installation
iran,
iverson
jerusalem,
johnson,
karachi
kerry.
kilometers
kumar
lakes
large-scale
later.
leander
lease
lineman
lithuania
low.
maiden
manchester,
marriott
mars.
max
meeting,
melting
memorable
mention
milk
mind.
miserable
mission,
mob
movies.
musical
myer
niger
nomination
nose
numbers,
one-shot
onslaught
organic
overseeing
overturned
owed
p.
p.m.,
paralympic
parking
partner,
past,
paulo,
photo:
plutonium
portland,
postpone
propulsion
punishment
quarter-final
quot;no
raft
rate.
reception
recommendation
recorder
refuse
region's
released.
rib
right-wing
rowing
runner-up
same.
sasser
scams
schools.
show,
showcase
slaying
smaller,
soldiers.
sometime
somewhere
specialists
speeding
standards.
standings.
star.
stranded
strapped
stunt
stuttgart
subpoena
succession
surface.
taiwan,
taj
tally
tata
tiebreaking
tools,
tower
tri-nations
twenty
two,
ubiquitous
unhappy
verify
video-game
vieira
warne
wary
washing
we're
west,
wicket
wilkinson
worrying
yankees'
##-century
##-looking
##-three
##.\
##400
##49
##70
##\this
##ax
##ba,
##ending
##gen
##ghz
##ica
##ished
##lia
##man.
##nell
##oe
##pm
##ses
##sts
##tal
##top
##uan
##ying
##zer
0.4
10-year-old
1999,
1st
24-hour
350
7-3
8.
9.
\$11
\$150
activities,
actual
ambani
analysts.
anfield
anybody
apology
assume
athlete
attracting
austin,
available.
awaits
balanced
belt
bend,
bizarre
bomb,
bow
britons
bulldogs
campaigners
champion.
chartered
chest
colony
concerns.
concession
conflict,
consistent
consumption
convened
conway,
dean.
defendants
deserved
devastation
diagnosed
died,
digging
dioxide
disengagement
documents.
doses
doubling
drag
dying
egyptians
evil
expire
fault
files.
firms.
flight,
float
for.
forums
forward.
free.
gallon
game-winning
geared
generator
gerald
gifts
gradual
greatly
hands.
hbos
help.
hikes
indications
indonesia,
interest-rate
inventor
jr.,
kenny
last-ditch
learned.
lehmann
lisa
locusts
managers,
mcdonald's
mentioned
methods
murdering
nephew
netted
nigeria,
notable
obasanjo
oh
oliver
opinions
other,
ouster
outpost
outspoken
participation
pavano
pda
peer
phone,
preferred
qatar
random
reconstruction
redmond,
regret
renew
repeal
restated
revelations
ronaldo
rules,
sarah
season-opening
second-
serves
shareholders.
shocking
sms
solved
spawn
spilled
stamford
star,
starters
stir
strategy.
strike,
summoned
suntrust
surplus
swimmer
terrorists.
tide
tips
titan.
tv,
two-month
tyco
unified
upscale
uranium,
vacation
vacuum
values
vehicles.
volumes
wash.
wbc
websphere
wet
wheel
winner.
wiped
wpp
"i
##-inning
##-security
##03
##16
##4,
##45
##6.
##90
##\\
##ah
##away
##bble
##con
##corp
##el,
##group
##istic
##iting
##million
##ncy
##nie
##ology
##oning
##ran
##row
##tch
##ura
##wall
##x)
/prnewswire-firstcall/
0.6
1,600
2.9
25.
3.
386.
400-meter
\$10.3
\$140
abroad.
acted
administration,
advertisements
agenda.
airbus,
aj
al-qaida-linked
albanian
alcohol
alpine
apple,
applying
attracted
balls
bars
bounty
bowling
bracing
broadly
buyback
carrier.
cautioned
cent.
championships,
choices
claudio
colonial
comparison
complain
conditions,
confront
contributing
converged
couples
covers
cream
crippled
crops
crowned
curtis
desk
desktop.
dillon
disarmament
dismantle
driver,
dry
duo
eads
eds
eight-month
eisner,
examined
exclusively
expansion.
explained
flights,
flooded
forests
freely
gilchrist
granting
guests
hardline
headline
herald
hits,
holidays
homeless
horses
hospitalized
i-mode
ie
imf
imperial
incredible
infamous
ing
injunction
interviewed
investors'
ioc
ireland,
justice.
keane
khatami
larger-than-expected
lawmaker
leagues
leeds
legitimate
li
liquor
listings
llc,
lobbying
logistics
london-based
loud
maintaining
majors
makeshift
march.
match,
medal,
medicines
medium-sized
miami.
miles)
model.
models.
molson
mountainous
mumbai
mysql
needing
nomar
obstruction
ohio,
operated
oppose
organisers
overnight,
overtime,
parcel
participating
party's
pave
perth
phnom
photographer
pickup
planet,
populated
power5
principal
purchasing
pushes
quell
quitting
re-elected
re-signed
recognized
recruiting
red-hot
rhode
rode
rolls
roof
rumor
sacred
sacrifice
safeway
scrapped
screen,
screening
sensation
seville,
sharper
signalled
signature
silent
single-season
snapping
sole
son,
songs.
spaceshipone,
standards,
stars,
stave
stefan
stinging
stockpiles
streak,
substitute
suggestion
telecast
terdiman.
thinkpad
third-round
thrashing
thrust
trek
trips
tumble
unseeded
vick
wakefield
warehouse
weary
welfare
worms,
yang
young,
##--the
##-60
##-minded
##-rate
##-round
##-shaped
##46
##\about
##\internet
##aked
##all
##bles
##cap
##change
##che
##cher
##ctor
##dled
##fire
##front
##fs
##holder
##ically
##ifies
##ik
##ill
##inal
##ito
##its
##j.
##ji
##light
##link
##lity
##mark
##ne,
##nys)
##rian
##right
##rus
##shing
##ter,
##tone
##uit
##unt
##ures
##us,
##you
##z.
##za
(sp2)
--(business
1,100
135
1990s
1990s,
20-year
25,000
5.
59
6.
\$1.25
ab
abduction
accomplished
addressed
agricultural
ahead,
airwaves
anne
anti-piracy
arkansas
avian
axe
basra
beautiful
beverage
billed
birmingham,
bosses
bowden
bp
bragging
brushed
bundled
capabilities.
caps
cardiac
celebrates
celebrations
chief.
chronic
churches
cities.
claims,
claims.
commission's
commissioner,
commitments
commodities
commonwealth
compare
consequences
considerable
conspiring
crippling
date.
defenses
dell,
design.
detroit,
devoted
director,
disclosed.
discovering
dismiss
downer
drifted
drive,
drunken
early.
either.
elin
endless
endured
energy,
establishing
eugene
europes
exact
exception
excluding
explains
exploits
extends
extinct
feb.
ferocious
firefox,
fla.,
fleetboston
footballer
foothold
fourth-ranked
fund.
furniture
ga.
gate
giants'
gloomy
grabbing
gradually
guinea.
gunpoint
halting
hard-fought
hints
households
hsbc
hugely
hussein.
hype
icahn
impoverished
improbable
inevitable
inspections
intervene
itself.
jacob
jarno
jefferson
keegan
kicking
knight
kumble
kyi
lap
lava
level.
lie
lifestyle
lining
loves
matsushita
mccain
mckenzie
medication
memo
memphis,
mergers
mid-morning
miller,
milton
ministerial
mojave
move.
national,
negotiations.
nerve
netware
on\monday
oracle.
parliament.
particles
peers
photographic
pit
pixar
playboy
players'
porter
position,
prairie,
probes
prospective
providence
providers.
provision
psp
public,
publicity
purported
radioactive
rated
ratification
rebels,
rebounding
recreational
released,
remnants
removal
requests
residence
restricted
resumption
rival.
roberto
robson
saban
sad
saint
saturdays
saturn's
schedule,
schools,
score,
scoreless
sea.
sensational
shamil
shanghai,
sheet
shelters
ski
skins
slice
sons
spectators
staff,
steer
study,
surf
surveyed
sustain
swamped
talladega
team-mate
tentatively
tests,
texas.
to.
tops
trader
transplant
usage
utilities
virus.
w.va.
walks
wellington
when,
wire)--
wondered
wood
woodward
workforce,
would-be
wounded,
wto
you,
##-2)
##-building
##-built
##-court
##-plus
##-us
##.com)
##28
##\at
##ack
##al,
##bing
##ch.
##ches
##chi
##cial
##dia
##e)
##ency
##ert
##f,
##gate
##hall
##ight
##ism.
##ives
##jet
##let
##mouth
##music
##oo
##own
##round
##sis
##tech
##ural
##uted
##v,
##while
##wide
##yer
#36;1
(au)
1.1
1.2
110
12.
58
8-3
9/11
\$44
\$700
accelerating
achilles
air,
ajax
alarm
alive.
all-pro
amir
antispam
anyway.
apache
areas,
assassinate
asteroid
attitude
authority,
autumn
babies
baker
ball.
bangladeshi
bans
base.
bashir
better,
bettman
bidder
billing
biologists
biometric
birdied
blogging
booking
bovina
bugs
buick
care.
carmaker,
carriers.
catalog
celestial
chain.
chants
check.
chiron
chunk
cleric,
client.
co-operation
code,
colleges
columbia,
concentrate
considerably
consultant
conversion
creators
crept
curtain
customs
damage,
dampen
dance
daylight
debut.
dirk
docked
documents,
doubtful
duel
dwyane
eagle,
ecuador
elusive
endorse
enemies
environments
equestrian
excellent
excitement
executives.
expelled
far-reaching
farewell
father,
feeding
felony
fence
fingers
fire.
flows
flyby
frenzy
gases
glaxosmithkline
good,
grenades
hd-dvd
he'd
head-to-head
headscarves
heinz
heir
helm
helsinki
implications
impressed
inc...
indianapolis,
inflation,
inspire
integrates
intelligent
interoperability
issue,
jupiter
kilometres
koreans
lazio
leader's
leaderboard
left.
lesson
lg
lightweight
long-time
loose
lp
ltd,
madison,
makers.
malone
marketplace
mclennan,
memory.
millionaire
miss.
missteps
mohammed
moo-hyun
ms
mugabe
munch
munich,
musicmatch
myanmar's
negotiations,
newer
o'brien
oceans
ones.
opinion:
overwhelmed
pablo
pace,
partners,
passwords
paused
peoplesoft.
performing
permanently
petersburg
philipkoski.
photographers
photography
piled
pledging
poison
post.
poultry
pre-tax
predictions
pretax
q:
quarterback.
quot;to
r.
racing.
realized
redwood
reed
rematch
rings
roaring
roles
salaries
sc
search,
sectors
semifinals.
sentences
shake-up
shaping
shoes
shore
sims
slap
socialist
solution.
sooner
spirits
spoken
stirring
storage.
streaming
stroke.
subway
surprise.
symbolic
teenagers
tepid
thank
thieves
ties.
tightly
together.
touchdown,
transformation
treating
treatments
turin
uk-based
underscoring
update.
use,
valve
victorious
villeneuve
weis
wolverines
wore
workstations
yielded
##-6,
##-plagued
##-powered
##-ravaged
##-service
##5.
##600
##99
##a's
##air
##ake
##ap
##bar
##bin
##bling
##cast
##don
##ens
##gging
##gling
##ham,
##hp
##ings
##kin
##lon
##ma,
##nic
##nn
##now
##nt.
##oring
##ove
##owing
##pan
##pass
##quest
##ria
##rial
##rl
##ros
##side
##south
##tv
##usa
##w.
##ys
#36;7.7
(itar-tass)
1.8
125
18.
1995
21-year-old
23-year-old
8,000
\$45
\$46
agencies.
ambitions.
anymore.
approaches
april.
arresting
arsenal.
artist
asaravala.
ashore
australias
bahamas
bandwidth
bed
belfast
benefits.
beset
bits
blows
boom.
bore
bronx
browsing
building,
bundle
burundi
busiest
byrd
cereal
chassis
commons
compelling
compensate
congo,
connectivity
consideration
converting
coordinated
cope
corrupt
cost.
county,
courtney
cure
custom
dallas,
dash
daunte
debuted
debuts
deepening
defined
department,
depleted
deportation
deportivo
describing
detection
diamond
direction.
disaster,
dismissal
displayed
diva
dollar's
dont
douglas
echoed
ellis
enormous
enough,
enrich
epidemic
establishment
excuse
falluja.
film,
finest
fireworks
flags
fleeing
forum.
fourth-largest
francona
gannon
garnett
gdp
gene/l
generation.
goodwill
groin
grokster
gt;
guard,
happening
havoc
headlined
hills.
holiest
homemade
hugh
icy
ignore
illegal.
incursion
indicators
indigenous
insight
insurer,
integrity
j.p.
joel
jorge
julian
khin
kills
kit
laps
lasted
latter
legislators
lima
limiting
lloyds
long-delayed
long-range
lovers
lowe's
luck
lung
lured
marvin
matters
michel
minaya
missile,
models,
mortars
motorsport.com.
multi-year
n.j.
nairobi,
naming
neared
netherlands,
nfl,
notebooks
notified
officers,
old.
on-demand
on\thursday.
oracle,
outlets
overlooking
patterson
pepsico
philippines,
plant.
planted
play-off
pleased
polar
policies.
porsche
postseason.
prediction
press,
pressures
prevention
prizes
problem,
procurement
producer.
projection
publication
publish
quinn
racism
ransom
raul
reassure
rebuilding
recruited
referred
reflected
reopen
respective
rigging
road,
rooms
rs
rumours
scientists,
search.
secondary
seekers
seen.
sentiment.
separated
session,
set.
shifted
shrimp
silva
south,
specially
stark
stewart,
still,
stirred
stockholm,
stockpile
surpassing
swiftly
tags
this.
tissue
titles,
too,
topics
toppling
trailed
travels
tricky
tungsten
verisign
victoria
wealthy
widen
williams.
wisdom
worm,
"we
##-0,
##-ap)
##-euro
##-filled
##-world
##.&lt;/p&gt;
##5,000
##6,
##65
##65,
##\but
##\over
##\reported
##ability
##able.
##ana
##as,
##ation.
##ator
##bi
##car
##cell
##ces
##cies
##dale
##dling
##ez
##fies
##fter
##gi
##gic
##hs
##hy
##ism,
##ll,
##ong
##ord
##oy
##personal
##ph
##power
##rit
##te,
##tra
##tta
##ty.
##ud
##uting
##wick
##worth
(afx)
.net
13-year-old
1999.
2-6,
22-year-old
3-pointer
4.0
\$1.3
\$8.8
about.
access,
accounted
accounts.
achievement
adopting
advertising.
agency's
albion
allan
alleges
amr
arch
arthroscopic
aspects
assumed
authors
ballpark
bellamy
belonged
bigley.
biology
bishop
boasts
bomb.
bonus
boom,
boosts
bosnia
bowing
broker,
building.
cache
candy
car.
casualty
cent,
champions.
chanting
chicago-based
clerics
collaborating
collecting
comet
compatriot
complaining
conferencing
consoles
constant
contaminated
contend
content,
cotton
courtesy
credited
cross-border
cutting-edge
date,
dates
day's
decent
demonstrations
depending
desert.
designers
detail
device.
dial-up
discounts
do,
downed
drafted
dreamed
drilling
elaborate
et
ethiopia
execute
expenses.
explaining
exploited
exxon
facts
federated
ferrero
fiber-optic
financier
fincke
finley
first-time
fitness
foundation,
four-time
fraction
frame
fuelled
funny
garciaparra
genome
ghazi
gilbert
gogh
going.
goodbye
hague,
haiti's
haiti,
hamstring.
hank
holed
honour
hurled
ibm)
impasse
indeed
indias
insurgency.
intact
interview.
introduces
invade
ipods
israeli-palestinian
itar-tass
jam
joachim
jones)--australian
king,
kuwaiti
ladies
le
leadership.
legislature
leonid
les
liability
lieber
lifetime
literally
little-known
liverpool,
long.
longer.
manpower
massu
maverick
melvin
methane
microprocessors
misery
molik
multimillion-dollar
nagging
nagpur
niche
night...
noah
nominated
novak
nowhere
obstacles
olympique
orbitz
ore
outing
parker
pdf
peoples
petter
pharmacy
phillip
planned.
playoffs,
plummeted
polls.
pork
pre-election
predictable
premature
premiere
probe,
processors,
proponents
proxy
pubs
punt
purpose
quentin
quot;there
radio.
rbis
rebellion
records.
recruit
regularly
reopened
replaces
restrict
result.
reviewed
reviving
rex
rider
ringing
risk,
rollout
roofs
room,
rouse
rudi
rutgers
same-sex
sas
satisfaction
serbian
sergey
shade
sigh
slot
smell
smiling
solberg
soldier,
speeches
spinner
spite
sports,
spying
steelmaker
sticking
stifling
stormy
strokes.
success,
sundays
suppliers
supposedly
susan
suspicions
table.
taught
taxes,
tendon
territory,
tesco
thing,
thing.
third-biggest
third-ranked
tone
touches
track.
traffic,
training.
triangle
turkey,
underlined
unusually
usb
value.
videos
view,
walkman
wasted
waziristan
wentworth
widening
winger
wishes
woody
yasir
zach
zimbabwean
##-79
##-grade
##-month-old
##-two
##12
##36
##8.
##9,
##\\i
##\has
##\million
##aging
##aring
##born
##c),
##dle
##ended
##f.
##ght
##hed
##hi
##high
##iah
##ion,
##ist,
##ium
##ov,
##ps.
##rant
##ree
##rew
##rolling
##rying
##sk
##th,
##ui
##ve,
##x.n:
104
15-year
15-year-old
1980
2009
28.
320
3com
3d
4,500
750
76
79
7:30
\$3.4
\$3.5
\$8
\$9.2
advertisers
aided
aiding
alien
alternatives
andriy
anglo-dutch
anytime
assam
authorities,
babe
balloting
barbara
barber
big,
bite
black,
bombay
bombs.
borland
bowled
brace
brewing
brigham
brisbane
buckeyes
calls.
capitol
cardinal
cards,
careful
caterpillar
cazenove
cellphones
cheating
churned
cities,
civilians.
claimed.
college.
comments:
committee.
commonly
communicate
completes
compromised
concerns,
conflicting
congratulated
congress.
console.
contacted
conte
convention.
corporation.
costco
costing
cuba.
culpepper
currency's
decapitated
decision,
deion
democracy,
demonstrate
depend
didnt
difficulties
dinosaur
disappearance
disasters
dismissing
disorder
display.
disrupting
docomo,
dose
drinks,
edition,
egypt,
embroiled
emile
emphatic
ensuring
enthusiasm
environment.
evaluating
exist
eyeing
fare
farms
fast-food
february.
feeley
ferry
filipino
finds.
fires
firmer
five-time
flight.
foe
frustrating
furcal
gavin
gear.
glen
glitches
grade
grass
greenberg
grievance
guess
guest
guidelines
gunships
hawaii
headache
hicham
homeowners
homered,
hook
hope.
hutchison
ibm.
increases.
induce
institution
iraqis,
islands.
jeanne.
jenkins
jihad
jonny
judging
kathmandu,
kris
lands
lavish
linksys
lodged
lower.
martial
mens
metro
minn.
misconduct
mo
mobility
monster
montoya
morocco
murphy
namesake
navigation
nebraska
netsky
norton
nowitzki
official,
operation,
orton
oswalt
otellini
outdoor
overthrow
paisley
parachutes
paramount
partners.
passport
patients.
peaks
photographs
pierre
police,
pouring
probation
projects.
prolific
promotional
protocol,
prudential
pumping
quarterback,
quot;very
radio,
ramadi
receivers
referring
refineries
refuge
refund
refuses
relieve
repay
respects
revision
reynolds
richter
rid
righthander
roaming
robertson
rockstar
root
roots
rosenborg
runs.
ryanair
sandisk
satisfied
seas
second-ranked
seconds,
sellers
sensor
sharks
simulator
six-week
skating
skeptical
sleek
sleeping
smuggling
sony,
sound.
spammers,
speakers
speedway,
spiritual
sponsorship
spyware,
squarely
stabbed
status.
stays
steered
sting
strength.
stung
subdued
summit.
sunnyvale,
surely
switched
taipei,
taxes.
televisions,
territorial
thaw
themselves.
this:
thrashed
timetable
tools.
totally
tour,
transformed
transistor
travelling
treasurer
trent
troubles
two-stroke
unharmed
unspecified
us-backed
v.
vegas.
verbal
veto
vicente
virtualization
voters,
wales.
warning.
waterford
whale
wipe
workplace
xp.
yard
##-focused
##-funded
##-high
##-home
##-search
##-seat
##.net
##19
##2.5
##300
##32
##55
##\government
##\his
##\officials
##ari
##ath
##ation,
##bon
##burn
##dging
##even
##gled
##ider
##ines
##ister
##ively
##just
##keeper
##kes
##land,
##lar
##lly
##low
##ment.
##microsoft
##ntal
##oft
##og
##ony
##ova
##put
##re,
##rio
##s'
##s?
##search
##soft
##stein
##th.
##tis
##tter
##used
##vent
##wave
##x.
&lt;strong&gt;analysis&lt;/strong&gt;
(ca)
(the
(uni)
),
16-year-old
16.
1980s
1994
1997
2.7
4.5
600,000
7e7
\$1.2
\$120
\$51
\the
add-on
adelphia
affair
aircraft.
all-round
allied
ammunition
angrily
anthem
anti-trust
apiece
around,
ashcroft
atlanta.
attendance
autonomy
began.
benefits,
benjamin
bettis
blitz
book,
brave
california-based
camera.
car,
cardinals,
carefully
cars.
cats
cedric
chinas
cincinnati,
circle
clearance
come,
community,
concluding
congress,
console,
cornell
corpses
coventry
credentials
creek
cue
customized
dakota
databases
dealer
decline,
denmark
diana
disappear
discounted
diseases
distant
divisive
dogged
dome
domination
donations
doom
drastically
drives.
dynamo
elephant
emails
endorsement
envoys
equities
era,
escalated
essentially
events.
everett
excessive
execs
experience.
expired
exploiting
expos.
facilitate
fame.
favorites
fein
fiedler
fifth-ranked
fightback
finger
first.
five-game
foes
forecasting
franco
freezing
game-high
gates,
glove
god
gold,
gone.
gripped
hacked
hacking
heart,
her.
high-flying
historical
ho
hostage-taking
hotspur
hovering
humiliating
hutu
inactive
inciting
inclusion
indonesia.
industries,
infecting
interceptions
irving,
item
itself,
jackie
jail,
judiciary
justify
keen
korea.
kpmg
lazard
lean
length
lloyd
low,
ma
magnetic
manufacturers.
mapping
mcgahee
me.
mia
microchip
mid-sized
milan,
military,
million).
moroccan
movements
multinational
mydoom
nalbandian
name,
necessarily
nextwave
nickel
notion
obesity
okla.
one-month
operative
optimization
organisations
outlaw
outweighed
overtake
own,
oxford
pasadena,
paulo
pci
peek
photoshop
physics
pictures,
piracy,
plague
poisoning
populations
porn
portfolio.
prague
probe.
probing
propel
protestant
proud
provinces
punitive
pure
quot;grand
rain.
reality.
reclaim
reductions
reid
reminded
renowned
retailers.
revival
rewarded
rhetoric
routinely
rule,
run-off
ruth
sacking
sage
saves
seasonally
sectarian
seeded
selig
shareholders,
sharply,
short-range
shutting
sihanouk
situation.
skg
smartphone
softbank
soup
spaceship
span
specialty
sporadic
stars.
state-controlled
suffers
suite,
supercomputer,
surveys
swede
swisscom
sybase
synonymous
tainted
tarnished
taser
teaching
tent
thorpe
three-stroke
ticked
tighter
together,
tool.
topic
topple
towers
transferred
treatment,
treatment.
tv:
twickenham
understood
upped
ups
vaccines
venues
viagra
violates
vioxx.
void
warrant
weather.
website,
welcoming
who's
wildcats
woods,
worth,
wounds
wrongdoing
year-old
zemin
##'ve
##--but
##-3)
##-35
##-50
##-88
##-90
##-93
##-battered
##-five
##-held
##-hitter
##-metre
##-order
##-play
##-screen
##04
##64
##85
##\could
##\is
##\was
##als
##b.
##band
##bers
##bert
##cation
##com,
##craft
##ds,
##ene
##fold
##form
##hare
##have
##ie,
##ies,
##ies.
##illa
##law
##lock
##min
##mobile
##mon
##mos
##national
##ness.
##new
##nk
##not
##o&lt;/a&gt;
##ok
##on.
##pect
##person
##piece
##rick
##ride
##s...
##sen
##sville,
##tein
##tled
##town,
##ture
##uing
##una
##une
##ven
##ways
##yo
#36;10
#36;50
&lt;strong&gt;letters&lt;/strong&gt;
(5),
(define)
(imf)
(iss)
(wto)
140
15-inch
1996.
2"
20-17
2009.
2010,
26.
500,000
6.5
7.0
7.6
\$1.1
\$1.8
\$2.5
\$500,000
\$6
\$8.6
accession
accounts,
activity.
agent.
aires,
airways,
akron,
all-in-one
altered
answered
application,
approving
arabia,
arbitrator
artisan
ashley
astronomer
astros,
awarding
backman
bags
barcelona,
barroso
batsman
battle,
beagle
behind.
beijing:
beloved
berlin,
best-known
billion-dollar
bladecenter
boats
brains
brands,
bread
break.
bridges
burns
cardinals.
care,
carolina.
carson
casualties,
cease
cell-phone
changes.
choice.
christmas,
cites
classic,
cloned
close,
clout
coliseum.
colour
comfortably
committing
compatibility
computer's
computing.
compuware
content.
conversation
copernic
cosmic
costas
count.
cowboys.
cracking
crate
creature
creatures
debate.
defer
defiance
defuse
delray
demonstrating
desktops.
destined
dismantling
dispel
donors
dram
ea
economics
economist
eden
elder
embassies
embraced
engaging
ensured
entertainment,
era.
erasing
events,
exec
exporter,
exposure
extent
fanning
fast,
feud
fight,
filing,
fixed-line
flies
floridians
fm
foot.
founding
four-month
frances.
freelance
friends,
full-scale
gas.
generous
genuine
glorious
glow
golf.
goods,
gravity
guinea,
gunned
guru
hamper
hampered
hard-drive
hard-line
harvey
healthday
herman
hmcs
hog
holtz
hostage.
in-flight
incorporated
infection
inning.
invaded
invading
invite
island's
jock
jpmorgan
kidnappings
kiev,
laden's
lagging
landover,
laos
launch,
launch.
legg
legs
liked
lincoln
lit
logging
losers
lynn
malls
manner
marino
marketwatch
mclaren
members,
members.
merger.
messaging,
meter
michelin
mideast
mired
mogul
moscow:
mosques
movement,
multi-million
multiplayer
negotiated
net.
nhlpa
nominees
nonetheless
noon
north.
nova
npr
nursing
objects
obstructing
offences
offerings.
ohio.
ok,
omnimedia
onboard
ont.
operational
opponents.
ore.
outrage
overtaken
pac-10
package.
packs
parents,
part,
patience
patterns
pc,
pen
photo,
phrase
pioneered
pitting
planned,
poisoned
post,
poweredge
practices,
preserved
prisoners.
procter
projections
protects
pumped
qualification
quattrone
question.
question:
quota
raging
rahul
raleigh,
ramallah
ravaged
reason.
regarded
regardless
rejects
republic.
reserve,
resources.
result,
retaliation
riots
risky
rite
robbed
rock,
rodney
rodrigo
rogge
rolen
runaway
rust
saboteurs
sacramento,
safety.
sagging
saks
sanders
school's
scot
screen.
scuffle
seagate
seattle.
sept...
serbia
serial
server.
seven-time
shea
shearer
shevchenko
shifts
shining
sierra
singing
six-time
sneak
source.
spacecraft.
sparkling
species.
stata
stelco
stem-cell
stephon
stint
stringent
suburb
suit.
sumitomo
sun's
sunk
supporter
survey,
swarms
tailored
tempe,
tenth
termed
third-party
third.
tool,
tragic
truckers
turbulent
two-game
undermining
unheralded
unilateral
unionized
urges
vacancy
vazquez
vegas,
warrior
waving
weapons-grade
which,
whoever
wildly
x-ray
yards.
youngsters
zero
zimbabwe's
##*
##-1,
##-15
##-27
##-air
##-box
##-care
##-handed
##-maker
##-packed
##-priced
##-season
##-second
##/2
##74
##900
##\two
##adio
##are
##at,
##ators
##aw
##bank
##bbling
##cating
##ce.
##cious
##d.n:
##dell
##due
##elli
##ex
##ey,
##ge,
##get
##gies
##gos
##horn
##how
##igh
##ila
##iness
##like
##mal
##mic
##nce.
##ndered
##ns,
##oke
##oking
##people
##pes
##place
##press
##rum
##ry.
##si
##stic
##ther
##to:
##tting
##two
##uck
##wed
##will
(cbs/ap)
(enterprise
(hp)
(oct.
(p2p)
10-race
11.
2010
21.
24-year-old
27-24
40,000
41st
7-2
74
95
\$450
accurate
addis
after-hours
airliner
airstrikes
altria
apple.
arabian
architects
arm.
arrangements
arthur
assistants
attendees
automation
auxerre
available,
backdrop
bangkok,
bangladesh.
banks.
barghouti
bellhorn
belmont
beltre
benazir
bennett
bicycle
bike
bison
blake
blueprint
bonds,
bonuses
books.
bothered
branson,
brazen
breakfast
briefed
briefing
brightened
bucharest
bullets
burial
businessweek
caller
cambodian
caminiti
canberra
carded
carolina,
cash-strapped
casual
centuries
chart
chased
cian
circumstances
cleveland,
coached
coleman
collided
comfort
concussion
conditional
connecting
conservatives
consultants
contracts.
credibility
crews
criticizing
cruciate
curfew
damien
dampened
darrell
database.
davidson
deemed
defeat.
defect
defends
denial-of-service
denies
des
description
did.
distillate
divisional
dodger
doubled,
dragging
dvd.
e-business
easy.
edition.
educational
effect.
elementary
else.
elton
embarrassment
enforce
entice
equaliser
ethernet
eu's
evolved
exiled
favorable
files,
financed
finishes
fishermen
five-year,
flat-screen
flowing
franchise,
free,
freight
frequently
fresno
gb
gbagbo
geforce
glasgow
glaus
golfers
gone,
gunbattle
hart
head,
head-on
hideki
hilfiger
hill,
hip-hop
holes.
hubie
hurricanes.
huygens
ideal
inability
inadequate
inflationary
infringed
initiative.
insects
intel's
intel.
intensifying
interests.
irregular
italia
italians
itunes.
jean-claude
jones/ap)
kahney.
kendall
kong,
lagged
lan
languages
lessons
leverage
ligue
lineup,
literature
lofty
lopsided
lords
magna
mandatory
marbury
marcelo
martinez,
maryland's
matches,
medals.
mediators
memory,
mi
migrate
miniature
misled
mobil
moment,
moral
mp
mukesh
multicore
names.
natwest
nedbank
newspaper.
newton
noise
northeast,
notched
observer
opener,
openworld
outlawed
oval.
oversee
overtime.
owner,
p5
parachute
paris.
partisan
passion
paul,
pennant
perennial
permit
pet
phonographic
photo.
pittsburgh,
policymakers
portions
portis
power-sharing
practically
pregnant
prime-time
procedures
programme,
prolonged
psychological
questions.
quoting
rachel
rain,
ramadi,
rand
ranges
rashard
reactor
rebuffed
recalls
recep
red,
refining
reforms.
renounce
resigning
resist
resurgent
retirement.
revolt
richmond
rifles
ringers
robby
roberts
rouge
ruined
russell
santos
scans
sd
second-highest
second-term
settler
sgt.
shoulder.
singel.
solely
solving
sophos
spat
spokesperson
spray
spun
stack
stationed
staunch
steroids.
stoppage
strongholds
subpoenaed
subsequent
subsidiaries
surfing
sustainable
syracuse,
tampa,
targets,
targets.
tasks
taxpayers
teacher
tee
telescope.
temperature
terminated
thailand's
thats
touch-screen
tournaments
trafficking
transistors
trees,
trick
trimming
twelve
two.
ty
umpire
unanimous
undermined
units,
vastly
vault
vendors.
vice-president
victims,
victories.
virginia.
watchdog,
watches
winner,
women.
wooden
worsening
worthy
xstrata
yourself
##,000,
##-80
##-89
##-92
##-back
##-branded
##-eyed
##-general
##-language
##-largest
##-rights
##-speed
##-strong
##-win
##44
##\be
##\corp.
##\international
##\president
##\software
##ac
##ai
##aki
##ase
##bie
##bit
##board
##body
##cat
##coming
##cor
##da)
##els
##era
##et,
##ever
##final
##fort
##fy
##ggle
##go,
##ige
##ii
##ini
##ith
##ley,
##lic
##lla
##met
##nasdaq
##ner,
##ologist
##or.
##ously
##rams
##rates
##ry,
##see
##sman
##t's
##test
##tical
##tory
##using
##usion
##ution
##via
##vision
##vo
##xed
##ystems
(vna)
1-6,
115
141
1970s
28,000
30-year-old
4.4
88
\$135
\$14
\$43
accustomed
aceh
adapt
africans
airstrike
alessandro
alliance,
amended
americas
analog
ankle,
antidepressants
appoint
arena,
attention.
auction.
austria,
awards,
axa
aziz,
bagwell
barghouti,
basayev
bears.
beaver
bertie
blacks
bloated
blunt
bonds.
borrow
bottle
brand.
brands.
brasilia,
breaching
breed
broadcasts
brunell
buddy
bumpy
cafe
californians
camera,
capabilities,
carr
ceremony,
chairman.
champs
chile's
christina
citroen
clarett
clarify
client,
closes
colleague
collections
coming.
commandos
comparing
configuration
continue.
contracts,
contradicting
convenience
convictions
cooper,
copied
copying
crawford,
cricket:
curry
damascus,
dazzling
deaf
decreased
defrauded
demise
den
deported
desert,
design,
detailing
determining
di
didier
dies
disciplined
disgruntled
drastic
ear
eastley:
election-year
employ
equally
erased
eruption
espn.
eta,
example,
expectation
experiences
experiencing
expertise
fantasy
feet,
films,
finalists
financially
fletcher
for,
forest,
frances,
gains,
gears
generations
glance,
glitch
goal,
goals,
goals.
gold-medal
grain
graphic
gutierrez
handsets,
harare
hell
heroes
hide
hijack
hindu
hitter
hockey.
hokies
holidays.
hormone
hosni
hour,
hurricanes,
immediately,
inauguration
indefinite
index,
industries.
instantly
intensity
internet's
is:
islands,
it?
itunes,
ivan's
jakarta.
jamie
janet
jens
karzai's
kazaa,
keeper
keyhole
lacked
lagos
language,
last,
last.
laureate
lawsuit.
league-leading
least,
lebanon's
left-handed
left-wing
lenny
light,
lives,
logic
longhorn,
looting
love,
magazine,
maintains
martian
masked
mcdowell
mcgrath
men.
merchandise
microsystems,
midland
minute,
modeling
moderately
module
moment.
moody
motivated
motors,
mouth
movie,
mri
much.
multiyear
mussina
nadal
nasa,
nasd
nashville
neighbors
niigata
nordegren
nv,
oakville,
observations
ofcom
offices.
olive
opel
orbit,
ousting
overpowered
overseas.
pain.
paperwork
paso
passports
peace,
perfectly
pierce,
pinsent
pittsburgh.
plants,
plo
plunging
popularly
pornographic
possible,
post-election
pre-emptive
presents
prey
prisoners,
probable
processor-based
producers.
profitability
prospects.
protester
providers,
queensland
racked
ranking.
raping
rash
reasons,
reflects
regiment
relies
represented
repurchase
reservations
reshuffle
retailer.
rift
rise,
royalties
sand
schalke
sete
shelved
shrek
siberian
significance
sink
sky.
skyrocketing
slaughter
smiles
snack
soap
sorts
spacecraft,
speed,
spill
sport,
sprawling
stent
steroids,
studios,
stumbling
subpoenas
subsidiary.
supercomputers
suspects,
sweden's
taiwan's
tankers
terrible
three-shot
tomb
tortured
trouble,
trouble.
tucked
tumbling
tv.
undercut
underdog
unfairly
units.
university's
unpaid
veerappan,
vehicle.
waived
warns.
was.
weather,
week-long
wings
wireless.
worsened
wr
wrapping
yahoo,
yemeni
zealand,
##-69
##-a
##-all
##-car
##-fighting
##-generation
##-industry
##-linked
##-prone
##-quality
##-session
##-set
##-share
##-tax
##-way
##..the
##.o&lt;/a&gt;
##.o)
##/04)
##02
##14
##24
##aa
##ado
##aid
##aking
##ale
##ao
##ave
##backs
##but
##cts
##des
##ella
##eve
##fa
##fight
##hand
##home
##hone
##i's
##ined
##ipping
##ises
##kar
##ke,
##keeping
##lation
##le.
##leader
##loaded
##logy
##makers
##mar
##ms.
##n&gt;
##na,
##nick
##nse
##ntly
##o's
##oni
##ort
##outs
##ows
##rable
##rc
##rine
##rust
##rville
##son,
##take
##tched
##tics
##tier
##u)
##u.
##uation
##uba
##ulate
##ulated
##urn
##ust
##v.
##vie
##vin
##war
##when
##year
#39;s.
#8212;
#8217;s
(see
(us)
1-2
12-year
13.
16-year
166
17.
1980s.
1986
1988
1992
1996,
2,500
2.3
21-year
22.
6-under
6.8
7-0
7-4
7.2
82
9.0
\$16
\$430
\$536
\$7.
\$800
abroad,
acceptance
accompanied
acres
actively
adolph
advanta
adventure
aere
all-american
alone.
also,
amsterdam,
andrei
anglican
annan,
antarctica
antennas
anterior
anti-competitive
anti-dumping
anxiously
appearances
apples
are,
arguably
army's
atlas
atmosphere.
atoms
attributed
aussie
aviv,
awful
ba
backe
baggage
ball,
barnes
batman
bells
bhopal
billion),
biomedical
bitterly
blistering
booster
boots
bowlers
boy,
boycotted
brin
broadcom
brom
builder
cancellation
capitalize
captain,
cases,
catalyst
ce
chicago's
chorus
chronicle
chuck
cinema
civilians,
clinics
close-up
clothes
coast's
codes
colombo
colon
colorado,
coma
connections,
constantly
contents
contrast
cousin
creditor
croatia
crowd.
dalai
darkness
deals.
debut,
decade-long
deficits,
define
degrees
delight
denial
dependence
deputies
deserted
diebold
diouf
discipline
disney,
documentary
dollars)
done.
dravid
drum
dunn
dvds.
earnest
easyjet
editing
effectiveness
effort.
egypt.
eight-year
emphasis
employer
encryption
evans
eventual
exotic
expedition
expires
exports,
extension.
extradited
faded
faltering
fantastic
farther
fastest-growing
favourites
february,
feelings
fernandez
fight.
figures,
firmed
first-year
flames
flights.
food.
forth
four.
francois
freed.
freeing
fuel,
fullback
fund-raising
gardner
gaston
genentech
girlfriend
globe,
gore
grants
greece's
grozny,
gsm
hadn
halloween
hamilton,
hamish
han
hand.
handled
hands,
harbor
haven,
heat.
henan
high-stakes
highbury.
hikes.
hole,
hostages.
hotels,
hunted
hyatt
ibook
indictment
indonesians
inexperienced
inflate
inflation.
inflict
ingredient
initiated
inked
insist
instead.
insufficient
integrating
intend
intentionally
intimidation
intrusion
inzamam-ul-haq
irans
irs
jackson's
jets.
journal,
journal.
kabul.
kashmiri
kerr
klinsmann
knee,
labeled
lahore,
language.
lately
lately,
laws,
lawsuits.
leiter
libya,
lifts
loans.
locate
london's
long-lasting
look.
looted
lost.
louisville,
luiz
lula
made.
manages
marco
marijuana
marketing,
marry
martinsville
matsui
meaningful
mediocre
megson
merger,
mets,
million),
moktada
monarch
monument
much-needed
multiplex
murray
n.h.
nadia
nationwide.
newman
newspaper,
nine-game
obscure
observed
olympian
opposition.
order.
packaging
painted
palo
panic
paragraph
parks
patriarch
penh
perception
person,
personality
persons
persuading
pesky
phelps,
pipe
placement
pleas
politics,
port-au-prince
portrayed
practiced
predecessor
priorities
proceeds
proclaimed
propose
protested
provider.
purnomo
quantities
quantum
quarter-point
quickly.
quot;he
raikkonen
ramon
recovery,
reelection
refinancing
registering
regulators,
reinforced
relations.
rent
reversal
rewrite
rico
riyadh,
rodgers
rojo
rookies
round,
router
ruler
satisfy
scene.
schmidt
schoolgirl
second,
secretive
sensors
settlement,
sewage
sex,
shoaib
shock.
shot.
shoulders
side,
sits
six-nation
skate
slick
slow.
smarter
smith,
solutions,
someday
somehow
sorry
spadea
spammers.
sparta
speculation,
speech.
speed.
spinal
spitzer,
sponsor
sponsors
springfield,
spurring
stabilize
standings,
standout
starring
states'
streaking
stubbornly
studied
stumbled
substances
sum
supplied
supplies,
supply.
supremacy
surface,
switzerland,
syria,
target,
team-mates
teens
terminal
test-fired
they'll
thrilled
titles.
to,
tomas
toronto.
totaling
touching
trans-atlantic
triathlon
trulli
tumultuous
uneasy
unite
uprooted
usher
va.,
voices
vows
wallets
warrick
warring
waved
weakest
welsh
wen
westfield
white,
winding
windows-based
withdraws
withstand
wolfsburg
wonderful
words,
workers'
worse.
wounded.
wreck
xavier
yahoo.
yen,
zealand.
##&lt;/b&gt;&lt;/font&gt;
##&lt;/em&gt;
##-band
##-breaking
##-mph
##-party
##-race
##-scoring
##-west
##0m
##18
##?"
##\company
##ail
##ami
##ancy
##au,
##ay,
##bil
##ble.
##bot
##boy
##cade
##card
##case
##cated
##cker
##clear
##court
##dale,
##data
##de,
##ec
##ei
##ential
##ents
##etic
##ette
##ffed
##formation
##fying
##global
##hal
##hic
##hit
##hold
##human
##iano
##ibility
##ier,
##inated
##la,
##lating
##linux
##log
##mad
##maker,
##motion
##n's
##nded
##ndering
##nyse
##onte
##ops
##rain
##rator
##ream
##rill
##rise
##rix
##sia
##sive
##st.
##tate
##tin
##tt,
##ued
##ume
##union
##uri
##vation
##wear
##writer
##xing
##yed
#39;,
&lt;meta
(iaea)
(ie)
(internet
(msft)
0.5
1.0,
144,000
17-year
19.
2-1.
240
2:
3-3
3.3
340
3:30
7.1
9-3
9-7
\$136
\$23
\$265
\$320
abidjan,
accepts
accuracy
aces
actress
acute
adsense
advocacy
adware
affairs,
afraid
age,
age.
agencies)
agents.
ages
aid.
alarming
alberto
alejandro
alvin
amazon.
american,
analyze
ancestors
anti-war
arch-rivals
archbishop
argentina,
army.
arsenal,
arsenals
assurances
austria.
authenticity
authorize
bands
batsmen
begged
benign
beside
besieged
bidders
bills.
blessing
bodyguards
brand,
brendan
bribery
bubble
builders
bump
calls,
camacho
candidates.
caracas
cartoon
centres
ceremonies
chamber
chambers
chavez,
chipper
chipsets
circling
clement
clinic
cocoa
collapsing
commercials
communications.
confirmed.
conjunction
continues.
controversy.
cooperative
coordinate
corp...
corruption,
countering
coupled
crammed
crude-oil
crunch.
curbing
d.c.,
dallas.
dam
database,
deadlocked
dealings
decades-old
decidedly
deliveries
deposed
destruction.
deteriorated
dinosaurs
directing
directors.
dispute,
diverse
draw.
dressing
drilled
dublin,
dwindling
e-newsletter!
eagles.
edgerrin
edvard
eggs
element
emi
endurance
enduring
engage
engulfed
entertaining
entrepreneurs
epstein
everyday
exceeding
exile
exodus
explosion,
exporters,
failed,
fan.
fenerbahce
fits
flexibility
flocked
flu,
forever
forrester
four-week
frightened
fruits
galactic
garden.
gator
gaz
gibernau
gigabit
globe.
glowing
goalless
gonzalez
greenback
greeting
ham
hampton
harrowing
hartford
hauled
hispanic
hockey:
holidays,
hotspots
however
humans.
hussein,
hydroelectric
iconic
ieee
ii,
immunity
incorporate
infiltrated
infringement.
instructions
insurgents.
intensify
interest,
invested
investigation,
investment.
investments,
irregularities
isps
italy.
iv
jeanne,
jessica
jets,
jews
jimmie
johannesburg,
jol
judo
kan.
kyodo
labs,
lag
lahoud
lamar
land.
large,
larsson
lashing
late-season
late.
lewis,
libel
lied
lighter
lima,
locals
lockout,
lore
lucas
magnificent
mandalay
marathon.
margins.
marquee
martnez
massively
mat
materials,
meetings,
menu
mercenaries
meteorological
mets.
mexico's
midfield
midrange
midwest
monkey
monkeys
mosley
mubarak
mustafa
nba.
newcomers
noble
nonprofit
norwich
oak
offsetting
old-fashioned
one-two
operators,
oprah
orbiter
outline
package,
packaged
paint
palace.
paper,
paris:
payments.
penney
penny
pepsi
phoenix,
photograph
planting
plc.
plus,
policy-makers
pornography.
postponement
prehistoric
premiership.
protracted
providence,
pub
pundits
putin,
quakes
quot;an
races.
ram
rang
rankings.
rays.
real,
realm
recommending
refueling
regime,
relying
remembers
renegade
reply
reprieve
republic,
requesting
reserved
retake
riaa
riley
ring.
rooftops
rouge,
rounded
rugged
safeguard
salmon
sanford
saying,
scanning
scarves
schemes
scholars
sellout
senate,
separation
seven-game
seven-year
she's
sheer
shimon
shot,
shouldn
shuffled
skeptics
sky-high
sloppy
smithfield
softening
solana
soliciting
sound,
specialized
specifications
sports.
sprint,
st.,
stansted
stating
steamy
sterling
stockholders
storing
storm.
strong,
successor,
suicidal
swapped
sylvania
t5
takeover.
tapping
taxing
teach
tend
thoroughbred
through.
toledo
tonnes
top.
tracked
traditionally
tremors
trichet
tricks
turnout
turnpike
two-test
u.s.,
u.s.-backed
unconfirmed
unpopular
unsure
updating
uruguay
val
valley.
vanguard
vehicles,
vendors,
version,
vessel
video,
volcanic
vying
waltham
ways,
webber
wednesday...
wendy
westerners
wheels
williamson
willingness
wins,
won.
yusuf
zee
##-54
##-94
##-96
##-anticipated
##-fire
##-laden
##-life
##-opening
##-over
##-quarter
##-seeded
##-series
##-sharing
##-star
##-team
##.com.
##.nys)
##/
##06
##22
##7,
##700
##8,
##88
##\are
##\earnings
##\first
##\john
##\people
##\presidential
##\third-quarter
##abs
##ama,
##ano
##atory
##ban
##bate
##best
##bled
##bone
##ceived
##center
##chen
##cle
##ected
##eel
##enko
##er's
##esting
##eta
##fall
##fect
##ffle
##ge.
##gon
##ha,
##headed
##holders
##ided
##ient
##itive
##jan
##k)
##l),
##land.
##lator
##line,
##mail
##mann
##mine
##mission
##ml
##mond
##mping
##near
##ody
##ography
##ologists
##oping
##ored
##p),
##pi
##pi)
##pple
##ras
##rated
##reading
##rey
##rity
##ro,
##roll
##rose
##s),
##sar
##shire
##ston
##stone
##taking
##tti
##uce
##vable
##vate
##vity
##w)
##wan
##west
##wireless
##wood,
##ystem
##zone
#39;neill
(fcc)
(for
(riaa)
(sept.
(which
-----
.500
1.6
1000
17-month
1991
23.
3000
42,
5-under
8-6
8-7
802.
93
\$1.4
\$2.6
\$60
\$75
\$850
accident.
accuse
aceh,
acknowledging
act.
activity,
adapter
additions
adequate
affiliates
ahern
airline's
airlines.
al-sistani,
alexei
alike
all-russian
altitude
ambushed
anna
anxiety
ap.
apart,
ape
apollo
appliances
appropriate
arafats
archiving
army,
arrangement
assembled
assuming
atom
attention,
audiotape
auditor
averaging
averting
background
backpacker
bagle
barges
barrel&lt;/a&gt;&lt;br/&gt;what
bashar
bastion
bell,
belted
big-time
blagojevich
blair,
blast,
blasting
blaze
bleak
bnei
boeing.
bred
brees
breezed
bronx,
brother,
bullet
butch
buttiglione
capacity,
card,
catastrophe
cave
certificates
changes,
charleston,
chechnya,
chelsea.
chemistry
chennai,
chicoutimi
chilly
clever
colder
collins,
colonel
color="#666666"&gt;&lt;b&gt;-leslie
colvin:
combating
comic
competes
competitors,
condemn
confederations
confidence,
confidence.
consent
consolidating
cpu
crash.
ctia
daunting
db2
deceptive
decrease
defamation
delays.
demands.
departing
der
derrick
details.
deteriorating
deterioration
dhabi
dialysis
dilemma
disappearing
dispatched
disperse
distributors
district.
districts
docking
dominion
draft,
drop.
drugmaker,
dugout
eaten
edge.
editorial
edt).
efficiency
electronics.
elegant
encountered
ended.
engines.
entertainment.
environment,
environmentalist
epson
erickson
ethical
evander
examination
exchanged
face.
facto
fair,
fanfare
federer,
fields.
filings
financing.
five-day
five-run
foodland
footsteps
forging
formats.
found,
fun.
gerard
get-go.
girls'
grounded
guardian
guiding
h5n1
half-century
hanoi
hazardous
heal
heavyweights
heights
heralded
hi-tech
high-ranking
historically
hiv
hold.
holland
hollywood's
homestead,
horizon.
horrific
howe
humans,
iceland
illicit
illness.
image.
implicated
improves
inacio
inc.&lt;a
inexpensive
insurgents,
intentions
intercontinental
interest.
interfering
ion
irna
islam,
istanbul
jackson,
jammed
jd
jebaliya
jelena
jerusalem:
jewelry
joanna
jukebox
karol
kate
kidnap
kimi
kingdom,
la.
laden,
lavrov
leapt
leftwich
leicester
lend
leverkusen
liabilities
lid
lieutenant
lineup.
liver
locks
lumpur:
maddux
mahmud
mallorca
mammoth
mark,
marketplace,
marseille
math
mature
mccaw
mercy
merriam-webster
michigan.
microprocessor,
millar
minerals
minnesota.
mit
mittal
model,
modify
more.&lt;/p&gt;
mtv
n.
naked
natwar
neck.
nerves
network?
neville
newmont
newsday
newsom
newspapers,
nigeria.
nordic
north's
nuclear-capable
odyssey
oh,
one-week
opted
option.
options,
origins
ossetia
output.
owners,
p-cube
pages,
pairing
pairs
pardon
pared
part-time
participated
patriots'
pattern
pavel
piper
plant,
plummer
portable,
ports
postwar
pour
poverty,
practical
prayer
prefecture
programmer
progress.
protective
protocol.
provoked
punched
punished
punta
purchases,
pursued
putnam
qb
quot;best
quot;make
r.i.
raceway
racially
racketeering
radicals
raged
railroad
ramadan.
ramp
raucous
reactions
realistic
recordings
regime.
registry
relocate
renteria
reserves.
resigned.
restitution
retire.
rfk
ridge
riggs
rights,
roar
rockets,
rollins
royalty
rsa
rudy
russias
salvaged
salvo
sanctions,
scathing
scope
sea,
seals
second-year
selecting
seo
settlement.
shanghai.
shaped
shattering
shrugging
siding
siro
slide,
slogan
slump.
softball
solomon
solution,
south.
speculative
spiral
splash
spoiled
springs,
sputtering
squad.
stabilizing
stade
stages.
steadied
steam,
stoking
storied
students,
study:
succeeds
sufficient
suite.
sunny
sunset
supplier,
supplying
supremo
sweat
swelling
thailand.
the\united
theyre
third,
thomastown,
three-point
three-year,
thumb
thwarted
till
todays
toe
tonights
towns.
traian
trash
travel.
trevor
tripoli
trophy,
troubling
turkey's
uc
ultrasparc
unbeatable
uncle
undercover
unions,
universe,
update,
vhs
video.
violations,
violations.
volunteer
waits
walker&lt;/b&gt;&lt;/font&gt;
warmer
wasnt
waterhouse
ways.
weed
wgc-american
while.
wismilak
withhold
woke
woman,
wrong,
xml
yahoo's
yesterdays
you'd
zayed
"halo
##-66
##-68
##-7,
##-72
##-73
##-8,
##-86
##-bomb
##-core
##-hole
##-red
##-room
##-setting
##-seven
##-side
##-thousand
##-torn
##09
##21
##79
##:05
##\business
##\inc.
##\maker
##\their
##\they
##able,
##aged
##ame
##aming
##ar,
##ared
##ast
##aving
##berry
##care
##co,
##come
##cracy
##cy.
##deal
##ean
##eat
##ef
##ein
##ep
##eye
##ference
##gating
##gers
##gn
##growth
##heim
##hips
##ific
##ine,
##inger
##ities.
##labs
##large
##last
##lee
##lier
##list
##logists
##lot
##lucky
##may
##mity
##mm
##nc
##nder
##nity
##ol,
##oracle
##other
##placement
##post
##public
##que,
##racing
##rance
##ren
##rence
##rling
##rner
##rts
##sa,
##said
##sco
##sle
##small
##story
##tan
##tent
##third
##ton.
##trust
##tz
##uin
##ult
##um,
##unk
##unted
##uous
##urance
##ve.
##web
##worthy
##zak
##zation
##zen
#36;2
(aol)
(fdi)
(ietf)
(service-oriented
(wmt.n:
).
-he
03,
08,
1,300
103
10g
10th-ranked
15-day
1970s,
1990
1998,
2.1
2.4
230
29.
3.1
300,000
3m
4-6
4.3
5-under-par
6-7
64,
7.7
94
96,000
\$100,000
\$17
\a
acceptable
accident,
accommodate
accountant
achieving
acknowledge
adriano
adt
advising
affects
afghanistans
agencies,
ahman
ahold
alderson,
algae
alive,
alone,
alta.
alto,
andrea
anheuser-busch
apes
appeal.
applauded
approach,
approval.
aragones
armitage
armoured
arms.
articles
asean
assure
au
authorization
average,
awards.
az
baltic
bank's
basra,
baylor
be,
beam
began,
belongs
berkshire
biogen
blair's
blames
bloodshed
blowout
boeing,
bogota,
bombings,
bordering
botched
boxer
branding
breeding
bridge,
bristol,
bros.
bruno
buffer
bulgarian
buyers,
buyers.
bye
calf
cambridge,
caminiti,
campaigner
candidate,
canucks
capacities
capitalists
capitalizing
captives
caretaker
carriers,
carroll
cassini-huygens
categories
cattle
centered
cfo
ching
circles
citizenship
clip
club's
clubs.
clung
clusters
cnn/money
cold,
college,
commissioned
communicator
companies'
confronted
connection.
consultancy
consumers'
coo
cooler
cooperating
counted,
crazy
crimson
cry
curbed
dancing
daniels
darius
darling
debated
deepened
demonstrates
depressed
deter
devised
dial
different.
digested
digitally
diminished
dipping
director.
directv
dirt
diseases.
disks
dislocated
dj
doesnt
done,
downs
dubai,
earths
education,
ejected
elevated
elliott
else,
embassy,
emergence
emmitt
emotions
employing
ends.
escalation
experts,
expiration
exploding
expos,
express,
extradite
facilities,
facility,
families,
fancy
festive
fibre
fiercest
fifth-largest
fiorina
five-point
flex
flock
floodwaters
foley
formidable
forum,
fossils
four,
franc
fruit
full-time
fungus
g20
gail
game's
gangs
garner
geico
general.
georgia,
ghz
gilles
glasgow,
gloom
goran
greenspan's
gritty
guarding
guerrouj
guidance.
guy,
hard-disk
hardest
harvard,
headquarters.
heart.
height
high-resolution
holyfield
houston-based
humanity
hurricane-related
husband,
idc.
images.
implemented
inaugurated
incorporates
infielder
info
infonet
infrared
infringing
ingram
insurers,
intriguing
invesco
iran.
janjaweed
jeddah,
jenkins,
jesse
johnson.
jungle
juniper
justified
karzai,
kettle
khurshid
kidde
kluivert
knesset
koskie
kroger
ky.
lacks
lanka's
lauded
lawless
lender,
leon
levy
liberties
liu
ljubicic
locust
longhorns
loomed
louise,
lull
machinery
macworld
management)
manhattan,
manipulate
marching
martin,
martyn
mccants
mcnealy
meal
mediation
melee
memos
merchants
merging
message:
messages.
met.
microscopic
mn
mordechai
morrison
motherboard
mothers
motorola,
multi-billion
muniswamy
muscles
mutual-fund
mysteries
nader
naturally
neighbours
netherlands.
news),
notch
note:
nt
obviously
ocean,
offerings,
offices,
on\wednesday.
one-sided
opponent.
outdated
outraged
part.
parties,
parties.
partnered
patty
paypal,
persuaded
piero
pilots,
platforms,
policies,
polio
polls,
post-season
poulter
praising
pre-dawn
pregame
premiums
presidency.
pressure.
princeton
printed
prompt
proposal.
prosecute
proteins
quality.
quattrone,
quot;you
radioshack
rallies
ramadan
ramsey
ranch
rap
rashad
rashid
readiness
reads
rebuke
reconsider
record-equalling
redeploy
refinery
refunds
regard
regina
reinforcing
relations,
remaining,
reporters.
reserve's
return.
returns.
rev.
richie
rifle
ripping
risk.
roadmap
rocketed
roster.
rower
ruling,
sara
sarkozy
scenario
scene,
scooped
scoreboard
screamed
sebastian
second-place
sehwag
sen...
senders
seville
shah
shells
shelter
shirt
shoots
shortened
shrink
shutdown
sialkot,
simmons
simms
simultaneous
single,
sixteen
skiing
smoltz
somali
south-east
southampton,
spectator
sped
spiked
stacked
staley
stand-alone
standalone
standstill
steinbrenner
sticks
storming
streams
stretches
suited
supercomputer.
surged,
swatch
swelled
teammates.
teen
tehran's
telescopes
terms,
terrified
the\u.s.
theories
three-way
thursday...
tiki
tomorrow's
tonight's
touring
track,
trapping
travel,
tributes
tsb
tumor
tunes
turmoil.
twisted
two-year-old
undecided
underscored
unionist
unpatched
vaccine,
vaunted
vernon
vfb
voters.
votes.
wal-mart,
warner,
watson
web:
week:
weighs
welcomes
wellpoint
westbrook
wheaton
windfall
winfrey
winged
winners.
woodgate
worcester
workstation
wrecked
wrest
writedown
xserve
year-over-year
year...
youzhny
yum
zhang
zurich,
"big
"very
##'d
##'m
##-3,
##-82
##-computer
##-country
##-equipment
##-equipped
##-fired
##-four
##-goal
##-hitting
##-memory
##-night
##-open
##-paying
##-person
##-ridden
##-running
##-september
##-serving
##-soaked
##-store
##-story
##-thin
##-tv
##-used
##.)
##48
##54
##69
##71
##:30
##\into
##\official
##\prices
##\technology
##ading
##ala
##ali
##an.
##ani
##asia
##atic
##b.n:
##bal
##balls
##base
##beat
##business
##co.
##com)
##dding
##dead
##dex
##dies
##een
##eled
##ennial
##eon
##erson
##ffer
##ffman
##fi
##field.
##g.n:
##gal
##green
##handed
##hawks
##hd
##heads
##heimer
##holding
##hoo
##hu
##iating
##iber
##ibm
##ids
##ield
##ign
##il,
##ina,
##iser
##iver
##ka,
##ken
##kg
##kind
##lain
##lay
##lent
##lies
##lift
##lings
##lis
##lk
##ller
##los
##lu
##massive
##max
##minating
##mous
##nal
##ncing
##nde
##nna
##nus
##ock
##oli
##olve
##on's
##oners
##oni,
##orate
##ost
##owned
##pin
##pressed
##q,
##rank
##research
##rice
##rime
##rist
##rman
##rock
##rom
##rton
##rupt
##san
##scale
##signed
##street
##te.
##that
##ths
##tore
##track
##ts.
##uding
##uel
##ues
##ulating
##ule
##ump
##und
##urs
##ush
##v)
##vi
##video
##washington
##which
##who
##wise
##wski
##ya,
#39;hare
(5)
(afp):
(cbs)
(dal.n:
(in
(islamonline.net
(msft.o:
(web
01,
04
1,400
1.9
180
1972
1995.
2-3
24-10
29:
3-0,
33-year-old
380
4-under
4:00
6.0
7-1
83
90-nanometer
96
\$13
\$21
\$225
\$52
abide
abortion
abuzz
accessible
acclaim
accompanying
actors
address.
advertisement
advisors
advocate
aeronautics
affair.
airbus.
airlifted
airtran
aka
al-arabiya
al-sistani
alamos
alfonso
alfred
alou
amanda
amman
anchor
annoying
appliances,
arch-rival
architecture,
aristide.
ash
ashburn,
associates,
astronomy
atlanta-based
auburn,
authority.
axim
bacteria
bailey
ballot.
baltimore.
bancorp
banda
basis.
batted
battering
bcci
behaviour
beirut,
belgium's
benched
betrusted
bj
blueprints
bodies,
bolted
bono
boring
bother
brawl.
broad-based
brock
brooklyn
buck
budget.
bulgaria
calendar.
campaigned
canceling
cant
capitals
capsule,
catches
cemex
census
centers.
cents.
charts
chilling
chip-making
chipped
circuit.
clara
class.
cliff
clinging
cloning.
clorox
closer.
coincide
college's
comeback.
complications
conceding
conciliatory
condemnation
condoleezza
congestion
consolation
consumption.
cooking
cosmetic
cosmonaut
countdown
counterterrorism
countless
covert
croatian
cropp
customers'
davie,
defenders
defenseman
delays,
deliberate
deng
dented
depression
descendants
deserves
desktop,
destructive
detaining
diabetes
diplomacy
displaying
dissidents
divisions.
dixon
dolphins.
doughnut
draft.
dreaded
drogba
drugstore
ds,
dunlop
dynamics
eagles,
ebay,
eclipsed
edinburgh
elan
elbaradei
emperor
enact
endorsing
energy.
engines,
englands
enthusiasts
entrenched
environmentally
episode
eradicate
erase
erode
escorted
exam
excel
exists
explorers
face-to-face
famer
farina
farming
faster,
fees.
fiction
figuring
filtering
final-round
finish.
fisher
five-week
floors
footballers
foreigners,
forensic
frankfurt,
frederick
freed,
froogle
fuel.
gallery
garage
ge
generation,
gennady
genocide.
georgetown
germain
girl,
glazer.
goods.
gorda,
govern
gp
greenspan,
gucci
guzman
habitat
hackers.
hapless
herniated
hid
hideout
hint
holdout
holiday,
hollywood,
holmgren
homosexuality
hooked
hostage-takers
hotel,
hurry
i'll
idea.
ii.
illegal,
immune
income.
instability
islam.
japans
jaw
jeddah
jiabao
jos
juice
justices
karachi,
kewell
keywords
kieren
kinds
koose
late,
lavar
lawn
lebanon.
let's
library,
lingered
liquidation
lisbon
lopez
lottery
low-power
mac.
macedonian
mack
malware
maneuver
manning,
masses
mateja
mcleish
mechanical
mediterranean
meetings.
merged
messina
mid-atlantic
midweek
minute.
mitsui
montana
montgomery
month-long
most.
mow
mudslides
musharraf,
muslim-majority
mystics
nagpur.
nathalie
nielsen
notice.
nou
nutrition
oilfield
olympia,
opec's
orchard
ordeal
orders,
oxford,
padalka
painting
paired
parked
pascal
passengers.
patents,
patents.
patriots,
pensacola,
philadelphia.
philippe
phillips
photos,
pinch
pippen
pits
planners
plays,
ponder
portrait
positions.
pounds.
pre-season
precise
predators
presiding
pressure,
principles
procession
programmers
proves
provisions
ps2
publishes
query
question,
quot;for
quot;monday
quotes
rage
rain-delayed
rammed
rangers,
rasheed
readies
recession
record-tying
recount
redesigned
reduces
regions.
reinforce
reins
relationships
reluctance
resemble
resembling
reshuffled
revenues.
review)
revolution.
rica
riddled
ring,
ripe
ritual
roddick,
rogue
romp
rooney,
rotation.
rounds.
rulon
rusedski
sake
savage
savers
savvy
scaling
scandal-hit
scorer
screaming
seismic
seizure
sell-off
seven-run
shannon
sheets
shelf
shopping,
shrank
singapore:
skeleton
slide.
slower-than-expected
slows
smokers
snag
snaps
society.
softened
song,
sparks
specializes
specializing
specter
speculate
spiraling
spirit,
splitting
springboard
squandered
standard,
stanford,
stations,
steam.
stifle
stressing
stride
students.
suborbital
subscribers,
suddenly,
suffocated
suitor
sullivan
surcharge
sway
swimmers
sydney.
taba
taba,
taiwan.
tallest
technician
tehran:
telecom,
theft,
things,
third-seeded
thirteen
thornton
three-year-old
thriving
to\the
tpc
trace
traction
transactions.
trip,
true.
tuned
tussle
tutsi
twins,
two-man
uganda
unabated
universe.
unleash
utah,
utes
va
valley,
valuing
vanderlei
vanished
varsity
venture,
ventures
vertical
vietnam,
virender
waning
wartime
watchdog.
weaken
weaknesses
weeping
whopping
wind,
wins.
wise
with.
wm.
woburn
works,
worse,
wreak
xp,
yale
yearly
yusgiantoro
ziggy
zombie
"it's
##!"
##&lt;br
##'s.
##'t
##(r)
##(tm)
##-11
##-14,
##-5)
##-58
##-62
##-67
##-8.
##-83
##-91
##-95
##-99
##-awaited
##-ball
##-clad
##-class
##-control
##-dominated
##-door
##-eight
##-inspired
##-iraqi
##-leading
##-leaning
##-listed
##-producing
##-rated
##-software
##-square-foot
##-term
##-themed
##-up.
##-use
##-weary
##-wracked
##..microsoft
##.04
##23
##39
##47
##51
##\&lt;br
##\billion
##\launched
##\quarterly
##\record
##\would
##ace
##ada
##ai,
##ald
##aling
##ance.
##any
##apple
##ated,
##aved
##bad
##bbed
##bc)
##bn.
##bu
##cal
##ce,
##chair
##check
##cho
##chy
##cking
##cludes
##cluding
##code
##columbia
##course
##cting
##die
##dom
##ea
##east
##ede
##eling
##eo
##eur
##extended
##fast
##ff,
##fication
##find
##fish
##food
##found
##ga,
##generation
##gged
##giving
##google
##great
##hg
##hino
##hl
##hood,
##hr
##iate
##iation
##ide.
##ien
##ience
##ike
##iling
##ining
##it.
##itor
##ius
##ivity
##izes
##jing
##jured
##killing
##kov
##lance
##laus
##lav
##ler,
##lessly
##life
##lm
##look
##lower
##made
##market
##mber
##media
##mel
##mented
##merica
##mini
##mps
##n't
##nan
##nce,
##ng,
##oa
##oat
##ocating
##october
##ond
##ope
##org
##oted
##ovic
##owed
##ower
##p.n:
##pected
##perform
##political
##posed
##pot
##r),
##rained
##rand
##re.
##ret
##ries.
##robe
##rolled
##rson
##secure
##sex
##shock
##sian
##st,
##stance
##state
##stroke
##summer
##sun
##tie
##tles
##tom
##try
##tto
##uate
##uf
##ught
##ulls
##unting
##ur,
##usting
##uts
##uttered
##vert
##vis
##voke
##vor
##wire)
##wn
##word
##zers
#36;100
#36;41
#39;ta
&lt;strong&gt;cash'n'carrion&lt;/strong&gt;
()
(article
(b)
(interfax)
(mpaa)
(nov.
(opec)
(voip)
----
0.9
000
10-year,
100-yard
11,000
129
14.
17-10
181
1960s
1991.
1998.
2.0,
2009,
25-year-old
3,500
3-d
3.6
330
4.75
4.8
401(k)
40th
5-11,
6-under-par
73
8-5
950
\$19
\$210
\$250,000
\$350
\$4.
\$750
a.j.
a.m.;
a9
abn
absent
accessing
accidentally
accountability
adultery
advertising,
agents,
ai
ainge
albeit
alcatel
alcs
allegiance
alliance.
alumni
alvaro
alzheimer's
amidst
amjad
analytics
anbar
ankara,
anything,
appointing
appreciate
argonauts
arrest.
arrivals
assumption
astonishing
astros'
astros.
atari
athens:
athletics.
atmospheric
authoritarian
avalanche
axed
aylwin
baltimore,
bang
barriers
basement
basketball.
bath
battalion
battlefield
beck
belgium,
believing
belong
benefiting
berkman
berth.
best-of-five
bhutto
big-money
big-ticket
blair.
boldly
booed
bowa
box,
boy.
brazil.
breakthroughs
breeders'
brewery
brighter
brokered
budget,
bursts
butterfly
buzzing
calories
calvin
cameroon
canberra,
canyon
cardinals'
catholics
cemented
cemetery
centers,
central)
certificate
certified
cfl
challenger,
chance.
chandra
chaos.
charismatic
chechnya.
cheering
cheney,
child,
circulated
clear.
clogged
coach:
collaborative
commerce,
commerce.
commercially
commissioners
competitiveness
computing,
comtex)
concludes
condemning
conferences
congo.
consolidated
conte,
contending
contest.
contests
contracting
controller
convenient
cook
coping
coronary
coruna
cos.,
cosmodrome
couch
counsel
creditors.
crime.
criteria
critics.
cromwell,
cruising
curious
cusp
cyberonics
cycle,
dame.
deadline,
dechy
deck
declined.
defy
denver,
deposit
descending
developers,
devote
diary
diaz
diego,
directions
discarded
dismantled
disqualified
distances
dna,
doctors,
dodd
dodgers,
dome.
dominates
downloadable
dr...
drained
dupont
dutchman
dvds,
editions
eligibility
elsewhere.
embarrassed
englishman
enriched
enterprise-class
enterprise.
enterprises,
erupt
evaluate
excerpts
existence
experiments.
extensions
eyes.
factories,
failure,
fairfax
farmland
fashion,
fast.
fathers
feeds
fees,
fifteen
filderstadt
firebrand
fired.
flipped
flirted
for\the
forgot
freescale
fretted
friday...
fuming
gainesville,
gambro
garret
gas,
ghosts
gilberto
global,
globally
government-sponsored
graves
guarantees
gutierrez,
hamburg
hampering
handicap
handover
hangs
hans
harbhajan
harvest
hated
hatred
hayden
header
heats
heavens
helens,
helmet
herat
hinting
hit.
hole.
homegrown
hoon
hostilities
hp,
hubs
hurt.
i'd
ice,
idg
ignited
importing
imposition
in-depth
inappropriate
increase.
indemnification
independence.
indiana.
indicator
inflicted
instrument
intelsat
internationally
invasion,
investigator
investment,
ipass
ismail
israelis,
it'll
j.d.
j.j.
jackets
jamaal
jaret
jean-marie
jemaah
jermain
jersey,
juergen
juggernaut
jumps
justice,
kazmir
kenyon
keyword
kezman
khmer
kingston,
kinshasa
kirkuk
knife
known,
kostya
leadoff
leasing
lebanon,
liberia
lighting
lithuanian
live.
logged
lost,
loudon,
lufthansa
macquarie
macy
mahdi
maine,
maradona
maritime
marty
massachusetts,
mba
mechanics
medals,
melbourne,
mentally
mercedes
messier
mice,
mickey
micron
midshipmen
migrants
miles,
military-ruled
military.
minneapolis,
misses
mistaken
morgan,
mosul.
moyes
msft
multan
murdoch,
nagaland
nas
nationwide,
navigate
nearer
neighbors.
netegrity
nets.
newcomer
newspapers.
nicholas
nixon
no-confidence
no.1
non-profit
north,
northeast.
notebooks,
noting
nurses
occur
ocean.
offenses
offensive,
ogden
ole
on\tuesday.
opportunity,
opposes
optional
oral
orleans,
os.
outfits
outpace
output,
overshadow
pace.
pacers-pistons
page,
pages.
paradise
parma
parts.
passionate
patched
patriot
pay.
pdas
penal
peninsula.
perceived
perks
persisted
pharmacies
physicist
pier
pilots.
pinch-hitter
pleasant
plot.
poles
poor's
population,
powers.
pre-market
precision
premarket
prep
preserving
prevailing
priority,
productive
profound
projects,
pullback
pummeled
punishing
punter
purposes
qcat=news"&gt;intc.o&lt;/a&gt;
quot;as
quot;if
quot;not
quot;when
rained
rainer
ramping
rankings,
ravens.
raytheon
re-election.
reap
reassuring
reconciliation
record:
recoup
refiners
regrets
regulation,
rejuvenated
relax
relaxed
relevant
remind
remotely
removable
renewable
renewal
resign.
resigned,
restricting
retailer's
reuben
revise
revoke
riyadh
rockets.
romania's
rose.
rumbling
runway
russ
sagged
salesforce.com
sally
satellite,
scared
science,
sclerosis
scotland,
scramble
screens.
searchable
semi-finals.
seminoles
sentiment,
separating
servants
set-top
setup
shakhtar
sheep
shell,
sherman
shipments.
shortage.
shouldn't
showed,
shuttles
singh.
sinking
skepticism
skulls
slack
slightly,
slowest
slowing,
small-
smart-1
smartphones
smash
socks
softer
somebody
spawned
spends
spinoff
spirited
splinter
spyware.
srinagar
staffing
stage,
staggering
stake.
startling
static
storm,
straight.
streets.
stricken
stroke,
strong.
stumps
style.
succeeding
suggest.
summed
summer's
surfer
survival.
swirling
telemarketing
telephones
terror,
testing.
things.
three,
three-match
three-quarters
threshold
tibetan
tiffany
tones
totmianina
translate
transmit
tree.
tremendous
trounced
true,
trusts
ukraine,
ultra
unconstitutional
underlining
unfolding
unify
unisys
unprofitable
unseat
upping
uribe
user.
uzbekistan
vacationing
variants
varitek
version.
viable
vicious
villarreal
voip,
wacky
wagner
warfare
warsaw
waters.
weekends
white-collar
why.
wi-fi,
wife.
wifi
wilkins,
winds,
wonders
wong
wont
woods.
wrongly
x-prize
##-25
##-51
##-76
##-77
##-85
##-cent
##-centric
##-chip
##-covered
##-cut
##-cutting
##-hungry
##-low
##-office
##-par
##-per-share
##-player
##-profile
##-television
##.,
##.to:
##34
##37
##41
##72
##8th
##\&lt;font
##\computer
##\not
##\profit
##\security
##\some
##ahan
##aka
##ama
##bbing
##bel
##bir
##bn,
##bury,
##bus
##bush
##chairman
##ci
##ciation
##ck,
##ck.
##cks
##core
##cut
##das
##day,
##del
##din
##drive
##dt
##e"
##earth
##ect
##eers
##ent.
##est,
##ester
##et.
##eter
##ew
##eyes
##ez,
##face
##finding
##fing
##first
##fisted
##frican
##gage
##gation
##gent
##gh
##glass
##good
##gs,
##had
##half
##han,
##har
##having
##head.
##hertz
##hn
##ho,
##holiday
##hunt
##iary
##ic,
##ich
##iculous
##ident
##ifa
##ife
##ility
##ils
##imate
##ishing
##ista
##istan
##izzle
##ke.
##ko,
##las
##less,
##less.
##lio
##lled
##lous
##lying
##mac
##mit
##mmed
##nas)
##nated
##nch
##networks
##nish
##nko
##oes
##ols
##oos
##oral
##orted
##osis
##pable
##ple
##position
##rawl
##rea
##released
##rier
##rik
##ril
##risk
##rmed
##rms
##ronics
##rooks
##rtment
##s.n:
##scious
##se,
##seed
##show
##spyware
##tage
##target
##tating
##telligence
##this
##throat
##tly
##tree
##tric
##trol
##ty-five
##ull
##unded
##united
##ur.
##urable
##urg
##urning
##uss
##vating
##vel
##venture
##very
##vs
##watchers
##well,
##wer
##where
##why
##wl
##written
##xia
##y)
##ye
##yers
##yn
##zhou
#36;20
#36;5
&lt;strong&gt;site
(about
(goog.o:
(intc.o:
(ioc)
(irin)
(rfid)
(singapore)
06,
100m
101
105
107
12th-ranked
14,000
150,000
18,000
1918.
1980s,
2005-06
202
20th-ranked
31.
35-year-old
4x100
5.4
5.5
50-yard
550
6.1
60gb
8-under
8-under-par
8.5
80,000
850
\$10,000
\$2.1
\$295
\$70
abimael
absolute
acer
acquisition.
addition,
adjourned
adults,
advantages
advice.
affiliated
ageing
aggravated
airplanes
akin
al-masri
albertsons
albums
alerts
allay
allegations.
amassed
american-led
amount.
amro
answer.
anthrax
anticipated,
antidepressant
aol,
apologise
apologised
apparently,
approach.
arabs
aramis
argues
ark.
arms,
artists,
ascent
ashes
aspiring
assaulting
assisted
assists,
astronauts,
audience.
azeri
b.c.
badawi
bar,
barnier
barometer
baseball:
basically
behemoth
beit
bent
berlin:
best,
birthday,
blast.
blessed
bombings.
book.
boone
boss,
bottles
boxers
boys'
brass
braves.
break,
breakdown
brewer,
bronson
brushing
bulletin
butt
cabinet,
calculated
campaigns.
canaveral
candidates,
capacity.
career-best
carnegie
carnival
carved
castle
cathedral
cautiously
centre,
ceo.
ceremony.
challengers
champions,
changed.
chapel
charley.
cheaper,
cheated
cheers
chennai
chevy
chile,
chirac,
cios
cisco,
civic
climax
codenamed
colorful
colors
come-from-behind
commemorate
commuter
confined
confronting
consequences.
consuming
contrary
convergence
cooled
countered
court-appointed
crash,
craven
creek,
crisp
cross-country
cruz
crying
cushion
daiei
daring
davies
debating
debit
default
defoe
delhi.
dell's
demolished
density
depends
deport
deserter
destination
detainee
dictatorship
directors,
disputes.
distinguished
ditch
do-not-call
dolphins,
dominance.
dope
dover
downturn
dress
du
early,
ears
economies.
edwards,
effect,
eiffel
el-hadji
elbaradei,
embarked
emissions,
enterprise,
ernst
eroding
espn2
esteban
eto
eu,
evaluation
ewood
exhibit
expression
facility.
failure.
fallon
far-right
fate.
fending
fiber
fiercely
fifty
finalist
finalizing
finances.
firefox.
flamboyant
flesh
flip
flotation
flush
fold
folded
forefront
forfeit
forgive
forwards
foxboro
francisco:
fraudulently
freddy
free-trade
freshwater
friend,
frightening
fulfill
fulfilled
fusion
gainers
gamers.
gauhati,
geologists
georgetown,
gmt
goaltender
golf,
gonaives
goodenow
grasp
grieving
grinstein
grocer
grouse
guardsmen
guides
hail
hall.
happened.
harper
hasselbeck
hawk
hazard
hears
heat,
henne
henson
her,
hijacking
himself,
holiday.
hospitals,
howell
hp's
huddled
i.b.m.
i5
impairment
implant
implanted
imports,
impression
in-house
incomes
incredibly
indecency
indicates.
ingredients
initiative,
inject
injected
inroads
insights
installment
institute.
internally
intraday
investigative
inviting
irina
islanders
isnt
israels
jean-pierre
jitters
jordan,
kamal
kbr
kick-start
kickbacks
knock-out
know.
knoxville,
kumar,
laden.
lamy
lapse
larkin
late-night
latrell
laugh
laundry
lee,
lennox
leonard
leroy
like.
lippi
loans,
logo
longer-term
loopholes
louise
lower-cost
lows.
loyalists
macedonia
machine,
magnate
malaria
man's
manipulated
many.
marcello
market-leading
mass.,
massed
matter,
maui
mayorga
measures,
mega
mercosur
mess
mid-air
migrating
militia.
mineral
mini.
minimal
minivans
mirage
mistakenly
mittal,
molina
mom
money-losing
monti
motion,
mourned
mph,
mulling
nacho
names,
napster,
nascar's
nations'
nearest
needed.
negligence
neighbor
nepali
nestor
news.com's
next.
nicotine
ninth-ranked
nod
nominate
norman,
norway,
novo
nudge
nudged
nyunt
obligations
occasional
offseason,
on-line
open-air
opening-round
opponent,
orbit.
order,
oslo,
ossetia,
outlasted
overs
ovitz,
pacers,
packet
page.
paintings
pakistanis
panathinaikos
partnerships
password
patient's
patriots.
patrolled
patrols
payments,
peacekeepers.
pence
periods
permission.
perry
petersburg,
petrova
phenomenon
pilgrims
pinpoint
plain
plane,
plugging
poaching
pondering
pool.
population.
powerhouses
prairie
president-elect
print,
proceedings.
producers,
professionals.
proliferation
pronounced
property.
pulsating
punching
purge
purposes.
pyongyang's
qcat=news"&gt;ibm.n&lt;/a&gt;
qualifying.
quarters,
queries
quot;is
quot;our
quot;they
radically
ralf
raped
rapids
rato
readied
readying
reaping
rear
recipients
recognise
reebok
reform,
reform.
reforming
regulated
rehabilitation
relegated
relied
remain.
remake
requirements.
reservation
reshape
resources,
resurgence
reviewer
revisions
richards
richmond,
right?
rip
risked
risks.
rix
robbins
rochester,
rocket,
rockies.
ronaldinho
rosy
rotator
rulers
rumbled
rumored
running.
rusty
sabre
sacks
sailed
sakhnin
sanchez
santini
saturday...
sauber
scarce
sci-fi
scores,
scotia
scotland.
scourge
scramjet
screens,
scuttle
search-engine
searchers
secunia
seldom
self-proclaimed
semiconductors
seniors
serbia-montenegro
seven-week
seventh-largest
severity
shadows
shalom
sham
sharm
shedding
sheik
short,
simona
size=-1
skater
skipped
slept
slips
sluman
smacked
soderling
solidarity
son.
sony's
sovereignty
spaces
spacewalk
specifically,
sprewell
sprint.
staring
status,
steals
stealth
stern,
stoops
story,
straining
strains
stranger
strategists
streamline
stress
strife
strife-torn
strikers
stronghold.
suit,
sultan
sunshine
surpass
surprise,
suzuka
swainson
swarm
sweep.
swim
swinging
symptoms
tabloid
tackles
tactic
tales
taxus
tds
tech.
tedford
telephoned
telescope,
tempt
terms.
terrestrial
textiles
thanksgiving,
thereby
they'd
thinner
threat,
three-man
tie-up
tilt
timed
timely
tires
tn
tokyo:
top-10
top-selling
torii
transcript
transparency
trap
travelled
tressel
troublesome
trough
trusecure
tube
turkey.
turnover
ubisoft
ulmer
uncertainties
unconstitutional.
underway.
unfortunately,
unhurt
uniforms
unleashing
upsetting
upside
us-russian
user's
vancouver,
venezuela,
vetoed
victims.
village,
vinny
visions
visitors.
voice-over-ip
vow
voyage
waging
wales,
walkout
wang
washington-bound
websites.
wed
weekend's
wheat
window.
winning.
winnipeg
with,
withholding
works.
world-record
worn
worshippers
wwf
yemen
yorkers
yukos'
zaragoza
"no
"spyware"
##'re
##'s,
##-106
##-13,
##-30
##-4)
##-64
##-81
##-brokered
##-card
##-cash
##-deep
##-half
##-hundred
##-hunting
##-in-law
##-nine
##-pakistan
##-processing
##-stop
##-stricken
##-testing
##-trading
##.o&gt;
##/04
##/san
##08
##26
##29
##3,000
##42
##66
##\before
##\demand
##\european
##\expected
##\higher
##\investors
##\new
##\oil
##\other
##\prime
##\rose
##aching
##ad,
##ae
##af
##al.
##aneous
##ank
##aper
##arian
##ark
##ash
##athy
##ayan
##aying
##bc
##ben
##bound
##building
##call
##called
##child
##cio
##clusive
##coast
##critical
##ctions
##dication
##dome
##drop
##e's
##eal
##eded
##eered
##eign
##ele
##ell,
##eller
##en.
##ences
##erating
##erman
##erra
##eted
##feld
##fell
##fit
##french
##ful.
##gan,
##gee
##gins
##graceful
##ground
##gue
##gun
##hard
##here
##hers
##hical
##hire
##horse
##ibly
##ice.
##icial
##ida
##iders
##iena
##iful
##igned
##iko
##illy
##inary
##inity
##ish.
##ita
##ital
##je
##ject
##kins
##ku
##lamic
##least
##leg
##lie
##lied
##lizing
##logist
##lue
##lved
##lving
##machine
##mas
##master
##mc
##men,
##ment,
##mid
##minated
##mming
##moon
##mpered
##n),
##na)
##nard
##neft
##nel
##net,
##nger
##ni,
##nia
##nian
##nne
##ns.
##nt,
##ntial
##ode
##ola
##onia
##opic
##oration
##ortion
##ota
##ote
##ots
##otting
##ource
##paper
##peace
##pel
##peoplesoft
##player
##print
##prise
##ps)
##puting
##quiet
##rab
##raising
##rative
##reak
##real
##reat
##rected
##rell
##rent
##ressed
##rest
##ria,
##riano
##ridge
##rin,
##rish
##rrow
##rwin
##season
##sell
##sgraceful
##shi
##sin
##ssa
##ssed
##stal
##sted
##stop
##storage
##strong
##sus
##t&lt;/a&gt;
##t),
##tained
##th-minute
##through
##to,
##trade
##tta,
##ttered
##ty,
##ubbing
##ughed
##uis
##unate
##unction
##urie
##uster
##utter
##verse
##vic
##violence
##wiki,
##win
##workers
##xt
##yan
#36;3
#36;9.2
#38;t
#39;keefe,
#39;o
(agi)
(asean)
(cn:
(doj)
(nl)
(rim)
(sec)
0.8
05,
100,
106
112,000
12-year-old
121
148
155
15th-ranked
1970s.
1995,
200m
22:
254
31-17
33,
49ers.
6-3.
6-7,
6:
7.5
7.8
7;
8-2
81
98
\$1,000
\$1.67
\$2.8
\$280
\$29
\$4.2
\$650
a's
aapl)
absorb
absorbed
abuses.
academics
accessed
accidents
addicted
aeronautic
airborne
al-qaeda-linked
al-sadr's
al-sadr,
alarmed
algerian
all-cash
all-rounder
allocation
alpharma
altoids
amare
america"
ames
andrews,
angels.
annals
anti-american
anti-terrorist
antonio,
app
appreciation
argentina.
arizona,
armando
arranged
aspirations
assailants
assault,
assaults
assembly,
astrobiology
ate
attempt.
audiences
automaker,
automobiles
averaged
awami
award-winning
ayman
azzam
backlash
backward
badgers
ban.
bangalore.
banking,
banners
barroso,
bart
basketball:
bay's
beefed
begin.
believe.
bertrand
beverly
beyond.
biblical
bigger-than-expected
billiton,
boilermakers
bombardment
boot
bottler
box.
boxes,
boyfriend
brain.
brand-name
breached
bridge.
bridis
brighton,
bristol-myers
brush
buildings,
buildings.
bulletins
bungie
burnett
buying.
cable,
cahill
calendar,
calif.-based
californian
calmly
camcorder
cameras.
campuses
can-spam
candidate.
cannons
captors.
carcasses
cashing
casualties.
cbi
cementing
charley's
chart),
chechens
chi
chidambaram
chill
chinese,
chores
circuits
citibank
city:
cj
classes
classmates
clear:
clears
cleveland.
clients,
coalition,
collapse,
colossal
companion
comparable
competitions
complement
complete,
complete.
compulsory
concacaf
condition.
condolences
conduct,
conference's
confusing
conglomerate,
congressman
contentguard
controllers
controls.
controversy,
cordless
corp.&lt;a
countrymen
courthouse
courting
coxless
cranes
credits
crimes.
crises
crocodile
crosby
crowd,
crown.
crumbling
crusade
cubs,
curbs
custody.
cut-price
dame,
damper
dangerous,
daniela
daughters
deaths.
debutant
decades-long
defects
deficits.
delay,
delio
dell.
demands,
department's
deployment.
devin
dictionary
diego.
digital-music
diluted
dinara
dining
directs
disagreed
disappointment.
discourage
discriminated
disguised
display,
district,
donetsk
drenched
drives,
drubbing
duce
dye
earl
earmarked
earns
earthquakes,
ebay.
edgbaston
edt
education.
egg
eidur
eight-under-par
eleanor
electron
eluded
embracing
emotion
ended,
endure
enzo
euro's
exchanging
expansion,
expenses,
explode
exporters.
extension,
eye,
f5
fabio
facilities.
faint
fair.
falsifying
famously
fanned
fargo
farmington,
fearing
ferenc
fia
fighters.
fiji
fills
finally,
fine,
fist
fixed-income
flagging
flashpoint
flawless
flintoff
flores
flowers
fonterra
foreigners.
forest.
four-hour
four-shot
framingham
franchise.
fratello
friends.
front-runner
ftc
fuels.
fugitive
fury
futuristic
g5,
gain.
gainesville
gallons
gandhi
gap.
gaping
gaps
geek
geiberger
generali
georgia's
georgia.
ghost
gillespie
glad
glasses
gnome
gogh,
going,
goldcorp
golds
goodyear
governments,
grappling
greeks
greens
grocer,
grossman
groundbreaking
groundwork
grouping
growers
gudjohnsen
guns,
hakim
hale
hall,
hamm,
handles
handy
happen,
happen.
hardware,
harness
harrah
hassan.
have.
hawaiian
hbo
he,
healthier
henderson
henkel
hicks
hideouts
high-powered
historians
hitters
hockey,
hordes
hostess
hsien
hughes,
humiliation
ibf
ibms
ibrahim,
id,
idec
idle
image,
imprisonment
indianapolis.
industrials
inf
infections
infosys
insiders
inspect
inspiration
insurance,
insurgency,
intro
intruders
intrusive
invites
iowa,
ivorian
ivy
jakarta:
jane
jared
jaschan,
jenin
jennings
jittery
jones)--the
jong
judge's
julie
jurisdiction
kasuri
kde
kenya's
khan,
kitchen
kong's
kvault
labels.
labor,
lahore
lama
lambeau
landfall
landing,
landon
laughing
leaking
leaped
leave,
leg-spinner
lengths
leveled
lg.philips
lifecycle
light.
liquidity
looms
loosen
low-income
lowly
loyalty
luggage
lukashenko
luther
luxembourg,
mac,
mach
made,
madrid:
major-league
makeover
malaysia's
malaysia,
mandated
manner.
maple
maps
marta
mask
materials.
mathematics
meddling
medicine.
medtronic
mellon
messenger,
met,
mg
miaa
mich.,
mid
misdemeanor
mislead
mobilesoft
moises
molecular
momentum.
morale
moscow's
most,
most-wanted
motivation
mpaa
muammar
much,
muller
multi-month
murder.
nadu
nanotechnology
nba's
nears
nedved
nepal's
net,
nicky
nicole
nit
no-frills
north-east
now?
oath
occasion
occurring
of\its
offensives
ojiya,
olivier
on\friday,
on\saturday
once,
one-year,
opponents,
opposition,
opting
optus
or,
organised
organizations.
organizer
otherwise,
outlines
outsource
overlooked
paced
packers.
pad
palmeiro
panda
paralympics
partnership,
pass.
patches,
pau
payout
peirsol
peja
penenberg.
penetration
perched
percival
permits
personally
pew
pharma
pictures.
pioneers
pirate
pitcher.
pizza
places,
planes,
planes.
planets.
poland.
pool,
popping
positioned
practice,
pradesh
prisons
programmes
progress,
progressive
prohibiting
promptly
prop
propaganda
proposes
pros
protocol)
publicized
pumps
quadruple
qualifier.
quicker
quit.
quot;all
quot;do
quot;what
radio-frequency
ramadan,
rampage
rangers.
ranieri
rapper
ratify
rational
rbc,
rcmp
re-run
reach.
reacting
reagan
really,
rebellious
receded
reciprocal
reclusive
recognizes
redskins,
refer
referees
reforms,
regent
regulations.
relief.
relocation
rentokil
reopening
repairing
repairs
repeating
requirement
rescheduled
resembled
respiratory
respite
responsibilities
restructuring.
retirement,
retrieve
rev
rice,
riches
rig
right-handed
ringtones
risking
roadblock
robbery
romped
ronnie
rousing
rsquo;s
ruins
ruled.
russian-us
rutan,
safe.
sailors
sanctioned
sanderson
sang
sargis
school-record
schoolchildren
scottie
script
see.
seiko
self
sempron
sets.
settles
seven-under-par
sevenfold
shakes
shamed
shelton
shine
shoddy
shoppers,
shores,
shosei
shoulder,
shouting
shunned
signatures
sihamoni
simple:
simultaneously.
sisler
sizzling
skidded
slovenia
smb
snapshot
soas
sober
socceroos
society,
sol
somalia
soul
sources,
southampton.
sovereign
spaceflight
spaniards
splashing
spots.
spreads
square.
stacks
stake,
stand,
stand-in
stand-off
stevens
stockbroker
straight-sets
strictly
strides
striker.
striving
style,
subaru
submarines
subsidy
successful.
successor.
summit,
superspeedway
suspension,
suspension.
sweden,
sweetened
swipe
swiss-based
symbols
syndrome
t.
tallahassee
tallahassee,
tame
taps
technically
telefilms
televisions.
tempered
tennessee.
terrific
testers
testing,
tests.
themselves,
therapy
think.
thorough
three-hit
tidal
tie.
tinsley
touts
township
trails
transatlantic
transforming
transitional
treason
trilogy
triple-a
triumphant
tuesday:
tvs,
twice.
two-goal
u2,
ulster
unavailable
uncover
undergone
unfamiliar
unsuspecting
unused
unwilling
uphill
upright
users'
utah.
valuation
vanderbilt
veil
vienna.
vienna:
viruses.
vizquel
waged
waking
warlords
wars,
wasserstein,
webb
weightlifter
wife's
winfs
wisconsin.
wizards.
womens
workout
worms.
x,
xerox
xi
yours
youths
yuri
zambrano
zetter.
zook,
"it
"this
##",
##-22
##-40
##-52
##-53
##-59
##-7.
##-74
##-84
##-9,
##-98
##-age
##-cap
##-capacity
##-city
##-december
##-device
##-double
##-express
##-fold
##-go
##-independence
##-light
##-nanometer
##-phone
##-profit
##-ray
##-school
##-speaking
##-stock
##-strength
##-type
##-users
##.&lt;br&gt;&lt;font
##.2004,
##.75
##.t&lt;/a&gt;
##00,
##1)
##33
##38
##6th
##7,000
##8,000
##80,000
##\$7.4
##\\this
##\\yahoo
##\according
##\back
##\commission
##\companies
##\federal
##\group
##\had
##\killed
##\report
##\services
##\strong
##\talks
##\while
##aar
##acle
##act
##acy
##adler
##ally,
##am,
##ament
##ana,
##aned
##arted
##ata
##atics
##avo
##bby
##billion
##bis
##both
##boxes
##british
##broken
##ca,
##cca
##ccess
##cd)
##charged
##chase
##chat
##chemical
##chin
##china
##cia
##ciated
##cl
##claimed
##cq
##cs,
##cular
##cy,
##dan
##date
##dated
##dget
##dicate
##dicated
##done
##e.n:
##ecast
##eck
##edia
##electronics
##elling
##ement
##enting
##erie
##erty
##eting
##every
##ewed
##fear
##fected
##fifth
##firing
##fraud
##full
##gel
##gie
##gin
##gned
##h)
##h.n:
##halk
##hong
##hurst
##ias
##ib
##ick,
##ier.
##iff
##iking
##illion
##inating
##incts
##ing"
##ingham
##int
##inz
##ips
##iro
##istent
##itude
##iya
##ization,
##ization.
##japanese
##juan
##jury
##k:
##kman
##known
##l's
##l.n:
##l.o:
##l:
##laze
##lch
##lden
##led,
##lege
##les,
##lice
##liest
##likely
##lished
##lit
##llar
##lman
##loads
##logical
##lore
##ma.
##macy
##madden
##main
##mand
##mass
##member
##men.
##mer,
##mhz
##military
##mpt
##nary
##neck
##net.
##neutral
##news
##nit
##nizing
##nose
##nted
##nting
##ny,
##o),
##olicing
##ont
##oon
##oped
##open
##ora
##orous
##ou,
##ow,
##pace
##pal
##phed
##phones
##pointed
##port,
##ppiness
##r.n:
##rael
##ranking
##raught
##rawled
##reating
##rey,
##ri,
##rica
##ries,
##rion
##rising
##rls
##rment
##road
##roliferation
##ronged
##rous
##rred
##rted
##ruction
##s."
##s.com
##sa)
##sam
##sb
##scientists
##screen
##se.
##sept.
##ser
##service
##sher,
##shop
##site
##source
##stable
##stan
##still
##stract
##taining
##tale
##tep
##tered
##tering
##than
##ting,
##tity
##tted
##ttering
##ulled
##uma
##umes
##umped
##unning
##urd
##us.
##vc
##vention
##vered
##waves
##weather
##wire
##xi
##yce
##yle
##yuki
##zon
#39;a
#39;connor
#39;t.
#39;the
(1)
(a
(bcci)
(bpd)
(esa)
(im)
(lcd)
(orcl.o:
/prnewswire/
1,000th
1.8-inch
10(tm)
10-3
114
17,000
188
1965
1981.
1997.
2-year-old
200th
2011
213
21:
24th
260
27-6
27-year-old
27.
28-year-old
3-year-old
3.4
3.8
30th
350th
3:
4-under-par
400,000
41-10
5.2
500,
57,
761
765
77.
8-1
87
\$1.7
\$13.5
\$36
\$550
\$7.2
\$80
\$9
ab,
abbott
abdication
aboriginal
absentee
acceleration
accomplish
accords
addictive
adelaide,
adrift
agenda,
agent,
ahead.&lt;/a&gt;&lt;br/&gt;solaris
aids,
ain
airlift
airwaves.
akhtar
albany,
alexandria
all-new
allen,
alleviate
ambassadors
amp;p
analysts,
anderlecht
andreas,
andres
anew
ante
anti-corruption
anti-government
anticipates
anticipating
apologize
applications\side-by-side
approves
arbor,
archive
arraigned
arrests,
arteries
artest,
asia-europe
assemble
asserted
assertion
assessed
assignment
assistant,
athletes,
attempt,
autonomous
awash
back-tax
backstroke
bahrain
baikonur
bailout
baird
balkan
ballmer,
ballpark.
bangalore:
bangladesh,
baquba,
barren
baseline
basis,
batter
beaming
beckham,
believe,
bench.
bend
bertuzzi
bills,
bipartisan
blizzard
bloc.
bloodied
bollywood
bombarded
bottled
bowls
brake
breathe
breathed
breather
brighton
briny
british,
broadening
brockton
brokerages
brown.
brussels:
bucharest,
bumped
buoyant
businesses\to
butler
cabinet.
calculate
calculations
calling.
calpers,
canal
candidacy
captains
caribbean.
carmakers
carve
caucasus
cdma
celebrex,
centrifuges
centuries,
cerberus
certainty
certification
ch.
championed
changed,
channel,
charge,
checkpoints
chilcott
cigarettes
cincinnati.
clashing
clearest
clips
clocked
clone
closer,
clouded
clubhouse.
clustering
coaches,
coasted
coca
cognos
cohen
collapsed,
collectively
cologne
colombia,
colts.
column,
comeback,
comedy
comets
commands
commuters
compares
compatriots
complex,
complexity
concede
concentrations
concerned,
concessions.
connections.
construct
contemplating
contesting
continent's
continually
continuous
convertible
cores
correspondent.
cosmonauts
countryman
county.
cracks
cricketer
cross-licensing
crumbled
cursing
custody,
cutcliffe
darlington,
darwin
deacons
dear
decisions.
deepen
defected
defused
del.
delicate
delio.
democratically
democrats.
demon
deserve
desktops,
despair
diamondbacks,
digitize
discounting
disorder.
distinction
diversify
dividends
dividing
dodgers.
does.
dolly
donate
door,
dormant
dorsey
doubt,
drive-by
dup
durham,
dustin
e-voting
eagles'
echoing
eclipse.
eddy
edmonds
effort,
els,
elsewhere,
embark
emotionally
empire,
engagement
engine's
enlarged
enriching
enthusiastic
equalizer
evident
examines
exempt
existed
exited
expel
expires,
exporter.
expose
exposing
extinction,
extract
eyed
fabrice
factors,
faithful
faking
fani
fashionable
father.
favoring
fears.
feature,
feisty
fever
feyenoord
fields,
figure,
filderstadt,
file-trading
finalize
finish,
firefighters
fischer,
fish.
five-stroke
five-under-par
fixture
floor,
floyd
focal
foil
folders
foma
foods.
forever.
forgiven
form,
frattini
fray
friendship
ftse
gallacher
gasol
gates.
gautam
gemstar-tv
gen
generals
genius
geopolitical
gibson
gill
goalie
golfing
golovin
governor's
governor.
graphics,
greensboro
gregg
grow,
guard.
guessing
gund
hague.
hall:
halve
handhelds
handlers
hardware.
harrigan
havas
hazard.
headquarters,
heap
heather
heaven
heck
help,
herat,
herbert
hesitate
high-risk
hijackers
hinder
hodge
hokkaido
holdings.
holt
homo
hopes.
households.
houston's
human-to-human
humble
identical
identities
iger
illustrious
important,
impress
inadvertently
incarnation
inch
incident,
increase,
increases,
indeed,
indexing
industrialized
innovations
inside,
insolvent
instant-messaging
insurers.
intensely
interact
interaction
interbrew
intermittent
internationals
interrupted
intruder
invention
invitational.
iraqis.
iseries
isle
j2ee
jackpot
janeiro
jaschan
jaynes
jeopardy.
jetliners
jets'
jfk
jordan.
jt
jubilant
julia
k.
karen
kernel
kids.
kirkuk,
kolkata,
koreas
labeling
lacking
ladainian
last-place
latvia
lauryn
leaning
leaping
leave.
left-leaning
lens
leopard
levi
liberals
lifeline
lindsey
liquefied
listened
loaiza
lobbed
locations.
lockyer
lodging
logistical
lonely
longer,
longstanding
look,
louis.
lousy
lover
low-end
lows,
lukas
lukoil,
maccabi
magpies
mail.
making.
makybe
mandelson
mangled
manning.
manufacturers,
mare
marketing.
marquis
maryland.
mass-mailing
mb
meadows
medicines.
medimmune
megapixel
mello
member.
mend
merchandise.
messages,
meters.
mhz
mid-october.
million-dollar
mind,
miner,
mirnyi
mistake.
mistakes.
mixture
mobile,
mobiles
mobs
mode
monstrous
monza
moore,
more\reasons
more\than
motions
mountaineers
move\your
mph.
muhammad
multifunction
murder,
museum,
mushroom
muslim,
muttiah
myriad
n.f.l.
nabil
nail
neighborhood,
netsuite
networked
neutral
nickname
noguchi
norway.
novar
nurse
ny,
o'keefe
observe
observing
occurs
offensive.
offer&lt;/strong&gt;
ok
okinawa
olowokandi
ominous
one-way
oneill
opteron(tm),
orbital
os:
other's
ought
overall,
overall.
overheat
overheat,
pakistans
parallel
pare
parting
partner.
passes.
paterno
patiently
patrolling
peacefully
peach
pearl
penguins
peninsula,
pennant.
pepper
perspective
pessimistic
petro-canada
peugeot
phenomenal
photos.
physically
pick.
piloted
pinned
pitch.
pitches.
pitted
plants.
platform.\like
platforms.
pleads
plugged
poet
pollution.
polo
positively
possibilities
postage
postgame
powers,
prayed
precarious
presidency,
presumed
preventive
printers,
prius
pro-government
pro-western
professionals,
profiles
promise.
proposal,
proposition
protections
publications
purporting
purveyors
qaeda,
qaeda.
queue
quickly,
quot;big
quot;digital
quot;more
r.i.,
raines
rattay
re-election,
react
receivers.
reclaimed
reeled
regaining
regions,
relegation
relievers
reminiscent
rendezvous
renewing
reporting.
reproductive
reservist
resigns
resolved,
restatement
resting
restraint
retaining
retaliatory
reunion
reunite
revelation
review.
revising
rheumatoid
rigs
rises.
roam
rocket-propelled
romano
rooms.
sabres
safeco
safety,
salle
satellite.
satisfying
saturn,
scheduling
schering-plough
schnyder
schwartz
scores.
scratched
seething
selloff
sentencing
separately
seven.
seventh-seeded
sharon.
shiny
shirts
shoes,
shooter
shortage,
shots,
showers
shrines
sidney
siege.
signalling
sihanouk,
silvan
situation,
six-game
six-under
sixth-seeded
size,
slate
sliced
slugging
smart-1,
snoop
soccer.
sociedad
sony.
souvenir
sox'
sox's
sp2.
sparc(r),\amd
spared
spartans
speech-recognition
spot,
square,
squared
squash
squibb
srinagar:
staking
stalemate
stalinist
stands.
star's
started.
statement,
statham
stay.
stearns
stmicroelectronics
stop,
stoudemire
stray
streamed
streets,
strength,
stretching
structure,
studio.
stuff,
sub-saharan
succeed,
successful,
sucked
sum.
sunlight
suppliers.
supply,
surgical
suspense
suv
swath
switkowski
swoop
systems.\discover
t-shirt
t42
tablets
tabs
tae-young
tail
tapes
tar
tasks,
tate
taylor,
teeth
telco
tellier
tennis.
teresa
themes
thing:
third-place
thoroughly
three-set
three.
tightening.
tin
tip-off
tippingpoint
today.&lt;/p&gt;
tomjanovich
torri
touchdown.
tour's
transferring
transit
transmitted
treasure
twinkies
two-and-a-half
two-year,
umbrella
underwater
unexplained
unix-based
unocal
unscheduled
unsold
untapped
unwelcome
up-to-date
upgrade.
uphold
upsets
upsurge
utter
valentin
varied
venture.
versatile
veteran,
videogame
vinatieri
visit,
voters'
vt.
walgreen
wallabies
walsh
warning,
watchdogs
weblogic
weird
west-leading
whampoa
widow
wielding
wilmington
wirelessly
wolfpack
woman's
woman.
world's\largest
writers.
yacht
yangon
year-end.
yorke
you?
yuganskneftegaz,
yukos.
zapatero
##'ll
##,500
##-101
##-102
##-48
##-55
##-6)
##-6.
##-97
##-a-share
##-a-year
##-and-a-half
##-appointed
##-biggest
##-billion-dollar
##-break
##-center
##-china
##-clearing
##-delayed
##-elect
##-faced
##-foot-long
##-for-5
##-ghz
##-gigabyte
##-government
##-heavy
##-ins
##-irish
##-israeli
##-kilometer
##-layer
##-megapixel
##-mobile
##-national
##-neck
##-popular
##-price
##-six
##-tech
##-than-anticipated
##-throwing
##-trial
##-tuning
##-u.s.
##-weapons
##-white
##.01
##.95
##.nas)
##/london
##0)
##13
##1st
##2000
##250
##43
##53
##58
##62
##63
##7.5
##76
##77
##8.2
##8.8
##81
##91
##92
##:01
##\because
##\biggest
##\i
##\industry
##\last
##\sales
##\states
##\up
##after
##age.
##ahi
##aign
##aire
##aled
##ane,
##as)
##atch
##ati
##ato
##av
##bat
##bbled
##big
##bons
##books
##boro
##bs)
##camp
##cc
##cept
##cess
##christmas
##close
##com.
##cratic
##cturing
##cue
##dal
##days
##democratic
##den,
##der,
##dirty
##dm
##dor
##dous
##downs
##dth
##eds
##eed
##ence.
##ening.
##eption
##equity
##ess.
##ested
##fat
##fessed
##fession
##ffirming
##ffling
##finished
##ford,
##four
##free
##from
##game
##gard
##gc
##general
##ger,
##gr
##hafi
##head,
##highly
##house.
##i),
##iable
##iably
##icker
##icles
##ico
##ides
##iding
##ificant
##ime
##imo
##inks
##ional
##ipped
##ira
##is.
##isa
##ites
##ive,
##izer
##j,
##jack
##jection
##jo
##kick
##l).
##la.
##lancing
##lant
##lated
##lights
##lik
##line.
##lined
##ling,
##lle
##lls
##ls.
##lum
##lux
##mann,
##masters
##mation
##mc)
##mers
##mire
##mona
##more,
##mother
##mped
##n&gt;,
##nah
##nding
##ne)
##nest
##network
##nica
##nical
##niffing
##night
##no.
##och
##ogged
##ohn
##oi
##oil
##old
##ono
##opers
##oran
##oto
##oud
##out.
##pa:
##pe,
##pier
##pine
##plane
##planned
##pling
##pour
##pper
##prepared
##promising
##pt.
##pted
##ptive
##pton
##q.pk:
##qi
##quid
##raised
##rame
##rash
##rass
##recting
##reed
##reported
##rgent
##riate
##rical
##rics
##riding
##riel
##rits
##rive
##rne
##rook
##rove
##rryl
##rse
##running
##russia
##sable
##seen
##shell
##short
##sions
##soldiers
##something
##stream
##stro
##t.n:
##tail
##tc
##terrorism
##threatened
##tion.
##trip
##ua,
##uire
##uity
##uke
##ullivan
##ulus
##umed
##under
##urity
##urks
##ustralian
##vd
##venting
##ves,
##void
##w,
##wa,
##was
##way,
##week
##working
##works
##writers
##writing
##xide
##years
##zo
##zz
(apec)
(asianews/agencies)
(ceo)
(gdp)
(goog)
(ip)
(ipo)
(israelnn.com)
(november
(october
(orcl)
(un)
(upi)
-the
0-2
01
02,
07,
1,800
1-3
10-7
10-day
10-under-par
11-5
11-yard
117
119
11th-ranked
13,000
143
14:
14th-ranked
15:
16-10
164
170
182
1989
1990,
1993
2.6
20-game
200,
24-14
24-21
28:
28th
2nd
3-pointers
30-13
337,000
4-year-old
40-year-old
400m
4th
5-10,
5-7,
5.1
5.6
5.8
5.9
50th
5th
6-4.
60,000
75-year-old
86-year-old
9-2
\$10m
\$2.2
\$25.4
\$300,000
\$4.5
\$725
\$8.
\$92
\$970
ababa
abuse.
accessories
accurately
achievements
acquires
addiction
agni
airports,
airports.
al-zarqawi.
albanians
alderson
alitalia,
allege
allies,
allstate
alonso
altering
ambitions,
amend
amman,
amp;d
anders
anderson,
angeles:
angelos
annually.
annus
anonymity.
answering
antenna
anti
anti-inflammatory
apart.
apec
appease
approaches.
approval,
apps
arenas
argosy
arizona.
armor
ashe
assad
assam,
assignment.
astana
auction,
auctioning
auctions
auditing
audits
averted
avid
azerbaijan
ban,
bandit
bandit,
bare
barghouthi
barrera
bartolo
basel,
basescu
bass
batters
baxter
bb
bbc's
beacon
beard
bears,
beat.
beds
beer,
behavior.
belfast,
below.
belts
bentley
betamax
bextra
biggio
birthday.
bittorrent
blades
blank
bledsoe
bloc's
bloom
blue,
boardroom
bogey-free
boisterous
bombs,
boon
boost.
both.
bouncing
breeze
brew
broadsheet
brodeur
bruising
brunei
brunt
bskyb
build-up
built.
bulging
bumper
burger
bust
bustling
cage
camden
capello
captain.
caribbean,
carpet
carson,
cart
catastrophic
causes.
centuries-old
certify
champaign,
characterized
charitable
cheap,
cheat
chechnya's
chiefly
chittagong
chocolate
circled
cisco's
cisse
citrus
claw
cleansing
clint
cnnfn
co,
co-operative
cocaine,
cod
coding
coffin
colleagues,
collectors
collegiate
collisions
color="#666666"&gt;&lt;b&gt;-rob
colorado.
coma,
commentators
complex.
computerworld
connects
connexion
conquer
conquered
conserve
conspired
contended
contentguard,
contributor
conversations
convoys
cord
counterpart.
countrywide
coup.
court's
courts.
cowboy
crafted
credit-card
crescent
crime,
crimp
criticism,
crore
currency,
customer,
cut,
cynthia
cyprus.
damascus.
dampening
darin
daytona
declined,
declines,
deepest
defendant
deflate
defraud
defunct
delaware,
delegate
deliberations
denis
denny
densely
deposits
derivatives
detecting
detectives
developments,
diamonds
difficulty
dioxin
disclosing
disclosures
dish
distraction
dive
dixons
djibril
donor
doubt.
doubted
downplayed
drafting
draining
draw,
dreaming
drift
drummond
dual-screen
dubious
dulles
duplicate
durango
e-mails,
each,
each.
efficiently
eighteen
eighth-ranked
elbow.
emergencies
emerges
emlyn
enacted
enhancing
enjoys
enlargement
enlisted
environments.
escalate
escape.
evacuations
evenly
everton.
examinations
exceeds
exception.
exhausted
experience,
exploration.
eye.
eyebrows
face,
facial
falls,
feared.
fee.
feet.
fended
fielding
file.
film.
filter
financial-services
fine.
finland,
finland.
finn
first-team
fisheries
five-year-old
flashed
floor.
focus.
fold.
folk
footing
footwear
fortnight
fortunes.
forward,
four-match
four-run
four-under
fourth-seeded
francesco
frantic
frantically
frazar
french,
frenzied
friedgen
from.
front.
frustrations
full-fledged
gabba
gabe
gagne
gal
galloway
gambhir
game:
gamma
garamendi
garbage
gardner,
gazprom,
geeks
geneva,
ghana
gifts,
giggs
glasner.
glut
golfer,
government-backed
gps
grabs
grains
grandson
greece.
greensboro,
greenspan.
greet
grinding
grove
gruden
grueling
gruesome
gum
gunman
gut
guwahati,
ha
habits
haitians
half-dozen
hallowed
hampshire,
hargrove
hasina
havana,
have,
hayes
hazard,
headlines,
healthday:
heartbreak
helix
hempstead,
hes
hicks,
high-quality
hires
hitler
homage
homemaking
homicide
honoring
hood
horns
hotel.
howard's
howling
hoy
huddle
hyundai
i-aa
iaea
iamgold
ibrox
icann
illini
illness,
illustrated
imoh
impaired
impetus
incomplete
indefinitely.
independence,
indirect
infant
infertile
infiltrate
infiltration
inmate
installations
instructed
instrumental
insurance.
insures
intellectual-property
intelligence,
invalid
inventories,
investments.
involved.
irfan
ispat
istanbul,
jabalya
jails
james,
jc
jeopardize
jerez
jesus
jet.
jill
joke
jonas
jones.
jr.;
judge,
kabul:
kasprowicz
kathmandu:
kentucky,
king.
kingdom.
kingpin
kiosks
kits
kosovo
kroll
lacklustre
lafayette,
lagos,
lambasted
lansing,
laptops,
large.
late-stage
lauran
lawmakers,
layup
lefthander
legality
legislation,
library.
life-threatening
lightly
linz
liverpool.
livestock
locally
locations,
locked-out
lonard
longhorn.
loretta
lose.
low-carb
low-carbohydrate
lower,
luck.
lumpur,
maathai,
maddox
magical
mahal
maid
mailed
malfunction
mall.
manila,
manipulation
mannheim,
manually
marathon,
margin.
marginally
marketed
marketers
marriage,
marriage.
material.
matters.
mayfield
mclean
measurement
mediacom
medium-size
membership.
menace
menacing
menlo
merge,
meta
metcash
meteorologists
meters,
mid-december,
milwaukee,
minh
minister's
minors,
mirror
mizuki
moldova
moniker
monitored
monte
morales
morpheus
mourn
muddy
multan,
multibillion
muslims,
muster
myself
mystic
namibia
nasa.
nash
nationals.
nba,
near-term
neergaard
neighborhoods
newcastle.
newfound
newfoundland
newsweek
nifty
ninth-inning
nippon
nj,
nonstop
norman
notably
nuclear-armed
o2
observation
oecd
of.
off-season
offenders
oil's
olympia
omega
on\wednesday,
one's
one-off
orcl)
organisation.
oriented
orleans.
ossetian
otellini,
out-of-state
outage
outbreaks
outcome.
outfit.
outlets,
outlets.
outsourced
overhauled
owners.
pacific,
pacific.
pact,
pact.
pampling
panasonic
panel.
parliament's
parts,
patent-infringement
pay,
paychecks
peacemaking
peg
pegoraro&lt;/b&gt;&lt;/font&gt;
penchant
peregrine
peres
persian
personalized
pervasive
physicians
pigeons
piling
pin
pires
plaintiffs
platoon
pleasantly
pm,
poe
politicians,
pollution,
poor,
popular,
pornography,
positions,
possessing
poster
postponing
postseason,
pounds)
powering
practicing
prayers,
precautions
prevailed
private.
proliant
promoter
prone
protests.
provoking
ps
psychiatric
pulitzer
pulse
pummeling
purchase,
putin's
qassam
quadrupled
quarantine
quot;desperate
quot;good
quot;on
racing,
radek
rafah
rafik
rainbow
rationale
rattle
rays,
re-sign
real-estate
realignment
reassured
recall,
recently.
receptions
recipient
recognised
reconnaissance
recycling
redemption
redshirt
reefs
referendum.
refinancings
refrain
regards
reinstated
rekindled
release)
relocated
rentals
rented
replay
republic's
resellers
resignation,
resisted
resisting
resort.
resounding
retrial
rhp
ribs
rican
ridiculed
right-hand
rioting
rising,
rmc
role-playing
role.
rome:
roofs,
rout.
ruben
running,
ruptured
safina
sail
salvaging
sandwiches
santoro
saratoga
sargsian
sasser,
scales
scandals,
scanner
schedules
scots
sedan
senate.
sendo
sepp
sequence
seriously,
service-oriented
set,
seventh-ranked
severed
sexson
sgi
sharemarket
sharpest
sharply.
short-lived
shortcomings
sides,
sihamoni,
silly
simmering
simple,
simulated
sinclair
singapore,
six-run
sixth-ranked
size.
skies.
skipping
skirted
skull
sky,
sleepy
smack
smartphones.
smarty
smashing
smiled
smoothly
snare
soar
sobering
soccer,
soften
sold.
solemn
solutions.
some,
song.
sonics
sounding
sour
source,
southeast,
sp
spa,
spaces,
spam-fighting
spanish-language
sparring
speech,
sperm
spice
spoil
spokesman.
sport's
springs
sprinted
staked
stall
stand.
starkville,
starts,
statewide
stations.
stelmar
stenson
steppes
stereo
stickers
stitch
stojakovic
stonecipher
stones
storage,
storms,
storms.
straits
strips
subjected
succeed.
suggested.
sunday...
sunil
sunrise
superhero
supermarkets
supervisory
surprises
survive.
sustaining
sutton,
swirled
switzerland.
symonds
syria's
t-shirts
tables
tackled
tadic
tamada
tandem
tanks,
tech,
techs
teheran
tejada
telecommunication
tendon.
terminals
termination
terrapins
terrorists"
textbooks
thanksgiving.
thriller
through,
thumped
thumping
told.
tomlinson
ton
torched
totals
tournaments.
towering
toys,
traced
training,
transmeta
treacherous
tremor
trinity
triumph.
trucks.
trumped
tsunami,
tszyu
tucker
tufts
turkeys
turn,
turnovers,
u.n...
uconn
underage
underscores
undersea
uniteds
universities.
untouched
upgrade,
upgrades.
uproar
uptick
uss
usual,
utterly
vague
vanunu
variations
venezuelans
ventura,
vermont
vessels
victories,
videotaped
videotapes
vie
vientiane
vigorously
vintage
virtues
visually
vivisimo
vmware
vodafone,
wallet
walpole
wana,
wanderers
wariner
wars:
wash.,
watch:
waves.
weightlifting
welterweight
wesley
wherever
whipped
wilbur
winky
winningest
wireless'
world-class
x.
year:
yom
yonhap
younis
yu
zen
zimbabwe.
zones
"grand
"not
##!\\
##&lt;/nobr&gt;
##);
##-17,
##-2,
##-23
##-5.
##-57
##-65
##-acre
##-approved
##-best
##-board
##-brand
##-dependent
##-digit
##-do
##-editing
##-efficient
##-ended
##-entertainment
##-european
##-first
##-fuel
##-imposed
##-income
##-installed
##-magnitude
##-mail
##-makers
##-mode
##-operated
##-part
##-russian
##-selling
##-server
##-services
##-speech
##-stage
##-swedish
##-system
##-technology
##-to-talk
##-town
##-trade
##-water
##-wielding
##-winner
##.25
##/2004
##/washington
##05.
##17
##31
##5.5
##50,000
##57
##87
##9)
##93
##:00
##\$1.
##\$50
##\\there
##\chief
##\florida
##\hurricane
##\initial
##\league
##\major
##\microsoft
##\or
##\state
##\stores
##\television
##\three
##active
##ael
##ag
##agement
##ages
##ailed
##ality
##am.
##amp
##anisms
##ari,
##ark,
##arred
##art
##athlon
##b.to:
##bee
##bility.
##black
##blog
##bo,
##bolic
##bourg,
##box.
##bution
##cable
##cds)
##cer
##chance
##cier
##class
##clock
##cn
##cock
##cott
##crossed
##ctic
##ctive
##cu
##culation
##current
##dam
##dded
##death
##ders
##dez
##di,
##disc
##dot
##during
##dvanced
##edge
##edy
##eep
##elled
##em,
##enders
##erior
##estimated
##etton
##falls
##far
##fed
##ffected
##fghan
##fine
##following
##former
##forward
##ft:nasdaq
##fur
##gas
##gen,
##gether
##git
##gles
##glio
##gm.n:
##going
##guard
##guished
##happy
##hara
##haw
##her,
##herty
##hes
##hoe
##hollywood
##hui
##ic.
##icking
##illo
##imi
##imir
##ines,
##ingly
##ington
##inian
##inium
##inous
##iring
##isted
##it,
##ities,
##ived
##iversity
##iyah
##jah
##kova
##ky,
##lack
##lad
##lamour
##league
##leary
##legged
##lete
##level
##lian
##little
##living
##lmost
##logging
##logram
##logs
##lor
##lost
##lton
##lus
##lute
##manded
##map
##merican
##mitted
##mmer
##ms,
##n'
##n.n:
##name
##nect
##ners
##ney,
##ngo
##nik,
##nology
##nski
##nu
##nz)
##odo
##olo
##olution
##oly
##oma,
##omic
##ops.
##oria
##ories
##oro
##oters
##ough
##ound
##oured
##outs,
##ovich
##owners
##pages.com
##pher
##pie
##ping,
##pite
##plicity
##posing
##proved
##pur,
##pute
##q)
##qawi
##r's
##rably
##race
##rad
##rait
##randing
##raphic
##raw
##rect
##redit
##release
##resh
##rez
##ribution
##rities
##rned
##robot
##rod
##rode
##rogen
##romised
##rons
##ross
##rost
##rov
##ructing
##rupted
##ryl
##sault
##saw
##score
##sea
##senate
##september
##series
##seven
##several
##shopping
##singapore
##sitive
##ski
##space.
##ssing
##sson
##stalled
##step
##struck
##success
##super
##t:
##ta.
##tank
##tely
##thing
##thursday
##tia
##tick
##ting.
##tion,
##titution
##took
##tract
##trant
##trating
##trick
##tue
##turn
##tus
##tution
##uals
##ube
##uca
##udge
##ue,
##ug
##une,
##ups
##ure,
##uritz
##urring
##uters
##utes
##utility
##vas
##vening
##vid
##virtual
##vour
##vu
##walk
##wayne
##wearing
##ween
##williams
##ws
##x:
##xis
##za,
##ze,
#146;
#8221;
&lt;br&gt;
(adb)
(drc)
(hong
(ibm)
(il).
(online):
(pti)
(voice
-as
-s
09,
10:30
11:
14-year-old
144
145
151
156
165
17-point
17:
19-14
191
1918
1990.
1992,
1994,
1997,
1:
1:30
1m
2,200
2010.
25-year
25:
25th
27:
29-year-old
3-0.
3-6
3.9
30-day
31-yard
32-year-old
34-31
34-year-old
36,
37,
3rd
40,
41,
41-14
425
450
47,
4:30
4ghz
50,
500.
6.3
62-year-old
7-under
7-week
7.4
77-71
84-year-old
9-5
90nm
\$1.75
\$11.
\$11.4
\$115
\$125
\$126
\$145
\$7.4
\$95
a:
a\barrel
abductors
abramovich
absolutely
abundance
abusive
accidental
account.
accuser
acquisition,
actions.
activision
adams,
adequately
adewale
adnan
advantest
advise
advisor
adweek.com
affairs.
affected.
agence
agere
aggravating
agony
aig
akron
al-sadr.
alastair
all-important
all-stars
allawi.
also-rans
alternate
amendments
amerisuites
amgen
amounted
anchorage,
andean
angels,
announced,
appeal,
applause
appleby
applies
appreciated
apprentice
arab-israeli
arbor
archaeologist
are.
arrays
arrowhead
artificially
as\the
aslan
assessing
atkins
auctioned
audacious
authorizing
avenge
avon
awake
baffled
balcony
baldini
bankruptcies
barney
basketball,
bcn
bearish
beef.
beefing
beginning.
beirut:
belarussian
belatedly
believed.
bengie
bernanke
betty
bi
billups
biologist
birth,
bitter,
bjorn
blanket
bleeding
bludgeoned
boarding
boasted
boasting
bogey
boise,
bombing,
bonanza
bondholders
bonds'
bosh
boston-area
botswana
bouake,
boys,
brain,
brakes
brawls
braylon
breathtaking
bribing
brick
brigades
british-based
brooke
browse
bryant's
budding
buena
buffalo.
buffett,
buildup
bullpen.
bureau.
burmese
buyer,
buzzer
by,
caddie
callvantage
cameraman
cannon
capability.
capture.
caravan
carbide
carnage
carney
carter,
casino,
catz
celebrate.
cells.
cesare
chairs
challenges.
chances.
charles,
chastised
chatter
check,
chelmsford
chewing
child.
cholesterol
christians
chrome
chunks
churning
cinema,
claburn.
claim.
clampdown
cleanup
clearer
clemens,
climate,
clinton's
co-president
cobb
coke
colgate
coliseum
colliding
colo.,
cologne,
colombo,
colorado's
command,
common.
complicate
components.
composition
comrades
con
concern,
condition,
confused
congratulations
conseco
consolidates
conspiracy,
container
contention.
continue,
continues,
convene
coordinating
corp.\
corruption.
cosmetics
couldnt
counter-terrorism
counterfeiting
counterpart,
courtship
crane
cray
craze
credible
crematory
cripple
crocker
cross,
cryptic
cuff
cult
cultivation
cupertino,
cut.
cvs
czar
danton
dantz
dark,
davis,
deals,
deaths,
debacle
decision-making
deduct
defeat,
defines
defining
delay.
denounce
departed
deprive
depths
destiny
destruction,
developers.
devers,
diagnosis
diameter
diamondbacks.
die.
differing
dirrell
disability
disagreement
disc.
discoveries
discs.
dismay
distinguish
ditching
diversity
divest
divorce
dodgers'
dole
dolphins'
domenech
donaldson
doping.
dormitory
dos
doubleclick
downloads,
downloads.
dream.
drenching
dried
drifting
duck
dunn.
durban
early-season
easier.
ecb
edgbaston.
edges
edwards.
effective.
eid
eight-under
elite.
embassy.
emerged.
emmons
employs
ends,
enigmatic
enrichment.
enticing
ericsson,
eroded
erratic
errors.
escaping
est
euphoria
euros,
evaded
even-par
everywhere.
evidence.
evidenced
evoked
ex-soviet
exaggerated
excellence
exelon
exhibition,
exiting
expect.
expecting.
expressions
fabled
failed.
fan,
farmers.
fascinating
fault.
favourable
fearful
feast
federally
fee-based
fell.
fencing
fertility
fetch
fiesta
fifth-seeded
financial,
findings.
finjan
firefight
firestone
firsthand
fix.
fleeting
foes.
follow.
fordahl
fork
formats,
forty
foundation.
founder,
four-under-par
frail
fraudsters
free-kick
freedom.
frenchwoman
freshly
friend.
frigid
frogs
fronts
fuelling
functional
functionality.
functions.
gadgets.
gain,
gangsters
gardens
garen
gavaskar
gaza-egypt
geminid
general's
gentle
germans
giddy
gigantic
giuliani
go-go
goodison
gordon,
goss
government-run
governments.
governor,
grady
grail
great,
greenberg,
greetings
grenada,
grief
gripping
grisly
grounds.
guilty.
guinness
guitar
gujarat
gwr
gymnasts
hack
halkia
halliburton,
hallmarks
halls
handoff
hands-on
hansen
hanson
harbor,
hard-liners
hariri
harold
harshest
hartson
has,
haunted
hawaii.
headwinds
heady
healthy.
heaviest
heidfeld
heightening
heineken
held,
herron
hewitt,
hewlett-packard,
hinges
hip.
hit,
hitachi,
hoddle
holes,
homebuilder
homestead-miami
hoogenband
horna
hotter
hunt.
hurts
hyped
iaaf
ideas.
ill-fated
imagination
imagined
immersion
impact.
improving,
inaccurate
incitement
income,
incorporating
incorrect
indictments
inducted
inevitable.
infect
inhabitants
inland
innings.
inside.
instance,
integral
intellectuals
interstellar
intruded
invasion.
invasive
investigates
investigations,
iomega
ipaq
ipo,
ire
irelands
ironic
irvine,
it:
items.
jacque
jacqueline
jamaican
jeans
jenin,
jetblue
jockeying
jockeys
john's
joschka
juices
jungles
junkies
juvenile
kaneb
karstadtquelle
kazinform
keenan
kellen
keller
kennedy,
kennedy.
kettles
kharrazi
kidnapped,
kilkenny,
kite
kiwi
knicks,
knot
kolkata:
kuchma
kwame
label,
lamont
lampard
landmine
lane.
lansdowne
last-gasp
laurence
lawns,
lawrence,
lawyer,
lawyers,
lax
lays
lazy
leadership,
leaks
leapfrog
leg,
leg.
legends
lendale
lenovo,
leslie
lester
let-up
leukemia
lice
lifelong
limitations
linuxworld
lions.
lists,
lnm
long-sought
looksmart
lorenzo
louisiana,
lowry
lp,
lundberg
lynn.
macs
madden
mae's
mahal,
mail,
majestic
makoto
mammal
maneuvering
manufacturing.
maps,
marginal
marines,
mariucci
marketer
markko
martinez.
maryland,
masterminded
masterminding
masterpiece
masters,
mattered
maxim
mcgill
mcteer
md
mean,
measures.
medications
megi
melt
mentor
meps
mercenary
merchant
merck,
metrodome
mets'
micah
micky
middle,
migrant
minnesota,
missile.
mississippi.
mock
modern-day
momentum,
monday...
mongolia
monsanto
montgomerie,
monthlong
mora
morgantown,
morningstar
morrisons
motorsport
mound.
mouse.
mozilla,
msft.o
much-hyped
multi-billion-dollar
munro
murdoch's
muslims.
mutu,
nagpur,
nasas
nate
natural-gas
nature,
navy.
neglect
nemesis
neri
newly-crowned
nfl-record
nh
nigel
nine-day
nine-month
no1
noisy
nominations
nonconference
noranda
novel,
november's
nude
nutritional
nymex
oakland.
oasis
obiang
occasionally
occasions
occupying
officers.
offseason.
ogunleye
olympians
on\friday.
on\the
on\thursday,
openers
openpower
opinion.
opium
opportunities,
opt
organizations,
os,
outburst
outings
outlet
outlining
outsourcing.
overcharging
overseer
oversees
overshadowing
oversupply
overtures
owe
owen,
owing
pacificare
palmone's
paparazzi
paper.
paralyzed
partnering
pass,
passed.
passengers,
passion.
pathan
patricia
payoffs
pc's
pdas.
penalty,
penetrate
penultimate
people...
perpendicular
perpetual
peru's
pest
peterson's
peterson,
phonak
photographed
photos:
picture.
pieter
pills
pilotless
pine
pistons.
plains
plane.
planemaker
planning)
plateau
playback
player's
playing,
plays.
plots
polycom
poorly
pop3
poppy
port,
portraits
possibility.
post-war
poverty.
pr
pragmatic
pre-budget
predicted.
predominantly
preminet
prescribed
preseason,
presided
private,
privately-held
privatization
privatize
problem:
profitability.
prohibit
prostate
protest.
protests,
pseries
pt
pupils
purse
qcat=news"&gt;aapl.o&lt;/a&gt;
quarter-finals.
quarterfinals.
quarters.
quartet
que.
queens
quot;critical
quot;get
quot;illegal
quot;major
quot;serious
quot;soft
quot;strategic
quot;who
racking
radios
raffarin
ramadi.
ratio
reached.
reasonably
rebates
rebuilt
recaptured
receiver.
recipe
reckons
recorders,
refinance
refugees,
regis
registers
reilly
relay.
releases,
reliability
renamed
rendered
rent.com
repaired
reptile
researchers,
residents,
resign,
resistance.
resort,
resumes
resurfaced
retiree
retires
return,
revamping
revenues,
review,
reviewers
richer
right-field
rings.
rival's
river.
roads,
roadway
robinson,
rocket.
role,
rossi,
roush
rovers,
rubin
ruiz
rust,
ruthless
s.e.c.
safari
sailing
saleh
sallie
salvador,
samantha
sanctuary
sands
sardinia
sarunas
saskatchewan
saturn.
savings,
scams.
scanned
scary
schilling's
scintillating
scoop
scout
scrappy
scream
screeners
scrimmage
scsi
seahawks.
sealing
seamlessly
seaside
season?
sections
sedans
see,
sell.
sense.
sentence.
sep.
servicemen
seymour
shaanxi
shimbun
shock,
shoot-out
shootout.
shown.
shrine,
shwe
sidekick
sidelines.
silverman.
simpler
six,
six-under-par
six-year,
skilling
slender
slowdown.
slugged
smucker
smuggled
snyder
soda
softness
soggy
soil,
somalia's
sorting
spammer
speculating
spies
spinners
spitting
sponsoring
spoof
spoofing
spurned
stadiums
stalking
starts.
statistical
stolz
straight,
strauss
struggle.
stuart,
stuffed
subjects
submitting
sudans
suha
sun-times
surgeons
suspended.
swagger
swallowed
swollen
sympathy
syria.
systematic
table,
taken.
tale,
taped
taunts
taxi
tbilisi
teammates,
tech's
tech-savvy
technicians
tehran.
temper
tennessee,
testifying
thanked
theatre
then.
theory,
thessaloniki,
though.
three-hour
thrive
tickets,
ticking
tiny,
titans.
tomorrows
top-level
toronto-dominion
torturing
tory
toshack
toshiba,
toured
toutatis
travellers
travers
trend,
triangular
tribunal.
triumph,
trot
trudged
tsvangirai
tucson,
tuesday...
tug-of-war
turtles
twice,
twickenham.
twins.
two-match
tyrannosaurus
ukrainians
ultimatum
un's
underperforming
unease
uneven
univision
unruly
unsafe
upholding
uranium.
us-european
usa,
utd
valencia,
vanderjagt
vcr
vector
vegetables
vehicle,
vendor,
vermeil
vfl
viagra,
vibrant
vibrating
videsh
vigil
visit.
visteon
vocal
voice,
volume,
vpn
vuelta
vulgarity
wa
waivers
wal-mart.
waltham,
want,
warmed
warplanes,
wars.
wash
washington-based
we've
weathered
web's
websites,
weeklong
weight,
weightlifters
weir
while,
who,
wholesaler
wildcard
wilkens
will.
willingham,
windy
winslow
with\the
withdrawal.
withheld
wlan
woburn,
wolves
workflow
wyatt
xaverian
xeon
xinhua.
year-on-year
year?
yelling
york/san
youngster
yudhoyono,
yuganskneftegaz
zidane
"if
##&lt;a
##&lt;br&gt;\&lt;font
##'.
##(
##--(business
##-100
##-12,
##-18
##-2004
##-44
##-70
##-americans
##-boosting
##-british
##-case
##-compatible
##-conscious
##-consuming
##-developed
##-energy
##-eu
##-finance
##-going
##-growing
##-haired
##-hard
##-house
##-india
##-it
##-league
##-length
##-letter
##-media
##-normal
##-offs
##-ounce
##-p
##-performing
##-place
##-prevention
##-purpose
##-racked
##-ruled
##-seater
##-secret
##-shrouded
##-song
##-spoken
##-studded
##-swappers.
##-taliban
##-track
##-vehicle
##-watched
##.99
##.o
##01
##05,
##1.6
##2)
##27
##3)
##5m
##6)
##6.5
##68
##7.7
##73
##96
##99,
##:45
##\$2.
##\\a
##\administration
##\been
##\consumer
##\helped
##\lead
##\leader
##\market
##\monday
##\nuclear
##\off
##\palestinian
##\plans
##\quarterback
##\reserve
##\second
##\shares
##\time
##\under
##\using
##\were
##\when
##\which
##\witnesses
##a-based
##abyte
##ained
##akes
##ander
##aning
##ara
##aria
##ario
##art,
##as.
##ated.
##atical
##atunga
##ault
##aux
##az
##bered
##berg,
##bes
##bial
##bilities
##bles,
##boys
##breaker
##cam
##candidate
##cause
##champs
##chip
##ciding
##cience
##cil
##cm
##cnet
##common
##cos
##cow
##crisis
##cs)
##ctable
##cumented
##customer
##damaged
##dant
##dating
##department
##dian
##dict
##dler
##dropping
##dry
##ds.
##dy,
##eable
##ead
##eis
##ender
##enko,
##enrichment
##ented
##environmental
##eological
##erate
##erted
##erved
##eside
##est.
##estimate
##ev
##eva
##evil
##executive
##extremely
##fare
##favorable
##fayette
##fest
##ffing
##fined
##fishing
##fl
##flies
##floor
##flying
##formed
##fors
##founded
##fse)
##ft)
##future
##gabit
##gar
##gaza
##generated
##george
##ghty
##gm)
##grading
##grant
##gravity
##gued
##help
##hid
##hine
##his
##hk)
##hofer
##hole
##hops
##hore
##hotel
##hua
##iated
##ic)
##ice,
##icle
##icted
##iers
##ift
##igma
##ijing
##ilated
##ilation
##iler
##ination
##inching
##inct
##inger,
##inho
##ink
##inning
##innings
##ions.
##ios
##ipated
##ir,
##iture
##itz
##iz
##jima
##jn
##jures
##kerry
##keys
##kie
##kin,
##kina
##ks,
##labor
##lam
##lane
##lanta
##lash
##laundering
##lb
##lded
##left
##legal
##li.
##licensed
##lim
##liner
##lis,
##lish
##lko
##ller,
##lling
##local
##looksmart
##lose
##losing
##lown
##lso
##lt;cite&gt;reg&lt;/cite&gt;
##ltering
##lthough
##luck
##lur
##marathon
##martin
##mbo
##me,
##mell
##meter
##mier
##minate
##miracle
##mise
##mony
##msn
##mu
##muslim
##mw
##namo
##nk,
##nor
##nortel
##northern
##ntary
##num
##nzo
##oh
##ois
##oland
##ole
##olving
##ona
##ong,
##onna
##ons,
##ool
##op,
##opec
##opes
##orship
##orthodox
##osier
##otic
##otics
##ouin
##ounced
##ovich,
##ownership
##owning
##pa,
##pad
##parent
##patible
##pay
##pending
##per,
##pered
##phony
##piring
##pleted
##pliant
##ply
##points
##polis
##pose
##ppers
##ppled
##pps
##practice
##product
##production
##ption
##pts
##q.
##quet
##r"
##ra.
##racks
##raft
##rah
##ram,
##rat
##rch
##rdo
##read
##reasing
##rection
##reds
##reuters
##ringes
##rite
##riton
##rko
##rky
##rocket
##roduction
##roe
##roid
##rome
##rooms
##roots
##rot
##rotocol
##rrested
##rrogant
##rty
##rtz
##rving
##sa),
##safety
##sal
##sday
##security
##ses.
##sguided
##shield
##shir
##since
##ske
##sking
##smart
##spam
##spinner
##sport
##ssigned
##st)
##ster,
##storm
##string
##sult
##support
##sx
##tat
##tation
##teen
##tek
##term
##terror
##terrorist
##ters.
##thick
##think
##thur
##tized
##tman
##tractors
##tre
##tream
##tronics
##ually
##ubs
##udy
##uff
##uling
##ullah
##um.
##uncture
##unding
##undy
##urate
##urface
##uries
##urred
##uskas
##vicius
##viously
##vise
##vokes
##voking
##volution
##ward.
##wash
##wat
##way.
##wept
##wesome
##wired
##witch
##xes
##xies
##yeva
##yte
##yun
##zel
##zic
##zling
##zzie
#147;the
#39;brien
#39;i
&lt;strong&gt;review&lt;/strong&gt;
(4)
(7-4)
(\$1.
(from
(ftc)
(mmc.n:
(mrk.n:
(nnn)
(uairq.ob:
-nd
04,
1,700
1/3
10-man
100.
11-9
113
12-0
122
15-member
19-year
1918,
1986.
1993.
19th-ranked
2-yard
20-3
201
204
210
24.
26-year-old
28-20
2gb
3-point
3-under
3-under-par
3.0
30-20
300,
31-28
34,
35,
38-31
39,400
4,400
4.2
4.6
40-year
40gb
411
42-year-old
43-17
48-hour
5-year-old
5:
6-year-old
6.2
6.4
60-day
6800
7-eleven
7-under-par
7-year-old
7.0,
70.
747
75.
77,
78-year-old
7:
8,500
8-4
8.2
8:
9-1
9:00
9th
\$11.5
\$1bn
\$230
\$33
\$415
\$42
\$50-a-barrel
\$550,000
\$585,000
\$7.1
a350
a380
ababa,
abducting
aberdeen
abkhazia
acclaimed
accompany
accountable
acquittal
ads.
advantage.
adverse
afar
ago...
airasia
all-stock
allardyce
alliances
allies.
allison
almunia
alternatives.
ambition
ambulance
amd's
amd,
american.
amp;o
amy
analyst.
andover
anglers
animals.
ankara.
annan.
anti-bush
anti-french
anti-nuclear
anti-phishing
antoine
anyone.
anything.
anyway,
appearance,
appointments
approaching,
arabia's
archeologists
archie
architectures).
archives
archrivals
argentina's
arlen
arraignment
arrange
arrested,
arrested.
arrived.
artistic
ascension
asif
assault.
assembly.
associations
asthma
astronomical
attachments.
attitudes
attorney-general
attraction
augustus
automate
autopsy
awareness
b.c.s.
bachelor
backcourt
baiji,
bailiffs
baker,
balloons
barbados,
barneys
bases.
bates
batista
bats
batteries.
beef,
beijing's
belarus.
belated
belgium.
bench,
benchmarks
benefit.
berlin.
berlusconi,
best.
bethesda,
betis
biased
bids,
big-name
big-screen
bilbao
billboard
billionaires
biopharmaceutical
birds.
birthplace
bishops
biting
black.
blazing
blinkx
blogger
bloodshed.
bloomington,
bmc
bochum,
boerse
bogged
bombing.
born,
boucher
bowe
bradford
brandi
braun
braves,
breaches
breaks,
bridgestone
brigand
brightest
bristol
british-born
broadened
brokerage,
bronze.
brothers,
brown-forman
bruins
brunswick
buckling
budapest
bulger
bundling
burlington,
buying,
bystanders
cables
cairn
cambodia's
campus,
can,
candid
candidate's
candles
cap,
capsule.
captivity.
cardiff
careers.
carla
carter.
cartridges
cases.
casinos.
cassell
catherine
cause,
celebrities
centenary
centrist
ceos
chaba
chamberlin
chamique
channel.
charm
chart,
chauncey
check-in
chelsea,
chelsfield
chester
chevrontexaco
chiefs,
choice,
christ
circuit,
clamp
classroom
clause
cleaner
clerical
climb,
clinton,
clippers,
cloudy
clough
clutching
clutter
cnbc.
coalition.
cobalt
cocaine.
cockpit
collateral
colonies
colourful
comedian
committee's
commonplace
commute
comparisons
completed.
composure
concentrated
concessions,
confederation
confessed
conflicts,
congo's
consistently
consisting
consoles,
constitution,
contamination
continent.
contractor,
contrasting
controls,
controversies
converge
convey
conviction.
cool,
corner.
coronation
corporations,
correctly
corrects
costello
cousins
coverage.
coyotes
crashes,
creeping
crew,
cricket,
cricketers
criticize
crude,
crude.
cruel
ct
cto
cubs'
culinary
culled
cursed
cybercrime
dame's
damp
danced
dancer
danforth
dangerously
darlington
dartmouth
dassault
dates,
daughters.
davenport,
davita
daylong
debuting
decorated
deena
defective
defenses,
defiantly
delaware.
demographic
denney
denver.
departures
deployments
deprived
derrek
designs.
desk,
detain
developer,
dhaka:
dhl
diageo
diedtra
differ
diminutive
diode
direction,
disarming
disbanded
disclaimers
discontinue
discontinued
disk-based
disney.
disparate
disposable
distaff
distinct
distributions
disturbing
dividend,
do-it-yourself
doctors.
dodged
does,
download.
downright
dreams.
drill
drivers.
droughns
drug-coated
dunk
dusk
dvd,
dwango
dynasty
dynegy
e-mailed
earth-like
ebersol
educate
effects.
einstein
elevate
ellen
emc,
emissions.
emitted
endanger
endangering
enforced
enraged
enron.
entertain
entries
epicenter
equip
erroneously
espionage
est).
estonian
eu.
eventful
evolution.
exceptional
excuses
exercises
explodes
express.
fabric
faltered
fanning,
farmers,
fashion.
fasting
fatigue
favoured
feathers
federation,
fein,
felipe
fences
fenerbahce.
feuding
fifth-biggest
fighting,
figo
filemaker
film-maker
films.
fingerprints
finland's
first-
fitch
fitted
five-hour
five-under
five.
flarion
flattened
flattening
fleetcenter,
fliers
flocking
floors,
fog
follow-up
foolish
forecaster
fortunately
fossilized
fouled
four-way
fourth-
fracture
francesca
fratton
fraught
frito-lay
furiously
futility
gamer
gaudio
gear,
geological
german,
gestures
getafe
giancarlo
gigabytes
gil
ginepri
giveaway
glaring
glittering
glory.
goalscoring
gods
goodale
graduation
gran
grandfather
granted,
grateful
grebb
greco-roman
green,
gronholm
groves
growing,
guidant,
gunning
gym
haaretz
hadn't
half-game
half-time
hampton,
hangover
hanover
hantuchova
hapoel
happily
happy.
harare,
hard-hitting
hardened
harley-davidson
harmed
harrington,
harris,
hattiesburg,
headfirst
headlines.
headway
heard.
hearing.
heed
heights,
helen
henry,
heras
hermann
hewlett
hides
highways
hobbled
holly
honorary
horizon
housewives
however.
hs20
http
humiliated
hunters,
hurling
hurtling
hutchinson
hyderabad,
hydrogen-powered
idc,
idf
igniting
illnesses
imac,
images,
imposes
impotence
in\a
inbound
indiana,
indianapolis-based
industrys
infantry
infighting
inform
infrastructure,
inherited
injury-time
innocence
insect
insecurity
inspected
insured
intel-based
internet?
interview,
intimate
intranet
inundated
invisible
irl
ironport
irritating
isv
items,
iteration
j.t.
janus
jarvis
java,
jayasuriya
jeb
jeter,
jj
johnston
jokes
jones)--china
journalist,
joyce
jr
judge.
juliet
julio
jump,
junk,
kallis
kanpur
karmazin
kastor
kb
ketchup
keyed
khaled
kidd,
kirkland
knight,
kong.
kremlin-backed
kyushu
laboratory.
ladder
laredo
lars
last-day
lawsuit,
lawsuits,
leaf
leahy.
least.
lefty
legions
less,
lesser
levelled
lidge
lights,
limit.
limited,
limits,
lineups
link.
linux--based,
lions,
listeners
listless
littered
llp
locking
logger
logs
long-planned
longs
loom
loong
loophole
loosening
losers.
lotus
low-cost,
low-fare
low-priced
lower-priced
loyalist
lyon,
macapagal
machimura
mainstay
maj.
malone,
mamaroneck,
mammals
mandaric
manhasset,
manhattan.
mann
map.
marauding
marcia
marcos
mariners,
marriages
martin's
martinsville,
mauresmo,
mayhem
mayoral
mazda
mccardell
mcenroe
meager
meals
means,
median
medicines,
medium-range
meeting:
mehdi
mehmood
melbourne.
melbourne:
meltdown
memorabilia
memphis.
mercury,
merrimack
message,
messy
methods.
mice.
microchips
middle-class
minardi
minorities
mississippi,
misty
mlb
modernize
modular
moet
moments.
morale-boosting
more-powerful
mother,
mountains,
mourning,
mouth-watering
movement.
multimillion
munitions
muscle.
muted
n.h.,
nagpur:
named.
nasser
nastase
natick
national.
nations:
nature.
navigational
neatly
need.
needed,
neighbour
nepal,
nestled
netanyahu
netherlands-based
neurontin
never-ending
nicaragua
nicknamed
nile
nine-year
nobutaka
noel
nonpartisan
noon,
north-eastern
north-south
norton,
notebooks.
notes,
notoriously
novartis
novell's
number,
number.
oaks,
objective
objectives
observance
offensively
offline
oklahoma,
older,
on\tuesday,
one-man
opec,
openly
opera,
opportunity.
optimism.
optimized
orders.
orgeron
orlovsky
osasuna
osman
otherwise.
ounce
out-of-court
outback
outplayed
outsiders
ovarian
overboard
overdue
overheating
overstated
overturning
owls
owning
packard
packers,
pall
pan
panels.
pasadena
passwords,
patch.
patented
paths
patil
pattani,
pausing
pavilion
pavin
pay-per-view
pc-making
peak.
perkins
permitted
permitting,
persia:
persie
persist
person's
peshawar,
pesticides
phelps'
philadelphia's
philippoussis
philips,
philosophy
phone?
physicists
piazza
pick-up
piles
pilgrim
pinnacle
pinochet,
places.
plight
plotted
plowed
ploy
plume
points...
poorer
popped
portraying
portsmouth.
post's
post-soviet
pot
potatoes
pottery
powder
[...]
