<unk>
<cls>
<sep>












!
"
#
$
%
&
'
(
)
*
+
,
-
.
/
0
1
2
3
4
5
6
7
8
9
:
;
<
=
>
?
@
[
\
]
^
_
`
a
b
c
d
e
f
g
h
i
j
k
l
m
n
o
p
q
r
s
t
u
v
w
x
y
z
{
|
}
~

¡
¨
´
·
¸
¿
ß
à
á
ã
ä
è
é
ì
í
ñ
ò
ó
ö
ù
ú
ü
α
γ
δ
ε
ζ
η
ι
κ
λ
μ
ν
ξ
ο
π
ρ
σ
τ
υ
φ
ω
–
—
‘
’
“
”
„
•
…
′
″
⁄
™
←
↑
→
↓
∅
√
∫
≤
⊕
♠
♥
the
and
to
of
is
it
this
in
for
that
was
but
not
you
with
on
have
##.
##,
my
as
are
book
be
one
if
so
like
they
very
just
at
all
from
would
or
good
an
about
has
more
had
it's
when
out
will
get
##s
what
by
some
great
only
his
can
there
he
really
##"
no
up
me
your
than
other
read
don't
it.
much
because
who
do
were
her
we
first
these
even
after
##'s
been
which
time
##!
how
their
she
movie
too
little
am
any
them
could
bought
love
think
well
##)
did
then
into
use
does
also
many
buy
better
i'm
its
most
new
make
still
got
two
over
way
know
story
find
see
should
want
never
best
didn't
back
found
cd
book.
work
product
made
recommend
album
i've
used
few
people
now
while
##i
off
same
go
old
put
through
thought
doesn't
another
lot
reading
##ing
can't
something
say
every
##?
music
before
books
worth
being
songs
give
those
looking
our
going
it,
bad
need
since
quality
however,
hard
easy
ever
years
where
pretty
thing
game
##ed
sound
look
bit
makes
take
long
without
dvd
enough
##;
why
last
##:
different
such
may
##the
nice
##).
seems
book,
real
nothing
feel
down
characters
works
keep
using
must
film
set
quite
purchased
##'
big
sure
both
right
own
come
actually
money
author
around
always
##..
each
life
anyone
though
year
far
##y
things
##ly
almost
watch
came
interesting
##d
part
probably
play
small
you're
might
end
times
##s.
##a
isn't
getting
try
song
fan
price
having
written
time.
him
one.
us
problem
tried
several
##e
loved
anything
that's
whole
me.
less
##s,
three
enjoy
maybe
version
original
trying
fun
enjoyed
wanted
next
once
wasn't
amazon
here
liked
able
disappointed
waste
although
excellent
day
series
second
reviews
##er
definitely
them.
help
until
high
someone
##t
rather
took
least
show
wish
won't
between
gets
writing
gave
plot
believe
kind
information
especially
buying
comes
everything
full
i'd
looks
went
##),
away
received
stars
movie.
seem
well.
couldn't
heard
video
said
already
highly
live
fit
seen
done
started
left
ordered
couple
again
let
character
--
listen
item
##r
worked
instead
light
world
top
favorite
saw
again.
##-
good.
half
understand
##o
read.
making
short
yet
##n
takes
order
felt
review
months
fact
hope
hear
happy
job
tell
##".
wonderful
cover
all.
##this
purchase
band
fine
point
wouldn't
true
start
well,
you'll
"the
reason
main
out.
others
sounds
simply
product.
this.
great.
perfect
difficult
return
star
guess
case
seemed
hold
size
movies
i'll
poor
rest
kids
##",
during
water
goes
there's
box
work.
son
place
completely
family
days
pages
watching
under
man
style
piece
cannot
good,
unit
along
picture
myself
side
given
together
however
playing
young
plastic
learn
money.
home
black
turn
gives
overall
stories
me,
worst
novel
doing
save
10
working
idea
better.
shows
##!!
expect
needed
loves
voice
minutes
needs
problems
history
everyone
extremely
else
you.
lost
stuff
finally
daughter
line
power
truly
kept
played
album.
haven't
absolutely
battery
person
entire
type
beautiful
##it
cheap
pay
up.
wait
reader
cd.
tracks
easily
##es
sometimes
called
based
previous
also,
write
tv
parts
all,
care
thinking
collection
track
either
it!
often
camera
decided
that,
past
large
simple
time,
says
##l
within
interested
looked
wrong
lots
complete
stay
certainly
funny
##on
page
longer
dont
##...
phone
story.
rock
told
unless
movie,
expected
(and
low
totally
cut
four
itself
title
##in
change
huge
copy
mind
action
listening
fans
material
early
ones
exactly
fast
boring
classic
perhaps
special
run
single
close
ok
glad
hours
american
check
children
mr.
clear
this,
christmas
he's
add
extra
decent
number
great,
gift
price.
on.
open
too.
amazing
player
pick
pictures
that.
ending
sent
##and
become
company
forward
use.
color
baby
hoping
school
support
they're
ago
name
usually
computer
disappointed.
one,
due
friends
turned
supposed
words
but,
taking
child
white
##but
music.
stop
please
spend
experience
sense
scenes
remember
head
agree
arrived
etc.
years.
acting
strong
weeks
coffee
inside
five
guy
slow
month
toy
basic
call
except
disc
heavy
later
store
car
yourself
##if
##m
somewhat
life.
cool
friend
is,
season
deal
stand
night
hair
husband
useful
system
metal
house
release
aren't
free
leave
hot
album,
giving
off.
important
returned
more.
finish
knew
older
books.
matter
watched
course
coming
clean
john
cost
against
beginning
so,
available
service
hand
girl
quickly
move
hit
paid
lack
design
there.
quick
bottom
here.
spent
major
personal
level
unfortunately,
replace
week
similar
broke
taken
actual
albums
room
suggest
wants
(i
follow
down.
seeing
keeps
expecting
screen
plus
stick
series.
fairly
games
machine
20
brand
amount
pieces
read,
fall
replacement
mine
hate
feeling
##al
women
software
sort
dog
mean
##k
stopped
text
local
##!!!
third
figure
shipping
missing
recommended
##h
description
ended
(the
dark
##g
guys
volume
guitar
lyrics
again,
film.
poorly
though.
mostly
word
customer
chapter
wife
happened
...
them,
out,
now.
woman
now,
features
pop
way.
included
record
behind
game.
soon
nearly
middle
compared
radio
bag
front
guide
interest
handle
story,
expensive
known
##.i
send
war
recording
english
waiting
30
alot
de
much.
recently
is.
ideas
excited
bad.
wonder
finished
uses
serious
said,
saying
including
feels
regular
products
model
##f
surprised
music,
food
wear
scene
view
group
not.
age
yes,
back.
face
##able
quality.
god
batteries
edition
overall,
performance
##p
greatest
paper
starts
audio
to.
running
for.
card
entertaining
none
books,
helpful
cd,
cable
clearly
picked
heart
thank
though,
day.
##ness
fell
dvd.
across
end.
basically
work,
putting
solid
##ers
learning
plays
boy
authors
##my
issues
wrote
contains
##as
throughout
(which
various
terrible
means
likes
times.
released
you've
tape
modern
air
unfortunately
certain
bring
##0
control
sorry
awesome
she's
historical
subject
became
human
near
despite
total
break
stars.
gone
best.
red
otherwise
up,
beyond
reviewers
consider
space
obviously
pleased
in.
instructions
whether
horrible
living
upon
##c
fits
and,
enjoyable
covers
attention
body
talking
particularly
super
##man
art
drive
annoying
leaves
rate
standard
knows
class
##an
value
provides
stuck
realize
digital
slightly
plan
business
weight
hour
issue
particular
sad
##ie
learned
production
turns
language
ok,
smaller
fine.
musical
sit
average
cast
deep
films
noticed
taste
problem.
15
songs.
print
##.the
him.
comfortable
##le
cute
tells
background
changed
provide
questions
ago.
details
trouble
listened
barely
mention
be.
lead
you,
blue
talk
late
broken
online
on,
nor
product,
research
men
reference
general
purchasing
hands
miss
chance
do.
brought
list
twice
considering
program
first,
starting
##x
country
graphics
cause
earlier
characters.
outside
readers
here,
straight
detail
include
mix
filled
chapters
appears
dead
mother
tool
either.
apart
larger
lives
away.
easier
years,
feature
beat
helped
horror
appreciate
advice
setting
author's
times,
singing
seller
continue
added
boring.
loud
content
thin
step
worse
together.
happen
fan,
did.
##en
actors
unique
##ic
pull
say,
impossible
effort
attempt
final
dry
examples
bad,
moving
##ion
avoid
plenty
understanding
above
prefer
points
opened
doubt
weak
writer
forget
section
way,
gotten
area
positive
example
fantastic
ms.
##z
addition
pair
package
charge
device
##."
amazon.
recipes
skip
death
12
today
himself
sell
fact,
what's
series,
effects
impressed
reviewer
windows
thing.
soft
bands
noise
dance
(or
imagine
future
opinion
characters,
##is
price,
stupid
button
mystery
else.
hearing
becomes
la
oh
sex
common
thanks
helps
typical
##2
##s"
finding
episodes
falls
plain
items
holds
##*
pass
flat
opening
carry
returning
touch
complaint
alone
rating
test
negative
ask
difference
humor
present
use,
admit
current
with.
normal
songs,
parents
web
seat
purchase.
her.
form
study
feet
girls
create
throw
##or
themselves
course,
kid
replaced
##nt
range
##us
okay
six
hardly
depth
sony
photos
lines
base
hits
message
##to
##so
smell
correct
interesting.
collection.
im
ready
obvious
##u
life,
year.
bunch
king
bother
includes
cup
mentioned
##re
moves
unlike
science
romance
film,
thats
knowledge
versions
perfectly
lasted
christian
filter
##ting
off,
novel.
onto
table
happens
powerful
book!
vocals
higher
cat
ends
switch
lacks
immediately
key
held
possible
sold
wanting
##b
tired
kindle
days.
##for
pain
ability
fun.
##ity
eyes
ten
per
self
disappointing
james
others.
sets
episode
concept
choice
dr.
telling
world.
##ment
remove
recent
about.
search
offers
install
likely
green
reading.
fully
fix
designed
events
##5
focus
##you
trip
##ies
michael
usual
ways
familiar
there,
months.
cheaper
wrong.
biggest
loose
realized
info
detailed
didnt
instead.
following
allow
usb
keeping
lose
minute
brings
owned
wasted
bottle
end,
game,
cant
travel
constantly
failed
library
##not
college
better,
##ia
insight
1/2
places
tight
tries
memory
plug
relationship
version.
whatever
technical
cold
interesting,
offer
exciting
manual
introduction
female
headphones
figured
##te
among
##ry
wide
recorded
sitting
match
##3
ear
edge
fiction
father
process
place.
sing
skin
began
installed
##one
works.
heat
novels
ok.
remote
##w
set.
david
mouse
door
expected.
cord
shipped
asked
bass
cds
##1
fine,
ago,
towards
workout
build
##ist
shame
covered
state
over.
ipod
students
lower
period
professional
talent
explain
sweet
apparently
fan.
soundtrack
bigger
note
##ation
pure
disappointment.
incredibly
ball
multiple
suppose
receive
listed
kinda
50
##rs
weren't
notice
question
meant
limited
problems.
fresh
bible
"i
useless
reviews,
reviews.
##less
then,
people.
built
political
role
disappointing.
##,"
sound.
eat
described
tale
long.
strange
jack
boys
(not
city
done.
provided
popular
writes
dialogue
incredible
reads
development
old.
choose
presented
money,
creative
laugh
eventually
100
missed
warm
begin
still,
day,
speed
personally
required
compare
fantasy
sleep
printer
push
shown
first.
pack
internet
teach
##it's
moments
moved
fill
blade
##ian
followed
caught
date
enough.
was.
careful
made.
item.
produced
##ing.
right.
rich
further
daily
have.
before.
image
definately
variety
wall
hasn't
##ling
practice
possibly
##all
buy.
stuff.
falling
bored
sounded
sturdy
comedy
##er.
accurate
walk
summer
terms
quality,
##there
2nd
fun,
fight
neither
appear
double
song.
in,
yet,
latest
bed
descriptions
adult
awful
yes
artist
specific
rated
french
box.
bright
died
brother
involved
jazz
showing
eye
created
great!
you'd
minutes.
theme
job.
crazy
turning
trust
movies.
showed
concert
result
packaging
kill
mixed
facts
published
fair
shot
account
storyline
otherwise,
own.
glass
connection
display
##y,
generally
speakers
site
so.
today.
truth
##th
evil
show.
approach
answer
wireless
holes
cd's
experienced
we've
runs
cleaning
knowing
press
brilliant
aware
lens
##'.
thoroughly
dvds
holding
##ce
changes
selling
warranty
tiny
results
purpose
master
leaving
hopefully
george
ice
##..i
website
example,
colors
contact
lid
##ful
que
rent
artists
much,
pc
natural
##er,
student
##ism
watch.
share
length
through.
younger
##ted
players
##ne
wearing
discovered
minor
dollars
studio
(as
kitchen
yet.
seriously
party
puts
robert
forced
opinion,
talented
laptop
condition
originally
around.
not,
practical
market
videos
ordering
smooth
tom
credit
led
finds
lacking
photo
solo
##what
beats
office
ring
developed
force
##4
##v
sister
types
nice,
states
speak
funny,
thick
##ive
additional
okay,
wood
novel,
whose
funny.
rubber
ahead
written.
tunes
roll
:)
floor
##ch
pan
mom
regret
##he
dvd,
case.
magic
written,
source
##at
board
quickly.
disappointment
die
numerous
too,
traditional
allows
fascinating
knife
pages.
reach
notes
ever.
shape
##ter
performances
somehow
satisfied
buttons
song,
singer
do,
ship
sharp
tea
hopes
fire
oil
plot,
energy
unable
vacuum
meet
information.
battle
grow
nicely
people,
##ing,
mark
##ts
shouldn't
catch
bar
doesnt
download
tough
##do
writers
silly
experience.
named
complex
cutting
soul
wondering
##]
##ar
anyway,
anywhere
##et
errors
road
dull
mainly
act
confusing
format
us.
let's
shoes
prior
changing
potential
japanese
bucks
center
lived
relate
code
stars,
terrible.
user
##ble
style.
hero
excellent.
british
##ty
ran
##e.
##ly,
advanced
plot.
hell
dogs
1st
images
nature
flow
pump
placed
iron
cards
kit
##se
stated
deserves
training
honestly
somewhere
band.
pressure
anyone.
##ton
considered
paul
seen.
illustrations
paying
##when
bike
weird
threw
exact
respect
##no
##however,
cuts
famous
morning
tech
long,
town
##ge
##ve
recomend
tips
mp3
short,
hole
disk
like.
##',
luck
describe
public
##ed.
directions
thinks
adventure
connect
##e,
meaning
names
##ized
inch
case,
spending
thing,
normally
far.
saved
blood
afraid
chose
properly
director
romantic
##el
emotional
bill
directly
herself
40
mistake
grew
advertised
thrown
(a
tone
sides
home.
comments
back,
fails
ground
foot
point.
we're
##r.
##d.
screw
lights
journey
know,
requires
gun
recordings
beautifully
social
vhs
adapter
to,
##est
willing
itself.
hated
delivery
club
decide
building
cook
male
same.
down,
predictable
##st
data
surprise
everyday
earth
tend
##ra
literally
tools
easily.
growing
opinion.
##ated
recommended.
ending.
##that
keyboard
odd
video.
best,
these.
##ally
hollywood
history.
electric
play.
gonna
children.
"a
elements
##we
individual
##--
##2.
##don't
strongly
##y.
know.
aspects
working.
unit.
house.
thus
brown
author.
clock
rare
3rd
before,
##00
toys
premise
project
street
instead,
reminds
(like
option
##a,
amazon,
hadn't
besides
##os
boring,
informative
concepts
##+
drop
entirely
claims
steel
extended
bonus
vocal
shop
ink
scary
sick
absolute
##.this
hoped
intended
relatively
realistic
drawn
more,
brush
store.
ones.
review.
reality
ride
label
sound,
access
enough,
movies,
charger
material.
numbers
audience
lovely
plugged
checked
regarding
paint
necessary
genre
harry
lets
searching
anything.
contacted
stock
lock
career
##ous
far,
dust
script
toward
discs
works,
love,
below
peter
pot
magazine
flash
hang
hooked
wire
motor
refund
grade
months,
newer
teaching
trash
church
seconds
used.
player.
effect
explains
areas
horrible.
cooking
anymore.
wrong,
character,
family.
currently
system.
wont
size.
old,
therefore
nice.
was,
(in
canon
perspective
##by
pulled
outstanding
twist
repair
offered
quit
contain
aspect
enjoying
zero
dropped
topics
things.
favor
adds
pad
killed
constant
effective
amazing.
culture
team
attached
techniques
mess
secret
direction
murder
gift.
honest
##6
beauty
perfect.
el
moment
##nce
references
proper
teacher
improve
hp
pocket
monitor
post
sending
sexual
fighting
forever
wash
ray
delivered
condition.
surface
week.
##a.
##ine
clip
hand,
badly
compilation
previously
strap
function
america
##ey
night.
printed
disney
comic
him,
adjust
suspense
copies
attempts
blues
durable
selection
expectations
love.
eating
transfer
##!!!!
frustrating
frame
members
##....
hurt
produce
##i'm
##ate
sequel
thru
together,
##they
spanish
annoying.
worthy
walking
side,
via
catchy
flimsy
##!)
##9
garbage
continues
##ll
one's
century
belt
##just
rarely
character.
till
##ish
twists
anyway.
speaker
##7
flavor
who's
email
days,
handy
overly
western
##ant
reasonable
christmas.
jump
creating
caused
stands
meets
killer
slide
useless.
picture.
year,
mac
packed
router
lot.
burn
others,
safe
wheel
cats
line.
former
adding
##na
go.
indeed
quiet
sections
signal
success
world,
dealing
chinese
faith
defective
yoga
visual
maker
##8
ridiculous
media
blu-ray
planning
topic
elsewhere.
##..but
spot
rap
11
fans.
separate
allowed
load
exercises
stage
military
dream
birthday
managed
crap
strength
other.
comment
folks
punk
harder
appeal
driving
mediocre
mind.
richard
headset
south
awful.
lee
entertaining.
stays
library.
calls
future.
field
exercise
sure,
worn
spiritual
mount
and/or
writing.
help.
religious
##o,
score
##??
alternative
junk
reasons
theory
talks
en
history,
brief
superior
lady
position
albums.
##ley
screws
answers
steps
passed
shut
piano
while.
friends.
train
documentary
13
presents
waited
man,
related
enjoys
appropriate
experiences
problem,
terrific
book's
impression
version,
fault
becoming
error
thoughts
##tion
compelling
bits
chair
ears
cover.
stores
aside
box,
toy.
80's
ripped
stories.
##ier
25
rip
anybody
fear
##r,
##land
according
something.
met
dvd's
like,
require
manufacturer
feelings
later,
##ma
##t.
rough
removed
hook
levels
##..and
york
show,
new.
##la
debut
essential
reccomend
begins
##very
##ging
connected
beginner
drama
are.
18
style,
health
gold
fast.
they've
adults
whenever
helpful.
pleasant
update
different.
##ping
14
dissapointed
camera.
mode
sale
prepared
german
hours.
##go
pink
kids.
##after
era
animals
also.
fat
cross
steve
2.
small,
room.
recieved
combination
##ed,
legs
majority
asking
(for
response
sounding
original.
win
joe
actor
law
mary
superb
describes
draw
valuable
wild
##out
shelf
small.
apply
(if
seasons
blow
smart
budget
records
##de
##s'
picking
solution
bags
clever
short.
side.
##age
reading,
whom
electronic
count
myself.
nothing.
pace
explanation
water.
two.
page.
editing
spirit
loss
beach
jesus
storage
##um
really,
technology
joy
voices
commentary
performed
##ent
##ly.
awesome.
society
try.
grab
shower
explained
faster
skills
discover
hose
amazed
literary
products.
class.
viewing
##3.
closer
leather
hip
today's
dad
tv.
author,
junk.
available.
greatly
##good
wars
breaking
inches
stuff,
recognize
(with
screen.
leads
set,
construction
for,
drink
part.
machine.
window
successful
controls
alarm
lesson
nowhere
##led
protect
entertainment
##ring
cases
wonderful.
remains
bob
claim
level.
breaks
lame
portion
stone
sensitive
contained
of.
##well
overview
medical
pleasure
pages,
value.
weeks.
losing
lucky
band,
rid
another.
options
mood
footage
treat
favorites
hanging
voice.
words,
non
##with
worry
one!
did,
##ta
##er's
cream
ultimately
direct
her,
##ng
graphic
##t's
it?
miles
ruined
are,
child.
inspired
okay.
terribly
sense.
##-up
##ning
pro
computer.
##1.
true.
news
right,
(it
confused
##da
deal.
narrative
painful
shots
hd
no,
with,
animal
saving
tune
appeared
complicated
blades
reminded
vs.
tends
soap
phone.
physical
pet
##of
medium
shoe
##ck
cars
be,
instruction
classical
release.
memories
situation
16
ancient
lord
charged
perform
sadly
surely
cheesy
stayed
dirty
concerned
amazon.com
stereo
accept
children's
west
random
engaging
raw
follow.
costs
television
##d,
milk
refund.
slowly
had.
vampire
apple
deserve
treatment
##great
##.it
##ure
##..the
easy.
hardware
sat
es
seven
exception
wind
service.
lessons
bottles
fit.
repeated
crime
fish
smells
##son
opportunity
school.
writing,
burned
balance
brain
kick
discussion
excellent,
suggested
settings
loving
impact
struggle
bread
upgrade
man.
inexpensive
doctor
mean,
serve
replacing
suspect
tons
dollar
grown
born
spring
anyway
review,
intelligent
wore
microsoft
introduced
sun
commercial
suddenly
police
does.
sings
say.
part,
rented
target
heroine
van
leading
light,
information,
thrilled
##overall,
scale
los
##ke
poor.
##in'
mail
##/
empty
priced
##way
stories,
extreme
brothers
clips
significant
fabric
helping
forth
address
beautiful,
round
##ible
arm
jane
##ped
explaining
files
light.
cheaply
scientific
line,
ultimate
frequently
##o.
stephen
upset
develop
head.
ii
done,
action,
kinds
situations
improved
laughing
merely
oh,
understand.
capture
##ize
models
cheap.
benefit
complaints
grand
resource
##e's
made,
##ner
units
cell
letters
point,
hundred
method
myself,
neck
performance.
##ur
advise
wonderfully
games.
warning
design.
star.
violence
subject.
deeper
reader.
pictures.
virtually
insights
car.
##-like
critical
damaged
disc.
xp
wet
monster
spray
##ro
frustrated
inner
updated
##able.
hilarious
contemporary
movement
sci-fi
avid
cheap,
simple,
assume
killing
comparison
hype
ages
##while
stainless
theater
slight
animation
string
analysis
garbage.
100%
cool.
##co
##es,
nobody
causes
marketing
##ial
later.
damage
wanna
##now
##line
prose
away,
results.
mad
albums,
comprehensive
installation
money!
plus,
shoot
drill
person.
issues.
rice
sample
enjoyable.
everybody
station
sticks
fixed
shipping.
##?"
##t,
fly
effort.
mouth
w/
carrying
titles
winter
##es.
repetitive
repeat
hidden
parts.
thomas
bit.
calling
setup
teen
(even
##be
gay
relationships
literature
tip
bag.
##'s.
musicians
edited
specifically
##ary
hardcore
occasionally
network
sorry,
recipe
solve
teaches
visit
minutes,
order.
heads
properly.
challenging
voice,
checking
acting,
false
things,
ingredients
believable
compact
rack
washed
generation
pillow
native
uncomfortable
map
taught
today,
silver
1.
clean.
prove
channel
interest.
tastes
size,
sheets
perfectly.
somebody
slow,
words.
##ged
once.
memorable
"what
mini
needed.
curious
##les
focused
follows
presentation
classic.
apart.
isnt
24
land
keys
(but
3d
dumb
healthy
##ps
basics
tank
chris
bear
tour
soon.
swing
greater
carefully
fail
shallow
complain
buyer
driver
##some
married
interviews
un
prevent
diet
sized
supporting
too!
##me
cups
programming
cash
al
action.
gas
home,
lacked
anymore
maps
receiving
file
passion
player,
tracks.
bond
handles
translation
##dy
##ger
##?)
publisher
anne
jim
worse.
##tic
you!
classics
touching
views
##izing
model.
recommend.
it.i
temperature
throwing
cracked
wasting
hand.
southern
new,
angle
initially
advertised.
deals
china
improvement
deeply
ghost
lay
equally
intense
evidence
reasonably
again!
halfway
shocked
useful.
awkward
served
needless
attractive
tedious
issue.
bruce
themes
italian
##.if
very,
yeah,
company.
dated
martin
yellow
glue
horse
damn
speaking
itself,
lasts
shopping
cables
portable
wedding
would've
bowl
closed
static
straps
blend
drug
addition,
flying
grill
u.s.
fabulous
##like
hair.
challenge
choice.
core
timely
manages
million
edition.
race
wheels
##n,
grip
block
##cy
##ny
heard.
replacement.
item,
teenage
tree
past.
reason,
impressive
initial
island
casual
safety
standing
##even
worthwhile
enjoy.
garage
last.
taste.
intriguing
wake
queen
ease
chocolate
planet
flip
##also,
friend.
difficulty
mr
picks
yourself.
unusual
'the
reason.
emotions
gain
describing
explanations
##ious
vs
stops
longer.
sign
weather
dirt
finger
##how
civil
excuse
finally,
frank
90
text.
sports
laughed
##ating
rolling
##tor
phones
these,
fast,
dozen
panasonic
equipment
##its
##il
place,
emotion
creates
dancing
ms
won
area.
brand.
alive
here's
period.
worked.
attach
movie!
printing
releases
entertaining,
over,
##am
secure
deliver
refreshing
we'll
around,
tracks,
occasional
##l.
fake
meat
idea,
(at
companies
compatible
manage
burning
attention.
sheet
cry
war.
opera
doll
cap
xbox
educational
pulling
beautiful.
copy.
it'll
original,
while,
ain't
jokes
son.
tales
sits
drum
mike
children,
extras
job,
smith
true,
wasnt
##!"
family,
childhood
talked
tapes
next.
fourth
remain
national
convenient
sales
supply
man's
##id
this!
choices
counter
shooting
house,
beware
industry
william
hundreds
park
60
covering
palm
foam
ive
neat
novels.
dave
scenes.
sleeping
functions
broke.
sadly,
term
math
central
serves
##4.
##red
date.
pen
gotta
everything.
capable
north
month.
see.
styles
slip
##per
packaged
color.
alone.
fingers
track.
start.
##...i
proves
two,
clothes
##i,
blown
scott
factory
dangerous
us,
utterly
knives
billy
language.
only.
peace
diaper
degree
lighter
formula
##ls
##a's
rush
member
charging
con
exam
mistakes
chain
organized
rules
lcd
mirror
video,
imagination
fans,
bringing
dictionary
happen.
desire
jones
holiday
surprisingly
200
##ance
(no
bent
laid
suction
steam
government
holder
da
golden
loses
contents
##%
get.
causing
glasses
eight
max
##ms
practically
alien
essentially
manner
2,
##she
##???
risk
split
teeth
supposedly
balls
vinyl
genius
antenna
##buy
i,
adventures
singers
stretch
45
loaded
sugar
wrapped
busy
groups
tested
biography
##y"
letter
time!
amazon's
##ard
genre.
collection,
wrap
everytime
primarily
track,
##-out
daughter.
fiction.
tear
favorite.
happening
else,
70's
games,
top.
plastic.
it...
drag
reception
water,
title.
##ss
comfortable.
conclusion
son's
projects
no.
continued
filters
material,
##!i
exchange
##other
finishing
##..it
4th
idea.
etc
##ns
unbelievable
2000
everyone.
wonderful,
seal
spots
(although
tray
directed
judge
dramatic
materials
writer.
security
wooden
captures
##ned
justice
sucks
dig
promise
reliable
bothered
tie
click
thriller
focuses
angry
spin
rating.
tears
themselves.
oven
featuring
##io
(especially
generic
johnny
sea
moon
snap
night,
possible.
heck
"you
religion
finish.
kids,
beginners
delivers
have,
about,
anime
mental
event
batteries.
##ler
lies
featured
##'m
indian
##nd
##'ll
happy.
cover,
"how
often.
season.
forgot
disturbing
trash.
hassle
edges
link
regardless
shorter
brands
treated
##ual
twenty
week,
##overall
ya
editor
forgotten
##maybe
suitable
market.
upper
anything,
trilogy
friendly
feed
patterns
##ers.
desk
assembly
letting
included.
duty
mind,
happened.
measure
yr
blame
identify
necessarily
primary
bet
problems,
flick
##ical
cardboard
programs
himself.
##ay
portrayed
second,
ugly
united
expectations.
litter
arms
escape
recommendation
scenes,
providing
heart.
tube
content.
researched
##ness.
##ir
methods
from.
stronger
comfort
listing
sexy
flaw
insert
basis
bars
##-year-old
detail.
touched
fantastic.
missing.
##rt
easy,
acoustic
films.
internal
apparent
awhile
watch,
lp
standards
##")
delightful
friends,
ups
plane
prepare
auto
leak
person,
babies
cool,
rain
(who
clear,
through,
quickly,
poetry
##ut
masterpiece
subtle
plate
##tive
program.
remake
tall
own,
##j
pleasantly
then.
humor,
predictable.
name.
articles
personality
scared
pool
decision
free.
thorough
raised
me!
age.
asleep
spare
##m.
3.
paperback
gps
##s!
structure
opposed
crap.
installing
package.
worried
##mm
fashion
boxes
marriage
philosophy
lyrics.
lover
pads
##.but
recording.
mechanism
rings
##her
elsewhere
colorful
instrumental
viewer
giant
##'s,
razor
drivers
sure.
adequate
appreciated
element
why.
##on,
cute,
weak.
systems
everywhere
container
lists
snow
combined
marks
interview
they'll
attack
depressing
prime
epic
rear
beatles
play,
##n't
moral
mid
understood
##n.
receiver
chemistry
##s)
spends
definite
##from
crappy
producers
ignore
joke
them!
army
##.00
fellow
ton
russian
sources
offering
potter
amusing
suggestions
hey,
product!
cleaner
$10
##ee
mistake.
system,
##get
switched
space.
downloaded
lives.
pictures,
##ue
vendor
ben
port
luck.
chosen
weeks,
praise
endless
speaks
other,
parent
private
heavier
highest
once,
timer
cartridge
skipping
fm
grace
tension
americans
battery.
politics
think.
remind
wished
##king
preferred
process.
:(
pushing
$20
applied
captured
textbook
heavily
redeeming
motion
(my
customers
difference.
read!
wise
actions
##iness
##o's
cleaned
##r's
serial
correctly
finest
reviewed
cultural
universal
photographs
##ite
buying.
european
ad
mat
humor.
insightful
##up
however.
worthless
##on's
can.
enter
acts
catholic
lightweight
##h,
cookbook
favorites.
influence
gameplay
proof
professor
satisfying
studying
matter.
gentle
application
mature
encourage
coverage
wires
novels,
scratch
shock
##book
tony
ideal
jam
school,
##i.
hop
bland
toaster
since.
scratches
face.
less.
region
inspiring
rock,
seemingly
lyrics,
blew
noted
features.
velcro
##istic
african
companion
ordinary
gorgeous
##also
assumed
crack
cartoon
clear.
ending,
hey
slow.
minimal
heating
relevant
seeking
truck
##ze
list.
path
all!
filmed
need.
bend
scent
latin
controller
devices
increase
##n's
appearance
##lly
impressed.
least.
lo
##p.
rushed
protection
removing
grandson
personally,
##com
##ming
attitude
##would
photography
resolution
format.
mysterious
pushed
sentence
drinking
plots
workout.
humorous
##gy
business.
manner.
report
riding
drives
convinced
misleading
fallen
melodies
wears
##c.
experience,
financial
corner
mountain
advantage
community
tribute
unit,
vision
##lo
brian
surprising
##house
##more
devoted
whoever
worse,
drawback
pointed
##ot
broken.
zombie
##--and
##y's
tim
writer,
garden
##why
parts,
magical
pieces.
liquid
paper.
find.
thumbs
cost.
sung
wine
computers
weekend
##was
stiff
technique
express
narrow
design,
puzzle
blu
elizabeth
##h.
go,
international
leg
bird
arrangements
figures
dan
ruin
"this
drawing
scene.
attachment
foreign
efforts
boyfriend
camera,
description.
tv,
management
genuine
sticking
ideas.
height
##5.
values
developing
highlights
god's
mainstream
lift
titled
##'ve
out!
remembered
remarkable
said.
gore
##his
inside.
context
refer
boat
fiction,
distance
strings
attempted
##ky
##thank
external
vivid
nine
hat
honestly,
thier
favourite
sees
dedicated
died.
##time
##ers,
expected,
reset
usa
menu
##ball
quotes
record.
##ft
trek
pulls
stupid.
noise.
purpose.
mic
sam
washing
charles
dead.
dislike
sink
subjects
##ization
charming
recall
##ware
jeff
store,
downside
breath
expensive.
##rd
par
expert
instant
portrayal
extensive
thought,
jewish
passing
depending
ridiculous.
lamp
explore
san
carpet
attempting
readable
child,
power.
blender
think,
"in
hard.
##only
dress
dying
rock.
death.
reader,
rise
##ad
want.
unfortunate
irish
##ron
chicken
paced
of,
##i've
girlfriend
intro
support.
child's
martial
studies
talent.
east
accurate.
mess.
##l,
allowing
terrible,
dreams
tape.
staying
lot,
crew
card.
square
fitting
gate
pattern
excitement
eric
detective
consistent
proved
kevin
mixing
vacation
##men
annoyed
bathroom
pointless
floor.
different,
prince
disagree
please,
software.
##2)
abuse
clue
dialog
son,
daughter's
device.
substance
wondered
baseball
holy
opens
pathetic
17
knock
arrive
engine
costume
##work
##ide
##ence
##g.
crystal
mounting
warn
lovers
nasty
car,
coffee.
didn't.
disapointed
mine.
traveling
##back
ever,
same,
daughters
##ff
comparing
unnecessary
arts
camp
bugs
frankly,
flat.
suited
fool
past,
##ow
struggling
pour
afford
disappointed,
online.
sizes
##er"
bulb
title,
guessing
returns
wanted.
durable.
shirt
unhappy
biblical
##sh
se
shake
liner
hitting
shape.
..
b/c
behavior
carried
setting.
picture,
violent
thought.
sucks.
2-3
nail
amazing,
##bly
active
prices
##ding
##ki
melodic
jason
jackson
simple.
williams
candy
something,
suit
##que
tub
piece.
consistently
live.
perfect,
outdoor
users
view.
##which
computer,
matches
cassette
las
[...]
lousy
borrowed
flaws
stunning
halloween
welcome
suffer
tool.
##i's
animated
bath
skipped
kiss
well-written
hill
jumping
"my
firm
saves
bulky
touches
texas
##ver
witty
(though
flight
orange
equal
radio.
##read
##--the
instruments
cake
could've
promised
##ise
##man's
charm
london
god,
scratched
loud.
##der
##ks
many,
strong,
hooks
used,
birth
sarah
page,
course.
pain.
phone,
##over
jumps
already.
interface
cheese
decides
twisted
bluetooth
nick
colored
language,
opinions
##'d
rave
skill
seek
borrow
##ice
20th
forces
grasp
##cing
##ess
cordless
thousands
promptly
##head
location
therefore,
trick
control.
it!!
women.
dish
5.
sheer
immediately.
##mo
deck
popped
up!
sentences
yard
raise
shows.
##man,
pants
folk
needs.
clean,
england
irritating
products,
unknown
"no
actually,
fairy
inspiration
sleep.
##..this
films,
select
wit
would.
destroy
high.
laser
##ably
surrounding
chapter.
greek
leaks
they'd
investment
poems
typically
grinder
you"
henry
friend,
gift,
consumer
education
collect
girl,
war,
linksys
suffers
uk
close.
horribly
creepy
baby.
##(
latter
output
legal
listen.
it.the
singles
described.
this?
toddler
beginning.
failure
group.
real.
drops
site.
print.
stress
joke.
places.
##ists
informed
invest
##ving
owner
opposite
##oh
honest,
largely
proud
advance
couldnt
along.
backup
ill
slower
concise
confusing.
color,
##please
country.
mission
guide.
##tte
noisy
misleading.
trade
##ions
samples
families
guest
factor
rocks
classes
class,
bed.
survive
darn
##ld
5th
forever.
etc.,
outer
robin
watches
wrist
(this
dull.
buy,
doors
tad
boy,
people's
subtitles
heater
seriously,
le
president
suck
acceptable
instructor
dark,
##-year
god.
remix
hands.
frankly
wouldnt
##m,
dog.
grammar
zoom
production.
twice.
messages
300
artistic
release,
remaining
sells
beginning,
extension
lighting
mrs.
jimmy
purchase,
##om
viewed
alex
career.
don
##who
food.
weight.
st.
strip
degrees
moore
wow
instructions.
released.
boots
orchestra
samsung
seller.
etc.)
accounts
california
critics
electrical
gear
walked
fox
laughs
jennifer
novice
reviewing
trailer
dragon
gloves
purchased.
involving
vehicle
(that
academic
reached
horrible,
strategy
hours,
struggles
birds
##ness,
fold
collar
inferior
sites
luckily
cd!
downright
mattress
nose
shave
cds.
plans
roots
##e"
upbeat
rely
me"
ways.
##ina
change.
cop
birthday.
meeting
moments,
acting.
handling
##10
rose
basket
daughter,
hide
maintain
soundtrack.
##love
interpretation
says,
##!!!!!
lost.
room,
dragged
cartridges
least,
##ile
dinner
searched
concern
university
conversation
dial
artwork
drums
grind
##.)
##ca
clarity
mixes
toy,
yesterday
actress
wow,
bush
widescreen
nails
predictable,
amazingly
drawings
principles
charge.
vista
##these
##most
edition,
foods
ones,
development.
harsh
pin
rule
importance
eyes.
feature.
mildly
##wood
microphone
bit,
form.
racing
##ities
##ily
##so,
corporate
dj
jacket
posted
##.and
salt
good!
tire
publishing
skin.
desired.
dryer
tag
atmosphere
##ing"
mysteries
dishes
alright
why?
passages
quest
art.
so-called
sticky
differences
shoulder
filling
lazy
scenery
website.
america.
enjoyment
reflect
cable.
index
owning
fancy
does,
batman
entry
character's
exposed
readers.
outdated
lowest
bound
##ism.
sight
special.
blocks
aid
##ations
concerning
ann
logitech
loud,
worst.
operating
stood
gem
trial
justify
balanced
booklet
exceptional
disc,
id
looking.
emailed
##bs
official
del
spread
identical
(i'm
princess
automatically
haunting
instantly
mass
seat.
poor,
##hip
alice
adjustable
re-read
guides
machine,
warranty.
##because
features,
heavy,
selected
stones
alternate
star,
sum
darker
guitars
ps2
puppy
appealing
destroyed
emphasis
look.
slim
sub
illustrated
yeah
##lin
achieve
band's
tragic
dissapointed.
note,
bizarre
(i.e.
gifts
it)
sturdy.
##well,
authentic
butter
wisdom
##ism,
hair,
sucked
garmin
routine
disco
juice
os
playing.
secrets
tremendous
sex,
##ber
football
christ
come.
ideas,
forms
jerry
1,
"all
assemble
girl.
europe
gospel
volumes
liberal
teachers
easily,
##_
(to
refused
sad.
anywhere.
ashamed
pictured
socks
##--i
handle.
##ka
(one
batteries,
elvis
##although
charlie
insult
little.
remastered
releasing
theres
conflict
crash
listener
teens
witch
##ri
acted
blind
silent
unexpected
constructed
screaming
switching
##can
general,
##va
cuisinart
pearl
watching.
surround
policy
mystery.
towel
effects.
exception.
bargain
riffs
chicago
fruit
para
stomach
torn
disks
mounted
big,
hot.
descriptive
theatrical
##ity.
associated
smile
text,
classic,
funniest
mentioned,
sense,
cloth
month,
gary
leaking
pounds
##will
massive
##try
chance.
department
romance,
break.
mask
suffering
activities
gone.
##on.
jumped
comfortable,
vast
depth.
fictional
ladies
pregnant
range.
spite
legend
purple
##ell
going.
kills
woman,
cameras
cares
##light
needing
geared
tied
trips
woman.
##,and
##k,
##then
psychological
layout
weak,
una
nevertheless,
selections
reaction
....
automatic
filler
makers
faces
hard,
respond
##ion.
criticism
responsible
rhythm
500
punch
carries
essays
women,
##where
evening
sequence
existing
supplement
chapters.
effects,
smoke
foundation
##ster
cuz
frustrating.
messed
retail
stations
suggestion
frequent
hour.
produces
universe
comedy.
thicker
##!).
hence
intelligence
simplistic
introduce
contrast
expensive,
sorely
##ever
sensor
chase
honor
liking
quirky
##box
intend
shortly
unrealistic
connector
sharing
(including
net
e-mail
dual
plant
success.
combat
machines
crisp
rights
article
java
audience.
cage
questions.
grows
head,
signs
youth
##board
admit,
advertising
##let
##k.
zipper
drew
boot
entertained
winning
solutions
logic
relaxing
tests
stroller
fooled
twin
treasure
60's
hung
instance,
shared
##save
independent
angel
guns
scan
##un
driven
plastic,
hotel
level,
skeptical
designs
moments.
phrases
proven
women's
##py
goodness
pans
##im
protagonist
what?
artist.
awesome,
input
suffered
workouts
both.
reviewers,
that?
either,
word.
##ments
funky
which,
##ah
##-in
(from
obscure
##...and
(you
guy.
humans
##field
another,
2)
dry.
closely
(they
dried
pockets
screen,
plates
roles
headphone
summary
task
ac
##-the
##thanks
highlight
narrator
pleased.
##ties
in-depth
guy,
matters
melody
vocabulary
##mer
battles
blows
it;
subject,
bag,
neil
puzzles
environment
definetly
lie
##have
details.
gel
microwave
mobile
sons
goal
lyrical
server
correctly.
dell
lacking.
powers
basically,
##pe
affect
issues,
potty
texture
3,
sonic
century.
consists
present.
limit
mario
opener
##1)
##ons
cult
starring
packing
sudden
bubble
feel.
logical
nuts
##ies.
grocery
fifth
glued
heaven
locked
underground
capacity
sturdy,
truth.
thin,
join
scope
earned
marked
whats
desperate
##ol
metallica
awesome!
guess.
ears.
##ment.
##ford
trip.
ballads
exist
remotely
connections
feet.
throughout.
1)
glimpse
creativity
thousand
overall.
reduced
determined
countless
hunt
accidentally
annoying,
reduce
lifetime
repeatedly
completed
dean
eastern
perspective.
combo
##ative
##99
service,
bare
organization
plants
producing
packs
scanner
table.
##ct
blank
freedom
profound
##ability
age,
discuss
dishwasher
at.
newest
operate
sad,
kelly
gauge
wishing
eddie
price!
shine
##6.
##ba
nicely.
snapped
errors.
handled
spoiled
volume.
##ors
closing
drive.
producer
j.
rod
santa
mystery,
spoke
bridge
situation.
adjustment
informative.
intermediate
right?
cotton
##...but
asks
hint
project.
warned
presence
bedroom
minds
half.
##3)
##iest
innocent
sisters
channels
captain
accessible
charges
christmas,
march
painted
vocals.
treats
everywhere.
gifted
sunday
##ens
##tes
metal.
thread
(except
collecting
river
performs
havent
leader
message.
strong.
whatsoever.
heroes
award
nights
kettle
facing
##tly
pound
shadow
sorts
crying
era.
fond
crowd
gym
##ries
google
alan
overcome
bang
recognized
truely
backing
incorrect
##lt
challenges
body.
students.
expect.
bra
electronics
believes
##0.
screwed
##sing
cute.
essence
mentions
performing
christopher
patience
rest.
graphics,
hammer
spectacular
don't.
meaningful
painfully
nikon
comedy,
"one
believed
gripping
return.
##50
##bottom
broad
intellectual
believable.
eagerly
now!
sequences
stores.
typos
3-4
gray
individuals
weapons
complained
english.
lewis
5.1
evolution
rendition
theories
adam
contrived
intrigued
lasting
ford
reference.
!!
frustration
live,
plugs
belief
see,
##mi
points.
record,
resources
trimmer
buyers
cycle
genre,
britney
draws
leaked
dies
bible.
prints
deleted
vague
walmart
difficult.
##uring
lonely
##ul
saturday
slides
company,
pile
wall.
cared
items.
oscar
learns
4.
grass
wider
este
order,
songwriting
toilet
aluminum
enjoy!
internet.
shot.
statement
wife,
hall
rental
wave
always,
chuck
really.
will.
detail,
reveals
worthless.
wow!
2003
##ified
labeled
china.
fun!
power,
egg
roller
waist
general.
open.
spoken
ages.
80s
definition
##fully
craft
friend's
$100
kitchen.
##ened
i.e.
dull,
factual
satisfied.
jar
option.
"if
et
##first
bottom.
precious
scene,
lesser
players.
testing
better!
vocals,
extraordinary
whereas
collector
oz
pops
deal,
elementary
everything,
popcorn
serving
##...the
install.
physics
tighten
hdmi
buck
cookie
influenced
"don't
progressive
##ward
desktop
recipes.
##gs
##za
delighted
##ds
##p,
coating
mother's
kate
sole
bought.
determine
sd
##ney
performance,
powder
biased
episodes.
love"
##.....
exciting.
##--but
solved
seriously.
r&b
##-on
convincing
drugs
completely.
misses
received.
##-based
reveal
romance.
labels
admire
engineering
guarantee
pilot
##sed
chick
studied
golf
mere
relief
direction.
setting,
wealth
hates
buy!
condition,
name,
revealed
$30
culture.
distracting
quote
tricks
##!the
##ies,
air.
arrived,
often,
displayed
alone,
care.
deserved
grisham
packaging.
soul.
book?
corners
reputation
photos.
thoughtful
dolls
research.
chip
underneath
guilty
min
theatre
teenager
thermometer
pressed
accuracy
walks
ed
##?!
big.
lines.
bitter
##sa
happily
claimed
sweat
##since
emotionally
##ha
##)and
urban
comparable
interior
woman's
##ium
(of
christians
discussed
dvds.
growth
sand
bell
mtv
spy
trap
##rate
$50
charts
connecting
printer.
suggests
##our
functional
##having
musician
jordan
it!!!
mellow
on/off
blah
matt
paragraph
uncle
##nts
paris
timeless
mixture
chemical
hunting
sorry.
tossed
morning.
susan
mixer
naturally
hunter
jobs
##are
test.
working,
##ular
##uous
amateur
chew
gang
helpful,
millions
minus
overpriced
scare
successfully
glowing
encountered
stating
aliens
threads
delicious
reminiscent
shaped
devil
guys.
powered
##unfortunately,
35
360
boss
roman
displays
decent,
(just
alas,
roger
##able,
base.
japan
##ied
average.
introductory
noticeable
protein
renting
##.com
2004
library,
places,
were.
amounts
anyone,
sake
shell
beware.
most.
##ia,
talents
##ed"
##7.
why,
dynamic
entertainment.
qualities
ryan
wonders
##ded
awful,
drain
radio,
dealt
fills
real,
arguments
bone
effectively
taylor
edit
naked
examples.
mother,
shaver
##ity,
storyline.
!!!
##000
royal
soldiers
supported
tradition
agent
furniture
patch
terry
jet
ratings
enjoyable,
sliding
exam.
food,
handful
painting
secondary
steal
blast
bookstore
courage
significantly
book;
locking
clay
world's
80
coast
organic
assembled
journal
utter
##too
90's
eggs
thirty
it).
shipment
should've
nintendo
hot,
versus
bloody
flexible
apartment
cooler
guard
herself.
more!
stable
convince
legendary
reread
rust
##gling
##however
superficial
area,
headphones.
masterpiece.
tent
##>
focusing
installment
asian
diapers
beat.
that!
##zing
accomplished
enemy
locks
granted,
assuming
circle
dropping
approximately
hesitate
graduate
#1
corny
complaining
on!
tax
##ga
laugh.
visually
healing
sean
court
shipping,
weight,
work!
analog
placing
struck
valve
coat
usual,
indicated
pity
speakers.
has.
##mb
guys,
applications
king's
spice
casting
clancy
granddaughter
padding
reccommend
bucks.
1/4
happier
allen
dare
dear
death,
baby's
object
shines
anthony
topic.
ruins
##highly
##hing
trading
issue,
regularly
##bo
rescue
##day
hints
office.
top,
kid.
heavy.
pairs
book.i
literature.
reports
solid,
frozen
seconds.
diamond
dozens
upside
"love
severe
##ory
motorola
drawer
400
definitive
eager
feeder
hospital
remixes
view,
combine
lit
ordered.
spelling
caring
evident
knob
metal,
mile
global
support,
upgraded
he'd
hood
sooo
unbelievable.
##'t
transmitter
##q
accessories
expand
sequel.
howard
layer
sword
"get
development,
mild
viewers
hip-hop
wipe
feeding
revenge
(it's
word,
december
continually
firmware
thumb
wii
writings
(see
background.
promising
soft,
##ion,
linda
mode.
chips
optical
grey
kicks
strictly
yourself,
"it's
decades
depends
door.
johnson
faced
uneven
##ick
cooked
readings
baking
walls
$5
supports
woods
masters
sufficient
vintage
battery,
gems
wwii
broadway
content,
urge
shocking
beloved
fit,
june
ours
shall
low.
shelf.
obsessed
##med
##worth
binding
trouble.
teenagers
useful,
"i'm
cartoons
start,
operation
musically
##.."
should.
##cious
line:
ties
aside,
simon
##tions
monsters
pregnancy
wife.
recordings.
usage
wilson
##though
cooker
dry,
##b.
##body
bulbs
heart,
##$
actors,
survival
##9.
look,
sloppy
waste.
chapter,
realy
standards.
carafe
trim
##g,
22
appreciation
ground.
2005
movements
fights
regard
throws
substantial
##watch
polish
delight
husband.
rob
drags
anger
confidence
software,
disappointed!
arrived.
reader's
aimed
crafted
##bed
partner
tap
episode.
seen,
##port
guitar,
minimum
art,
model,
##ville
davis
diana
society.
button.
editions
encounter
instrument
nicer
shame.
##ham
##hood
himself,
soup
thin.
2.5
worked,
##t"
importantly,
smelled
interaction
stream
##.a
die-hard
##ok
cabinet
camping
slot
##"?
##].
sync
league
##-free
beliefs
or,
"new
##20
quick,
groove
##ist,
continuing
harris
import
spell
tight.
wrong!
loyal
##rs.
defective.
toss
builds
country,
levels.
dialogue,
sometime
tea.
farm
gap
wayne
dose
husband,
laptop.
magnificent
package,
season,
##ation.
##off
grant
response.
"just
prison
toast
cast,
doesn't.
imagination.
satisfy
conversations
been.
little,
progress
understand,
(on
sophisticated
flat,
refers
##man.
city.
paper,
recording,
result,
narration
amp
andy
available,
##8.
##mate
##ore
##-style
(about
doing.
maximum
blowing
chapters,
odor
agreed
barbara
diverse
guitar.
##bad
lying
granted
##vin
father's
innovative
credits
laying
planned
flawed
feedback
happens.
panel
storm
##:1.
1000
flick.
flows
objective
smell.
loop
started.
sticker
##--it
dc
lip
nancy
starter
##ves
cast.
into.
squeeze
card,
philosophical
streets
##kin
subsequent
ballad
##).i
por
easier.
##cons:
run.
gripe
batch
21
involves
burns
loads
bother.
follow,
##gb
ever!
jessica
kindle.
men.
tripod
poetic
##-down
brutal
decade
aa
flimsy.
suspense,
taste,
:-)
manual.
rca
techno
##use
sang
soothing
##in,
struggled
desert
what,
1/3
bug
circuit
matter,
150
dimensions
sale.
##wn
bottle.
##still
bolts
bored.
disgusting
me)
photos,
etc,
russell
##ple
espresso
fortunately
repeating
shampoo
accident
speech
vietnam
3/4
hurts
softer
nut
publication
rick
conditions
tale.
buddy
creation
effort,
mesh
washington
gene
introduces
locations
periods
tracking
wired
daniel
ridiculously
funk
lame.
(so
down!
manually
quarter
outlet
tragedy
inspirational
root
sealed
##l's
large,
researching
##another
arthur
c.
phil
pricey
##x.
trail
april
friday
points,
videos.
earbuds
pressing
sellers
jon
party.
afternoon
inspire
indoor
mindless
captivating
guitarist
scream
sounds.
actors.
gross
larry
status
surprises
because,
fantastic,
incredible.
instructions,
ought
conservative
visible
##").
##ix
##op
gaming
"best
resulting
compelled
excessive
horses
strips
unlikely
advice,
50%
ipod.
role.
refuse
relax
economic
adventure.
date,
applying
pc.
roberts
ultra
5,
referred
uses.
coffee,
fair,
pat
unplug
##ters
bulk
pretend
tried.
##ulate
by.
chances
ebay
relative
stated,
suspenseful
bin
high,
benefits
notch
shoes.
##mp
bank
owners
soooo
technically
climax
tasted
lake
research,
stupid,
white.
substance.
found.
documentation
paragraphs
popping
authors.
command
freeze
ignored
cards.
publishers
worlds
practice.
tendency
containing
moderate
subscription
cinematography
friendship
chart
skills.
adjusting
album!
diagrams
manufacturing
section.
tunes.
argument
beans
diary
cd's.
swear
testament
"good
##"the
##two
phrase
dog,
equivalent
thinner
versions.
twice,
temp
##-day
disaster
flavor.
combines
sweet,
visiting
adults.
creatures
industrial
value,
although,
holmes
white,
##a"
##end
discusses
indeed,
joan
purely
aged
compartment
talent,
belongs
ranks
costumes
countries
winner
90%
intensity
muy
represents
texts
july
info.
nephew
2007
areas.
crazy.
disjointed
reflects
##s:
is:
mix.
offensive
##ya
gained
rolls
component
cure
decisions
ends.
##cial
classroom
confident
epson
hilarious.
##ble.
##net
can,
chest
components
durable,
psychology
solely
cookies
had,
it"
##perhaps
##vo
likeable
stove
brave
provoking
raising
moving.
##ray
##li
##r"
category
impress
who,
##ten
counting
grateful
mechanical
recommended!
steven
turner
advice.
cried
attracted
portrays
summer.
---
could.
field.
amy
documents
fortunately,
indicate
affair
belong
celtic
oem
victim
warner
##lock
correct.
muscle
##yes,
believing
preparing
events.
(he
faulty
worth.
2002
exciting,
expense
julia
justice.
manufactured
toshiba
##zy
19
delivery.
trees
affected
crib
##-off
believe.
guide,
##..not
concept,
mother.
4,
becuase
father,
meal
stuffed
taped
2001
##-type
ear.
##z,
angels
madonna
pride
tommy
anecdotes
concerns
filter.
##s?
crank
jackie
represent
statements
trite
twelve
messy
some,
pics
owned.
reality.
reasons.
discovery
ian
patient
reaching
wrestling
beginners.
##d"
##o"
flag
row
fed
position.
##fer
addresses
everyone,
realistic.
whole,
all-time
70
grabbed
concrete
presenting
##take
patterson
albeit
christianity
pieces,
program,
##).the
cruise
parents.
yo
##tt
anytime
hearts
offer.
portrait
touch.
activity
copy,
drove
outstanding.
wolf
adore
exposure
informative,
lean
marvelous
wear.
entertain
preview
additionally,
cut.
effect.
isn't.
##ia.
chess
discussing
lab
lil
backpack
production,
##oo
sky
accurately
cliche
shares
blanket
trapped
3.5
grinding
rainy
recorder
mine,
nightmare
pan.
recommendations
##ings
baby,
effective.
##(i
##-time
##ino
adaptation
located
noises
bite
##lan
##low
cents
downloading
heats
pole
(such
steer
wing
6th
affordable
junior
publish
involved.
published.
adjusted
furthermore,
objects
ate
begining
links
situations.
board.
louis
(after
alike.
anxious
everyone's
superb.
shelves
zen
belly
drama,
randomly
shade
skips
listens
louder
##?i
##has
##ology
dark.
help,
spark
strategies
##down
carrier
wax
##ntly
contrary
dialogue.
facts.
supplied
artists.
burnt
northern
##ans
##rated
boston
cds,
otherwise.
stored
##);
fragile
overwhelming
fred
ourselves
underlying
interested.
sometimes,
beware!
discount
stanley
2006
amazing!
nonsense
thrilling
exploring
##.my
cheapest
up"
india
marry
drummer
lisa
answered
figuring
trigger
##every
future,
weakest
cleans
edward
grain
spinning
travels
mold
ur
##ak
(maybe
maker.
slice
##ery
convey
free,
means,
penny
expansion
idiot
zone
explores
solos
##.in
##ud
##ved
brew
closet
fuzzy
performances.
##nie
##right
tightly
twins
english,
erotic
matching
request
closest
passionate
accent
entitled
he'll
uninteresting
failed.
young,
bobby
criminal
delicate
rolled
transition
##ates
cable,
changed.
newly
##-i
description,
disappointing,
elegant
tabs
clark
copied
desired
ocean
volume,
cancer
jewel
##ering
communication
faithful
fascinated
infant
choosing
slightest
thinking,
demonstrates
played.
purchases
truth,
best!
fewer
imaginative
latch
pitch
surface.
hooked.
bose
lines,
translated
physically
niece
pills
requested
steady
##gle
bay
permanent
##ie,
answering
men,
##.99
repeats
sport
trained
colors.
danger
girls.
someone's
##lic
slick
surprise.
torture
stellar
##)i
##ians
spoil
dollars.
"when
cans
fishing
lengthy
try,
mouse.
only,
patrick
town.
accurate,
decent.
ds
jean
jeans
lucas
noise,
polished
cooks
cutter
rechargeable
type.
##boy
##-it
1.5
concert.
experiencing
##.it's
imagery
session
##still,
accepted
repetitive.
"we
##c,
piece,
ensure
incomplete
severely
medicine
cardio
dates
uncomfortable.
bolt
household
kong
toe
feeling.
mexican
nation
noted,
ny
obtain
online,
boxed
dating
locate
website,
##30
cold.
lens.
elastic
josh
intent
interest,
potential.
visited
##top
move.
shiny
want,
"it
##once
##ulation
bore
disliked
handed
readily
refuses
ride.
mouth.
yrs
##many
silly.
singing.
tower
result.
uplifting
##ced
manager
miller
advised
definitly
america's
from,
identity
standout
america,
notebook
vocalist
b.
ep
extent
kit.
business,
##here
##nice
fitness
sore
tape,
custom
lunch
tempo
##mic
usable
beef
cart
clues
demo
extend
makeup
edge.
collections
sex.
sin
fire.
sooner
chorus
durability
hits.
##ress
lol
mug
##best
culture,
perfume
tables
wound
substitute
aunt
clothing
earth.
fuel
historic
##ration
distinct
loading
toys.
reported
tops
buried
ships
##ire
##that's
eyes,
reminder
personalities
drama.
font
thankfully
themselves,
acid
suprised
(we
canadian
knocked
ps3
##ett
cousin
linux
beating
details,
rope
sleeve
tricky
##check
buds
earphones
life"
playing,
well!
def
dylan
make.
olds
symphony
##ura
committed
strike
##long
conclusions
##us,
adorable
listen,
dr
engaged
errors,
##.there
game!
nudity
o.k.
january
route
violin
demand
ripping
wasn't.
'em
saga
##tone
back!
dead,
wishes
bears
prayer
scholarly
vcr
ways,
floyd
france
fashioned
florida
prompt
stop.
rendering
stewart
basement
grounds
such,
##x,
anymore,
connection.
execution
fact.
##s).
pretentious
##...it
reaches
glory
reviewer,
anita
originals
regards
##rs,
cushion
thanks.
comics
trance
belkin
blink
space,
wipes
##mas
haunted
stripped
##don
disappoint
##s".
ken
shed
barbie
medieval
yes.
##water
awaiting
form,
group,
##ach
bed,
empire
this:
alive.
smoking
chord
brilliant.
doubt,
folds
##part
keith
partially
shaving
brass
humble
senior
single,
established
nursing
emails
feel,
estate
tight,
varied
conventional
communicate
experiment
period,
##anyway,
grandmother
les
norton
adventure,
bands.
navy
some.
fence
jay
face,
karen
recipes,
soulful
worship
##rk
document
increased
pencil
(by
butt
kid,
measuring
rank
##'re
##zed
bias
enhance
fought
kurt
##"i
(very
como
ambient
barry
learn.
##case
##old
bump
confusing,
engage
fashion.
$15
obviously,
plus.
example.
resolve
non-stick
scary.
shape,
suspense.
##cent
70s
black,
warmer
##had
pero
city,
dogs.
housing
clamp
essay
loose.
observations
workout,
##side
accompanying
limp
violence,
newspaper
powerful,
##ius
cgi
sewing
##ker
laugh,
janet
$40
(e.g.
amazon.com.
beer
complaints.
echo
scratching
supernatural
##..if
awhile.
nonetheless,
shorts
darkness
hit.
bbc
ha
segments
black.
hands,
say?
germany
understandable
"new"
desperately
parker
schools
##(the
three.
rates
expecting.
poster
singer,
soundtrack,
##/10
depiction
parents,
scroll
##sion
knee
bless
lbs
matched
replaced.
october
we'd
##in's
format,
costs.
julie
quick.
seams
staff
##i'd
pots
indie
longer,
rocking
academy
hesitant
length.
thinking.
##pt
portions
practices
alright,
backed
laura
pilates
stolen
wife's
cracks
faucet
included,
remained
functionality
horn
mark.
castle
conspiracy
editors
joint
directors
dissappointed
insane
itunes
practicing
ron
fame
discs.
hardcover
philips
poses
##ry.
##ugh
inserted
realizing
storyline,
chairs
considerable
fifteen
"big
moment.
bass,
industry.
intrigue
labor
states.
goofy
investing
artist,
last,
missions
singer.
joseph
revealing
such.
timing
hopefully,
patricia
returned.
surprised.
##12
august
control,
speed.
represented
##..it's
calm
comedic
compliments
portray
segment
anna
##40
##ko
got.
readers,
##le.
enhanced
kind.
movie's
must-have
##works
upcoming
wings
goes,
grainy
19th
angles
argue
lenses
equipment.
listening.
papers
knife.
boy.
decker
kim
off!
accomplish
danny
snug
examples,
flipping
pizza
indication
passes
potentially
##nk
depth,
film's
mill
picky
father.
fluff
##au
convert
em
bones
defined
intimate
judging
restaurant
rooms
##jo
awsome
fifty
tasting
miracle
r.
stretched
village
##w.
magazine.
precise
therapy
kudos
promises
##easy
influences
assumes
choppy
site,
andrew
drying
revolution
sounds,
register
teacher,
##,000
depressed
fortune
important.
bus
episodes,
leadership
vampires
##le,
hamilton
##ute
21st
fragrance
pins
recently,
##?).
basis.
comparison.
shift
depicted
embarrassed
man"
"why
note:
stack
(all
bowls
fate
strikes
instructional
defense
eats
frequency
promote
##-sized
##..so
book:
hero,
stains
weigh
floors
left.
nothing,
second.
bracket
caution
settle
superman
##but,
##f.
distorted
downhill
not!
##berg
fisher
vanilla
visuals
##did
legacy
originality
rachel
2.0
educated
##gan
faded
reflection
adams
failing
looking,
solution.
##ado
necessary.
rape
##in.
##ins
dump
pray
wiring
exchanged
historically
eve
hear.
corn
favorite,
mexico
harmony
overlooked
sauce
theme.
wow.
##ment,
disappoint.
low,
stickers
unfamiliar
amongst
facial
trend
circumstances
happy,
pacing
referring
refunded
survived
absurd
##much
church.
comfortably
neighbors
september
unbelievably
brad
exploration
##oh,
connects
airport
victims
##!!!!!!
november
rabbit
stumbled
##ti
##z.
breast
smoothly
##an,
##ient
exceptionally
listeners
oriented
##fire
inaccurate
saw.
releases.
triple
##oe
sends
tempted
##ation,
attachments
disease
solving
##cies
lucy
where's
confusion
dewalt
dough
meditation
spout
stopping
complete.
gb
next,
characterization
emergency
lifestyle
magnet
thrill
tore
##ction
##ist.
bosch
dash
wicked
##(s)
genuinely
limits
logo
follow-up
lemon
sympathetic
##look
##und
layers
sympathy
buys
device,
massage
switches
expanded
rehash
guests
intention
towels
literature,
paints
thus,
weights
experimental
i.
mode,
body,
##2,
##sen
gods
deciding
jr.
knight
nora
properly,
7th
a.
airplane
discovering
faint
grammatical
unpleasant
##ics
colors,
anticipated
dick
koontz
##res
introducing
ports
##ator
(both
ball.
hurry
zip
##ome
cord.
host
manufacturers
nature.
slots
hungry
jams
pain,
pretty,
##..a
mean.
austin
humanity
impossible.
nuclear
print,
services
inside,
leaders
vertical
were,
am,
genius.
hoover
pack.
poignant
africa
stylish
warming
##"),
##matic
dude
ea
graphics.
peel
attacks
cinema
immediate
nyc
##logy
assigned
flower
memory.
mins
pepper
tunes,
##ological
are:
collectors
##less,
strongest
away!
drive,
preparation
##al,
##ching
clicking
illustrations.
tasty
"real"
##.so
##izes
(when
convenience
facts,
discovers
hers
possible,
running.
skin,
##0,
continuous
enormous
further.
one)
replacement,
##update:
c.d.
christina
script.
wizard
##..you
cancel
playstation
shapes
politically
trio
attention,
flashlight
straightforward
director's
lotion
overrated
removable
warranty,
bodies
floating
pokemon
surprise,
thriller.
modem
parallel
background,
tha
##lla
##é
camcorder
refill
##people
centered
husband's
##--a
##roll
brushes
porn
silly,
expressed
generous
arrival
recommending
##s",
techniques.
twilight
vol.
collected
pop,
scoop
u2
braun
deluxe
wait.
widely
##ised
deep,
dennis
processor
width
##al.
lids
sandra
seller,
australian
mighty
weekly
fault.
leap
m.
persons
32
filming
folded
hype.
bells
##ie's
explicit
lively
##nes
happen,
marine
pulp
questions,
rides
sides.
already,
anniversary
brand,
disk.
headache
##bling
charm.
disgusted
padded
addicted
bold
function.
mothers
moving,
musicianship
positions
tools.
phillips
walker
cruel
forcing
pleasing
premium
tool,
10.
48
inclusion
morning,
su
##die
##keep
catching
drunk
girls,
seam
sixth
drinks
will,
##ses
##ux
efficient
marvel
##an's
##rry
defect
mel
rounded
##ets
##us.
complexity
fluid
pocket.
##`s
seperate
warped
differently
at,
campaign
cords
notes.
cheaper.
codes
frame.
murders
##ars
apart,
bubbles
douglas
mi
pace.
thick,
adhesive
console
updates
##u,
divided
##could
pale
it'd
theory,
50's
drip
exotic
headphones,
houses
on-line
outcome
possibility
underrated
##tle
(yes,
depressing.
outlook
please.
villain
##een
(some
variations
directing
outside.
abilities
ballet
pushes
##.as
##cs
broadcast
process,
##ric
arent
beginner.
composed
easiest
improvement.
resident
shame,
warm,
(there
burner
fascinating.
memoir
nazi
##bility
whatsoever
##p.s.
##pa
boys.
enemies
headed
resistance
##using
cities
disappointment,
poem
representation
switch.
##als
##really
##unless
ram
##ely
##inal
##or,
environment.
foster
protective
##tal
deadly
depression
replay
representative
shuts
xmas
honesty
shark
##each
perspective,
range,
dawn
##)the
perry
hangs
large.
##!),
is!
relationship.
crashes
fundamental
trilogy.
witness
find,
avail.
diameter
directions.
models.
shows,
sweet.
##lb
##m's
apparently,
atleast
error.
goes.
bike.
knowledge.
distracting.
lawn
weird.
##ex
cent
dated.
fade
separated
change,
iii
notes,
arranged
boards
day!
stars!
club.
damaged.
die.
writer's
##ac
dubbed
##both
feature,
middle.
notable
stretching
forgive
market,
##pad
authors,
disposable
solid.
year's
abandoned
guidance
mariah
engineer
etc...
luke
"not
"who
doug
each.
remember,
magazines
stain
##ther
cases,
distant
handsome
built-in
indicator
lays
cards,
e.
prone
seats
storytelling
career,
handset
most,
sessions
##h's
contacting
##hed
chair.
cumbersome
carter
college.
ex
rural
gritty
roughly
boost
earrings
impressive.
recognition
signed
ted
##~
anthology
basketball
flowers
peoples
nervous
developed.
reviewers.
artificial
did!
lives,
weaker
##any
creature
occur
simplicity
##ification
##ry,
entries
install,
above.
ignorant
##4)
##ert
##play
cube
melted
cradle
beside
forest
likable
rather,
applies
heard,
juvenile
multiplayer
pie
settings.
##kes
freezes
grease
stand.
valid
scores
script,
smooth,
"do
##cted
##ight
dressed
jazz,
packages
reality,
span
##-inch
##ack
greg
rating,
saying,
tin
editorial
min.
motivation
##does
humour
##-level
glaring
receipt
cheated
rhymes
tender
topics.
considerably
instance
whilst
##11
pouring
soft.
##hard
concentrate
sir
animals.
era,
person's
landscape
##ening
##oz
accompanied
chronicles
records.
secondly,
pointing
screenplay
seldom
sometimes.
those.
book.the
investment.
items,
seasoned
time"
unique.
walter
##is,
outrageous
##master
bomb
midnight
none.
##fied
nicholas
someday
duet
hoped.
prep
4-5
magnetic
parties
s.
si
##zer
encounters
men's
soldier
anderson
re
##especially
"on
(what
80's.
confirmed
existence
peak
sparks
study.
there!
trials
##ung
helmet
hired
neighborhood
pictured.
pros
statistics
##-minute
charger.
dense
##u.
bill.
intricate
korn
manufacturer.
masterful
tiger
##mark
charlotte
morgan
questionable
rich,
##ong
happened,
indicates
players,
sizing
##cal
##ci
breathing
folks,
kicked
particular,
rainbow
world"
finished.
halo
lesbian
monkey
offended
options.
shop.
database
older,
upright
##ja
blade.
classics.
events,
hiding
brilliantly
less,
##unfortunately
answer.
translate
foul
gently
hour,
nevertheless
performers
tile
disappointment!
heat.
bands,
loss.
specially
vibe
sims
##d's
##j.
carl
habit
stephanie
##life
##power
tell.
##gh
few.
nylon
priest
fbi
firmly
horrific
neighbor
says.
##k's
tail
troubled
##...this
species
##wing
vegas
crude
kodak
owns
perhaps,
ace
bible,
border
##see
##never
##thing
photoshop
matthew
quiet,
though!
videos,
##ked
pathetic.
primer
tires
##-rock
##ade
bikes
energy.
solar
vac
##definitely
monitor.
music!
pill
potential,
powerful.
propaganda
showcase
##ig
crucial
illustrate
movement.
rage
##oon
briefly
flies
pop.
robot
childish
going,
invaluable
meals
roof
stole
##less.
##page
glove
godzilla
matrix
mice
miss.
##s;
candle
mentioned.
album's
compliment
hits,
jewelry
pedal
promised.
roy
securely
##hope
catches
discussions
5-star
adapter.
delta
moisture
(...)
(only
dealer
lawyer
vary
##cd
retired
slap
til
ii.
sf
toes
##rey
ego
interpretations
journey.
resulted
beaten
chi
heated
##ai
##last
loosely
stevie
vice
##ify
##ught
advertised,
caps
eliminate
means.
projects.
purchasing.
road.
##mon
catherine
scripture
silicone
doctors
hinge
much!
officer
open,
##ie.
##late
23
approaches
gears
relates
rub
along,
gaps
realizes
requiring
stages
##10.
remote.
##.you
##uck
discontinued
life!
pause
she'll
$25
commented
mentally
chasing
pair.
##pers
korean
bow
climb
invested
reggae
dated,
shoddy
issued
jews
label.
youtube
(also
##uff
fusion
gallon
genesis
grips
relating
released,
vastly
zombies
ass
freak
novelty
##fy
beneath
c++
slept
boiling
cooling
entering
fantasy,
tab
"for
exists
indeed.
tongue
undoubtedly
uninspired
woven
##can't
boys,
bullet
departure
outline
##po
##point
luckily,
me.i
profile
tones
adopted
australia
todays
topic,
vet
warm.
repetition
section,
##en's
##wish
earth,
pbs
reel
breeze
credibility
reluctant
##ula
bogged
fortunate
must.
silence
unusable.
competition
melissa
tennis
largest
numbers.
perfectly,
source.
websites
dive
t.v.
##rin
beginner,
esta
his/her
ladder
brother,
contribution
definatly
flaws.
memories.
psp
kitchenaid
run,
sing.
tedious.
amazon!
responsibility
chamber
chief
well-known
anticipation
construction.
generations
mathematical
understands
weaves
navigate
noble
quicker
##ast
bounce
scary,
smallest
faith.
hi
it..
minded
protector
##en,
designer
fee
friendly.
##iel
accessory
depot
everyday.
excess
inappropriate
packaging,
portraying
##kind
##lon
disturbed
intuitive
murdered
reverse
router.
well...
wonderful!
kid's
motivated
naive
seasons.
vacuum.
irritated
judy
satellite
##i'll
alcohol
cliches
etc)
important,
keyboard.
turkey
believe,
window.
out"
skimming
between.
ceramic
freezing
iphone
recently.
te
tea,
occurred
sets.
sister,
##lots
pot.
##ven
concept.
happiness
shaking
waffle
clients
homework
netgear
##ched
##f,
##ly)
floor,
muscles
suits
hardest
##lity
code.
treat.
##row
breakfast
keen
##give
##ola
fantasy.
percent
safely
##yr
cultures
it:
jamie
blessed
half,
pacific
rambling
settled
so-so
steering
forward.
kay
number.
skinny
straight.
##sy
purposes
2008
8th
broke,
coach
compares
happening.
prevents
protected
question.
overnight
signature
##make
cold,
flimsy,
liked.
swimming
##ts.
book)
grabs
resolved
seeds
##onic
(2)
fighter
manual,
refurbished
rising
poker
##tar
shallow,
training.
unique,
conclusion.
finish,
attraction
legends
sharp,
slave
theory.
warrior
"must
28
kenny
woke
compelling.
feet,
laundry
slips
broken,
soul,
##????
##lar
relationships.
##tra
oddly
ended.
purpose,
score.
worthwhile.
brown's
composer
handle,
rude
virtual
7.
replacements
whole.
dock
mediocre.
bad!
clearer
concepts.
phantom
rapper
rocket
suicide
weighs
brilliant,
develops
episode,
"to
##son's
alright.
altogether
colour
direction,
pete
64
handy.
homes
magic.
many.
peanut
repetitive,
viewing.
##.not
800
adjustments
shining
tactics
##"!
book...
mars
##,but
donald
thankful
translations
valley
cooking.
editing.
michelle
missing,
partly
sequels
she'd
bass.
boom
laughable
smash
soviet
##che
mundane
##!this
##hi
carol
tooth
tuning
##world
bench
insulting
dolby
entered
hassle.
surgery
answers.
but...
clumsy
orders
sue
sums
across.
telephone
##ni
after.
blends
italy
##ez
75
brick
recordings,
selfish
soccer
##ts,
bluray
flowing
jammed
names,
sharp.
##ich
aging
capturing
dvd!
hell,
locally
recommends
artists,
crush
singing,
gothic
vibrant
##list
wall,
##ional
backwards
claiming
else's
typing
##rating
bean
bucket
laptop,
paid.
reliable.
traffic
##..just
confuse
lever
rocky
warren
"bad
##ally,
##int
absence
flavors
funnier
miserable
plugging
systems.
##piece
increasingly
mastered
stranger
##table
cup.
safe.
student,
1999
begun
couch
eye.
moves.
rappers
science.
alot.
bright,
difficulties
laws
postage
science,
union
vital
##or.
calendar
kings
partial
pets
present,
thanks!
##come
marketed
##those
anyways,
concerts
satire
verse
competent
moreover,
smart,
stereotypes
##room
bar.
earn
helen
responded
rinse
spins
unsure
approach.
button,
caller
chill
hero.
stylus
##ture
colin
fur
it.it
pipe
##[...]
anyone's
beleive
jonathan
pass.
verses
##john
duke
measured
##logical
##rest
##until
center.
chance,
chords
winner.
achieved
irrelevant
whining
##ch.
conditioner
heel
hire
recycled
##ful.
climbing
expression
##ude
bon
characters'
##sm
kicking
technology.
tilt
ears,
parenting
##ini
chewed
life's
longest
mower
pouch
china,
joined
reference,
relies
sleek
what.
##ces
##ic,
distortion
fears
performances,
coupled
moderately
soo
spiral
well-written,
dreadful
sandisk
abused
cinematic
obnoxious
efforts.
executed
hiking
explored
flap
fountain
odds
shaft
weapon
"little
2"
barrel
keyboards
ranging
ceiling
heading
importantly
justin
notion
previews
usa.
##about
##cast
##tory
aint
assist
controlled
enlightening
evil.
expose
glossy
pasta
realism
skimmed
##han
3)
ai
changes.
cowboy
trusted
stitching
##els
##maker
##vy
beats,
connectors
soon,
cole
delay
micro
##tation
ads
cornwell
jan
mail.
rate.
realm
asleep.
dogs,
revelation
trick.
presented.
quantum
##poor
scanning
spent.
blatant
endings
resist
##ght
comparisons
guess,
harmonies
harness
highly.
lou
pays
ring.
dim
exercises.
stinks.
##25
##nt.
d.
elderly
folding
hugh
scattered
seat,
juicer
pitcher
terror
##ese
besides,
frightening
sappy
##den
advertisement
dog's
interference
catchy,
compositions
disapointed.
mechanics
rocks.
staples
##1,
dust.
engaging.
lately
movie?
pad.
scientist
shoes,
##od
dvds,
town,
tubes
"oh
coloring
designed.
shadows
cliff
jungle
moody
bothers
further,
lackluster
prize
##ap
##n"
12"
addressed
blurry
kingdom
repaired
##di
##urs
##v.
1-2
aired
clinton
conclusion,
credible
focus.
getting.
hell.
office,
buzz
experiences.
platform
stretches
catalog
glass.
humidifier
overlook
thickness
victorian
waters
demonstrate
gordon
lid.
slipped
curiosity
mouse,
reply
stock.
##amazon
##pin
##ton's
annie
enthusiasm
hes
pioneer
##-1
##live
##ter.
avoiding
cars,
dimension
leonard
evenly
wallet
##ered
##min
600
internet,
revolutionary
##ht
##ished
obvious.
##ches
dimensional
involve
strain
penny.
##ys
holes.
intelligent,
lol.
nelson
slipping
##.for
##ek
##uch
gifts.
##00.
depend
lap
stale
tho
duo
honey
religion,
above,
cut,
family's
helps.
remarkably
speeds
##core
##ral
##ton,
aggressive
energetic
formed
minute.
settings,
##-ish
##-life
convoluted
investigation
match.
wins
anxiously
cam
relation
unrealistic.
consistency
froze
purposes.
##ce.
##ena
audience,
writers.
counter.
engrossing
lifting
muddy
orchestral
tale,
wood.
am.
gory
interactive
phenomenal
question,
ratio
table,
##em
fixing
flesh
fresh,
numbers,
obsession
population
spoon
travel.
##..they
curse
missed.
stereotypical
violence.
canada
nostalgic
sequel,
simpler
socket
##,the
##better
##gate
##ges
circles
fatal
nonetheless
##sis
blonde
gone,
occasions
winter.
##)!
##cle
alexander
attaches
hub
daddy
hollow
inability
##everything
diehard
flow.
has,
television.
unplugged
tuner
##ette
brewing
coconut
fast-paced
improving
##cut
authority
knees
merit
myth
nonsense.
origins
seed
speed,
static.
wade
##rm
daily.
elite
wrench
write.
gradually
inspiring.
list,
delete
hopeful
imagined
protecting
student.
choice,
foil
log
manufacture
pens
sets,
(she
98
fault,
##ax
difficult,
"so
##ane
##b,
girl's
here!
idol
meaningless
parody
tried,
##h!
front.
integrity
interests
motorcycle
##city
##w,
average,
hbo
rate,
recovery
##-page
bottom,
pointless.
respected
story!
vitamin
state.
##ead
bedtime
collins
couples
jesse
swivel
centers
chrome
chunks
frames
guaranteed
languages
recieve
spots.
wealthy
##ita
##ose
##writer
curve
ft
origin
warmth
##fast
##si
##ural
corrected
measurements
mistake,
rio
spit
grandchildren
shy
##ase
randy
fraction
lb
placement
shoulders
##ana
##ern
brilliance
guy's
step-by-step
veteran
##--not
##ctor
disaster.
premise,
washer
##now,
grooves
supplies
altogether.
eminem
hardwood
120
bat
pumping
stage.
sucker
trip,
watered
##gen
alert
crashed
harrison
ipod,
needed,
tiresome
versatile
##there's
remember.
rendered
revised
theme,
##ures
;)
dvd's.
headset.
##fter
blues,
redundant
##bi
26
beast
l.
leslie
lining
produced.
purse
recharge
shoots
awake
cherry
if,
nature,
states,
destroying
digging
inconsistent
requirements
resort
rpg
hope.
politics,
riveting
scientists
students,
calculator
evil,
garlic
pleasure.
useless,
horrible!
sacred
station.
sunny
succeed
##ising
animals,
bake
dutch
olympus
##.they
##written
brother.
cancelled
coaster
twist.
curl
attract
bootleg
irritating.
menus
oprah
##ult
2010
image.
lbs.
outdated.
routines
##dont
bags.
lightly
manga
unusable
##ria
##vel
classes.
documented
society,
##....i
application.
composition
public.
woody
brooks
display.
single.
w.
##bing
confirm
steamer
mistakes.
sided
teachings
bottle,
carbon
continuously
horrid
ironic
racist
##rise
##ues
cops
crown
dub
oil.
affects
breed
casio
chewing
drumming
##?the
divine
tolerate
controversial
memorable.
nonetheless.
older.
sensitivity
sql
late.
lips
philip
spill
witty,
##ain
relaxed
shades
venture
aim
me?
yours
##big
##despite
air,
energy,
umbrella
dumb.
legs.
tan
"black
increasing
smith's
materials.
oldest
xp.
##.all
avoided
calories
fitted
king,
standard.
vehicles
wherever
"old
toys,
vote
250
##.i'm
##des
category.
unlock
whatever.
##**
##......
##ran
heartfelt
waking
wordy
arrangement
dance,
defeats
deny
exist.
roll.
(2
cases.
destruction
specs
basic,
illustrations,
##-made
absorb
brighter
company's
flaw.
greatness
nano
phase
##(and
actor,
base,
encouraged
images.
thesis
##en.
4.5
cost,
marilyn
speakers,
teacher.
engaging,
harm
opted
strange,
terrific.
##got
cracking
gladly
##ined
##is.
adequately
define
folks.
kidding
presentation.
satisfaction
strangely
watt
##3,
austen
correctly,
melt
nutrition
utility
alike
amateurish
beautifully.
dot
favorites,
gratuitous
turn.
##perfect
contract
it.this
macbook
awards
encouraging
linear
message,
ol'
rep
(because
filler.
glorious
lincoln
lite
racial
bratz
graham
storing
time)
popularity
thought-provoking
commercials
fire,
fantastic!
manner,
vince
##ew
##ible.
duck
glow
hairs
needle
snaps
three,
tone.
copyright
gem.
pros:
sherlock
##self
autobiography
books!
sources.
conflicts
downfall
humidity
photo.
standards,
##hot
##s."
cooper
courses
damage.
maiden
acceptable.
encourages
filter,
get,
pirate
##ley's
brake
expectation
##60
scenario
campy
clever,
license
printer,
toner
##:)
##nal
century,
challenged
cry.
flawless
gadget
studios
tonight
grade.
cat.
forgettable
gender
put,
quantity
##-and
##nothing
##s.i
arcade
chore
diane
staple
##ful,
$200
2/3
albert
devoid
lightweight,
passage
special,
surrounded
universe.
60s
beats.
keeper
self.
fax
generated
realistic,
religion.
repair.
kung
one...
alittle
behind.
captivated
copper
lion
lush
islam
lifted
maintenance
patients
transport
versions,
##lie
(more
clock.
consequences
fridge
meg
meter
neck.
ross
dance.
gum
signal.
vibration
##ye
doom
flew
margaret
modest
##ho
brazilian
emotion.
party,
scissors
usual.
##15
##mr.
detract
diet.
failure.
remainder
storylines
cars.
doubts
hyped
lawrence
rival
type,
##g's
##tch
experts
jake
##ey's
shirts
trademark
##an.
##ition
concert,
gig
mono
similarities
##100
##ock
crimes
planet.
uses,
##(which
actor.
care,
environmental
guts
handbook
sci
spine
##wise
shakespeare
##face
call.
hack
kitty
grandma
laughs.
sister.
swim
##made
etc.).
thing!
##dd
##set
abusive
europe.
teams
untill
##word
dissapointing
distracted
summer,
##ility
##ras
customers.
ruining
bucks,
cd's,
sleep,
tools,
##itive
emily
gibson
holster
non-stop
screwdriver
way!
workbook
creator
england.
photographer
boring!
coherent
finale
gun.
nowhere.
##acy
doc
ensemble
guessed
netflix
residue
(an
absolutly
arrives
incorporate
loosen
newborn
series!
theology
##ear
##rian
belive
dragging
flush
reactions
screens
time.i
##tz
bottles.
dynamics
glenn
shot,
smooth.
tasks
documentary.
murphy
pig
printers
##-a
##except
##ica
##plus
##stay
functioning
joel
10,
6.
as,
complex,
definitions
herself,
immature
iron.
##land,
chef
ingredient
inserts
pump.
suck.
trilogy,
knitting
careful.
directions,
press.
restore
frequently.
hdtv
length,
virgin
##mine
#2
contacts
endure
nude
pc,
souls
wrapping
described,
organ
oz.
variation
(where
agree.
bumps
invisible
maybe,
smelling
tank.
(1)
combining
franchise
agenda
brands.
consideration
envelope
nostalgia
##should
glance
pda
skills,
##nce.
##yes
d-link
myths
weekend.
##jack
6,
defeat
fathers
mentioning
highway
quiet.
remembering
sick.
skim
##pan
crisis
gathering
professionals
rhythms
seconds,
thriller,
##-10
##aver
##tate
covers.
diversity
fair.
fields
salad
"out
##--this
extras.
names.
terrible!
choir
detailed,
formal
he/she
mickey
years!
##],
act.
"where
##nor
##os,
##rn
(most
bride
compete
goods
stealing
team.
von
year-old
##80
##through
clasp
community.
info,
reissue
weird,
anticipating
desk.
emma
possibilities
##..."
##cat
##lia
2009
faith,
fu
pit
rebel
weber
borders
##yo
atlas
chooses
collector's
died,
inexpensive,
th
vegetables
you?
##band
compressor
interact
mystical
stores,
believable,
crate
deliver.
disconnected
fired
mas
mix,
p.
##-looking
choices.
comb
example:
retro
satisfactory
showcases
subtitles.
tell,
'cause
7,
saying.
##fit
##music
##s),
36
evolved
"take
##.what
canned
chaos
gates
sentimental
separately
somewhere.
(unless
beings
chopped
fixed.
freezer
levels,
"live
aspiring
exclusively
ounce
performer
throughout,
works!
##little
##nia
fascinating,
ignores
perfect!
##away
##think
(don't
mats
murder,
truths
##ifying
abstract
defend
eaten
francisco
magic,
stir
synopsis
waterproof
adult.
down"
fi
scenarios
(that's
mute
protects
spirit.
don't,
supplier
baked
bland.
boot.
debate
disturbing.
instances
##/5
##:the
##stone
##tical
streaming
leaf
oliver
superb,
traveled
constantly.
sacrifice
voltage
##aging
##ara
##taking
baker
blood,
demons
##three
80%
angst
flame
limited.
playback
project,
##new
bye
rapidly
started,
nurse
pre
rack.
recorded.
##vis
admittedly
oily
races
registered
sing,
##note
##pretty
##run
##tors
##tv
aircraft
amanda
buffy
profit
##-star
atomic
nozzle
sucked.
techniques,
##fe
##graphy
##ils
2011
both,
ii,
steals
cd-rom
continuation
rotate
snake
##ter,
sooooo
theater.
1/2"
awaited
beat,
cave
cleaning.
murderer
pretty.
seventh
theaters
##nt,
backs
kirk
rhyme
spears
weakness
##dle
betty
kathy
shoe.
succeeds
third,
writers,
closure
complement
entertainment,
fuss
leak.
magnets
of"
olive
peeling
tears.
trainer
w/o
##ra,
dances
mom,
shots.
ultimately,
usage.
##age.
##bar
##via
audio.
hello
meaning.
practice,
similar.
##gal
##round
consumers
excellent!
virginia
anyways
behavior.
##win
conjunction
contribute
infamous
need,
props
gather
##!!!!!!!
##let's
##making
bending
clinical
consuming
containers
flipped
forever,
surf
textbook.
wait,
(probably
mm
raises
rat
smell,
elaborate
precision
resource.
spaces
horror,
pan,
##bout
coolest
lane
squirrels
##ken
arch
conversion
delivering
elsewhere,
expressions
flick,
right!
skilled
stated.
##";
##vi
distinctive
drivel
measures
money's
oil,
screams
##s...
economy
generation.
tutorial
using.
verbal
virus
##5,
##ines
alpha
buttons.
default
non-fiction
rail
##ave
##bles
99
correct,
outfit
##ge.
##may
##ws
advertise
cheesy,
client
completly
illustration
mb
n'
selection.
sharpen
sour
discs,
##tie
luck!
suspend
trains
##bird
##gi
applaud
field,
provided.
wanted,
warrant
##otherwise,
badly.
boil
caveat
church,
e.g.
fix.
opera.
oven.
processes
tyler
##real
##times
bracelet
mountains
vinci
"real
linkin
##excellent
applicable
cons
eleven
heck,
maintaining
ridiculous,
target.
##ulated
files.
lend
mega
triumph
door,
lost,
refund,
##uate
2000.
adapters
arrogant
decision.
greasy
##ox
##pros:
oracle
patches
##ik
budget,
exercise.
flashing
hilarious,
organized.
painful.
divorce
frog
goals
hurt.
lounge
manufacturer's
nirvana
set-up
threat
tidbits
##next
27
circus
college,
heroine,
lined
supreme
##11.
##tta
awe
caliber
given.
laughter
restart
tomorrow
##ndo
day"
king.
relations
them?
by,
crazy,
mood.
sabbath
sleeves
sprayed
stilted
units.
examination
for!
junk!
trays
willie
young.
capability
mc
spells
##.however,
##disc
20%
##fall
carpet.
condensed
delve
feminist
illegal
sponge
##..)
architecture
attended
cia
coleman
owe
peaceful
wich
##ic.
##mes
appeals
attractive,
dissatisfied
hatred
looks.
sailor
slasher
snack
stinks
wwe
##ms.
appliance
context.
investigate
linked
progression
radical
records,
sim
##-american
##mente
compassion
enthusiastic
modify
cats.
confess
depicts
interactions
role,
saver
vent
bland,
blending
buff
crossed
fare
hardy
monotonous
phones.
##ch,
##rock
crushed
detect
flea
jazzy
somehow,
storage.
##ants
##uit
chemicals
relationships,
stepped
todd
challenging.
drugs,
heal
highs
individually
occurs
outside,
recover
##rie
##s.the
##wind
70's.
appearances
childhood.
comedies
comfy
domestic
dries
flicks
outright
theirs
trivial
youngest
##&
##ail
##ill
shower.
thankfully,
adobe
budget.
cliched
forty
messing
tracy
whiny
"made
##lay
##night
beware,
data.
youre
##land.
excited.
happens,
rapid
realise
restored
stairs
transferred
velvet
isolated
maria
occasion
##,i
##cher
##rent
handheld
lover,
mick
##ass
concerned.
this...
##gly
chilling
continuity
payed
pressure.
bearing
bigger.
dream.
middle,
prose.
soak
stick.
unfair
varying
##?),
confused.
duct
ingredients.
real-life
signals
upgrading
##ifies
##tto
hit,
immensely
laughable.
##-esque
##ce,
blue,
browsing
compilations
hebrew
lovely,
strange.
##human
array
commit
craig
surge
honda
inform
ireland
keeper.
potato
slowed
close,
county
fan!
killer.
required.
##l"
configuration
float
murray
shown.
told.
warned.
##ncy
.i
buying,
faster.
holders
k.
natalie
them.i
tune.
##lation
##yn
generate
homemade
pic
shallow.
##ram
shield
toxic
wee
fried
##ner's
##val
accompany
bio
bowl.
designers
dug
installed.
neatly
priced.
resembles
watts
adolescent
canister
jedi
joke,
personality.
plum
sax
swiss
technology,
##ature
##hd
acquired
ethnic
expect,
knowledge,
paranormal
springs
thanks,
hold.
rocker
adaptor
demon
february
g.
roads
turbo
yard.
##town
closed.
outdoors
red,
staring
adapted
columbia
embarrassing
oxo
paintings
tearing
unacceptable
##ris
critique
ellen
pace,
pose
##tion.
hinges
kennedy
multi
oral
"good"
##70
moment,
surface,
##-but
##es"
belt.
biographies
icon
tapes.
worst,
##posed
##ride
clive
honest.
trunk
creative,
junk,
lame,
uncut
##full
##zes
assure
awful!
cameron
figure.
habits
it),
me...
prominent
clunky
devices.
lovers.
sling
spectacular.
them)
winds
##al"
##bone
##rich
aaa
advice:
comical
for?
organize
originals.
bought,
clothes.
cynical
expects
##hy
##nn
antics
compact,
hong
racism
##uing
inevitable
left,
"come
##hopefully
charge,
grave
survey
managing
museum
tastes.
vein
ap
covered.
crap,
fail.
##ign
##ip
assured
fluffy
humming
adult,
assemble.
fleshed
grandfather
holocaust
libro
pissed
##-line
##probably
absorbed
breathe
code,
farther
knowledgeable
commands
ear,
federal
pitt
vegetarian
viewpoint
disbelief
genres
intriguing,
poetry.
temple
###
arnold
buildings
circular
completing
dts
joints
marriage.
situations,
##used
bee
flavor,
poet
vacation.
##ull
wandering
adults,
contributed
fist
ralph
waves
alongside
carlos
coated
renditions
revolves
##lf
chop
designing
donna
garbage,
intriguing.
musicians.
on"
concerned,
fry
glasses.
predict
processing
rubbing
##ody
##ph
bach
basic.
controlling
rim
routine.
"let
account.
deer
israel
martha
##zo
coffeemaker
digest
invented
lens,
troubles
wraps
##m"
accustomed
clamps
club,
developed,
francis
it.if
notably
scanned
endearing
engineers
iraq
professionally
quoted
readable.
satisfying.
schedule
self-help
##ive.
##screen
assistance
bicycle
emotions.
ghosts
setup.
##front
##hand
deaf
feelings.
hum
identified
necklace
readable,
styles.
wheel.
claire
conditions.
egyptian
mailed
paired
saint
surfing
tips,
##art
##et.
cord,
narrative.
savage
unreleased
variety.
##tech
$$
actresses
backdrop
book"
scottish
situation,
(since
bristles
bud
frustration.
spectrum
throat
victor
10%
director,
eternal
inclined
pricing
remastering
turner.
vaguely
bunny
kitchen,
masterpiece,
rip-off
rollers
rotating
scheme
t.
##v,
attend
blades.
dictionary.
excerpts
gamecube
holder.
incident
lyrically
norman
##ble,
##te,
##ui
##writing
attaching
belts
tackle
volt
ball,
dragons
re-release
retain
accepting
capabilities
girl"
integrated
magazine,
roles.
sharpener
tone,
(e.g.,
aloud
do?
long-time
areas,
challenge.
encyclopedia
full.
structured
##half
##z's
awhile,
casing
ground,
number,
poorly.
spot.
travelling
wakes
##put
lee's
nerve
nicely,
old-fashioned
radiohead
reproduction
scrub
##ou
beginners,
contributions
enjoyed.
implement
indians
john's
stopped.
##sorry
blake
fresh.
purchase!
corrupt
created.
guidelines
launch
over-the-top
test,
weave
competitive
demands
expectations,
expired
explained.
lightning
results,
curly
ease.
horizontal
scale.
sesame
thompson
##-in-law
##iate
spider
strengths
tolkien
##''
##95
##ique
bout
detailing
exterior
fiber
rest,
brush.
computers.
ongoing
simply,
##5)
afterwards.
christian,
copying
dumped
erase
one?
pee
property
timex
##ps.
any.
beauty.
blue.
empty.
grill.
imitation
paperback.
unclear
##-hour
##75
##ability.
##ency
##vision
bluegrass
capital
dancer
diagnosed
enclosed
respect.
salsa
shred
wal-mart
watching,
##rge
break,
employees
film!
stem
murder.
pillows
prefers
trumpet
##hold
depp
du
event.
factors
flexibility
hockey
lover.
releases,
scholars
topics,
10th
booster
etc).
karaoke
knobs
suffice
mastering
permanently
perspectives
washes
##-long
aaron
bull
grief
stereo.
stuff!
##..no
##vent
##wer
1998
audible
compiled
illness
killers
##before
##berry
##ero
absent
ample
crashing
tighter
##being
##ows
formulaic
hole.
shirley
vol
##dance
authors'
porter
villains
##lines
##ling,
##mos
distinguish
holidays
idiotic
island.
looks,
ticket
tub.
(without
cookware
dissapointment
invasion
relatives
sturdier
synth
take.
##itz
cream.
health.
historian
lloyd
orginal
tangled
"like
cisco
examine
freaking
ge
insurance
inventive
platinum
reunion
##ites
##te.
anyone!
authorized
entertained.
greedy
improvements
reasoning
shuffle
trailers
wildly
christ.
dysfunctional
interviewed
neutral
scent.
sennheiser
##ree
appearing
convenient.
existed
incorrect.
savings
swallow
##girl
##ison
dishwasher.
fashion,
fuse
ignoring
tivo
##--it's
##tain
built.
critic
excel
headsets
illustrates
intended.
opportunities
plausible
rocks!
sting
citizen
detailed.
festival
known.
legitimate
mozart
pains
posts
rug
sincere
vincent
##etic
##ivity
elmo
jersey
##place
##pot
dispenser
flashbacks
flashes
hurting
promoting
toddlers
wierd
##90
##et,
##pro
burst
compelling,
descent
mac.
members.
spanish.
characteristics
##four
##rat
admits
backstreet
chipped
compilation.
credit.
modified
monthly
mythology
nicole
nokia
polar
precisely
those,
tome
traps
##12.
##chy
##heart
##otherwise
abs
beg
cheat
krups
spelled
yesterday.
##-written
attitudes
cookbook.
mint
morrison
pitched
programmer
reflected
reputable
rigid
soundtracks
##re's
altered
dummies
exceeded
madden
night"
poured
quartet
russia
shrink
surfaces
translation.
90s
arguably
credit,
holly
hybrid
react
adapt
attractive.
network.
normal.
sharon
similarly
tanks
uninteresting.
wood,
##ea
##your
aforementioned
analysis.
can't.
construction,
identifying
key.
paste
sensual
slippery
steps.
##ers"
accused
listed.
pinch
sleeps
##name
(how
2012
buzzing
civilization
customer.
footnotes
insight.
overwhelmed
titles.
unaware
channel.
eclectic
prose,
religions
##ive,
##lbs
anchor
audiences
classics,
destined
front,
hitch
indiana
sadness
sorta
sucks,
understanding.
##fs
##mation
##ub
(3
(i've
knife,
moms
one.i
teeth.
travel,
unrelated
withstand
zeppelin
brackets
gruesome
purchased,
subwoofer
##re,
(now
blair
earl
earpiece
other's
paced,
return,
##"...
cookbooks
resolution.
workings
##mart
##nce,
old)
sincerely
soy
##bound
blu-ray.
position,
therapist
##ag
##ups
acknowledge
cope
jvc
protection.
raving
subscribe
toothbrush
##vation
accents
alphabet
campbell
imagination,
intentions
lessons.
snippets
to"
##cover
##eat
##h"
##rp
dracula
found,
keyboard,
studio.
tense
##ated.
modes
reprint
stocking
##ting.
compatibility
grinds
hitler
loose,
scares
trivia
turns.
##eer
##thought
##ty,
adapter,
boy's
charger,
do!
edge,
fabulous.
forth.
have!
listening,
demonstrated
elevator
flair
reviewer.
clearly,
gag
suite
swinging
treatment.
"is
##***
##ean
favorable
moves,
noir
quicken
yarn
disconnect
fork
sampling
##illa
##michael
addictive
hats
lent
poison
rips
slows
tedious,
##ey,
abrupt
always.
kit,
reflective
symptoms
tori
##re.
allergic
biting
burton
commonly
converted
dancers
flawlessly
idiots
jazz.
kindle,
memory,
addiction
banks
beard
clogged
crichton
deep.
editing,
jars
park,
sears
straw
truck.
willis
##craft
begging
crowd.
flour
kids'
operated
rugged
sketches
##ony
lesson.
mom.
reduction
stepping
vendor.
##ake
##os.
##tting
blower
incredible,
wary
##cky
##load
cleverly
cloud
doing,
fake.
pirates
pun
##as,
##gar
concentration
evidently
lights.
move,
re-reading
rewarding
sexually
shutter
state,
training,
web.
##bie
##ingly
##ly"
experiments
park.
ruth
teh
textbooks
tremendously
##stic
explanation.
##ith
##ole
pronunciation
psychic
seals
coming.
comments.
orleans
stars?
striking
##foot
department.
embrace
exquisite
formatting
aka
await
recommend!
told,
wagon
##vious
board,
buckle
hilary
horror.
petty
photography.
sharpening
structures
symbols
thrash
##ii
##listen
ahead.
enjoy,
greed
hope,
ninja
overpriced.
productions
thrillers
wet.
gore,
8.
beads
comprehend
economics
inches.
outs
scarpetta
"too
##trust
beck
f.
heroic
knives.
##-filled
##4,
ambitious
bends
complete,
downward
flaws,
nutritional
pool.
theoretical
trace
##'s"
##looks
##ted.
1"
advertising.
blended
commentary.
event,
instrumentals
removal
sister's
##ada
##ect
1997
coarse
elton
overdone
##ling.
##white
$60
clint
framework
mama
nearby
stray
taller
tenor
tips.
workouts.
##ath
a+
anatomy
applications.
curtis
minority
regardless,
windshield
##'nt
##:-
##cluding
##ground
dissapointment.
hank
pickup
tortured
whitney
##bert
##lp
90's.
mathematics
alter
bargain.
draft
lecture
pursue
reception.
resemble
summary,
tuned
##.he
##god
##lets
einstein
emo
##nna
##oy
battle.
beneficial
inadequate
influential
pal
yr.
##lies
##reading
dosen't
bowie
buck.
chat
detracts
done!
limitations
loser
reservoir
sitting.
##rical
##teen
cameo
editor.
meanings
sexy,
thoughts.
##aa
functional.
rome
solidly
time...
unacceptable.
wand
atmospheric
sucking
##dge
agatha
angeles
smaller.
##-5
##-disc
##ination
abuse.
die,
foolish
spooky
st
weather.
##sive
##wan
angle.
firewire
pursuit
steel.
##dom
##ji
attacked
believer
doubt.
riff
sewn
stained
##bought
##burn
awareness
cat,
equipment,
me).
mob
##ining
amusing.
celebrity
drm
prejudice
sinatra
variable
##ge,
101
cuts.
degrees.
depressing,
ignorance
molded
quieter
watson
whistle
##ance.
##graphic
##llo
##track
alternative.
garage.
maker,
poetry,
unfinished
##el's
##nation
happier.
involvement
marie
tended
treating
void
##air
##ically
##print
crossing
enable
fav
survivor
##key
afterwards
delivered.
futuristic
html
kind,
1/4"
anxiety
being.
brown,
damaging
disappeared
eccentric
fog
stuart
##rus
##tin
celine
cheaper,
ministry
overseas
road,
scripts
backyard
brightness
dining
edges.
gabriel
rand
redeem
reed
werewolf
##ep
muslim
promise.
spirituality
##9.99
##wa
akin
label,
sides,
thermal
yesterday,
##ale
##nate
amusing,
involved,
quit.
relying
soda
##nted
##tics
##ured
acne
bright.
chan
here?
jail
jeremy
owen
vitamins
"american
##nell
##ting,
cake.
hubby
note.
pretending
stuck.
technique.
thai
traditions
##nic
biology
brains
co.
dent
mall
reasons,
recommended,
transported
exercises,
guilt
navigation
##-pop
##ec
##mad
##second
deaths
foot.
plodding
shes
##ne,
(i.e.,
clothes,
clueless
flavored
headache.
heaven.
tunnel
##fly
cuban
definetely
england,
task.
temporary
warning:
##ents
cry,
risk.
##eed
beta
collects
expiration
hawk
manson
movie...
nas
##fish
##free
cheesy.
clubs
safer
troubleshooting
vegetable
wheat
##black
##game
brown.
professional.
sophomore
twists,
##a!
##ona
##ug
dice
networking
norelco
nursery
qualified
well.i
##rage
##sure
artist's
communist
fulfill
loaf
trashy
##ren
##rio
##ule
adventurous
awfully
cigarette
drivel.
favor,
highlighted
someone.
unforgettable
accounting
anywhere,
container.
duplicate
finance
it-
ordering.
oregon
plan.
sally
seeks
"white
alternatives
drills
eat.
horrors
learning.
mason
peace.
programs.
tourist
basics.
blah,
discipline
donate
lyric
movement,
noisy.
##lating
##ru
book!!
bookshelf
characterizations
dangerous.
enthralled
forward,
herbs
lengths
pdf
##---
##-friendly
700
bacon
closes
credited
irony
islamic
philosophy,
stand,
titanic
trips.
##cript
decade.
running,
skillet
thick.
##oid
##such
13th
appealing.
conclude
di
green,
senses
speaker.
user.
vulgar
##-8
##etc.
chronic
chunk
eventually,
exam,
gold.
living.
lone
manuals
midst
pack,
policy.
show!
chronological
creators
gluten
marred
##car
##uated
butterfly
clone
conscious
exams
husbands
loaned
piano,
pod
psycho
serious,
still.
"greatest
(too
billed
bridges
gregory
ink.
refreshing.
scholarship
step.
verify
##ano
##uity
brother's
clash
complicated.
decorating
extensively
hardback
loops
making.
obtained
tour.
1995
3-d
boxing
certified
classy
complain.
cow
franklin
liners
models,
passion,
receives
reward
##...not
##aire
##u's
been,
contrived.
escapes
guided
##-class
##pick
8,
admired
decline
knows,
marc
notch.
sought
touch,
watchable
"rock
##ologist
##ook
(along
bedroom.
dime
operate.
unnecessarily
##ar.
birthday,
elements.
guitars,
heat,
insist
letdown.
lights,
lynn
monitors
probe
robinson
##lier
##rick
hawaii
images,
must-read
practical.
selecting
spots,
surviving
##ish.
##mond
beach.
concise,
delivery,
dinosaurs
electricity
fades
helped.
noticing
targeted
vehicle.
would,
##ret
funny!
hills
jerky
pounds.
sprayer
terrorist
tomorrow.
##happy
assumption
concerto
sara
##:1)
##anyone
##gon
99%
cleaner.
inspiration.
into,
lint
rubbed
safe,
sections.
theological
turtle
unanswered
##.don't
##98
##link
ability.
born.
demanding
flute
industry,
initially,
mormon
remarks
sailing
study,
##13
##star
##tely
installation.
mistaken
pony
utilize
##press
##une
half-way
thinking?
##movie
2005.
accident.
blah.
dreams.
hearted
lego
receiver.
tightening
##uk
cats,
collection!
cologne
difference,
green.
ip
proving
tune,
##ibility
histories
poop
sufficiently
tablet
##-oriented
classroom.
clearly.
diet,
neglected
pillow.
sizes.
spike
spirits
##-size
##ov
aids
dee
division
evening.
instruments.
merits
poppy
self-titled
##c's
).
arrive.
avoid.
awkward.
bo
maggie
musicians,
oils
panels
retailer
##-all
##ace
disgrace
edgar
french,
gets.
knocking
rider
score,
timothy
##..what
##eye
##iss
9th
exposing
fingers.
perfection
rotten
someone,
stool
transfers
yelling
##product
1970's
2003.
admitted
chalk
feeling,
melodies,
unstable
##-quality
##lthough
##zen
breathtaking
cracked.
downs
finer
hugely
lastly,
retelling
saw,
##-old
##9,
##hs
##ited
bread.
chock
costco
creative.
freely
horns
noticeably
please!
radios
snoop
undergraduate
##dor
##tti
##vice
blockbuster
combinations
destroys
motivations
parking
reinforce
towns
##-minded
##act
##rial
depths
goo
naval
planes
rusted
summed
##nne
##update
blues.
genius,
injury
media.
posting
raw,
tarot
##n`t
avent
cables.
cheating
costing
earlier.
five.
nuts.
positively
secured
stunned
talented,
visits
##p's
branch
complaint.
hose.
moore's
significance
similar,
twisting
##dr.
##gent
'n
becasue
claims.
developers
historians
lg
refills
shipped.
superior.
teddy
to!
vegan
vhs.
appeal.
btw,
calculus
danielle
descriptions.
executive
poles
ring,
##.when
##card
##g"
##gue
##son,
bases
citizens
forgettable.
h.
hitchcock
referenced
users.
zune
180
appalled
ginger
lifetime.
liking.
reboot
subtitle
tightened
tossing
banana
costly
drawers
salt.
slowly,
soaked
stamp
success,
time.the
considers
cram
filmmakers
jaws
processed
reporting
"let's
##pes
adventures.
attitude.
curling
dusty
full,
romances
##lee
bundle
clearance
criterion
gardening
mysteries.
nightmare.
scifi
workers
##500
detector
kidnapped
smaller,
steep
(perhaps
afternoon.
fixes
nearest
rap,
rebate
songwriter
sony.
sun.
wasted.
##ma,
##rary
##same
##um.
book).
cakes
commentary,
could,
fish.
one).
pumped
relied
again...
bouncing
disappear
horrendous
obvious,
splash
tree.
##ama
##ards
##ized.
cohesive
commentaries
documentaries
maps,
mom's
ranger
regularly.
strap.
supplements
##200
##note:
accommodate
assembling
collaboration
dinosaur
emotion,
evans
judgement
outlines
shooter
styles,
##a)
##ty.
relive
rooting
transformation
twists.
##cy.
fundamentals
lag
percussion
##ure.
batter
concepts,
globe
mailing
promptly.
seasons,
swedish
voices,
##-fi
blade,
chains
contents.
europe,
machines.
mirrors
peek
questioning
sale,
scholar
scooby
sublime
##gn
##working
disk,
enterprise
glass,
hottest
huge,
inane
red.
sexuality
##ian,
##ies"
##nder
##yet
bashing
beauty,
enjoyment.
innocence
options,
ordered,
references.
scratchy
sweeping
territory
##lle
##oft
cool!
disgusting.
easter
everywhere,
extract
fruits
programmed
qualify
wacky
##atic
##los
##y!
dollars,
eerie
ends,
liz
pales
punk,
repairs
shifts
##ien
##view
##yeah,
$$$
abridged
berry
gamer
is...
loosing
straight,
##!if
2004.
all)
backgrounds
bourne
empathy
extras,
griffin
homage
marshall
ricky
##burg
alas
arabic
blacks
brushed
huge.
lynch
markers
programming.
shattered
smarter
street.
succeeded
superbly
wright
##hit
##ido
##inary
1980's
changes,
clippers
compass
managers
removed.
##af
##heads
admirable
asia
assortment
dressing
drums,
how-to
jo
mounts
needs,
runner
xml
you",
##dos
##le"
anti
dies.
ethernet
marriage,
merry
pampers
ranges
reducing
roses
terms.
##asing
##gin
##ler's
##s,"
##uer
##uts
andrews
carefully.
inflated
joey
loved.
ozzy
paramount
remaster
strength.
##tion,
##ways
actions.
drilling
grader
psychedelic
theater,
turn,
updating
##las
2007.
aquarium
bonus.
constructed.
cook.
japan.
jill
o'reilly
resistant
riddled
separately.
sharper
thermostat
##el,
##mind
##ship
carrie
dissapointing.
pastor
##ement
##er)
##ough
banging
jealous
sun,
##-pack
##ar,
##quite
bathroom.
groups.
operations
swept
toy!
underwater
##ein
##ure,
commitment
cooking,
jeep
master.
retractable
soil
yet!
##-way
##jet
##ulating
alive,
arc
curved
drilled
larger.
peice
sucks!
well-made
##eller
##kins
immediately,
pianist
vividly
##!!!!!!!!
##bury
##vable
remedy
signing
thanksgiving
##force
##iful
##rates
##uded
indoors
instrumentation
listenable
noisy,
rebecca
"an
"your
##nical
10-15
1996
ca
harvey
insightful,
patterns.
politics.
remakes
removes
##?this
(4
95%
animation,
establish
hrs
hulk
improves
job!
mislead
restaurants
stamped
##!?
##ort
##ous,
collapse
implausible
unbelievable,
waffles
warnings
west.
##ier,
ab
pumps
simpsons
splendid
##lm
assumptions
challenging,
differently.
dune
fall.
maturity
mop
seattle
wise,
##hes
##outs
##pop
##stick
##um,
deserving
dramatically
glossary
preaching
slices
subjects.
today!
unreadable.
chills
heads.
introduction.
molly
prices.
slippers
sock
spanish,
sustain
temperature.
writting
##born
##loved
approach,
freshman
reading!
sheets.
smoothly.
##-2
##-month
##lers
counts
fleas
gaining
heels
mafia
mist
path.
"high
##ps,
defective,
introduction,
method.
ska
song"
york,
##cks
##ine,
##you'll
carey
charming,
comfort.
bulky.
cheer
greats
slayer
talk.
tinny
transparent
"blue
##-sounding
##mother
after,
buddhist
cleared
exit
mercy
photograph
received,
##le's
2006.
behave
cringe
enters
mess,
mitchell
principal
projection
"back
##gger
##k"
extremly
floors.
him!
lends
mistakes,
mount.
well.the
wifi
"that
##bit
associate
cozy
earliest
experiences,
fluff.
hay
ma
profanity
shack
silk
sweep
bait
calphalon
compression
creek
hendrix
hr
mate
philosophy.
protagonist,
rash
remote,
rotation
ship.
##ancy
bark
disguised
dye
incorrectly
jones,
router,
##ion"
##rative
##sound
all.i
blessing
discourage
macro
mommy
pine
simpson
##).this
##e)
catchy.
doctor's
l.a.
mouth,
rifle
strawberry
wholly
##ache
##dies
2000,
agents
beach,
indicating
insightful.
longing
longtime
musicals
nt
plotting
suggesting
time?
##ent.
##ump
##}
attached.
beam
borderline
coulter
criticize
environment,
motives
rounds
switch,
unreliable
x-men
##na,
ants
endlessly
gasket
published,
really?
rewind
spraying
studies.
##.one
$300
blurb
formulas
interested,
pounding
proceeds
publisher.
sander
slavery
strokes
##going
dip
dud.
gameboy
journalist
kits
prog
robust
sixties
terminology
warehouse
##thin
##uld
ages,
press,
reliability
similiar
slapped
suspension
trimming
voices.
##he's
##makes
##must
##ually
##without
appearance.
converter
heights
ie
procedures
when,
##tan
arrow
covers,
dallas
flop
heritage
inconvenient
inherent
reinstall
slowly.
trails
##izer
bar,
compartments
conan
docking
holes,
island,
ja
passion.
redemption
suspicious
trucks
##..or
##cha
##ner,
armed
digitally
fave
legs,
shakes
way"
##david
##nut
##owed
$20.
attending
cabin
consciousness
excitement.
jerk
luck,
ole
##6)
##bag
##ience
crow
ipad
namely
nba
one-dimensional
rubbish
##.that
##bell
##everyone
##roy
75%
few,
higher.
luther
nuances
perception
upgrade.
vb
##-3
##ang
chicks
detached
warning.
##sey
##ston
ankle
bash
families.
played,
republican
romp
"never
##rse
##zz
absorbing
brothers,
clapton
displaying
driving.
gun,
jaw
leo
liberals
nipple
straighten
successful.
time).
unnecessary.
##-cup
##tein
changed,
days!
impressive,
loss,
wire.
again?
boredom
breeze.
chops
gym.
##-driven
antique
grate
joy.
mail,
outstanding,
preachy
sparse
##tand
beethoven
bike,
entirely.
faults
functions.
hears
heroine.
ir
notorious
pliers
screws.
sink.
transaction
whim
cartridge.
goodbye
inexpensive.
leaning
marginal
nipples
opera,
secure.
should,
##iant
chopping
filters.
nonstick
nowadays
projector
responses
sinister
slam
##"this
##)-
##finally,
canvas
determination
education.
flawlessly.
function,
i.e.,
incomplete.
milk.
practical,
themes,
##-war
##found
##wash
##woman
$1
about?
carb
e-mailed
effective,
here:
madness
transfer.
weaving
##lice
##lso
##phone
fighters
mysteries,
option,
shots,
##-end
##things
connection,
humorous,
joins
land.
listings
news.
operation.
popular.
pot,
principle
reasonable.
serious.
skits
thief
touching,
"she
##inating
##ink
(mostly
(well,
1960's
bags,
christie
sammy
transform
vista.
wastes
weed
##lean
##ord
##their
bummed
cash.
chair,
collective
controllers
intentionally
lands
photography,
puppet
worrying
write,
##)"
##age,
##either
##gers
25%
:-(
bin.
fascination
hobby
jobs.
pedometer
plasma
speak.
stability
swings
unoriginal
##tering
##ust
80's,
appreciated.
cereal
defining
durability.
effect,
force.
hiss
purposes,
##rama
##ression
##tape
##true
1950's
55
annoyingly
forum
fps
ride,
systems,
where.
##..which
##mination
##tric
hating
outlets
rockin'
xp,
##.5
attacking
barnes
documentary,
dope
escaped
groundbreaking
surreal
"go
##:1
buttons,
computers,
estimated
monk
negatives
reporter
story's
wash.
##-ups
##vert
abruptly
accidently
deserves.
stage,
ugly.
##ck,
##ra.
brittle
concentrated
dire
end!
maintains
metallic
ot
plague
prop
spilled
thirteen
##avoid
##dly
##iness.
##mann
##orn
##tty
distract
make-up
martin's
organized,
protagonists
rules.
sheep
transformed
"look
agree,
bars.
childrens
coin
go!
organizer
rap.
sites.
synthetic
wit,
##)...
##ibly
##lty
##second,
analysis,
childhood,
fragile.
learn,
produced,
rake
rogers
thoughts,
##(not
##.after
##fest
##hat
##worked
annoy
boat.
cup,
genie
grisham's
gut
out.i
prompted
usefull
uv
values.
(his
breakdown
crawl
display,
else!
fish,
forgotten.
freddy
penguin
preface
since,
sterling
zero.
##five
developer
ebook
harold
promotion
rattle
who've
wonder,
5-6
bigger,
bizkit
circumstances.
climate
competing
exhaust
formatted
improved.
no!
pocket,
##cuse
##van
350
ella
maps.
miami
narrated
paradise
stan
tiene
##0)
##ante
##chi
##gus
##unlike
##wave
conveys
interspersed
publication.
seeing.
wannabe
"he
##ant.
##dling
##era
addition.
biological
built,
fiance
frustrated.
joyce
phones,
quilt
rapping
smoother
activities.
instructors
judith
merchant
tough,
use!
wives
"as
##-back
##32
##as.
alaska
biographical
elephant
footage.
it."
laughs,
morality
prevented
song!
spills
##iac
analyze
beliefs.
boiled
came.
chili
cubes
earlier,
educate
files,
good"
strict
yogurt
##-side
##cia
##ku
##mates
creativity.
daring
delves
dos
grossly
omitted
port.
sew
symbolism
wwf
##7,
(unlike
...i
corded
four.
inspector
knit
lamb
manipulate
olivia
pierce
shutting
activate
amber
california.
center,
dishes.
evocative
fiddle
gorgeous,
her!
vanity
##ora
##than
appropriately
depicting
director.
recommendation.
##ok,
##rous
##test
$2
emphasize
healthier
inaccuracies
minute,
plantronics
positioned
seth
spain
tube.
tutorials
##b's
##mg
clocks
formula.
inserting
primitive
wedding.
year!
"and
"red
##home
3"
basics,
biography.
calls.
factor.
katherine
location.
mccartney
nominated
oxford
toyota
wiped
##ost
##recommended
...and
administration
cups.
joining
markings
##es'
##ley,
centuries
mediocre,
occupied
pulse
that)
wwii.
##.'
##ton.
act,
approached
berlin
defines
ft.
good;
instruction.
morals
odd,
optional
preference
presumably
tacky
trash,
v.
##".i
##cool
arena
cannon
curtain
descriptions,
##..in
##vised
barking
bookstore.
clarify
hardships
hooking
singers.
somewhere,
surprises.
##6,
##james
##mble
##ros
audio,
controller.
incorporated
japan,
overrated.
touring
yrs.
doo
flash.
grandparents
hunger
keys.
movie.i
wreck
##-one
##eve
alarms
annoyance
dora
exceptional.
interpret
race.
shop,
##-12
##small
cook,
eva
grunge
heartwarming
indepth
late,
law.
make,
morris
python
sight.
thing:
tv's
worries
##iation
##man"
##sky
bridget
excelent
excellant
execution.
heartily
mistakenly
rails
sega
swing.
transitions
##-bit
##-rated
##ame
##p"
##ua
approaching
beep
comparison,
composers
drips
fanatic
grandson.
materials,
professional,
##high
##looking
##mit
##s's
(aka
(other
com
decently
mistake!
preventing
skype
smashed
sympathize
turns,
unreal
wilderness
york.
##...if
##st,
##were
acquire
clip.
deceptive
dissappointed.
doll.
heart"
##aking
##coming
##no,
balls.
denise
finishes
frustrating,
myriad
piano.
smashing
tablets
##rable
adequate.
album?
classified
conducted
crime.
filtered
intense,
iv
odd.
reminding
remotes
tying
##ne.
##ption
acted,
binoculars
compressed
elbow
fabric.
good:
inevitably
procedure
rats
roast
##first,
##pass
33
anyways.
clown
diving
goth
jargon
jesus.
stark
structure.
##-over
##ctive
##ne's
##talk
12.
ant
babies.
bros.
dorothy
dripping
image,
leash
like:
nope.
reduces
styling
##cular
##lite
##tre
ashley
bc
cameras.
pegs
rockers
subplots
##45
##ode
##year
18th
axe
bummer.
champion
debut.
flood
funeral
resemblance
stupidity
"there
##pper
##till
'i
algebra
buddies
engrossed
rain,
swap
views.
##-man
##8,
4"
assessment
coil
derivative
hanks
movie;
##/2
##parts
(1
95
sony's
turntable
zippers
##d)
##space
evaluate
inaccurate.
matters.
melancholy
parallels
racks
##300
##aine
9,
beginnings
bette
brain.
complex.
nifty
tai
wiggle
##..that
##.00.
##ntal
##unt
##whether
##zi
(think
bryan
decades.
laptops
lindsay
mos
screwing
strategic
them).
##bb
##sie
...but
alfred
bust
dale
his.
houston
it`s
lennon
letters.
marginally
nfl
offerings
premise.
quietly
"baby
##atory
##books
##inated
65
irving
knack
pregnancy.
remembers
renders
stroller.
tiny,
"life
##ous.
##rman
adored
bore.
flow,
hopelessly
makita
manufacturer,
me",
paranoid
sandler
themes.
treatments
##0s
##itor
##lands
##rum
abc
blood.
britain
coins
distribution
dreary
exposition
fear,
insisted
magnifying
recomended
shredder
statistical
touching.
##--which
##7)
##ggy
buggy
dangers
mat.
me.the
monday
motor.
relationship,
somthing
steel,
survivors
titles,
victoria
##.we
##food
##sd
##tom
##uble
##version
complaint,
masses
restocking
tray.
##rice
(almost
careful,
founding
lid,
shelf,
user,
##rton
annual
antenna.
compensate
designed,
ellis
gangster
more?
programmers
prospective
spices
tina
whip
xl
##-this
##uted
debut,
lie.
provocative
ps
riffs,
universe,
vendors
yoga.
hart
il
laughing.
orthodox
realities
roots.
typos,
##ated,
gossip
harbor
letters,
meandering
mo
pad,
problem:
recipient
relieved
robots
so-so.
varies
"make
##ier.
##ma.
appetite
book.it
deck.
interfere
monitor,
mugs
on...
regarded
steamy
thermos
veggies
wrinkles
##!it
##--they
##arily
abuse,
amused
dad.
glitches
jefferson
landing
melodies.
metaphors
sensible
steak
unsatisfying
mgm
requirement
revelations
spoof
talking.
them.the
windows.
##ant,
##given
##ish,
##vian
cautious
edgy
fat,
focus,
lifeless
me:
mortal
obstacles
respectable
seeming
stuffing
surprisingly,
timeline
wrote,
##ben
##rive
germans
grip.
hits"
inspires
opener.
##hole
cancelling
conveniently
crammed
cream,
dental
error,
forced.
hoffman
offensive.
pg
publications
stroke
stunning.
wrist.
##-related
##...you
barney
beverly
dancing.
drunken
educational.
milk,
##fc
##vin'
##weight
2002.
charcoal
dedication
disorder
equations
fading
jackson's
outta
prey
quinn
setup,
tales.
victory
##rand
##vers
,but
celebrate
contrived,
controls.
friction
herbal
its'
keys,
par.
paul's
photographs.
slid
smith,
"that's
##isms
boxes.
clock,
flex
grating
jokes,
knights
sus
technologies
##aring
##hin
##hood.
9.
captions
crowded
economical
furniture.
looses
mention,
moon,
superhero
villian
wes
westerns
##.95
##ection
##heat
##ressed
atlantic
butler
elements,
good.i
hype,
jamming
kane
known,
ludicrous
sections,
sprinkled
steaming
subjected
up-to-date
##close
##ove
##pc
##tley
##uting
cuts,
edited.
glimpses
mag
samuel
talk,
traits
vicious
##st.
##ution
6"
expanding
map.
metaphor
plush
shawn
sheds
shelves.
travis
treo
##-not
##13.
##quality
2x
again"
data,
day's
emotions,
expertise
incidents
rational
santana
wolfe
##ledge
be?
cheated.
me;
pro.
simplified
sources,
stomach.
tapping
torque
uninstall
"la
##drive
accessories.
assignment
away"
bites
emperor
implies
income
markets
pen.
radar
respective
secular
sneak
submit
##hone
##ia's
ac/dc
assembly.
back-up
bleed
cables,
hannah
law,
mastery
plots,
reputation.
songs!
##0's
##rish
5-10
costume.
disappointing!
enlightened
expressing
females
heather
letdown
nuvi
rods
satan
story"
appendix
foods.
scored
subsequently
thereby
walk.
worth,
##cter
##ending
##inger
4)
co
driver.
eliminated
opened.
romantic,
terms,
upload
upset.
youth.
##ool
hokey
jokes.
li
poverty
specified
structure,
tame
##-grade
##cause
##east
brothers.
finished,
invited
rental.
richly
rises
roll,
stubborn
##balls
##war
'a
decidedly
great!!
intelligence.
memorex
midway
monty
station,
treasure.
unfolds
##boys
##fold
##gie
dickens
gadgets
intrigue,
replace.
unfortunatly
ward
wide.
##!.
##nick
celebration
contemplating
disabled
eighties
feminine
forgetting
gen
inflate
killed.
mud
remixed
researched,
semi
ufo
"special
##):
##..there
##bin
##ities.
##pm
##tage
##ush
1080p
bottles,
christine
frame,
hawaiian
it....
lp.
necessity
promise,
shout
slang
sooner.
spilling
stink
stitch
tuck
##!!i
##max
2001.
9/11
circa
desires
offense
wells
##cence
##eous
##pose
##shed
##skip
approved
officers
one"
plug.
promotes
times!
##9)
##bra
##here's
##ine.
##rly
$3
again.i
comments,
corner.
delicious.
load.
nerves
rhino
##-1/2
.....
amazes
expresses
garden.
gathered
georgia
interviews,
out?
potatoes
throught
transmission
troops
wander
admittedly,
arab
championship
cycles
ghetto
hopkins
matured
paid,
panic
phoenix
praying
rushed.
stimulating
wording
amazon.com,
assemble,
beginner's
carpenter
crooked
gamers
happened?
infinite
low-budget
pitiful
printing.
sentence.
trite,
affairs
angela
banned
building.
grit
ingredients,
mac,
practiced
slapstick
wear,
##--you
##...so
##guess
(much
avril
herb
holidays.
musician,
raymond
refresh
respect,
shops
without.
##fore
##ulous
1970s
broader
consist
dubbing
homeless
hopeless
journey,
kerry
refrigerator
strung
toni
wars,
"from
"great
##.on
##cho
##el.
##lian
##tis
arm.
dryer.
gloss
preschool
progressed
rejected
remington
warriors
winter,
!!!!
##.......
##dam
##f's
12,
astonishing
christianity.
classes,
exclusive
headset,
masterpieces
oster
pilots
race,
team,
wars.
##peace
careers
dentist
lectures
normal,
themed
touted
traded
vinegar
webcam
##-hand
acceptance
dad,
goddess
uniform
##..then
##ths
abundance
actually.
cat's
cents.
colorado
damp
disregard
inspiring,
profoundly
provoking.
##besides
##billy
##zie
cpu
crock
excuses
gore.
irons
sights
spencer
trying.
version)
was!
##beth
##cking
##dia
##pal
##rity
apples
damned
drift
exposes
grabbing
grad
intel
momentum
never,
officially
premier
relieve
sacd
##evil
##find
##hr
##unk
crisp,
failures
frying
gangsta
jack.
nuggets
standard,
##oning
##paper
closet.
devotion
dumb,
etc.),
jimi
marvin
pagan
poke
stirring
stitches
triangle
types.
##..all
##blue
(5
11,
exercise,
learned.
recognizable
rests
sliced
tiring
##bby
##lights
##well's
arrival.
binder
complains
dubious
is)
lovable
notified
patio
suburban
terrifying
tribe
##')
##ía
=)
all...
count.
counted
hollywood.
islands
misleading,
properties
sick,
terrific,
##ate.
##break
astounding
busted
chevy
clicked
egypt
misguided
posters
shifting
siblings
spouse
"what's
##-produced
##..for
##iously
##rine
anticipate
bs
column
conference
laurie
listener.
unbiased
##wait
balance.
esoteric
hear,
liberty
licks
paint.
praised
quarters
rewrite
stranded
suprise
upstairs
usable.
workmanship
##c)
##ima
##ncing
##oned
##sal
##y)
africa.
bits.
colorful,
executed.
ho
installed,
ironing
joystick
methods.
nanny
plate.
porch
qualities.
warning,
##and,
##arm
##wire
attorney
blocking
bread,
come,
completely,
diffrent
good.the
jury
leaks.
mirror.
myers
restoration
wrote.
##...a
##ially
3000
contrast,
copies.
course)
esp.
knows.
perfection.
puppets
ranch
warfare
"can't
##.overall,
##lli
##need
##ply
1984
colonial
conducting
corruption
not?
proceed
##ist"
blatantly
book!!!
charged.
jude
ounces
pond
retirement
singer's
street,
visions
wallace
witches
##fi
##poon
##rence
call,
cork
ebay.
enchanting
pans.
passenger
paths
pendant
plethora
preserve
recognizing
sarcastic
shipment.
weaknesses
##nies
##sible
deliberately
doomed
drums.
intake
meaning,
milwaukee
nations
prayers
symbol
theft
##-book
##14
##les,
##o)
##tched
29
appreciates
clicks
comforting
good...
insight,
luv
opening.
whatever,
##-known
10"
accuracy.
be!
brief,
casino
cells
cinderella
ethical
experimenting
intact
larger,
popper
stats
threaded
##)this
##friend
##la,
##shame
collector.
debris
disease.
flashy
hallmark
immense
inputs
manhattan
merchandise
michaels
scooter
bleak
breaks.
configure
crop
disservice
explorer
fools
human.
loyalty
##-y
##gles
##hl
##i"
anthem
donated
great;
hardware.
lifestyle.
pedals
unused
winding
wolves
##35
##bel
##eck
##it.
##liness
##nding
##ness"
borrowing
experienced.
hefty
lily
meanwhile,
music"
regretted
squirrel
sub-par
treble
##iating
##nail
##punk
##rid
dominated
fo
hotter
impact.
joshua
landed
measurement
memoirs
muffled
pants.
projects,
self-indulgent
spicy
talented.
thunder
vision.
##bal
##mont
##rts
##tick
atrocious
brushing
degree.
huh?
lied
revisit
tags
trouble,
weighed
"hey
##.no
##ives
american,
bored,
buffalo
cited
clarke
earbud
flaps
gba
heartbreaking
kansas
marker
promoted
them...
tomato
##tor.
##uth
$80
anticipated.
damon
employee
insipid
positive.
profession
suspected
that...
##eral
##in"
##mazon
##oll
##uation
900
addressing
cheese.
dad's
eat,
finely
hanger
hysterical
juicy
long-term
rubbish.
ugly,
##.50
##duce
##unds
abandon
adoption
andrea
childs
comeback
customs
especially,
feast
handy,
investigating
it!!!!
orchestra.
urine
##form
##nity
##what's
2d
animation.
distraction
electronica
etc..
explanations.
gran
high-quality
lotr
management.
maybe.
risks
tolerable
"time
##aw
34
ballads.
burt
cape
disturbing,
faster,
ff
gilbert
misplaced
sensation
ugh.
unlimited
##fill
##lander
(another
bien
fastest
graders
index.
olds.
plays.
pleasant,
recycle
##.just
##vs
eye,
freddie
killer,
operates
sandals
soon!
volumes.
##-you
##cting
##ived
##lining
20+
context,
musically,
personality,
reacher
relief.
stations.
wheels.
whine
"sweet
$150
absurd.
ballads,
bonnie
diva
engineered
friendly,
group's
karate
people!
sunshine
vignettes
window,
##-less
##..my
##guard
##ime
##th,
assault
boils
got,
han
offend
p.s.
pencils
prequel
refined
technique,
##bble
##ck.
##tight
(why
3-5
commander
defects
geographic
glasses,
grim
lead.
neither.
pair,
unbearable
##ones
billie
bumper
cd?
classify
enduring
feat
gameplay.
lifts
problem?
rant
south.
tubing
unix
unreadable
warmed
##o!
footage,
lacking,
london,
marathon
rusty
so...
wiper
wonderfully.
youll
"first
##far
##on"
abilities.
anybody.
cuff
first!
gal
meat.
shave.
vest
##.to
##ella
##lter
##tine
ali
banal
bleeding
boo
deborah
dented
doctor.
scrape
shirt.
supportive
##cion
##road
##simply
bravo
employed
fails.
usa,
visor
voyage
work.i
[...].
alignment
ash
blender.
bothering
cafe
camp.
cares?
condescending
downloads
exploits
lace
mercury
pry
ripoff
scales
stiff,
stop,
tapes,
voodoo
##radio
buffs
jenny
mechanic
melodramatic
musical.
reliable,
soaking
tropical
way)
"b"
"last
##01
##broken
##zzle
comforter
enchanted
evoke
forums
specifics
speedy
walt
whistles
##mar
##ties.
bummer
continue.
delayed
dis
endured
instruments,
lasted.
parks
submitted
translation,
typographical
"oh,
##dvd
##ie"
##ister
##ists,
##ito
##something
##vil
dreams,
fight.
french.
infinitely
jurassic
layered
smiling
subplot
unwanted
##cake
##hey
arms.
dirk
higgins
independence
katie
leather.
multitude
relaxation
relevance
suppose.
though...
##enjoy
##les.
##nces
##paul
##yer
30%
compare.
debt
did'nt
fever
kindergarten
ruby
spiderman
thrills
##--just
##ental
##ously
graco
immensely.
intersting
iq
passive
plagued
sigma
sonny
##ra's
$8
characteristic
conversational
full-length
grounded
simmons
talents.
vocalists
##..he
##line.
##lways
##rain
bb
controls,
cycle.
dirty.
flawed.
gourmet
nudity,
possess
possessed
renaissance
syntax
ware
##rds
##stein
1980s
1994
consult
dremel
each,
humanity.
movie.the
one.the
punctuation
recycling
rhyming
richness
spirit,
television,
##de,
##iving
##seems
##to,
$10.
broom
conversation.
decorative
domain
dots
eastwood
examines
furious
hannibal
liked,
percentage
quart
retrieve
saddened
##graph
##iled
##running
##tec
##ury
appropriate.
consulting
instrument.
pedestrian
sanding
(particularly
bills
brutally
creed
definate
guns,
it".
now?
scrap
tag.
whites
##...it's
##hill
##zation
align
beth
bulky,
bumped
complicated,
everyone!
iced
inc.
koss
lust
plotline
scratched.
unpredictable
waits
##aged
##men,
anyway?
aspect.
association
bluesy
dyson
education,
hike
hill.
him?
homosexual
pamphlet
resume
simultaneously
stable.
stumble
substance,
suspects
##)but
##ille
##mat
##mist
##pped
##uming
clancy's
contest
debbie
destination
four,
glen
highlighting
oak
opinions.
output.
pattern.
promotional
stunts
sweat.
these!
##ider
##inate
##ists.
##ners
##onal
##pen
1990
changer
imagine.
leaps
masterfully
meantime,
photo,
quality!
unrealistic,
worker
##based
##eth
##ible,
##mie
##r)
amaze
arthritis
certification
happy!
instead!
render
reply.
rodney
stereo,
sunglasses
unabridged
##-d
##-use
##pic
dreaming
increases
matthews
mattress.
ski
toned
##rf
##yle
.net
captivating.
dialogues
infectious
ivy
jr
references,
slicing
soprano
stiff.
sweeper
##aid
##da,
##eration
##witch
arrangements.
bibliography
bugs.
dud
expired.
forgets
improbable
jesus,
jillian
lamps
mark,
max.
raped
relaxing.
republic
shortened
time;
trailer.
"more
##mers
aiming
carseat
cuba
intellectually
lock.
organization.
point?
solves
testimony
unfortunately.
##chair
##dust
##gram
##heim
##ki's
##v's
##way.
(two
buddhism
candles
carolina
chainsaw
clan
persona
publicity
rocks,
sam's
sophie
ww
##/4
##ald
##lessly
##lyn
##rant
##tling
(same
below.
fx
gains
locally.
moon.
negative.
nova
now"
opt
ritual
simplistic,
skull
stone.
tug
##ey.
##ready
##ville,
appliances
assistant
conduct
cries
drown
geek
grinder.
lighthearted
lovely.
members,
miracles
module
notice.
razor.
richer
spoiler
towers
walls.
west,
wonder.
##club
additions
agrees
glitch
kbps
mia
recovering
shaky
tipped
world!
##cess
##ic"
##ila
##imo
##led.
##ogy
(3)
candy.
capacity.
harp
nails.
sentences.
tall,
##2k
##book.
##iner
deal!
lowered
music?
overweight
reagan
reviewer's
rocked
rushing
survive.
tired.
viking
8"
c'mon
cartridges.
coats
conclusions.
distance.
folder
muddled
of)
regional
rivers
smack
spirited
technician
weary
ww2
yamaha
##fun
##line,
clarity.
fleece
jeffrey
lauren
lies.
mankind
must,
noting
scenery,
unusually
win.
##co,
##loud
##rring
##size
developments
estimate
legend.
punishment
stars)
story?
teenager.
##nced
'n'
1,000
backward
efforts,
essentials
extreme.
flames
reign
separation
shore
##-piece
##gone
##kie
##tones
(hence
bernard
champ
daylight
destiny
fuller
gravity
miniature
misunderstood
photographs,
pointer
raved
seventies
verizon
##-read
##follow
aerobic
brace
distributed
horrified
key,
maintained
melting
phillip
scriptures
subjective
vain
wind.
##-making
##ances
##ized,
##tro
1960s
2010.
athletic
commend
filed
glossed
kenneth
mindset
narrative,
pac
particles
playful
ratings.
session.
subtitles,
writen
wu
"normal"
##!!)
##ns,
##och
(over
60's.
anime.
arizona
categories
costumes,
crap!
drowned
eagle
honesty,
integral
menu.
set!
##..very
##bers
##several
##wide
,and
eureka
forget.
framed
motivational
responsive
resting
savvy
scalp
semester
"dark
##=
##dog
##ions.
##oth
andre
dream,
mandy
misled
openings
patterns,
realization
salvation
samurai
splitting
stock,
##peter
##tel
cussler
ethics
forensic
imaginary
lug
naturally,
over!
realised
sony,
##ential
chargers
edition"
embedded
genetic
get's
hence,
ibm
mans
moisturizer
mood,
noticable
regency
robbins
stops.
textbook,
##ian.
##ll's
##price
##tc
authenticity
breaker
cleaning,
coding
dictionary,
hero's
males
opposite.
readings.
stove.
tribal
values,
weapons,
"i'll
##18
##at.
##flower
artistry
ergonomic
floppy
hard-core
passable
policies
saddle
steps,
twist,
usually,
##-age
##again,
##basically
##eal
##lit
##lls
##lmost
.the
americans.
apartment.
controversy
dancing,
debating
encountered.
exercising
exhaustive
guards
incorporates
injured
originality.
ppl
strained
trends
wack
##".the
##ios
armor
boots.
brazil
clipper
conductor
diamonds
doctor,
dodge
dvr
evokes
great...
madison
misery
morbid
periodically
phrasing
pistol
pointless,
professors
recreate
rules,
shannon
shortcomings
unfold
##beat
airline
blur
curls
enthusiast
home"
jack,
mexico.
penned
pigs
sugar,
thinly
##robert
##sly
##sometimes
blocked
breastfeeding
canceled
eyed
gimmick
imo.
india.
insanely
insists
marty
mileage
pricey,
ribbon
sansa
superstar
tiresome.
vacuum,
##-only
##16
##er!
##lated
##range
15-20
actress,
dishwasher,
light-hearted
lois
melody,
out...
scotland
self,
sketch
supply.
##change
##erg
##shot
##unch
2008.
austen's
chin
game's
lifelong
pairing
publisher's
visualize
won't.
"god
##rupt
##vity
atmosphere.
came,
channels.
dreamcast
election
feelings,
flash,
misfortune
thrift
transferring
##ch's
##copy
##ll,
##mail
##per.
##words
calls,
incomprehensible
lodge
media,
prolific
teens.
unsuspecting
##ab
##das
##ene
##lot
(yes
dec
delonghi
disagree.
health,
is?
nina
outlined
teflon
template
tired,
warned,
yoga,
##able"
##ange
##go,
##learn
##ouse
##wed
agency
aviation
butchered
cf
comprehensive,
darcy
outfits
plots.
prime.
resolved.
textures
tough.
tournament
wobbly
billion
clever.
compromise
designs.
disney's
duncan
handsets
love",
pa
plan,
smile.
tests.
tiny.
units,
##ization.
##lab
app
enough!
goal.
immortal
implications
moby
one;
packaged.
stud
t-shirt
trashed
warp
"star
##.its
##ational
##ias
##later
##pet
##y'
(good
address.
bleach
boundaries
editions.
followers
forbidden
literal
moist
nightmares
tradition.
up?
##-eyed
##didn't
##hart
##ior
drugs.
jarring
reflections
rowling
strangers
unscrew
##-up.
all"
avoids
battle,
being,
bulb.
dre
dreaded
everyday,
hammock
intense.
palmer
slant
this.i
xm
"they
behaviors
car's
carefully,
compilation,
engine.
motown
organizing
oversized
pertinent
reynolds
tales,
##-metal
##ity"
##or"
##or's
accepts
delightfully
hate.
high-end
networks
recipe.
retire
self-absorbed
shady
slr
uninspired.
##formed
##gel
##mm,
##ots
##ur.
$12
amplifier
entirety
exaggerated
knives,
paula
##active
##baby
##eau
1980
al.
odor.
pail
pork
presented,
sandwich
sixteen
##ats
##ctic
##ities,
##money
##rch
##vie
##way,
a)
asap.
beatles,
bent.
buena
desk,
download.
griddle
guitarists
miserably.
proceeded
revival
rings.
solution,
that'll
wicca
##eo
##ference
##gic
##ids
##pressed
horse.
mad.
mitch
saga.
soap.
stereotype
trendy
turner,
typed
"two
##!!!!!!!!!
##ard's
##gt
##meter
##ully
book.this
brands,
disks.
dreamed
impressions
nickel
overshadowed
peppers
sandy
scale,
singers,
windows,
wool
##-sided
##22
##sel
$35
13,
biography,
dust,
hal
hideous
intact.
leaking.
mejor
neck,
parental
planet,
retarded
specify
sprays
strings.
too).
##at"
##com.
##gg
##instead
delight.
diaries
discomfort
helicopter
lot!
luxury
man!
musician.
sleepy
slicer
sold.
strength,
there?
##(or
##na's
##nds
##ner.
##uge
actress.
amazon)
approx.
arms,
calorie
cap.
choke
fires
hurricane
messages.
observation
occasionally,
rereading
snugly
went.
witnessed
"hot
"lost
##ations.
##rms
##ur,
31
70's,
80s.
brush,
creepy.
customize
dinner.
drastically
graduated
in!
lightweight.
phenomenon
puff
rewarded
sell.
##-era
##.while
##arian
##mmy
##rose
##ted,
agreement
digs
dsl
excessively
implied
norah
peeled
poets
pump,
speaking,
tissue
##--in
##-9
##..as
##antly
##cy,
##n'
##powered
##wall
calming
coby
downhill.
fast!
germany.
harvard
peg
stripes
wholesome
##due
##ees
cousins
land,
manuscript
michael's
rain.
scratches.
swearing
temperatures
tenth
traces
uniden
whatsoever,
##.i've
##ally.
affection
arrangements,
long!
miller's
minister
outdated,
recommed
"be
##bbing
##je
##lish
##nto
accident,
barn
bbq
brooklyn
cinematography,
invite
mineral
offered.
repetitious
##--if
##nte
##remember
38
any,
blog
cleanup
concluded
existence.
flowed
grandkids
hat.
height.
inept
money...
outcome.
stone,
stooges
"true
##ser
##uss
50s
ah
attributes
cause.
discussion.
explosive
hazard
insanity
insights.
obsolete
parent,
replaces
stronger.
traveling.
unimaginative
##....and
canceling
criminals
don`t
email.
fans!
generator
gloves.
ice.
modeling
pregnant.
proof.
sheath
suppose,
##..don't
##8)
##cated
##ger,
(sometimes
b-sides
countries.
drawer.
forming
headaches
money!!
pope
pristine
remove.
stare
todo
wedge
wet,
##-no
##....but
##out.
42
african-american
aroma
burn.
cone
demise
destructive
hillary
inconsistencies
intensely
married,
punk.
"you're
##-screen
##picture
##uid
##verted
added.
album...
backlight
browse
cary
communicating
cruelty
derived
extends
fetched
harsh,
instructed
johnson's
kitten
laden
marks.
plane.
sideways
singles,
slaves
stapler
tolerance
woefully
##-set
##child
chopper
explosion
firing
gags
healthy,
meal.
nothing!
pads.
puzzled
story.i
stressed
syndrome
tactical
that).
tide
wide,
##worst
awkward,
banter
deter
erotica
faux
formats
item!
kinks
normally,
organizations
outlet.
positive,
privacy
ready.
surpassed
us!
whimsical
widow
##00,
##eg
##w's
alleged
allot
crime,
engines
france.
interplay
living,
particular.
rechargable
seen!
specifically,
tragedy.
##.very
##berries
##fine
##ries.
##rip
book.if
crossover
five-star
freeman
horrifying
lighten
nap
one:
peters
ronnie
roth
silky
tiles
"bad"
##na.
##ying
11.
behavior,
charts.
clipped
construct
differ
gross.
lighting,
melody.
onion
others)
pinnacle
solutions.
time:
zelda
##...they
bloated
blunt
cabinet.
divorced
dumping
introductions
know?
participate
starred
targets
wiggles
you...
##lone
##typical
coaching
conceived
depression.
galaxy
grammy
judgment
lb.
married.
ray.
rich.
search.
speculation
unrated
verbatim
writings.
##nded
alicia
apologize
chain.
convincing.
expense.
gwen
icons
lately.
puerto
rice,
saints
tipping
web,
##eing
##se.
##sp
##urate
alcoholic
apt
cute!
darkest
dismiss
duran
earphone
harmful
how,
installs
uno
well;
##-century
##99.
##ital
##ls,
##uel
bedding
devices,
funds
happend
isolation
net.
plainly
ps2.
rattling
spreading
technological
top-notch
##.great
##una
(less
110
;-)
belt,
catcher
conveyed
crafts
dang
dixie
dove
enables
exceeds
fantasies
lessons,
mins.
musical,
overblown
programs,
vulnerable
windy
zoo
##ages
##eted
##film
allergies
beeps
choices,
dialog,
emotional,
jovi
omega
patti
president.
rf
visit.
##cp
annoys
autistic
battling
benny
break!
conflict.
evolve
politicians
rv
thoroughly.
##-player
##/cd
##ler,
##needless
##queen
2011.
belief.
charity
chews
climax.
drink.
gorgeous.
have"
norm
optimistic
patterson's
punches
sampler
versatility
vocabulary.
##--no
##--that
##55
##glass
##ments.
##type
asset
daily,
duel
editor,
iron,
motivate
offset
out)
pods
progressively
sketchy
so!
target,
##asy
##move
(actually
arrows
audiobook
convenient,
gerber
grades
italy.
messes
presidential
revolution.
sake,
terrorists
train.
##-hearted
##call
##non
##tor,
2:
ahead,
beds
dismal
friendship,
implementation
lindsey
lp,
mucho
outing
puzzle.
quirky,
sensitive,
violent,
walk,
##..i'm
##e!
angry.
boy"
comprised
defect.
escape.
excitement,
hudson
hughes
julian
lately,
liam
mutual
n64
shower,
sinking
terminator
timer.
unlikeable
##aries
##iles
##ms,
##release
$4
2009.
advances
arguing
breadth
chuckle
confirmation
depeche
didn't,
driving,
gentleman
gloria
hook.
in"
nod
ohio
paddle
re-released
substantially
suzanne
toby
tokyo
understated
wildlife
##..even
##final
##mouth
##washed
##watching
5)
bassist
cancer.
grammar,
hanging.
how.
medication
nero
princeton
railroad
scam
slipknot
##erman
##rap
$6
devotional
having.
john,
nights.
peterson
photographic
pressure,
reflecting
senseless
shaw
workshop
##*.
##izations
##ss,
##uating
accompaniment
attest
b)
blinking
bradley
conservatives
corps
gameplay,
leon
months)
plight
shocks
spectacular,
toll
traveler
you".
##ank
##inch
##ky,
1992
1993
alot,
better...
courageous
figures.
fund
groups,
heros
installment.
keurig
lovers,
negative,
newbie
occured
silicon
years)
##).if
##-something
##cale
##lose
##recorded
##takes
angle,
attic
crawling
disapointing
dresses
excellence
government.
intermittent
jacks
longevity
offering.
responding
sleeper
teeny
##bill
##ided
##mber
##rl
##ure"
10,000
canciones
drain.
familiarity
huggies
imo
ruben
speaker,
"mr.
admiration
bamboo
basis,
combination.
criticisms
discounted
drawbacks
early.
encouragement
excellently
grade,
lamp.
lantern
money!!!
packet
partners
sentences,
static,
tank,
twentieth
work?
##btw,
##iring
##kill
##rising
compatible.
dependent
either!
fireplace
fluke
installation,
madonna's
now...
read;
sales.
skirt
weather,
##2"
##flow
##ia"
##rex
##stop
book-
framing
medium.
mummy
reorder
rogue
truthful
unfunny
wrong?
##....the
##ester
##ta,
answers,
appealed
cab
capsules
charm,
drained
evidence.
flashback
inspection
judas
magically
recommend,
recorded,
rescued
residents
resources.
spatula
yep,
##c"
##erie
##gether
##lam
beyonce
cinnamon
drowning
eject
france,
reads.
reeves
shine.
show's
sly
source,
uniquely
vga
##24
##ators
##ories
##uns
bowl,
bunch.
christian.
churches
demonstrating
effectiveness
nazis
now)
opinion)
planted
progress.
romeo
scout
specifications
ther
unwatchable.
up.i
##!,
##aling
##ware.
(is
brewed
dialog.
do)
file.
fulfilling
generally,
minds.
ourselves.
problematic
uncomfortable,
writes.
##ls.
##ro,
account,
brakes
chaotic
check.
effectively.
foward
generation,
goggles
immersed
joe's
medal
predator
question:
rice.
specialized
thoughtful,
unsatisfied
##ance,
##il.
##lined
##th.
accomodate
alarm.
blamed
boxer
breath.
cargo
chronicle
ender's
gold,
hides
promo
publisher,
quoting
reserve
smoothies
submarine
vinyl.
watch!
wounded
##digital
##ira
##udes
3x
bounty
crimson
enabled
eventual
garner
gear.
jacket.
lineup
maine
memorize
not)
shopped
surpasses
walmart.
"book"
##1"
##kle
##third
##xl
attempt.
cheapo
decrease
fee.
occasions.
relentless
scans
##fed
##ishing
##neck
##xx
back"
basement.
basket.
beeping
choreography
dirty,
disjointed,
dvi
giants
leigh
novel's
phd
read.i
rock"
scratch.
tribulations
wrists
"classic"
##'n
##date
##ico
##ke,
##mia
1991
aligned
bloom
bottoms
california,
clog
cook's
cushions
derek
detroit
expert,
fly.
garbage!
goose
labs
planets
prisoner
product.i
specialty
this;
##mix
##olic
firstly,
jelly
overcoming
poorest
pursuing
receiver,
recognizes
redundant.
unconvincing
yield
##hh
##work.
consumed
couple.
depict
interrupted
introspective
irritate
lee,
notions
shoe,
younger,
achievement
avery
branches
concentrates
deception
demos
healthy.
ponder
seal.
searches
spoons
spring.
throughly
veterans
##cribe
##oke
##t)
##wl
aerobics
blankets
boats
comedian
dependable
dismayed
doris
dosent
dread
even.
farmer
micheal
popular,
puzzles.
selection,
suspenseful,
troy
"hard
##match
*not*
advertises
africa,
atmosphere,
bullets
caroline
cookbook,
flawless.
frequently,
hot!
pci
retains
sea.
studies,
teenager,
typos.
uptempo
weighted
"over
##ae
##am.
##jan
##mc
##ote
baroque
blades,
cohen
decipher
enclosure
hypnotic
machines,
mccarthy
miserably
sensors
socks.
sporting
thorough,
turkish
##erate
##gun
##iting
assorted
boredom.
brenda
carry.
co-workers
kathleen
may,
refresher
region.
rhythmic
say:
##-school
##..maybe
##ate,
##cially
##nish
##plastic
alec
av
extraordinarily
know!
leans
scenery.
ti
tripe
uncommon
waiting.
##ard,
##called
##dered
##duction
##father
##iable
##ifier
##igan
##main
achieving
angry,
carnival
creepy,
herbert
horses.
illusion
lucid
mentality
pooh
progresses
rip-off.
summaries
unwilling
wilson's
##!!!!!!!!!!
##se,
##sia
##sse
$70
attribute
bees
bikini
bouncy
cabinets
cheese,
courtroom
craftsman
damaged,
insulation
jay-z
rough,
sunlight
##(a
##.also,
##az
##est,
##ind
##itation
##tring
appreciate.
ayn
blackberry
boyfriend,
businesses
daisy
dies,
flaw,
meat,
natural.
prescription
rumble
"night
##)?
##ibilities
##usa
already!
cursory
fulfilled
hold,
human,
insane.
insulated
lies,
people"
recipies
round.
soles
spin.
tree,
trees.
younger.
##ghz
##iness,
##mics
##oes
##yan
articulate
battlefield
cbs
conair
dolly
fussy
geography
ipods
nose.
on.i
personally.
playboy
rings,
simplest
tension,
##--even
##customer
##ere
##isation
##lift
##logist
##oming
##sts
adequate,
bars,
benjamin
better.i
clothing.
cs
defintely
facility
goodkind
harper
incoherent
nudity.
prongs
substandard
wb
"only
##giving
##hn
##idad
##isan
##nished
##playing
##say
##verse
balancing
caribbean
converting
exceedingly
here)
hex
likeable.
loved,
noises.
perl
pr
strings,
stunning,
teaching.
tickets
wire,
##-cd
##doesn't
##e'
##fight
##is'
##mary
breasts
capsule
charging.
charts,
connelly
dresser
halloween.
marines
occasion.
old's
password
pearls
spielberg
spray.
subway
swing,
wheel,
"something
##.now
##ech
##lost
##og
##personal
##pping
anime,
blanks
bundled
hotels
management,
modifications
niche
old!
penn
rewards
satisfactory.
status.
syrup
uninstalled
vacuuming
watering
##-good
##...just
##birds
##gain
(?)
1950s
bishop
carpet,
craving
enforcement
far-fetched
greatest.
juice.
knocks
owning.
sequal
stretch.
##-shaped
##ject
(something
acclaimed
betrayed
bookshelf.
collections.
drivers.
hemingway
invention
lady.
lot's
razr
series)
songs:
startling
trader
twain
##-50
##itic
##ried
##rove
##son.
##us"
##y".
##yard
(great
absolutley
acceptable,
advocate
begin.
bypass
contributes
cornwell's
devil's
doors.
drivers,
lady,
monroe
regions
ruthless
sprinkler
tougher
##aching
##lving
##thats
affecting
burr
diego
eagles
factory.
favour
gamble
hilarious!
honeywell
inconvenience
labeling
malcolm
miter
##-4
##anne
##kin'
##m)
##ns.
##osed
##ques
anecdotal
anyhow,
australia.
boxes,
corners.
emphasizes
handles.
hate,
locations.
offer,
refreshingly
rubs
sequences.
shook
shorter.
stick,
toning
trusting
##cuts
##hine
##ista
##mbling
20-30
bosses
dana
denying
glorified
heads,
identification
monica
movie)
non-existent.
obsessive
phony
previously.
ship,
upbeat,
val
witchcraft
##-40
##14.
##gment
##nan
##rough
##ter's
(read
2003,
4/5
dumbest
examining
exchange.
fan's
feather
felt.
filthy
growth.
icing
marcus
product's
sw
telling.
##native
##needed
##ography
##rator
##sley
##ties,
##tional
##video
beautiful!
conquer
corny,
culinary
des
fairness,
pre-ordered
propane
redo
repaired.
south,
unavailable
voted
watched.
"at
##5"
##frame
##pack
aesthetic
breaking.
clips.
complexities
exceptions
pages)
playable
prefered
spaghetti
spun
sweater
unimpressed
"here
##.she
##media
##n)
##tile
amd
ashes
canada.
careless
collector,
delivers.
drank
five,
impulse
keypad
knew.
mississippi
mixer.
necessary,
pm
portuguese
productive
sharpness
singles.
skillfully
walking.
##,'
##care
##cked
##large
##lash
actively
all.the
attack.
carpets
conditions,
connery
consisted
days"
disapointment.
disgust
grace.
guidebook
hollywood,
intelligence,
piper
satanic
stocks
subtitled
thrilled.
treasures
tummy
willingness
##-key
##co.
##race
armstrong
belle
distinction
drains
expedition
grandpa
michigan
more...
ruled
shipper
ss
thrust
wendy
##-track
##green
##ious,
anger,
bella
bonus,
choral
composite
interface.
laced
match,
motivating
nasal
oval
parade
performer.
priceless
programming,
rock!
row.
rule.
skill.
trys
wine,
##ata
##de.
##gy,
##plication
arrested
bomb.
buff,
cheek
cutters
e-mails
flight.
foremost
jumbled
lance
measure.
moods
nowhere,
packets
pockets.
portraits
read"
shure
sparkle
that.i
##-6
##.good
##.some
##gence
##ridge
##rious
artwork.
bissell
cameras,
capitol
cranked
diagram
dolls.
enemy.
fidelity
functions,
hasnt
incapable
mandatory
marley
microwave.
rehashed
routes
sort.
stationary
understandable.
viewer.
##-do
##-so
##bes
##country
##ing)
##it,
##leave
##ppointed
##work,
all:
choking
demonstration
fixture
functional,
impressed,
judged
kissing
lil'
loan
london.
lps
occult
on?
proprietary
reinforced
rough.
third.
treatise
unreliable.
##bey
##boat
##dry
##dy,
##minating
##time.
##uary
$7
bd
butcher
chemistry.
diapers.
discouraged
distributor
fare.
feeds
girlfriends
halen
jones.
meetings
nonsensical
scott's
timeless.
underside
variety,
vhs,
williams,
"are
##dan
##ender
##san
##sh,
##uling
begs
consume
crushing
ect.
fourteen
go"
landmark
medela
messy.
oven,
paperback,
studio,
terminal
transformers
within.
zappa
##aly
##enough
##eries
##nks
##oxy
##story
##tant
##yrs
antonio
crystals
delightful.
eventhough
florida.
gallery
george's
goldberg
gypsy
nailer
pixar
pur
rig
texture.
tvs
update.
upgrades
##.-
##?????
##s-
##uild
##want
##worthy
13.
brit
constructed,
corrupted
discription
dome
dreamy
freedom.
itchy
me".
ppv
reserved
surgery.
##board.
##hai
##named
##oop
alison
answer,
blu-ray,
budding
classic!
crunch
devastating
disclaimer
flops
lopez
me),
plunge
rambles
sexy.
slog
video!
wanders
where,
##ger's
##lton
##men.
##pite
##thinking
american.
arriving
block.
confused,
cooker.
feel-good
hunters
jordan's
master's
neal
peculiar
reach.
sensational
toddler.
tucker
weekend,
yell
you."
##++
##ades
##ively
##ology,
attributed
cello
crunchy
enought
entrance
hers.
hooks,
horses,
incoming
karl
life?
lived.
lori
peace,
riders
sidney
signal,
subtle,
##ions,
##lative
##quin
##tried
1gb
ethan
expressive
harvest
hospital.
knot
nashville
praising
resolution,
shouldnt
ups.
##--or
##15.
##ez,
##olo
a,
aftermarket
analytical
couldn't.
dvd?
enlightening.
hearing.
house"
lithium
monkeys
overwhelming.
pipes
rack,
secret.
sheet.
shove
translator
trauma
"down
##bye
##cord
##field,
##spend
(albeit
11th
a/c
ah,
darth
est
forced,
frequencies
heaven,
more)
philadelphia
salvage
sinks
stacked
torch
unplugging
"dead
##fan
##ler.
##meaning
##slow
##ss.
aftermath
atlanta
balance,
christ,
dvd-r
eq
existed.
false.
garcia
girlfriend,
mistaken.
presentations
presses
realistically
reliably
reproduced
rethink
rom
sadistic
solder
soooooo
spans
teenagers.
toilet.
types,
verge
washington,
##iling
##rived
,i
abbey
compassionate
dirt.
kaplan
pronounce
scheduled
usage,
##house.
##jazz
##lain
##lead
##ries,
##tted
##ttle
##under
##utely
aerosmith
architectural
army.
blaming
brat
cage.
crash.
evolutionary
hill,
noteworthy
purports
remarkable.
rivals
sampled
star"
transmit
trees,
##finally
##pit
#3
add.
ala
confusion.
credibility.
dna
duff
ernest
exists.
firewall
ghz
paris,
rooms.
screws,
similarity
sleeping.
slot.
spindle
unexpectedly
##?,
##grown
##hate
##pel
##ts"
b&w
cocktail
competition.
dvd's,
feathers
ne
oasis
pompous
ramp
registry
regrets
tour,
unbearable.
##..its
##600
##basically,
##tus
128
17"
adrian
appalling
bad:
bath.
called,
ce
corey
credits.
equals
expands
frontline
idiot.
macho
monumental
notation
realms
rode
sorry!
teachers,
theaters.
unseen
##cts
##owing
##personally,
##sions
1989
agenda.
bop
corresponding
covered,
examined
exploitation
guru
motion.
nest
pop-up
puppy.
spotlight
theatre.
threatening
well-written.
wholeheartedly
wiping
##gled
##lord
##proof
##ver,
fire"
joys
questioned
shaker
shredded
swan
teeth,
tomb
totaly
##aker
##hm
##ization,
##ulates
angelina
below,
c#
capitalize
compact.
consequently
crib.
noodles
owes
plants.
plays,
pumpkin
rma
spenser
together!
voyager
##4"
##cker
##nel
##nny
##number
##sadly,
1999.
adopt
audiophile
butter.
cartoon.
dents
despise
escaping
gift!
israeli
##day.
##joe
##turn
clogs
humorous.
interestingly
memorable,
neon
patiently
personal,
purchases.
textured
too.i
##en't
##kids
##lings
##sibly
cleaner,
diesel
gate.
joy,
mind"
network,
news,
nowadays.
pcs
petite
postal
rabid
resetting
service!
shrek
soaring
standouts
steam.
tucked
##holy
##obviously
##rley
##sin
40%
arrogance
artifacts
blond
catholics
clooney
connections.
dashboard
detracted
driver,
easier,
evenly.
fairness
fall,
freaky
grams
hunk
maya
naughty
noticeable.
patience.
pleasant.
portable.
satisfaction.
shorted
thing?
##-new
##?!?
##matched
driveway
everything!
harmonica
joke!
mp3s
natural,
photographed
positioning
pronounced
security.
squares
think)
treadmill
whisper
worn.
yours.
##.net
##considering
##cribed
##iance
##icit
##plate
##tep
("the
(despite
(her
carmen
communications
consequently,
craft.
dying.
guys!
hogan
ignored.
lawyers
louise
representing
sci-fi,
secretly
smoker
splitter
taking.
##/rock
##classic
##hic
##la.
duets
evangelical
folders
hackneyed
master,
más
omission
pam
pointers
puppies
researched.
taken.
taping
temps
tracked
train,
tupac
worldwide
##.2.
##buyer
##cheap
##ointed
##plug
##uro
accent.
access.
billboard
cg
crust
cycling
enhances
lighted
lonesome
mash
math.
novella
quirks
sheets,
suction.
woods.
##lling
##phy
adores
aspects.
brita
coal
community,
connected.
coverage.
diminished
dominate
dreadful.
edwards
families,
fear.
foods,
loudly
made!
mother-in-law
rooted
rust.
salty
tu
wires.
##aving
##dent
##gee
##hyped
##utical
##yl
adhere
bet.
dylan's
godfather
guitars.
india,
innovation
liberties
lose.
matte
narrator,
nelly
observed
powell
reject
report.
respects
rotary
squeezed
undercover
youthful
##filled
##lid
##ptic
##tter
catalogue
companies.
democratic
drill.
essential.
exist,
ham
maniac
manic
nope,
requesting
ronald
scrubbing
sent.
slanted
taxes
unsatisfying.
viable
##'s)
##citing
##hood,
##ound
##rging
##sily
activity.
application,
baby"
bios
cherish
dishes,
haunt
heater.
heed
luggage
massacre
pro,
provider
romantic.
roommate
ser
sophomoric
step,
them;
therapy.
uneven.
worthless,
##eric
##met
##nant
##person
##vac
amish
colleagues
denzel
elliot
embarassed
insider
instructor.
insulted
italy,
lense
location,
maid
muslims
prevalent
repeat,
requests
rumors
saturated
smiles
soften
temp.
theyre
tick
tomatoes
uk.
wind,
yourselves
##gest
##ious.
##itude
##rist
(check
b-movie
bombs
boyfriend.
branded
brutality
buen
charismatic
corporation
deepest
figures,
girlfriend.
granddaughter.
hd.
hitachi
inspirational.
invites
rushed,
subtlety
tension.
uninspiring
verified
##ducing
##hc
##lc
##mies
##tos
adorable.
appearance,
bum
cartoons.
commute
country's
cue
defeated
distinctly
duty.
eliminates
filters,
freaks
miles.
mills
reps
seems,
shovel
texts.
usefulness
vibrating
weighing
well-researched
wobble
x,
##+.
##-o
##:i
##ege
##pace
##rah
##ue.
cher
dairy
garth
grow.
infact
learnt
modern,
movies!
one-star
sodium
storytelling.
##cock
##know
##lor
##lves
##ored
##tas
##tress
...the
batches
betrayal
builder
columns
coupon
dead"
force,
heroines
holder,
imac
latches
makes.
manipulated
marble
marking
owner.
pretentious,
recurring
seems.
spiritually
sylvia
vanessa
wise.
"with
##cc
##nis
##standing
##ut.
(plus
(well
4-6
audrey
benefited
bounces
conscience
criteria
exchanging
finest.
gta
nicholson
presentation,
renewed
strap,
talking,
toasting
tx
upsetting
war"
"under
##waste
##write
angled
backpack.
boogie
clearing
educational,
emerging
guides.
harlequin
ironically,
jobs,
microsoft's
monotone
monster.
noah
recalled
sheriff
snooze
socially
sure!
tall.
werent
##learning
##pure
1988
bathtub
candidate
day-to-day
daytime
difficulty.
electronics.
ended,
experimentation
insufficient
interviews.
lexmark
one),
poems,
pregnancy,
rex
seminal
sins
ugh!
you.i
"feel
"very
##..we
##ar's
##enter
##et"
##george
##ine's
##lake
##less"
##position
##purchased
##rrie
(usually
fame.
germany,
her?
mailbox
mysteriously
permission
poking
rituals
sequences,
subjects,
sweating
threatened
utensils
"live"
##ased
##chester
##cons:-
##ird
##ment"
##ors,
##ry"
##tron
burke
decisions.
dexter
drives.
evolving
incorporating
integration
mg
movements.
overpowering
parent.
sake.
woman"
yourself!
"man
##aside
##eb
##feel
##mith
##oul
##released
balls,
bits,
boasts
charmed
chime
drawings.
grilling
homosexuality
hopper
incompatible
opening,
pay.
queen,
supplemental
true!
tryed
underneath.
yummy
##lop
##rats
2001,
2005,
41
approx
cane
cardboard.
crane
eggs,
explosions
frankie
functionality.
great.i
jackson,
maneuver
montana
originals,
physics,
pulitzer
runaway
shepherd
sizes,
texas.
"have
##ky's
##okay,
##ount
##sta
##ve.
##vising
##yeah
announced
christianity,
comming
explained,
flynn
gundam
idle
imported
impression.
jones'
justified
lemon.
pathetic,
renew
salmon
too)
tote
##_,
##ability,
##anyway
##bled
##eling
##elled
##ier's
##lene
##quired
##wife
bearings
cement
disappoints
grid
leg.
length::
lime
mechanism.
methods,
mostly,
napoleon
opinions,
orson
recorder.
rita
speakerphone
wisdom.
"music
##.also
##fying
##hop
##horse
cinema.
curriculum
denver
downtown
fiddling
fleetwood
frankenstein
frightened
incubus
ink,
mushy
omg
participants
priced,
priority
retaining
sequence.
sessions.
sheen
spaced
trimmed
##-handed
##box.
##ing!
35mm
acted.
admission
better)
disappears
eighth
meals.
motive
naming
overboard
praises
skimpy
straps.
transformer
uninteresting,
washing.
##07
##acting
##ells
##fans
##lass
##rett
##stery
##text
##ó
1985
85
cocoa
demille
fabulous,
he,
hepa
imitate
intertwined
intresting
others'
perceived
pg-13
purposely
simplistic.
speak,
##)is
##--so
##.these
##battery
##during
##ingle
##mhz
##mme
##nics
##tled
(thank
(while
album;
bogus
bully
compound
despair
ethereal
fabric,
faces.
frost
greatly.
intuit
kids!
mic.
newcomer
omron
squad
sustained
symphonies
xbox.
yards
yeast
##,,
##06
##finately
##lucky
$30.
(ie
beatle
casts
celebrities
consisting
dominant
excerpt
feeder.
first-time
hole,
marx
mrs
novelist
openly
pertaining
rightly
ringing
scoring
thug
who.
##(if
##funny
##ión
##rudge
##season
(still
boarding
booker
canopy
cups,
defending
jane's
jig
journals
jumbo
movie:
profiles
prophecy
puzzles,
raves
shelter
speeches
sugar.
this.the
toro
veggie
virtue
##-standard
##/dvd
##ley.
##rit
article.
compendium
counter,
exhausted
happening,
jam.
lenses.
routers
somehow.
##(...)
##-up,
##:(
##aning
##author
##itable
##land's
##might
##path
$100.
angel,
appealing,
atrocious.
b&d
davinci
desperation
disable
formula,
gallons
gateway
heavenly
irresponsible
keanu
page-turner
selections.
sensitive.
shameful
spare.
story;
##-five
##.,
##aay
##arms
##ating.
##db
##sty
(using
3m
60%
asp
banjo
everthing
faithfully
finder
lavender
listing.
methodology
modern-day
replied
samantha
spider-man
wimpy
yea
##-top
##hal
##kira
##lad
##ments,
alanis
bear.
browser
cal
concur
costs,
disapointment
extender
fuzz
great!!!
interpretation.
love!
med
port,
pours
skating
something?
streaks
superficial.
worms
##brand
##complete
##dr
##ent,
##rite
##sson
##wick
$500
(sorry
3/4"
barrier
birds.
certainly,
claim.
expertly
formerly
franken
justice,
mini-series
out.the
papa
pi
plates.
plunger
relaxing,
revision
spits
spot,
travesty
tycoon
we,
##-go
##.do
##ffe
##pi
##tier
become.
charming.
clumps
deadline
dorm
gps.
listed,
method,
minimize
monsters,
newman
smoked
stinky
##ay.
##urn
amount.
consultant
edited,
expecting,
fort
god!
humans.
months!
seated
sorrow
stupidest
tears,
translates
wading
wagner
##cm
##elling
##production
addict
bennett
breaks,
focal
fury
horse,
irritation
masks
owner's
salt,
sharpened
sounding.
stressful
stunt
way).
winded
##.at
##ente
##ilty
##inations
##oi
##wrapped
70%
begins.
camera's
fender
flips
franchise.
groovy
hans
headband
lick
muted
preceding
pregnant,
premiere
roots,
solos,
starters,
strategy.
tasteful
##........
##illion
(ages
2pac
ago!
aptly
bad...
beautifully,
bras
cannibal
dumbed
eliminating
exhibit
film?
ice,
kensington
lang
narrow.
nation.
surprising.
there"
up...
youth,
##05
##essed
##oks
##ors.
##short
attachment.
checks
craftsmanship
element.
feb
logic.
mansion
practices.
scrolling
smart.
stills
this)
undone
university.
walls,
##-of
##leading
##loaded
##mal
##volt
##walk
creamy
crowe
grandchildren.
guy"
manipulation
non-existent
pancakes
plague.
portable,
psychotic
salon
self-centered
soldering
wast
"death
"some
##33
##?if
##around
##ather
##do,
##erous
##hp
##ilation
##imation
##lin,
##motion
##zzy
2gb
acquainted
add,
articles,
at&t
clutter
comfortably.
commenting
connectivity
connie
conveying
discarded
fat.
flowery
funk,
graphs
input.
magellan
repeatedly.
resorted
respond.
roles,
snacks
witnesses
##ll.
##plin
##runner
##ry's
##ued
(many
182
30's
advantages
afghanistan
as:
atkins
began.
charges.
parties.
pretends
raid
robbie
smith.
stand-alone
this!!
trent
"happy
##couldn't
##da.
##ence.
##nnie
##ulin
1500
1986
accidental
blurred
bryson
challenge,
channel,
for...
given,
here;
hips
hurt,
imperial
laugh-out-loud
lenny
mouths
obtaining
propaganda.
scent,
slowing
stale.
stand-up
version!
workouts,
"hey,
##ception
##ected
##lby
##llar
##wood,
##yed
15,
agony
anything!
apollo
applications,
figure,
jabra
microphone.
nicest
nu-metal
pictured,
see!
swift
views,
##-point
##.even
##cient
##ctions
##duced
##ige
##understand
advanced.
babies,
blues"
coming,
constantly,
duration
exception,
failed,
fix,
good)
minutes!
nerves.
o'
oldies
particle
poco
schools.
sites,
solved.
useable
##17
##am,
##cape
americans,
candid
catalog.
cd...
cingular
complaints,
corpse
e.g.,
envelopes
findings
free!
fuji
glory.
gulf
hamster
his,
immigrant
insults
intuitive.
jaded
martin,
queens
spacey
sunset
temptation
understanding,
vague.
ver
"making
##-15
##..she
##bars
##mm.
##nky
##pin'
##vine
##ón
40's
amusement
calibration
gardens
government,
happiness.
highschool
hoses
maple
marries
motherboard
quotations
ramblings
shania
shown,
stimulate
storyteller
summarize
toaster.
villians
worry,
##3"
##49
##ard.
##ari
##bread
##gain,
##nyway,
##paid
##udio
1987
activated
alley.
apply.
brief.
comment.
courtney
depictions
eloquent
empty,
hissing
melodic,
mission.
orchestra,
overhead
posing
ridiculous!
shaver.
snap.
suck,
tango
terrorism
trimmer.
validity
##ations,
##dian
##died
##lary
##lum
##tail
##tek
(he's
dignity
evaluation
exploded
freud
gigantic
grace,
lead,
licensed
limited,
padding.
punch.
receipt.
scariest
snapping
studs
turbotax
utilized
wine.
##astic
##del
##ge"
##icle
##llan
##makers
##mous
##pointed
(before
autobiographical
believers
birds,
carrey
clouds
corporations
david's
dirt,
lukewarm
pasted
ploy
pool,
r&b;
skip.
starbucks
sweetness
watchable.
##-word
##ense
##nah
##volume
articles.
butterflies
cliche.
early,
foray
gorilla
gums
interpreted
nascar
razors
receive.
reconsider
repair,
song's
tear.
understatement.
wok
##-christian
##-paced
##cam
##con
##dark
##years
10x
allergy
chased
devote
injustice
journalism
laughter.
leak,
leather,
moon"
opposing
post.
with!
"easy
"i've
##..well
##hen
##kers
aboard
about!
acknowledged
all-in-one
conceptual
conform
cranking
directory
game"
hometown
ineffective
ingenious
nobel
rice's
shameless
symphonic
wants.
writes,
yankee
yearning
yes!
"keep
##course
##hf
##lso,
books)
box!
chases
cookies.
corny.
crew.
cursing
differnt
fight,
lure
sail
securing
strainer
unedited
weezer
##cule
##dad
##eting
##field's
##ger.
##iple
##nevertheless,
160
72
anderson's
bookstore,
comedians
comprehension
comprehensive.
creation.
crosses
edition)
eventually.
it.but
japanese,
limiting
offers.
sans
services.
tom's
towel.
##/s
##ann
##edit:
##gging
##ma's
##richard
##ronic
##ta.
artsy
chef's
cliche,
crackers
crowd,
cylinder
etc.i
impatient
losses
mesmerizing
morally
offspring
parent's
recommened
terrified
wig
##-beat
##ah,
##cards
##horn
##ild
##pire
##s.this
allan
building,
campus
cindy
costa
defiantly
familiar.
heroine's
marrying
resembling
securely.
skate
solo.
stevens
taylor's
thing"
users,
"everything
"she's
##gan's
##il,
##inted
##len
##per,
##á
$5.00
bob's
breakthrough
brews
comfort,
creativity,
degree,
depression,
facets
glue.
help!
mellow,
noone
peer
playtex
protection,
psyche
puddle
replaced,
upon.
whey
##"if
##.with
##bug
##racy
5"
6-8
baffled
brady
cheap!
consistent.
displeased
filing
filmmaker
gambling
havn't
include:
individual.
intensive
knots
maze
memories,
nathan
numbered
owner,
quibble
reese
sack
shaves
tolkien's
uneven,
vista,
##-30
##700
##bus
##ve,
album)
born,
clarity,
clothing,
fake,
famous.
floors,
frontier
furniture,
goodwill
hard-earned
haunting,
lowes
mayhem
own!
patty
pink.
predicted
reproductions
sisters,
smokey
unto
warms
##--as
##...what
##blade
##ble"
##dish
##ed)
##lery
##ping,
##tton
37
anonymous
artwork,
beyond.
bugs,
clip,
deliberate
emi
inventory
jfk
leary
map,
meryl
musings
pauses
php
purse.
screeching
shakespeare's
sixty
summarized
##-english
##ay,
##believe
##cable
##ented
##itious
##lates
##lph
##osition
##pable
(instead
almond
analyzing
astonished
better?
confirms
desired,
edges,
founded
fundamentalist
juan
megadeth
merit.
optimal
preston
pure,
reiki
sea,
sentiment
stance
statement.
sticks.
surrounds
vacation,
##-powered
##-winning
##at,
##br
##culating
##icial
##lo,
##vd
ad.
breezy
closed,
echoes
inexperienced
likeable,
met.
researchers
stab
terrain
trackball
verb
##chapter
##ción
##enting
##flash
##pod
bt
canon.
cartoonish
dismay
drake
exceed
flare
fooled.
ha!
ideals
instantly.
jesus'
kidman
millionaire
nicks
odyssey
pen,
regain
resonate
someones
stylish,
suckered
tests,
ths
timer,
vents
"free
##cline
##lk
##nother
##olin
##political
##uke
##vey
1970
2004,
abortion
adventures,
behaviour
chipping
euro
groban
gym,
imagined.
jacob
letter.
novice.
owned,
priceless.
reload
robbed
ruined.
s-video
satin
sweaty
taxi
timed
tint
uncover
well).
"full
##fa
##ford's
##rather
amelia
candy,
coldplay
creep
determining
fixed,
forever!
personnel
physics.
rag
regard.
settling
suggestions.
sutherland
timers
up)
use.i
willy
"every
##..well,
##.com.
##08
##beautiful
##borne
##dition
##early
##ks.
##otic
##sha
##um's
4:3
anamorphic
c.s.
ceased
female,
holden
idea!
improve.
latter.
muffin
neat.
pup
ridden
shaved
shedding
snl
stopper
surprises,
vile
well-done
wonderfull
##children
##eur
##lent
##lished
##ogical
##org
##sync
accompanies
activities,
biased.
coping
disease,
doctrine
emptying
fighting,
illuminate
inexplicably
intimacy
math,
owl
polite
previously,
ranking
remake.
spotted
storm.
uplifting.
worm
"now
##(?)
##bies
##inda
##ite.
##lap
##losing
##lved
##mly
##quest
##shipping
##women
abraham
badly,
degrees,
denied
ditch
elevated
enigma
freaked
hi,
irritating,
landscapes
raunchy
replica
selective
sid
supermarket
wil
wizards
##almost
##ida
##ing's
##ises
##itch
backwards.
bonds
controller,
emerson
hauntingly
middle-aged
parties,
predecessor
recommendations.
review:
roland
stairs.
swords
things:
to)
woods,
zane
"war
##-away
##iser
##nc
##nson
##simple
##ssed
actions,
all;
all?
amazed.
colours
critically
cruising
crummy
definitley
devoured
forgiveness
lesson,
lord,
paced.
pc's
probability
queen.
questionable.
revenge.
stay.
strengthen
unlikable
##action
##jim
##national
##vous
##weed
##wonderful
17th
20,
44
beliefs,
bittersweet
blasting
but.
cheering
dame
eggs.
friendship.
guessing.
happenings
kingston
literate
motions
oneself
pounds,
powers.
praise.
printing,
seiko
snappy
stargate
stinks!
tee
toothpaste
"pop"
##-out.
##head,
##ina,
##modern
##ois
##tons
all).
anymore!
blazing
btw
cash,
cd)
confronted
cosmic
distance,
drag.
eyes"
finger.
forrest
god"
grammar.
havoc
heap
it.)
it...i
lest
liquids
memphis
montgomery
raps
scraping
well-crafted
##-it's
##-wise
##acle
##bob
##lack
##oring
##pton
##total
1983
book),
co-worker
doubles
email,
esp
hobbit
iris
mexico,
opportunity.
organizational
peggy
pile.
promised,
relegated
scotch
seller's
standpoint
storage,
suprisingly
tricks.
wash,
##-color
##by,
##fat
##formation
##hip.
##ifications
##up.
1979
costello
feng
follower
house!
implementing
languages.
lucky.
observe
reasons:
ringo
riot
tasteless
##-if
##ation"
##pressive
##windows
'80s
:d
automated
buster
confront
contributing
crawford
illuminating
losers
mining
opus
servers
sp
tho.
viewpoints
##bs.
##clear
##ft.
##iterate
##phic
##pool
##trained
(out
2012.
advocates
auction
battles,
cd.i
clients.
counts.
great.the
inch.
kidding.
launched
lighting.
old-school
real-world
sebastian
sierra
sockets
solos.
someday.
suspenseful.
underwear
##400
##ece
##rises
##rs"
##ttes
##uda
(first
10+
birth.
capabilities.
cassettes
crack.
crackling
daughters.
decoration
elder
filtering
guns.
homework.
hooks.
hostile
ideal.
outtakes
personalities.
rhetoric
soapy
times)
toes.
##-headed
##count
##imate
##ova
##ver.
52
affair.
apc
cheers
chest.
compaq
cosmetic
dimmer
doubled
dramatic,
environments
exactly.
example)
hose,
mystic
nbc
nin
potent
psi
sheryl
stunningly
thirds
topper
vietnamese
##bon
##bridge
##id.
##jah
##limatic
##lts
##nap
130
39
abba
advance.
def.
differs
dollar.
enthusiast.
equipped
foundations
harder.
harmless
illogical
jade
luis
mimic
one!!
oprah's
put.
roomy
undeniably
usps
varieties
"old"
##ami
##bber
##feed
##gave
##gressive
##mel
##nders
##ordered
1978
ancestors
bestseller
cd/dvd
disjointed.
emerge
excited,
falsely
feared
glide
hikes
hilariously
jagged
joanna
knees.
leader.
lp's
melanie
memorized
plane,
programmable
reprinted
returns.
shouting
sparkling
strapped
transcend
venus
##.then
##dear
##ended
##id,
##ipe
##joy
##ought
##z"
$400
***
[the
aliens,
blank.
contents,
destiny's
dish.
disposal
elliott
empathize
everybody.
impossible,
medium,
metric
name)
new!
nimh
nutshell,
operatic
ordinary.
phenomenal.
pitfalls
quantities
sane
silliness
stations,
teachers.
vapid
whomever
wit.
##.99.
##brian
##certainly
##conscious
##left
##nda
##ond
$50.
1200
alike,
awkwardly
awsome.
better.the
embarrassment
fluent
grainy,
hat,
incompetent
mis
paragraph.
public,
scope.
shipping!
shockingly
simulation
starts.
strive
subpar
tacked
trips,
viewing,
vocally
"king
##02
##09
##cuz
##flicted
##fx
##gy.
##tacle
##tial
bowling
bra.
chocolate.
conflict,
enthusiasts
envy
fue
hugo
isaac
listens,
night!
overdone.
remembered.
sitting,
sniper
teas
titanium
trite.
valuable.
watches.
##....it
##by's
##cer
##color
##ifiable
##interested
##ology.
##putting
##sure,
##tock
(rather
assassination
christmas"
closely.
continual
doyle
dynasty
foot,
functioned
ins
inspired.
joni
messenger
orchestration
overnight.
paris.
response,
sloppy.
surfaces.
turkey.
##-great
##-out,
##-price
##chris
##ons,
##wheel
(new
1-3
alkaline
backstory
carrier.
dec.
deceased
dion
establishing
far!
grip,
hepburn
illustrator
imho
marketplace
medicine.
pleasure,
poe
reception,
routine,
roxio
spa
templates
tent.
tracks:
tricked
underworld
verbose
wiccan
wisdom,
"give
##,it
##--is
##boarding
##sight
1-star
12v
collars
crave
earns
evanovich
even,
isbn
narrator's
needlessly
nuts,
rehashing
riffs.
transaction.
widescreen.
##/o
##dicate
##fortable
##gged
##ing'
##la's
##rom
##x's
benefit.
camcorder.
capacity,
cultures.
detergent
doll,
fryer
glare
illness.
inspiration,
japanese.
kvm
lan
midi
ramble
rectangular
story.the
stylistic
suddenly,
surprised,
too...
unexplained
wavy
wretched
##-moving
##?".
##dote
##ff,
##function
##rwood
##well.
70s.
again!!
decades,
deceiving.
destroyed.
dmb
first-person
founder
freshness
grilled
hop,
illustrated.
imagining
james,
javascript
misspelled
on)
outdoors.
photographers
reservation
stresses
suit.
temporarily
wait!
woo
##-7
##-b
##-cut
##base
##igible
##imus
##lip
##mike
##murder
##order
##r!
advertisements
attitude,
babe
behold
dessert
easy-to-read
fingers,
injury,
kinsey
prophet
ramones
sequels.
shut.
sox
stake
synthesizer
thighs
vampires,
##-face
##-head
##-wise,
##.....i
##built
##er'
##head.
##inator
##keeping
##litz
##ops
##sh.
##voice
##wd
canal
concentrating
disassemble
duty,
favourites
filler,
flamenco
here...
hostage
logically
manipulative
seductive
songwriters
uninspired,
valentine's
"wild
##h?
##lex
##ons.
##ty"
##ulture
##urney
1982
2007,
7"
accessible.
animal.
apocalyptic
attack,
clue.
coz
cues
diagnosis
engagement
hastily
hatchet
implemented
incredible!
indicative
insects
ipaq
lookout
louisiana
melodrama
out).
presto
somewhat.
struggle.
teens,
##--especially
##ando
##inable
##itarian
##jure
##ller
##ng.
##suing
007
and...
blurry.
burden
city"
clutch
consumption
diablo
divide
dwell
exams.
flatware
flop.
imply
intended)
miniseries
mistress
nailed
nos
pricey.
pumpkins
round,
sacrificed
steely
subtly
to?
uncertain
whos
##:00
##english
##ess,
##iary
##nin
##osa
##smith
##steve
adjustable.
apartment,
apex
cancellation
conflicting
doesn't,
drawings,
efficient.
freight
generations.
hands-on
jose
marketing.
moore,
narratives
neat,
off"
offbeat
pivot
pivotal
powershot
presidents
societies
stones,
telescope
tip.
work.the
##...)
##ados
##cation
##house,
afterwards,
bronze
common.
conviction
course).
draining
haul
heinlein
lasts.
metallica,
nu
oriental
persian
rigorous
routing
stars).
stern
##ani
##building
##esque
##hoot
##ishes
##nts.
##oids
##quire
##te's
80s,
advent
drone
duped
evolution.
fighting.
forms.
grill,
loud!
nissan
olympic
patton
populated
prolonged
rangers
route.
share.
toast.
tragedy,
##-speed
##ch"
##listed
##ro.
##tempo
##uh
##vier
##washing
allen's
avenue
baby!
baldwin
binding.
bombing
charisma
cumbersome.
deemed
dishonest
gardner
guides,
heavy-handed
it.it's
know"
locations,
nephew.
ofthe
pt
recharging
seasoning
sink,
stumbles
tastes,
yawn.
##lick
##mile
##pect
##pound
##sale
##tzy
amidst
arts.
award.
delicious,
doors,
dropped.
elected
ending!
gifts,
kelly's
kristen
lows
magazines.
me."
occasionally.
one-sided
peers
poems.
relevant.
respectful
ridge
scanner.
shoved
subscription.
trailer,
treatment,
utilizing
washers
waste,
wry
##(like
##42
##dead
##liest
##nging
##ot.
adjectives
bulbs.
butter,
claims,
elf
enlighten
excruciating
fonda
iam
identity.
killed,
ll
mp
parents'
pioneers
prospect
sluggish
spoilers
stands,
sullivan
unravel
##"a
##-month-old
##-through
##dy.
##ings.
##ke.
##lists
##ro's
adept
again.the
cancer,
commercially
forwarding
hiring
it'
leds
positions.
retailers
right-wing
sap
sarcasm
snow.
structural
surpass
tackles
truck,
weeds
wilder
##":
##ash
##model
##ples
##rel
##rier
##step
##tw
##ut,
5/5
age"
boat,
charactors
chore.
cliches.
criticized
crumbs
evening,
goals.
guardian
imagine,
insights,
jodi
kent
maxwell
mba
painting.
quilts
recounts
replacements.
sanity
separating
sharks
shredding
stripping
uniformly
wrenching
##..to
##ams
##ark
##ease
##ers'
##ff.
##original
##rade
##sted
brain,
decorate
dismissed
floats
greatness.
grizzly
newspapers
owners.
porque
psychologist
said:
shifted
sign.
sirius
spinner
streak
sunk
total.
tours
tub,
##i)
##in't
##istic,
##ordinate
##ping.
authoritative
chic
concludes
consistant
cos
fits.
flaming
helpless
institute
jack's
jonas
matchbox
metro
nails,
policy,
sacrifices
scarlet
topped
##)if
##)it
##*,
##-play
##ables
##izing.
1977
ability,
addictive.
alternating
blindly
cc
container,
harry's
jam,
joyful
kindly
latino
lighter,
newcomers
payment
plate,
plug,
product...
ps2,
shopping.
spitting
stakes
suicide.
williams'
x.
"living
##ders
##ging.
##uum
##voking
admirer
amps
anyway)
basil
behind-the-scenes
bouncer
cuando
dialect
disguise
greece
guiding
libraries
like?
lord.
performed.
provides.
repertoire
seamless
squeezing
suggests,
vacuums
wedding,
work;
##cating
##dra
##mr
##ning.
##tell
##y",
##yne
1968
allies
biased,
caution.
choppy,
classmates
cleaners
clips,
components.
directed,
dizzy
handling.
laughably
pick.
rancid
scratches,
tarantino
tops.
venice
vinyl,
you:
yuck!
##-100
##-country
##ached
##garden
##itating
##logy,
##rle
30+
around!
bill,
bodum
circumstances,
drab
feat.
fees
good?
greatest,
guinea
interference.
murdering
mythical
needles
night's
operator
origional
overkill
pixels
popcorn.
raven
read.the
secrets,
sence
seuss
shooting.
tractor
underdeveloped
##21
##cratic
##dn
##hall
##rait
##vated
##wise,
##zel
affordable.
airplay
atari
bead
boyz
camper
celebrated
cheezy
chips.
climactic
confined
dat
discern
do"
earth's
extraneous
feedback.
je
kettle.
mask.
opponent
rabbits
ray,
seats.
server.
shock.
sleazy
spacing
specials
tester
tray,
wondering,
work...
yard,
you)
"play
##.maybe
##bbled
##bs,
##dic
##graphed
##someone
14,
arise
bedroom,
contradicts
cooler.
empire.
forgiving
hood.
kool
letter,
repairing
shirt,
shortest
slash
##-home
##ki,
##lities
##pies
##rably
##rrow
##trip
##u"
1/8"
achieves
awake.
babylon
bind
bing
brooding
cartridge,
cowboys
creme
cursor
directing,
discoveries
exploit
generous.
light"
menu,
minutes)
off.i
presence.
projected
protectors
road"
rosemary
sunbeam
truly,
##'e
##book,
##claim
##dancing
##hair
##iti
##post
##resses
##street
1976
accidents
ambiguous
autism
climax,
combo.
disappeared.
diseases
dm
german,
mortar
motley
ownership
sofa
tasks.
white's
"el
##.overall
##code
##cope
##miss
##mong
banged
barbra
blast.
bros
buildup
discussed.
drastic
explanations,
fonts
glean
guide"
hippie
mack
mhz
money.i
passages.
playlist
rosie
rule,
tweaking
viewers.
waste!
winters
##harry
##ile,
##iz
##lace
##nsing
##rganized
##to's
$20.00
bathing
conditioning
entertains
erratic
fierce
frances
hail
hinted
imax
index,
jeans.
lock,
meanwhile
nice!
profits
spreads
##97
##ause
##cluded
##iated
##oral
##seriously,
##xide
$10.00
1969
accuracy,
amos
answered.
autumn
dangling
discontinued.
diy
enthralling
gentle,
haired
minimalist
ni
oatmeal
paint,
pas
place!
protestant
reba
reissued
separates
styx
that.the
toasted
whale
##/pop
##anna
##ety
##gina
##mma
##ritter
##rky
...this
allison
astrology
brandon
bubblegum
camp,
chunky
complements
connector.
contractor
convicted
designs,
elusive
heroes,
heroin
hopes.
illustrating
inches,
integrate
lump
md
problem!
resent
reservations
returning.
theses
this"
transcends
trap.
unconventional
wally
##-they
##_.
##eze
##fits
##kid
##mental
##rst
##spoiler
##w"
basicly
chicken,
cutesy
der
deserved.
disrespect
freshly
jolie
ninth
outlaw
plain,
powering
rebuild
seamlessly
soap,
summers
tasty.
tibetan
tripe.
tube,
tull
unnatural
wild,
winners
wrinkle
"can
"right
##overall:
##rchy
##rture
##vating
(which,
16th
album:
ati
compartment.
hurry.
hymns
imo,
instruction,
interviewing
legend,
manners
mirror,
operas
peach
psychology,
turmoil
user's
using,
whipped
who'd
##..at
##..when
##amine
##ato
##ce"
##ed!
##founded
##gio
##hun
##review
15%
a/v
dates,
deck,
forth,
grotesque
heroes.
instructor,
korea
reusable
scarlett
seminar
wesley
##-changing
##cier
##cross
##iter
##ke's
##olation
##rics
##ue,
2.4
armband
beater
carbs
dragonlance
extensions
fasten
justification
positives
remover
rugs
scandal
specialist
tuesday
vocabulary,
weights.
##...no
##ee.
##posing
##tails
##titled
##tt's
$9.99
annoying!
bent,
bugged
chocolate,
crazy!
differences.
eating.
farm.
gist
informational
liver
metaphysical
mock
movie!!
narration.
out;
philosophies
renee
routinely
satirical
scant
systematic
tempos
this!!!
versed
"another
##-light
##.other
##along
##day,
##glo
##lbs.
##mac
##nch
##ttered
##wrong
90s.
_the
abrasive
amateurish.
astounded
cox
democracy
distances
engages
familiar,
gerard
gm
goodies
life.i
member.
nonstop
quits
safety.
slack
snow,
starship
sun"
take,
trusty
uk,
would-be
"long
##63
##clusive
##io,
##ium.
##lance
##pling
##professional
##tu
##um"
##us'
asked.
assembly,
blocks.
coaches
distilled
earth"
fast-paced,
grooming
imho.
labels.
logic,
outlandish
point:
shane
spool
stems
sultry
vague,
vivid,
words:
##-ring
##..).
##b)
##critical
##ddy
##flex
##rd.
##tized
##truly
ask,
attracts
carson
cheep
dmx
gerald
graduation
grass.
gripping,
homer
ireland.
juices
literally.
long-winded
mapping
mosquito
mp3's
orphan
predictions
ranked
rants
theories.
there...
volumes,
"getting
##-priced
##ao
##da's
##dale
##et's
##ine"
##law
##wrote
(their
1981
90's,
activation
appear.
argues
cognitive
corrections
detectives
downstairs
expert.
hog
journeys
lara
lethal
painful,
promising,
sitcom
visitors
wheels,
##!!!!!!!!!!!
##dging
##formance
##gler
##ired
##nst
##reak
##trying
##tte,
##ultimate
96
ago)
cameos
citrus
damage,
delving
distinguished
dudes
feeders
garage,
it.my
itunes.
moved.
organization,
pistols
recomiendo
revealed.
rudimentary
shorter,
staged
tricks,
ultraviolet
unattractive
##!!!i
##ading
##esn't
accomplishment
barker
battles.
booklet.
chicago.
commercial.
epitome
excelente
flags
floral
gas.
lower.
optics
outrageously
phrases.
polly
reports.
republicans
restricted
sata
se,
sisters.
successful,
term.
unlistenable.
worlds.
##christian
##cite
##cludes
##grade
##isa
##me,
##ooo
##problem
##rde
##urt
action-packed
bernstein
brett
confuses
crazed
credentials
distorted.
enamel
ep.
extending
failure,
feeble
filth
hours!
influence.
interface,
joss
kidnapping
lore
nes
nonfiction
opponents
partner,
pillow,
pity.
river.
sentence,
sequence,
suggests.
valentine
##-tech
##03
##04
##^
##bian
##nni
##ssy
(played
60's,
adorable,
alarm,
ar
based.
boss,
comp
confidence.
copies,
courtesy
danced
favor.
firm,
gimme
hook,
insecure
khan
leader,
legally
lousy.
moron
nd
particulary
protest
stride
subs
surprising,
unfolding
virtues
##-11
##.although
##62
##ander
##aux
##ca,
##ds.
##rth
##tely,
##usion
calvin
can!
canada,
chicago,
coincidence
curious,
eclipse
endurance
exiting
fab
fitzgerald
funky,
glitter
goods.
jogging
kanye
lighter.
mat,
mesmerized
misfits
movie"
path,
portrayed.
sidekick
steadily
streep
well-developed
##..like
##beyond
##cie
##eers
##family
##fication
##tts
##ulator
##weet
##yone
12th
2002,
adjust.
automotive
availability
canyon
compatable
cools
darling
drywall
gritty,
hazard.
hp.
intending
lather
neighbor's
neurotic
pink,
practitioner
purchasing,
ratchet
retract
rowenta
slaughter
that"
wikipedia
x-files
##2000
##41
##ads
##arious
##fect
##hu
##lu
##vise
(can't
adjustment.
animations
axis
baskets
begged
bib
blue"
channels,
compile
east.
evidence,
giver
impeccable
originality,
peices
perfectly!
pleasures
refreshing,
savor
springsteen
stadium
stronger,
unpacked
updated.
venue
vibrate
##clean
##rb
##sorry,
##t'
##tore
##truction
cleanser
contrary,
dissapointed,
doses
effortlessly
evidenced
hug
latex
making,
mx
overbearing
pads,
passed.
people?
plants,
proposed
refusing
saws
shabby
socialist
sparked
surprise!
washable
##ee,
##er".
##mo.
##oto
##placed
##possibly
##to.
arm,
between,
discard
disorganized
espionage
invent
ivory
jumper
junkie
membership
meyer
monte
nada
objectives
overwhelmingly
powerfully
preset
snakes
sports,
thugs
um,
walkman
"turn
##/video
##50.
##afe
##ell's
##friends
##h)
##ices
##illo
##rolling
##won't
(6
(under
),
amazons
arrange
cliches,
contact.
correction
cryptic
deja
detected
dio
end?
farewell
fraud
imho,
mermaid
navigating
pinched
pixel
prison.
prologue
revolution,
russians
shoulder.
songs?
tae
tweak
"see
##-part
##enjoy!
##ious"
##out,
##pie
##tales
(its
alley
assassin
backup.
bedside
biggie
coincidences
collar.
decks
did)
differing
dramas
exhibits
fathom
gems.
ironically
jbl
luster
nat
pawn
physician
repackaged
ripper
river,
stereotypes.
travolta
va
wallet.
"by
"three
##lable
##rina
##xp
ambition
amplified
beatles.
cheats
dbz
defies
epilogue
garden,
hardware,
intelligently
mold.
musica
phish
portability
schedule.
sealing
spec
##ides
##ming.
##rd,
##sche
(and,
2006,
360.
afternoon,
b,
countryside
danger.
enlightenment
explanation,
flawed,
hedge
kernels
newton
overuse
pants,
plywood
poorer
professionals.
recieving
requirements.
sippy
smoothie
squeaky
survives
yuck.
##9.00
##an"
##cus
##ept
##female
##istant
##ne"
##oc
##ore.
##tex
##yd
aren't.
atlantis
confederate
congratulations
disapointing.
explaination
farberware
fiona
flyer
haynes
languages,
leave.
magazines,
minimal.
nuance
occupy
prenatal
product;
samples.
strategy,
theirs.
tribes
"into
##-action
##cott
##dering
##ington
##j's
##pix
##reviewed
australia,
barley
be:
connect.
critters
deceived
does'nt
greene
inkjet
is).
jewels
lds
nixon
obama
phrases,
thematic
translating
unsympathetic
well)
"after
##all,
##esis
##lane
##rmed
##tive.
balanced,
bald
beans.
convention
defensive
directed.
disadvantage
donating
elevate
employ
fancy,
faye
firm.
fittings
hateful
hunted
nature's
overproduced
secrets.
skewed
so)
swapped
teapot
trash!
vietnam.
watery
welded
wwii,
##-story
##grow
##ham's
##mo,
##none
##nts,
##oly
##rty
##titude
##vant
##viated
$20,
accomplishes
churning
cite
common,
dangerously
disgusting,
love".
marching
mug.
regularly,
screw.
statue
swamp
turtles
update:
##&m
##61
##ared
##athing
##ensitive
##gage
##gia
##specially
##t!
##unct
bernie
cans.
chorus.
dilemma
dogg
grainy.
holland
mornings
paws
plow
shea
straining
vonnegut
"super
"walk
##cil
##current
##ensive
##izable
##nched
##ring.
##shes
1998.
2-disc
assign
boards.
contradict
dolls,
donnie
enemies.
generic,
grandson,
hop.
jacket,
mentor
music...
myself!
nephews
recipe,
responds
robe
self-serving
stacking
tripod.
vatican
##--he
##cive
##ds,
##ef
##hammer
##quick
##ual"
##usb
##wo
15.
1930's
breathtaking.
caption
characterization,
claus
doubtful
enticing
entirety.
familar
hace
hooked!
layout,
learning,
load,
missy
nerd
paul,
proudly
psych
realism.
rediculous
rem
stiller
symbolic
ticked
transfer,
welsh
wrestlers
yea,
##)in
##.buy
##ends
##games
##lump
##rized
30,
4.0
5%
adrenaline
balanced.
beverage
bizarre,
bottled
calibrate
cloth.
communities
daunting
demonic
endings.
flights
frayed
heavy-duty
hid
hitler's
hoot
indy
infected
jasmine
laurel
literally,
max,
peanuts
preacher
printed.
prof.
ram,
ringer
rubbermaid
sloppy,
stable,
styrofoam
thou
unlucky
unsafe
unsatisfactory
yahoo
"up
##).it
##,a
##`t
##bbed
##bow
##director
##metal
##mission
##writers
althought
bank.
capability.
contempt
courses.
darkness.
decor
definatley
drinking,
elm
etc),
explode
fantasia
ferrell
inflatable
intellect
kentucky
leftover
marion
mary,
mercedes
muppet
notch,
obligatory
opened,
pleasurable
prisoners
producer,
ps3.
punching
removed,
tao
targus
unopened
vienna
vision,
##-200
##nge
##ore,
##over,
##tention
##uates
##up,
##volved
##whatever
abysmal
ana
anecdotes,
aspect,
bias.
bossa
c'mon,
courage,
dinner,
dummy
fleming
grandaughter
itching
jenkins
keaton
lee.
parker's
quilting
sanders
speaking.
straightener
torture.
"nothing
"thank
##ary,
##ians.
##ney's
##ps:
##ski
(!)
authentic.
butt.
curry
defy
digestive
distracting,
disturb
fluff,
fragrance.
generates
hesitation
inconsistent.
lionel
lions
margins
mayor
na
novel!
omar
painter
prices,
reinstalled
smoke.
sonata
steele
vehicles.
"ok"
"return
##$$
##....this
##erson
##keeper
##tender
##ulations
##von
$.
buffett
bury
cloudy
diminish
execute
forewarned
formation
khz
ludlum
male,
mates
player's
preference.
snowy
tess
tradition,
"music"
##ali
##been
##glad
##lowing
##oiled
##religious
##ringing
##vate
airsoft
allied
dimensional.
errata
freestyle
glam
healing.
home!
journal.
kubrick
lbs,
novice,
ok...
presents.
pyrex
recounting
secretary
singular
smoothly,
stoned
story:
suggested.
surroundings
thursday
troubling
user-friendly
##(s).
##-heavy
##fair
##ologists
##shi
##ulled
##uo
25th
4x
are!
bullock
captivate
cart.
choppy.
district
friendships
fringe
meditations
music's
onkyo
producto
promptly,
rape,
repetative
sage
sexist
show"
smelly
tread
unhealthy
unheard
up.the
wahl
yorker
##-used
##informed
##lbum
##phobic
##raged
##uished
'70s
's
(once
burned.
chemistry,
christians.
darned
deceiving
flakes
folk,
goin
immune
more.i
opener,
outweigh
partner.
remedies
riveted
snapshot
solo,
subscribed
two-thirds
x-mas
"hero"
##-colored
##47
##ban
##creating
##ford,
##lage
##ng,
##zon
chairs.
confessions
drink,
droning
higher,
investigative
johnson,
motors
nonsense,
qualifies
relax.
scripted
slider
sorting
stumbling
t-mobile
texas,
try!
##-movie
##..great
##aneous
##ful"
##ging,
##length
##pathic
##rar
##sonic
##tree
##í
$5.
'how
all-around
believeable
bikes.
burroughs
cattle
emulate
extent,
kindness
lowering
mary's
operation,
powder.
prime,
principles.
privilege
reccomended
reluctantly
repeat.
reproduce
says:
scrabble
shears
shrunk
skillful
spongebob
tremendously.
uncanny
unhappy.
weapons.
whiney
##(in
##extra
##felt
##gical
##x"
2-4
abound
add-on
alternative,
antenna,
architect
choose.
dazzling
decade,
depressed.
eleanor
female.
horrid.
indispensable
o.k.,
salesman
trevor
tripping
warns
waterpik
wordy,
worked!
"feel"
"our
##ction"
##ete
##igent
##ter"
##time,
##tive,
5000
anakin
apple's
bollywood
certificate
cobra
comics,
concern.
correcting
couple,
days)
factor,
howard's
juliet
lords
next!
portfolio
provoking,
rinsed
skeleton
slide.
spinal
spotty
straightforward,
sway
teller
woodworking
you,"
##hane
##ike
##nuff
##oded
##plot
##sea
##ulation.
##vor
78
bathroom,
captive
cleansing
cloths
continues.
customers,
dakota
dangerous,
fully.
hanson
heaters
honored
iconic
iz
meantime
menace
meticulous
multimedia
orignal
overplayed
pos
possession
provided,
scars
sermon
superficial,
this).
"facts"
##-audio
##-wing
##38
##cue
##lified
##lin's
##rad
##stead
##wow
1973
author!
band!
becky
coasters
comics.
completists
curiosity.
day)
dwarf
embarassing
extent.
fridge.
gloomy
groove.
guitarist,
highly,
knock-off
listeners.
murky
nieces
notices
onions
plans.
president,
product!!
redeemed
todos
waist.
##'?
##--to
##berg's
##isha
##ka,
##ning,
##plant
##shadow
##ything
1972
1975
adjusts
angles.
bear,
christ's
dd
er
essays,
explicitly
family!
fyi
glory,
intermittently
lettering
mann
meats
on.the
orientation
paperwork
patriotic
paw
penny!
raging
reeks
rpm
sassy
showcased
smile,
sport.
suspect.
tepid
victims.
voice!
volunteer
wrestlemania
##"and
##-writing
##cca
##ceptive
##grating
##hell
##ilated
##ilizer
##mastered
##mus
all-star
atrocities
biking
brag
camps
capitalism
collapsed
convincingly
cottage
count,
dispute
epic.
flowers,
mess!
monitoring
now).
nsync
odors
presume
produce.
rush,
sibling
suggestions,
talentless
viet
"f"
##-ounce
##cies.
##ciously
##illy
##lerant
##uf
##uis
8.5
anyway).
assembled.
baron
beans,
build.
campaign.
crosby
documentation.
ecstatic
fanny
felt,
graphically
keychain
ladies,
limit.
percy
powers,
reinforces
rejects
sickening
sprint
tattoo
twins.
winner,
winnie
##e:
##graphy.
##ot,
##ounce
'what
3d.
beware:
ceo
counseling
cycle,
detachable
eternity
evan
everytime.
excite
expectation.
halves
identifies
leonardo
mayer
nowadays,
occasions,
panther
pvc
reasonable,
richards
sincerity
swallowed
thay
tidy
topical
walking,
##ary.
##coat
##ff's
##ged.
##hon
##moral
##pay
##ryl
##uds
15"
3.0
allegedly
aqua
awakening
belonged
birth,
box"
ceiling.
clad
computer's
efficiently
engineering.
entertained,
equation
fail,
freakin
girls"
hello,
hispanic
impacted
instrument,
likable.
lovecraft
metallica's
musically.
piles
product?
tara
yellow.
"born
##,this
##audio
##do.
##itized
##om.
##oms
##tum
bret
bunn
cartoons,
chronology
cinematography.
dough.
emptied
fame,
forwarded
intentional
lacie
lazy,
loves.
meanders
overlooked.
packed.
proofs
quotes,
rent,
rhythm,
roomba
sticky.
story...
tainted
##--for
##-going
##20.
##bor
##fort
##nuts
##plifies
##resting
##secondly,
##tructed
(can
all!!
beacuse
cake,
cheesey
fiery
fl
garland
generals
gi
intensity.
leakage
mature,
me,"
nash
omits
parrot
rollins
rubbery
shells
spine.
sports.
valves
"home
##--there
##..one
##ery,
##fu
##lbert
##pine
##quential
##tended
##tions.
##trap
1/8
4gb
accurately.
behold,
brightly
carton
convection
dense,
dungeon
edits
fabulous!
give.
grieving
height,
inviting
kirby
layed
masculine
miranda
modification
monsters.
ones)
palace
panasonic.
rare,
rc
ruler
seasonal
shreds
sonicare
stones.
uplifting,
vaughn
verve
##39
##dles
##ela
##ham,
##history
##liant
##lio
##plex
##pre
##rude
##special
(ie.
aux
banner
bumping
cathy
daycare
earnest
facinating
household.
is;
juicing
leaves.
magnification
midwest
pamela
play!
plug-in
posed
quintessential
quiz
rampant
read...
samples,
satisfied,
sentiments
songwriting,
though:
violet
zone.
##'em
##..with
##ently
##kinda
##urse
1999,
accomplishments
approve
assisted
breeding
cap,
choruses
coke
drawn,
essentially,
for:
gf
honorable
immigrants
incessant
interludes
intrigue.
loaves
mae
matters,
mockery
monotonous.
myself)
overlap
portrayals
renowned
rollercoaster
romero
slower,
soup,
soup.
streisand
techno,
##(it
##ahn
##ctors
##der,
##ess.
##ny,
##pg
##sic
##vasive
'in
cherished
confrontation
cookies,
crew,
energizer
exactly,
executives
fragile,
killings
legion
loving,
mainstream.
millenium
payoff
proficient
rang
referencing
shorten
temperature,
terrier
texture,
trail.
trust.
"open
##-wrenching
##85
##gae
##ift
##liner
##vering
##wald
acclaim
army,
backround
bones.
books?
caffeine
carafe.
creations
crisp.
desirable
dryer,
engineer,
housing.
humid
imagery,
iraq.
lavish
lenses,
nike
researcher
ridley
rockin
scents
secret,
selfish,
shaping
thee
uniqueness
usher
##-dimensional
##-outs
##hots
##my,
##truct
##ze.
before!
buddha
captivating,
category,
chores
complain,
completes
creatures.
deeds
diary.
disorder.
eugene
fanatics
foo
gem,
heath
leverage
misrepresented
occur.
profound.
psychology.
rare.
recognition.
senator
size:
sky,
stallone
swallow.
tabloid
tang
tires.
yellow,
##"-
##)2.
##-box
##-foot
##ately
##ema
##fix
##ings,
##mount
##nia.
##sen's
##sional
##taste
##torial
##tte.
##ur's
##ve"
##vre
##ware,
8-10
???
adaptations
altogether,
archive
arrive,
artemis
behind,
bush,
consistently.
countries,
delightful,
documents.
eden
flannel
girls'
lingering
major,
mattel
moronic
repairs.
roach
sarah's
seagate
snag
synthesized
theatre,
##-which
##ad.
##bodies
##fing
##please,
##wouldn't
##yon
##zt
alvin
apology
attached,
audiences.
bam
blasted
circuits
committing
cough
denial
finale.
fly,
grater
masses.
pacino
peaked
peppered
scar
shoot.
shrill
sight,
u.
way:
##!my
##&b
##--all
##-buy
##amp
##birth
##heit
##hire
##logy.
##market
##rturing
##wake
additionally
advantage.
archer
completion
crisis.
dance"
differential
e-book
gigs
gloves,
great)
gripping.
mister
murderous
orlando
poses.
processor.
subdued
suicide,
suitcase
tails
teacher's
trial.
truman
vader
welcomed
wisely
yeah.
"top
"world
##.well
##different
##hip,
##hips
##tories
amp.
angles,
be)
caine
calculate
christmas!
corrected.
curves
dictionaries
everybody's
forms,
hardened
hopping
improvement,
inexplicable
liar
librarian
likewise
listenable.
medicine,
mutant
npr
overused
pentium
pets.
preach
puffy
rife
saudi
sensor.
socks,
songwriting.
soups
stinker.
there.i
time),
vibrations
wanting.
"cool"
"tell
##aled
##fg
##ggie
14.
20's
anytime.
aussie
bordering
crying.
cynthia
decide.
devout
donkey
elegant,
experience!
fitting.
floss
frustration,
italian,
klein
least)
lunch.
mango
mediocrity
miles,
objects.
otis
pans,
pike
protagonist's
pseudo
resets
richie
stars...
stylings
tapestry
thorough.
understood.
unhelpful
vomit
wa
weld
years?
"a"
##lind
##manship
##sad
##science
##tale
##tanding
##uthor
##ves.
5+
accessories,
ask?
backpacking
bins
disorders
file,
hangers
lists.
loop.
misty
monster,
narrow,
passages,
pills.
ps1
puzzling
secondly
slick,
standby
superfluous
than,
unbalanced
up:
zippered
"pretty
##19
##44
##ad,
##co's
##ener
##er",
##killer
##liation
##one,
##ono
##printed
##torical
##wers
(age
1971
97
achievements
biker
bjork
characterized
claude
deeper,
dino
everlasting
individuals.
line-up
massager
meet.
pantera
preposterous
price)
reaction.
required,
satisfying,
schemes
scientifically
skit
vampires.
verbs
vibrates
warrenty
zero,
##ative.
##bc
##between
##gs,
##lave
##living
##mer's
##plus,
##rons
##scape
##songs
(do
airing
aside.
bad?
best)
blames
boots,
casey
cobain
composer.
enigmatic
extra.
friedman
from?
grade:
highlander
horrendous.
humans,
impending
mar
marketing,
molding
plot?
punched
r&b,
reciever
sky.
somber
staging
suspence
trying,
video's
##%.
##..that's
##a",
##e",
##lob
##pelled
##taining
47
ache
addicting
awarded
bliss
boys'
cried.
diatribe
disney.
earring
flexible,
flexible.
hadn't.
hollywood's
interwoven
iran
mad,
nuff
one-liners
outdone
packed,
pet.
queen's
rattles
refrain
scented
stamps
stewart's
strait
travelled
waiting,
wordy.
##dy"
##holes
##me.
##mixed
##ped.
##sters
##tained
##wear
##za,
1974
aggravating
aims
books;
easy!
edith
first-rate
firth
girly
harris'
heavyweight
here.i
humour,
injuries
john.
justifies
laces
macdonald
minnesota
oklahoma
sacrificing
slew
someplace
stuck,
treasured
versa.
xbox,
##forget
##heets
##imal
##ks,
##neither
##one.
##suming
##tested
##uire
##ze,
(besides
66
actualy
beggining
burn,
casually
cd;
civ
clipping
corelle
death"
drives,
earbuds.
earphones.
erased
exellent
inadvertently
irritates
layout.
lured
macs
memoir,
mount,
saver.
soothing.
succeed.
sydney
undertaker
ups,
##breaking
##ed'
##gned
##grass
##ina.
##skin
##uched
#4
alphabetical
bumbling
burning.
coax
companies,
daniels
dave's
department,
drifting
far)
gleaned
glove.
goat
grail
herman
indulge
instinct
interpreting
lit.
locals
medley
new"
page-turner.
persistent
re-recorded
reads,
retrospect,
reuse
shotgun
slowest
starters
uneducated
vendor,
womens
wrath
"me
##-to
##b"
##conceptions
##elle
##lib
##linda
##nest
##py,
##station
##traditional
(she's
blender,
carr
competitors
darts
definition.
diameter.
excercise
flaking
foam.
gee,
hoped,
jacques
knows?
melts
narcissistic
nyc.
papers.
piercing
piss
price?
retrospective
same!
sausage
say...
sociology
that:
triumphs
twins,
unanswered.
way.i
zealand
##!and
##(as
##28
##ele
##isting
##tic,
##ultural
##vanced
##xual
70s,
??
album.i
archos
back?
bp
cares.
collage
commercials.
dslr
elegance
extraordinary.
farrell
junky
manufactures
memoir.
messages,
patient.
preserved
remade
resource,
restoring
sauce.
scarier
sender
stella
stupidly
succinct
tack
theatres
unfortunatly,
value!
walsh
##cise
##ett's
##ice.
##moon
##own
##talking
##tered
##user
##vet
##wards
apocalypse
archaic
bedtime.
bibs
booth
carpeted
charms
concise.
contradictions
criticism,
diets
directly.
example).
first-hand
harriet
it...but
itrip
joe,
know...
messy,
oates
pre-teen
redone
registration
replete
reviews!
row,
toddlers.
##$.
##chen
##hawk
##ke"
##lan's
##lize
##lson
##p)
##quet
##rations
##sier
##tony
##ulu
46
admission.
balloon
bog
bounced
character)
cleanly
compositions.
costner
durability,
emerges
extreme,
fairies
good).
infrared
pole.
price...
promising.
sanyo
sookie
tease
toggle
unstable.
up).
visible.
warned!
whiny,
worthwhile,
##0"
##age"
##ct.
##cultural
##ews
##ndra
##no.
##sses
##tery
##unes
afraid.
bale
breeds
campaigns
deserted
dialouge
dk
evenings
faulty.
fellowship
film.the
gentlemen
green's
guise
jew
labelled
music;
overpriced,
ranting
recomment
rental,
scripture.
shame!
sneaking
stress.
the,
thermometer.
trashing
tweezers
##-ridden
##aba
##alk
##cht
##gates
##k.a.
##mouse
##raft
##ron,
##similar
##ulty
,the
100.
analogies
arctic
arthurian
benson
censored
condensation
console.
flicks.
garbled
hip-hop,
hiphop
janis
knowledgable
life;
lovingly
lullaby
makings
niece.
prefer.
saul
spring,
stink.
sybex
territory.
wobbles
word:
youtube.
##ence,
##gh,
##iah
##mend
##pted
##rks
##ters.
##title
##urable
(10
america"
brilliant!
burners
carroll
carving
closure.
colony
constitution
contradictory
decorated
distracts
down.i
endorse
filmed.
fleet
g4
geometry
gram
harsh.
ideology
jess
laughed,
learned,
money?
must've
slamming
sound!
species.
standpoint,
tolerable.
ty
vault
viewpoint.
##-to-be
##;s
##aches
##alin
##extremely
##mph
##mund
##stage
##yce
abby
anger.
buff.
circles.
cursed
firefly
gc
herd
kellerman
limitation
lucky,
modem.
nation's
purifier
reconnect
revive
screenwriter
stupid!
theories,
winston
##!a
##)to
##-order
##-x
##brow
##door
##gous
##nking
##odic
##ster,
##tent
##utes
##wolf
address,
bmw
carole
cassie
cd!!
clinic
dosage
editions,
eighteen
elves
eragon
frantic
hoop
hurried
inspect
linking
magnificent.
megan
molds
motor,
numb
orchestrated
overwrought
pattern,
perform.
plotted
racism,
reconditioned
ripoff.
sensibility
sophmore
suspicion
sweat,
throttle
time!!
travelers
unwatchable
ventures
"secret
##-world
##ans,
##cible
##com,
##court
##dy's
##en"
##gant
##ight,
##itt
##mah
##top.
##urning
$[...]
140
calidad
cerebral
circle.
crafting
demented
develop.
distraction.
dynamite
effortless
faucet.
friends!
guard.
harmonies,
hospital,
ie.
inherited
journalistic
muffins
myst
pass,
payne
quake
quentin
rec'd
revise
sophistication
spanning
student's
thing...
tongue-in-cheek
trick,
um
under.
wd
ya,
"power
##-20
##-off.
##/the
##16.
##burgh
##cally
##death
##duct
##finger
##iency
##ification.
##ile.
##ir,
##ky.
##letter
##luck
##rg
##she's
##shop
.it
abundant
advertising,
aid.
altering
bacteria
bravery
clay's
countertop
density
down-to-earth
griffith
harrowing
hassle,
high-school
hound
iii.
incomplete,
inherently
investigator
locker
made-for-tv
mascara
mj
must!
occasion,
perfume.
pj
price.i
rockabilly
sgt.
them),
them.this
treat,
veiled
week!
"going
##aster
##ences
##iced
##joyed
##oli
##regardless
##uish
##zone
$9
(never
asimov
bitterness
book..
c,
carly
cholesterol
circulation
core.
cover!
crapped
dam
debated
demanded
ditto
enemy,
heartbreak
heft
high-tech
honors
kill.
lie,
mention.
military,
periods.
posture
presently
protagonist.
rated.
regulator
rights.
saxophone
scream.
spoils
though).
throat.
victim.
websites.
"other
##..especially
##.so,
##800
##coffee
##dden
##fusion
##graphics
##idge
##king,
##onica
##oud
##rail
##straight
##ules
advertized
anticipation.
athletes
celebrating
clark's
cleveland
coast.
comes.
congress
desktop.
fooling
goodness,
gullible
instincts
institution
interacting
johanna
kyle
lewis,
library!
majestic
movie!!!
notebook.
patience,
screamed
screenplay.
shattering
skill,
somethings
stone's
strands
thrillers,
webb
well-rounded
windshield.
ye
zany
##--one
##1000
##comes
##eering
##favorite
##how.
##ial,
##ians,
##io.
##iva
##rv
##stan
##stated
##tations
##teresting
##tured
##turning
apps
archives
arguments.
asleep,
b/w
burner.
buyers.
ca.
cites
crash,
distorts
dlink
gould
heres
holiday.
houses,
indulgent
intelligent.
political,
promises.
sayings
sprung
straight-forward
tackling
tongs
university,
vibe.
writings,
"perfect
##coustic
##folk
##horror
##lman
##wood.
##yman
(made
20.
ablum
bores
chambers
costume,
deleting
does!
drop.
employs
etc.the
excercises
flight,
foreman
frank,
guests.
incarnation
infants
jackson.
nobody's
peck
provide.
random,
re-issue
relay
righteous
rookie
sticks,
stinker
stitched
strains
sudden,
tis
transmitter.
unintentionally
wether
##-14
##.3.
##basic
##creative
##eds
##gian
##hia
##ract
##ruck
##state
##tart
##thy
##ziness
(did
absorbs
aching
again!!!
approval
batch.
bumpy
characters;
cutest
dealers
disbelief.
dover
excruciatingly
film;
harley
here"
inadequate.
infinity
legacy.
macintosh
manually.
margin
narnia
no-one
notice,
pancake
professor,
revelation.
rite
sheldon
sobre
spyro
teething
tier
traumatic
universally
wardrobe
##-breaking
##aic
##bage
##essing
##ffer
##hands
##k!
##les"
##lied
##mystery
##nning
##q.
##roads
##rol
##tally
aspects,
cartridges,
chimes
christians,
coltrane
corner,
differently,
embarrassing.
george,
grammer
grinder,
harmonic
it!i
narrower
nasty.
panned
paranoia
possesses
prong
rain"
recovered
showcasing
spaces.
thieves
tilted
twisted,
unimportant
vehicle,
vw
want?
williams.
"family
##augh
##ciation
##ecting
##ell,
##encing
##go.
##l)
##mins
##re"
##rming
##train
##uce
##uction
##uff"
1990's
anyway!
arts,
ashamed.
authorities
b-side
britax
curled
davis,
declared
disappointments
goodman
leisure
magnum
mower.
neglect
passport
picnic
preferably
prints.
problem.i
rent.
replaceable
resurrection
starving
stealth
striving
successes
threatens
traders
uninspiring.
##..after
##36
##arding
##cture
##d!
##direct
##dolby
##izing,
##lug
##ogies
##pression
alternatives.
camping.
compromised
cured
dearly
diagrams,
disappointingly
disks,
eco
enjoyed,
enya
ep,
establishment
farce
game...
intended,
jus
leaks,
messiah
phases
ripe
runs.
spawned
squeak
survival.
texts,
visuals,
you!!
##-brand
##ba,
##ball,
##eak
##elf
##fo
##forms
##hcp
##holder
##ib
##ipes
##oper
##raph
##ulder
$10,
16:9
aliens.
angelic
appreciating
beastie
blanket.
brightest
calcium
characters!
charged,
communication.
correspond
danceable
dept.
dispense
fragments
freakin'
frustrations
ill.
intricacies
ion
locating
masquerading
mics
racer
somewhat,
tennessee
ticket.
towels.
weaver
wild.
yoko
"please
##!but
##"t
##-conscious
##-loving
##...or
##cos
##cry
##ilize
##published
##rw
accross
alabama
apple.
callas
charecters
cooled
deodorant
funnier.
gilmour
graphic,
gray.
islam.
nasty,
pockets,
scraped
security,
sleeve.
slightly.
speeds.
substituted
they?
too.the
tragedies
unsuccessful
wrinkled
##-night
##ary"
##bass
##in',
##inantly
##lou
##mobile
##ow,
##rack
##rrell
##tips
##wood's
1:
24/7
6)
apple,
booklet,
closely,
diabetes
dosn't
explain.
fate.
franco
frustrate
grass,
holocaust.
homeschooling
impractical
injury.
investor
jams.
lifestyle,
makers.
one!!!
over"
paragraphs.
pennies
poirot
ponderous
recapture
returned,
rude,
surrender
tables,
wick
zoom,
##"you
##-average
##48
##cience
##fighting
##hang
##iers
##inson
##naked
##om,
##personally
##raying
##recommend
##start
##super
##tracks
##umber
'til
(due
argument.
ashlee
bizarre.
cm
conversations.
darkness,
downey
fritz
glosses
hd-dvd
infused
insulting.
listener,
listens.
milton
muscles.
offensive,
oxygen
passengers
ports.
prejudices
prescribed
schwinn
sept
technical,
vin
vise
way?
years).
you;
##beware
##eus
##ka's
##mable
##purpose
##rone
##strange
##terrible
##tic.
'no
a.m.
agent,
attachments.
behalf
bravo!
clarinet
cropped
curb
erroneous
improved,
isle
kisses
lizard
lover's
mashed
maximize
morse
mph
n.
objects,
off...
operational
output,
overheating
primal
profession.
ram.
rush.
supply,
ten.
tuna
uh,
unclear.
unsatisfied.
vegetables.
"complete
"hold
##!!!!!!!!!!!!
##(with
##--with
##/8
##acause
##cup
##kate
##natural
##nip
##nit
##sco
##soft
##tastic
##tract
##urities
##ync
acts.
affleck
beethoven's
breathless
ceases
cheerful
children!
created,
cushioning
fifa
gail
gauge.
grief.
grills
hayes
heaviest
insignificant
invicta
jordan,
judges
league.
magician
meaningful.
mission,
observing
on).
peaks
pity,
powerpoint
run-of-the-mill
vida
years"
"house
##-ear
##-game
##ador
##compared
##ffy
##ium,
##log
##parted
##travel
220
43
absurdity
authored
cassidy
cease
champ.
cliffhanger
coat.
companions
cracked,
d.c.
dealer.
diapers,
dispose
dream"
dying,
freedom,
future!
gear,
gong
heaven"
historian,
illustrated,
investors
ireland,
likable,
lists,
mix)
offerings.
perceptions
peripheral
peter's
potter,
razor,
recommand
retreat
so-so,
splinter
tempting
terk
western.
whack
whipping
##88
##llon
##male
##ologies
##onia
##topian
##ulls
##uper
##urity
##uy
##winter
16,
abroad
build-up
centuries.
claw
cluttered
configured
darren
db
deftly
flavors.
greeting
grouped
hand-held
humane
imagery.
immersion
it",
men"
minerals
natives
nuanced
ours.
overtones
pellets
photographer,
porno
pretentious.
publication,
repetition.
revolving
rusting
sales,
sasha
spoiling
tapped
typo
vegetables,
"beautiful
##-step
##..now
##gins
##honestly,
##ndi
##oard
##sadly
##silver
##unted
accounts.
ask.
be"
breville
directs
dumps
ebay,
engine,
famous,
favorite!
grandma's
juice,
leaked.
objection
on-screen
polk
prehistoric
recalls
rooms,
shampoo.
slogging
sushi
swears
tech.
term,
uneasy
yu
"better
"did
"john
##".this
##-selling
##/16"
##92
##ball.
##lant
##mage
##oying
##raw
##recording
##rying
##term
##tility
##upe
****
256
all-in-all,
angel.
awards.
bailey
bronson
coaster.
colonel
commercial,
diagrams.
emotional.
espn
exile
fable
fights,
flashlight.
glance,
holistic
humour.
insect
isn't,
judaism
lestat
loser.
love?
none,
penchant
philharmonic
planner
potty.
revisionist
right"
shoulders.
sickness
silver.
soloists
soothing,
symantec
usability
vtech
##!".
##-proof
##.only
##9.95
##abre
##nberg
##tman
afterward.
ahold
allman
aura
bagless
block,
boot,
could'nt
council
depot.
diabetic
dramatic.
drones
evils
giggle
grape
gre
hill's
hrs.
iii,
mean?
mod
moisturizing
northwest
pedantic
peppermint
perry's
restaurants,
sessions,
theology.
thrillers.
uma
unappealing
unusual,
youngsters
"dirty
##back,
##boards
##disk
##ffen
##lis
##nally
##pos
##present
##rays
##te"
##usal
##ves,
##zle
$250
1997.
adoptive
attain
avoided.
borrows
brainless
challenges.
churchill
compulsive
cracker
dress.
dribble
elses
footprint
german.
grandsons
hairy
hunter,
inhabitants
intimidated
it!)
lake.
marriages
military.
music.i
o'brien
roasted
seventeen
shields
splits
threats
tire.
weeks!
wipers
wiser
"heart
"light
##64
##ator,
##characters
##covered
##ctually
##gregor
##husband
##kon
##minated
##pieces
##rill
##ters,
##tian
##took
##utter
black-and-white
carolyn
clerk
colorful.
dane
das
deteriorated
dissolve
eloquently
fifties
flag.
grains
greed,
hacking
immerse
movements,
nvidia
old).
rarity
schools,
shooting,
star!
traction
turning.
unprofessional
"on"
"once
##!!!)
##-rate
##-ray
##?",
##ok.
##uration
(nothing
alto
ardent
ark
banking
calculations
comparative
conrad
conversation,
crass
crayons
diluted
distort
due.
expect?
fine!
grind.
hesitation.
howling
imaginative,
indigo
instance.
inthe
lol!
loosened
pages!
planting
powdered
regime
retrospect
risky
sauces
seinfeld
sings.
story-telling
strategies.
sued
transporting
up;
vaccum
widescreen,
wilson,
"deep
##-range
##dated
##deon
##focus
##ggs
##hollywood
##iffer
##led,
##ollen
##ores
##ow.
##plan
##rained
##rix
##send
##ster's
(thanks
1980's.
advancing
af
ammo
backstage
bond.
breads
case)
characterization.
creatures,
danger,
excels
garment
hammond
hyper
jessie
laminate
missions.
mole
moses
neo
now.i
slime
societal
"true"
##"s
##bre
##computer
##file
##gnition
##ified.
##jane
##mans
##mer.
##mps
##pink
##que,
##rim
##ruction
##ster.
##tating
##teria
$$.
(remember
450
argued
cambridge
clones
court.
curious.
ddr
discerning
distortion.
dividers
east,
emerged
epic,
finaly
frist
grafton
ladies.
leaves,
licorice
logan
neighborhood.
only)
packaged,
panel.
poorly,
rally
religiously
ropes
routines.
satire,
spirituality.
streets.
temper
to:
trike
unreal.
welcome.
wwi
yer
"blood
"green
"young
##..good
##ala
##ck's
##d'
##daughter
##featuring
##ial.
##interesting
##ker's
##loying
##lus
##rass
##shadows
##uses
$15.
6'
:).
associates
billing
bush's
concertos
damme
discourse
electronics,
escapist
fantastically
frontal
judd
laughable,
meditation.
ment
monopoly
must-see
norwegian
nose,
part)
proofread
rand's
rapture
separately,
speech.
strangest
stretch,
string.
suede
teenagers,
treats.
wonderland
"inside
##(for
##.........
##...which
##56
##ais
##cism
##fest.
##gies
##ive"
##llian
##nette
##va,
$90
acrylic
anthropology
asp.net
assertions
backbone
blaze
boss.
bulb,
busy.
cities.
collapses
collections,
complications
conditioner.
degrading
dimensions.
diversion
elaine
envision
everyones
fashionable
generic.
happiness,
hd,
hearts.
heir
here).
invaluable.
invoice
j.k.
leopard
microsoft.
mixer,
nc
patrol
picoult
predecessor,
prelude
readout
sober
sync.
them!!
throne
transportation
watchers
work)
x-box
##ca.
##dell
##hol
##hook
##kward
##mostly
##tance
##tasy
##tend
##tion"
##tyle
15th
1967
allusions
bad;
behavioral
benefits.
bodies.
contrasting
cookware.
criticizing
cruz
cultures,
desire.
directional
florida,
folklore
forgiven
gaiman
gradual
hysterically
immediatly
incorrect,
independently
keyboards,
penelope
poignant,
poo
powerfull
purity
quaint
recived
rubber.
sigh.
smear
song?
though;
untimely
vampire.
water"
you.the
##ar"
##dder
##der's
##der.
##getting
##icularly
##leaving
##ointment
##rr
##ubs
##vr
##zero
alone!
attempt,
attractions
beatles'
belongs.
bibles
chain,
chickens
emits
ernie
fence.
ide
lane.
lord's
loveable
narrator.
pressures
purple.
reruns
retained
rightfully
rousing
seams.
sterile
styled
unsettling
workable
worse!
wrap.
"love"
##'est
##-working
##<
##e".
##fully,
##ite,
##kelly
##lasting
##merce
##nas
##otor
##phs
##su
(according
100%.
1930s
apologies
athlete
baggage
buds.
charaters
critics.
detach
devotes
flicks,
followup
frother
guage
hoops
iriver
maxtor
mechanically
nights,
overview.
prayer.
roosevelt
sappy,
slots.
superior,
suspensful
taylor,
throwaway
unexpected.
"lord
##96
##blood
##dream
##king.
##mical
##nyone
##passing
##pat
##powers
##saw
##uited
$40.
(try
88
ass.
blueprint
cherokee
communism
day.i
defeating
dunno
enormously
genres.
glides
goosebumps
hungarian
light-weight
limitations.
morons
movie).
neighbors.
omit
pits
radically
reliance
remeber
saga,
sandwiches
scarf
sedaris
suspended
swore
tarp
to...
took.
vampire,
wrongly
"get"
##0p
##;t
##athy
##bonus
##etch
##ex.
##how,
##ian's
##ioned
##magine
##midnight
##ress.
##rrect
##shing
##sm.
##tism
'em.
au
bitten
bursts
changing.
clears
consideration.
crichton's
deceptively
disaster,
enamored
fuzzy.
get!
leftist
luna
lynne
member,
memorial
participated
phenomena
plumbing
police,
pyramid
quotation
redesign
rows
shipping)
society's
southwest
tonight,
wayne's
##-60
##-like.
##150
##80's
##ah.
##dave
##erty
##grew
##hank
##knowing
##loom
##lover
##middle
##nent
##nine
##oses
##pical
(being
311
academics
advertisement.
aesthetically
ambrose
angie
auther
cardinal
categorized
dismay,
environmentally
exceptions,
fox,
gate,
grandmother's
handles,
inaccurate,
jolly
last!
lewis'
louder.
menacing
nate
ned
practitioners
scenic
speculative
spray,
vouch
##-hop
##51
##ailed
##bourne
##by.
##light.
##lin.
##o'
##ranny
##sper
##y."
$75
56
bandwagon
barely.
blizzard
bush.
combat.
d&d
deserve.
disastrous
emails.
fanatic,
footsteps
halloween,
hit!
jug
just,
kittens
line"
madeline
misunderstanding
mush
ntsc
printers.
product!!!
relentlessly
rumor
servant
spiders
tungsten
understandable,
wrox
"there's
##-e
##acies
##cant
##comparable
##cream
##iginal
##psy
##sa,
##selling
##sr
##turing
9"
chopin
do).
dragon,
economy.
gray,
iggy
incest
kiddie
knew,
levi's
linger
meds
occupation
packs.
pilot,
pimp
riding.
romans
settles
shocked.
shorts.
soothe
sounding,
storms
unit's
winner!
witch,
"heavy
"these
##-z
##...very
##99,
##actually
##givable
##gure
##rete
##rought
##rt"
##yla
18"
baseball.
based,
chlorine
church's
cusack
eachother
exposed.
ez
faces,
fad
floyd,
gibson's
hardcover.
homes.
intro,
irrational
life",
meticulously
miscast
obnoxious.
plods
proof,
prostitute
rabbi
raw.
reminders
review!
rinsing
she,
shopping,
simplify
storm,
substantive
thinkers
ticks
violent.
vocalist,
world?
"book
##(my
##--at
##de"
##eit
##grapher
##hoe
##ide,
##lous
##pting
##scott
##sle
##vade
##void
1995.
accessible,
alleviate
anchors
band"
bruce's
crippled
dials
digital.
dj's
downloadable
downside,
esther
fedex
foundation.
furthermore
graceful
graphical
hawaii.
huge!
incident.
intuition
litter.
maurice
pleased,
random.
reason:
revolve
ribs
seriousness
short:
sociological
something!
steve's
suggested,
troublesome
years.i
"sex
##ating,
##came
##camp
##cist
##common
##cription
##design
##g)
##omer
##omination
##orne
##pe,
##raved
(there's
17,
240
addiction.
afi
boris
brahms
comedies,
crochet
fillers
florence
frank's
gravel
gus
impaired
installments
insure
java,
kill,
kite
leppard
littered
manager,
meditative
nation,
nite
nov
ocean.
overtly
prison,
probable
receivers
shelling
steinbeck
throwback
tome.
toughest
transforms
well..
worthy.
"original"
"summer
##-view
##.thank
##70's
##athic
##hrs
##lution
[...]
