<unk>
<cls>
<sep>
!
"
#
$
%
&
'
(
)
*
+
,
-
.
/
0
1
2
3
4
5
6
7
8
9
:
;
<
=
>
?
@
[
\
]
^
_
`
a
b
c
d
e
f
g
h
i
j
k
l
m
n
o
p
q
r
s
t
u
v
w
x
y
z
{
|
}
~
¡
£
¦
©
¯
°
´
·
ß
á
æ
ç
è
é
í
ï
ñ
ò
ó
ø
ú
ā
ē
ī
ı
ň
ǝ
ɐ
ə
ɡ
ɪ
ɹ
ʌ
ʍ
ʖ
ˈ
̶
͜
͡
δ
ω
я
‍
–
—
‘
’
“
”
„
•
…
‪
‽
€
™
√
≠
▫
☁
☆
☕
☝
☹
☺
♀
♂
♡
♥
♪
♫
⚔
⚡
⚰
⛏
✊
✌
✔
✨
❄
❣
❤
⠀
⠁
⠃
⠄
⠇
⠈
⠉
⠊
⠋
⠏
⠓
⠘
⠙
⠚
⠛
⠞
⠟
⠢
⠦
⠫
⠳
⠴
⠶
⠸
⠹
⠻
⠾
⠿
⡀
⡄
⡆
⡇
⡏
⡜
⡟
⡶
⡷
⡼
⡾
⡿
⢀
⢠
⢣
⢤
⢧
⢰
⢸
⢹
⢻
⢿
⣀
⣄
⣆
⣇
⣕
⣘
⣠
⣤
⣦
⣧
⣴
⣶
⣷
⣹
⣻
⣼
⣾
⣿
⭐
ツ
中
么
人
什
你
做
加
国
在
情
查
油
清
玛
雅
개
면
무
병
억
인
청
허
️
！
？
･
🅱
🇦
🇫
🇲
🇵
🇷
🇸
🇺
🌈
🌟
🌹
🌿
🍀
🍁
🍍
🍧
🍩
🍰
🍻
🍿
🎂
🎉
🎏
🎖
🎣
🎵
🎶
🏈
🏊
🏻
🏼
🏽
🏾
🏿
🐃
🐇
🐊
🐕
🐢
👀
👁
👅
👉
👊
👋
👌
👍
👎
👏
👐
👑
👓
👨
👩
👴
👸
👻
💀
💁
💃
💄
💅
💆
💋
💎
💓
💔
💕
💖
💗
💙
💚
💛
💜
💡
💥
💦
💨
💩
💪
💭
💯
💰
💲
💸
📚
🔑
🔥
🔪
🕺
🖐
🖕
🖤
🗑
😀
😁
😂
😃
😄
😅
😆
😇
😉
😊
😋
😍
😎
😏
😐
😑
😒
😓
😔
😕
😖
😗
😘
😛
😜
😝
😞
😟
😠
😡
😢
😣
😤
😥
😦
😧
😨
😩
😪
😫
😬
😭
😮
😰
😱
😳
😴
😵
😸
😹
😻
😾
😿
🙁
🙂
🙃
🙄
🙆
🙈
🙊
🙋
🙌
🙎
🙏
🚀
🚒
🚓
🚫
🛡
🤓
🤔
🤕
🤗
🤘
🤙
🤚
🤜
🤞
🤠
🤢
🤣
🤤
🤦
🤨
🤩
🤪
🤫
🤭
🤮
🤯
🤰
🤲
🤷
🥀
🥰
🥺
🦀
🦈
🦗
🦵
🧛
🧡
the
to
##.
and
you
is
that
of
it
this
[name]
in
for
##,
##s
was
my
but
be
not
just
on
so
have
like
are
##!
with
##?
they
your
he
what
if
me
as
at
it's
i'm
love
about
get
all
do
we
would
can
how
##ing
no
one
people
good
an
from
don't
or
think
when
she
really
out
##ed
his
more
know
up
will
has
some
that's
her
because
see
thank
there
who
it.
i’m
##d
even
had
still
him
them
their
only
got
why
##s.
##..
been
by
than
lol
thanks
go
time
being
it’s
too
much
now
you're
did
##"
very
never
[name].
make
hope
want
##ly
should
oh
##y
feel
were
going
then
way
could
great
don’t
##er
any
also
actually
pretty
those
bad
well
someone
need
other
you.
##...
that’s
back
say
am
right
same
##e
its
didn't
can't
better
##t
always
thought
best
something
makes
thing
##a
after
sorry
looks
here
i've
sure
look
[name],
##r
happy
these
first
##'s
take
our
into
yeah
over
##)
made
most
##*
glad
new
where
he's
does
probably
off
game
that.
getting
guy
last
maybe
us
##:
doesn't
:)
find
every
said
keep
many
you’re
hate
years
man
before
this.
wish
mean
give
doing
##o
little
##”
things
ever
post
year
old
everyone
nice
day
work
##n
lot
try
down
fuck
fucking
##!!
hard
i'd
tell
me.
use
damn
might
least
trying
come
sounds
##l
long
stop
##es
too.
isn't
play
gonna
anything
read
which
believe
such
##al
i'll
real
anyone
life
they're
help
nothing
##m
seen
##i
##s,
another
having
while
person
let
kind
around
definitely
seems
since
big
point
##k
put
fun
both
two
now.
until
didn’t
dont
next
im
shit
though.
guys
##ers
gets
please
remember
yeah,
you!
looking
already
##h
enough
without
wrong
you,
few
can’t
he’s
literally
saying
through
comment
understand
used
haha
##p
hear
live
time.
it,
lol.
##ion
must
them.
watch
cool
i’ve
dude
##’s
guess
show
here.
wait
sub
call
talking
part
yes
there's
team
though
weird
making
him.
went
own
saw
funny
##ment
kids
heard
wow
else
stupid
whole
she's
against
end
imagine
##ic
may
amazing
favorite
ok
everything
needs
sad
enjoy
hell
care
almost
different
##in
done
money
left
:(
reason
start
far
video
##g
bit
yourself
no,
##ity
friends
less
playing
world
##c
lmao
once
up.
##ation
came
luck
##ies
absolutely
surprised
yes,
interesting
poor
super
happened
idea
high
season
stay
talk
thanks!
true
wanted
exactly
taking
away
out.
problem
second
##!!!
there.
##ting
##ing.
##rs
name
one.
##able
ask
doesn’t
found
friend
man.
wonder
wouldn't
##b
appreciate
place
took
agree
is.
job
kinda
##le
we're
##w
gotta
lost
thats
thinking
women
[name]!
girl
well,
##on
wasn't
worst
change
hit
honestly
kid
seem
##y.
loved
well.
again
coming
free
##an
omg
times
##ed.
able
feels
reddit
that,
##'
##ist
head
##0
feeling
won't
fact
##d.
miss
myself
yet
##it
[name]?
awesome
either
it!
joke
they’re
i’d
watching
top
terrible
wants
##less
##or
leave
##th
told
##ive
check
home
i’ll
mind
##ful
me,
school
win
people.
story
using
between
man,
news
rather
##est
face
good.
seeing
totally
##ted
beautiful
cause
wow,
##u
family
pay
stuff
all.
aren't
oh,
sometimes
worse
##f
##nt
ago
especially
what's
called
mom
says
under
completely
men
##ry
##s?
crazy
instead
realize
thanks.
##us
buy
each
fan
kill
##re
eat
full
isn’t
knew
move
worth
close
days
forgot
games
op
quite
tried
##ts
goes
comes
her.
let's
sex
day.
means
run
##e.
##er.
lose
ah
half
support
thing.
##te
haven't
##ling
rest
right?
##ia
##ism
hopefully
no.
##;
cute
thanks,
way.
deal
life.
reading
right.
started
usually
you've
/s
become
couple
dog
game.
much.
single
##).
##ness
##st
##t.
better.
hot
looked
open
##is
entire
happen
played
sorry,
woman
##at
again.
ones
##5
loves
matter
meant
she’s
sound
##x
car
nobody
posted
##en
##ie
comments
except
finally
missed
word
bad.
holy
##s!
edit:
gave
##2
##3
##a.
##ish
huge
laugh
sorry.
##ch
##ge
bring
cant
excited
giving
there’s
welcome
baby
do.
hey
hoping
shot
10
clearly
dumb
easy
side
sucks
##".
##....
##ure
...
actual
not.
players
sense
##-
##age
curious
felt
god
hurt
picture
unless
##ine
##ve
basically
horrible
night
this,
wanna
wife
working
question
then.
##um
idk
okay
parents
turn
beat
hours
it?
takes
ya
year.
case
fake
government
happens
living
past
pick
state
wrong.
young
##ent
##ping
during
forget
today
too,
week
wow.
years.
##id
break
deserve
obviously
##ar
age
liked
on.
perfect
point.
##?!
afraid
cake
country
fine
learn
likely
posts
too!
you'll
you?
##ating
##se
##z
awful
chance
dead
fans
heart
movie
##ter
level
yes.
##%
##1
##ate
amazing.
given
human
mine
sweet
thread
type
words
##ck
##ty
awesome.
back.
child
dude.
fight
months
number
proud
this?
wasn’t
watched
works
##ize
##me
alone
boy
haha.
know,
know.
outside
small
work.
##ly.
calling
internet
scared
vote
whatever
##il
##ists
##ped
##v
ago.
bet
guy.
low
now,
phone
tho
truly
##**
##ous
ass
expect
food
knows
line
needed
similar
character
cold
moment
others
red
##os
body
course
didnt
die
down.
fair
issue
often
player
shut
sort
waiting
we’re
##??
##et
##nce
are.
couldn't
opinion
unfortunately
water
white
##ally
based
dad
friend.
future
meme
off.
stand
strong
tbh
three
##ll
##ns
extremely
front
house
mad
serious
shame
shows
together
wouldn’t
20
cat
experience
hair
lol,
minutes
pass
worried
##ment.
behind
doubt
here,
save
sign
that!
true.
what?
worry
##man
article
asking
gives
help.
link
mean,
more.
posting
room
##es.
##out
##tion
:d
[religion]
dude,
episode
explain
girls
mother
person.
possible
self
telling
this!
##ary
##ical
##ur
##’
answer
cut
death
exact
likes
power
reminds
running
sick
to.
trust
##am
##ated
##ble
##ions
<3
children
hand
post.
soon
wondering
youtube
eating
gone
history
hold
in.
interested
killed
late
losing
nah
normal
ready
relationship
social
vs
##as
##cing
##ion.
##nd
##o.
##up
ball
black
cool.
date
fire
is,
listen
lots
subreddit
what’s
##ant
##ce
##ing,
##ized
##les
agree.
awesome!
confused
due
early
important
police
share
straight
that?
trade
##ian
##r.
angry
considering
control
dare
drive
eyes
forward
gun
longer
problem.
seriously
song
spend
title
won’t
##ious
##ring
about.
add
advice
apparently
did.
gotten
haven’t
kept
killing
lucky
middle
near
safe
situation
ugly
up,
yea
yourself.
##4
##able.
##and
##my
##ps
##uck
100%
amount
argument
clear
drop
gold
group
me!
mostly
political
racist
send
shit.
short
shouldn't
##6
##king
##ming
##ned
30
changed
double
fall
fun.
incredibly
mental
older
original
pain
personally
respect
taken
us.
yeah.
##9
##ds
##h.
##n.
##ual
:/
ah,
anymore
asked
bunch
congrats
couldn’t
damn,
hahaha
sharing
sure.
though,
turned
twitter
you'd
##!"
##ance
##ged
##h,
##j
##ne
aren’t
assume
blame
cannot
common
died
difference
fast
figure
genuinely
great.
ok.
same.
simply
things.
time,
##8
##a,
##led
##ms
##ny
;)
before.
biggest
fellow
hands
hey,
hour
paid
piece
points
sense.
so,
starting
thinks
throw
wear
"i
##bs
##ging
##ial
##ise
##line
##ow
catch
hilarious
main
noticed
place.
right,
sub.
supposed
today.
wonderful
##7
##ed,
##ies.
##ight
##ile
##m.
##sh
##the
act
book
bro
brother
crying
either.
ended
money.
paying
sad.
##day
##ence
##ins
##ks
##ls
brain
comment.
complete
cry
disgusting
enjoyed
him,
league
loving
pissed
reply
speak
##!!!!
##ation.
##ible
##ning
##ue
##ut
absolute
do,
enough.
ever.
extra
follow
husband
idiot
interesting.
later
learned
music
now?
positive
set
so.
store
upvote
##+
##ad
##but
##dy
##ss
account
allowed
area
avoid
banned
bottom
class
doesnt
drink
ice
idea.
issues
job.
lack
laughed
party
putting
teams
they'll
upset
walk
##ans
##ay
##d,
##ers.
##ier
##ite
##ver
##’d
##️
also,
america
barely
college
day!
downvoted
ha
happy.
himself
honest
keeps
loss
month
nice.
odd
prefer
public
realized
regret
response
rich
somewhere
stick
themselves
there,
toxic
wearing
weeks
you’ve
##gs
##ly,
##op
anyway.
be.
brought
city
cringe
dark
decent
expecting
goal
guess.
health
met
pull
random
report
round
sexual
son
step
tv
worked
write
##ard
##ets
##hip
##od
##red
##use
15
easily
else.
everybody
for.
funny.
hang
hated
inside
law
mention
missing
plus
special
spent
surprise
system
videos
within
won
##ast
##ide
##ip
##ire
##ore
##tic
##y,
blue
bought
compared
fighting
focus
legal
let’s
luck!
multiple
none
problems
reddit.
smile
somehow
something.
suck
times.
true,
walking
waste
you’ll
##00
##[name]
##als
##by
##ics
##k.
##ke
##ma
##no
##ot
2nd
attention
best.
bless
business
company
creepy
disgusting.
doctor
google
grow
hasn't
hurts
knowing
lets
media
much,
ok,
per
pizza
quick
scene
skin
society
somebody
space
stuff.
tax
them,
tired
tough
yet.
zero
##ah
##c.
##iest
##ities
##ons
##ors
##r,
##ration
##ries
##sing
##sm
##ving
##you
anything.
certain
certainly
characters
cheers
fat
fear
hearing
married
out,
personal
plenty
quality
road
term
ugh
was.
world.
##/
##al.
##hy
##ity.
##one
##oo
##pe
although
awkward
birthday
blood
choose
consider
currently
deep
driving
fit
game,
known
leaving
murder
nah,
okay.
one,
reaction
reality
ridiculous
stuck
they've
till
version
wall
##ap
##el
##ied
##ist.
##l.
##ra
##ta
##time
##to
boys
correct
ex
excuse
football
highly
home.
light
medical
message
much!
order
sleep
slightly
star
stopped
sure,
trash
troll
way,
##ee
##g.
##he
##py
above
aware
bigger
breaking
clean
days.
defense
despite
dream
eye
facebook
favourite
friends.
helped
hes
insane
ive
like,
plan
removed
sadly
said.
scary
sent
show.
sitting
solid
sucks.
thoughts
turns
username
we'll
##ations
##ient
##io
##ition
##less.
##ments
##not
##pt
##~~
accept
added
along
annoying
away.
bad,
cost
crap
decided
draft
example
expected
finding
fix
form
happen.
jealous
keeping
luck.
man!
moved
not,
notice
service
shoot
simple
smh
source
strange
tonight
truth
“i
##fully
##ice
##istic
##p.
##rate
##ud
##ze
[name]:
awful.
bed
calm
difficult
drunk
fantastic
go.
great!
hates
helps
illegal
lmao.
mentioned
million
minute
non
online
option
porn
rule
saved
season.
seemed
sending
sit
soon.
steal
story.
tho.
week.
weird.
wow!
##ered
##ically
##om
##ound
##ro
##s"
##this
##ton
##way
admit
american
anymore.
block
bro.
career
claim
community
cops
day,
easier
evidence
facts
fine.
good,
kid.
kids.
laughing
listening
myself.
now!
obvious
offer
people,
position
president
see.
sell
sentence
third
time!
together.
winning
worse.
xd
yep.
##all
##ct
##ey
##ism.
##land
##rt
##ry.
##ts.
##ust
12
anxiety
average
conversation
cover
dating
depends
deserves
disagree
disappointed
dropped
ending
ends
final
finish
force
general
harder
ignore
imo
loud
op.
places
pure
recently
showing
taste
text
towards
town
video.
war
we've
y'all
yo
##ach
##er,
##in.
##ol
##t,
##ute
across
attractive
born
broken
build
burn
considered
done.
downvote
everything.
far.
feelings
garbage
higher
ill
interest
it'll
lead
moving
okay,
otherwise
protect
question.
quit
really.
several
shocked
smell
throwing
trouble
wait,
yesterday
❤️
##."
##aking
##ative
##cy
##ig
##ination
##ul
##unt
##ution
ain't
broke
caused
daily
effort
english
expensive
fell
haha,
hard.
healthy
holding
honestly,
land
lived
lives
local
love.
lovely
match
nearly
part.
pic
pretend
private
prove
reference
related
science
sister
teacher
twice
yours
##!!!!!
##i.
##m,
##men
##na
##ner
##nts
##per
##un
##”.
(i
anywhere
bar
boring
boyfriend
busy
caught
cuz
dangerous
delete
enjoying
excellent
father
freaking
green
happened.
hi
hug
joke.
lady
mind.
mistake
morning
over.
parent
plays
price
race
really?
reason.
reasonable
said,
series
slow
smart
specific
team.
up!
warm
wont
##!”
##(
##???
##ably
##ath
##bed
##ked
##light
##tle
(and
af
ahead
all,
alone.
art
assuming
attack
available
beer
beyond
canada
cheap
classic
continue
create
face.
first.
games.
grew
ground
guns
guys.
handle
happening
have.
idiot.
jokes
karma
la
lot.
market
mate
meet
moment.
mouth
negative
painful
professional
rape
rare
rid
rip
say,
seconds
shitty
south
stupid.
tbh.
touch
traffic
uncomfortable
understanding
ur
weren't
who's
willing
with.
yep,
yes!
##aging
##ator
##e,
##ill
##ised
##its
##just
##ress
##th.
##ying
[name]...
accurate
alright
bowl
choice
complain
context
cool!
current
dogs
drug
drugs
entirely
fault
figured
forever
fucked
girlfriend
gross
her,
hilarious.
id
ignorant
isnt
large
list
logic
natural
north
office
photo
soul
speaking
tears
terrible.
test
think.
uk
wake
ways
weight
##!?
##"?
##'d
##]
##go
##hh
##le.
##rs.
##what
:p
accidentally
ad
anyway
balls
besides
both.
bullshit
careful
constantly
count
crazy.
created
door
earlier
evil
five
greatest
he'll
horrible.
hugs
information
learning
letting
major
massive
memes
mr.
name.
news.
old.
opinion.
perfectly
pray
questions
regular
ridiculous.
rights
roll
sexy
sharing.
silly
site
situation.
songs
stranger
though!
voice
weed
whenever
words.
wtf
##ep
##ified
##izing
##right
##ub
##ves
according
agree,
animal
animals
app
attempt
back,
bit.
bitch
buying
can.
cats
coffee
contract
credit
damn.
daughter
edit
emotional
exactly.
family.
food.
generally
great,
hat
hide
however
imo.
join
neither
numbers
pictures
piss
pm
proof
real.
religion
ruin
russian
shooting
suddenly
terms
then,
therapy
though?
treat
well!
written
yup,
##",
##aw
##ger
##gy
##ha
##have
##ify
##ior
##is.
##ive.
##ky
##late
##logy
##oh
##on.
##res
##ric
##rk
##sed
##ually
##ume
##unk
##we
##ws
buddy
cancer
care.
cares
carry
cars
content
correct.
decide
defend
directly
earth
em
end.
exist
extreme
flying
fully
future.
helping
here's
here?
it...
jersey
legit
mean?
names
night.
nope.
partner
possible.
possibly
queen
replace
rules
say.
stories
suggest
there!
they'd
thread.
tomorrow
total
train
value
visit
whether
women.
worry,
writing
wrote
year,
##ase
##ature
##ber
##bly
##cks
##der
##down
##ening
##ering
##ft
##im
##inated
##ional
##ir
##ness.
##ng
##ood
##our
##over
##ple
##uring
2.
about?
advice.
afford
air
alive
allow
already.
anybody
arm
beautiful.
calls
checked
church
coach
congrats!
court
dislike
fair,
falling
four
fuck.
guy,
idiots
info
insurance
interview
jump
key
legs
long.
military
offense
opposite
paper
people's
physical
physically
pointing
proper
restaurant
return
rock
shes
shoes
shouldn’t
showed
sports
starts
states
surely
ten
tend
view
would've
younger
##,000
##?"
##ack
##ak
##an.
##ball
##ction
##ding
##ful.
##ject
##la
##like
##nk
##rm
##tly
##work
16
acting
amazing!
anything,
bear
becoming
choice.
color
contact
def
deleted
dude!
fairly
foot
forced
from?
girl.
good!
he'd
hell.
humans
image
instagram
issue.
knowledge
magic
marriage
mate.
me?
mess
mixed
offended
on,
one!
personality
pet
point,
politics
popular
potential
pro
record
referring
responsible
right!
risk
same,
shock
shots
signed
swear
system.
them?
tonight.
trip
understood
west
whoever
wins
wrong,
year!
you!!
##..i
##ail
##ake
##ded
##et.
##ia.
##ic.
##int
##it.
##ited
##ix
##lied
##mo
##nces
##ncy
##ral
##us.
##using
##😂
40
abuse
album
around.
babies
badly
brings
btw
card
cheese
chicken
complaining
concerned
confidence
countries
cross
culture
damage
die.
dirty
discussion
etc.
eventually
everyone.
faith
feed
feet
female
fired
fixed
foreign
further
glass
golden
guessing
hear.
here!
innocent
itself
laws
like.
lying
managed
mass
meaning
mode
named
netflix
nothing.
orange
others.
pain.
peace
plot
population
property
provide
school.
screen
search
see,
seen.
seriously.
shower
spending
spot
standard
style
subs
teach
technically
thing,
truck
wholesome
wild
youre
##'.
##*.
##at.
##ba
##back
##ches
##cle
##d!
##de
##iate
##in'
##ipe
##istent
##ization
##med
##oot
##rd
##rity
##tor
##ulate
##ved
##w.
1st
2019
4th
action
actually.
adults
again,
background
band
bc
below
books
brown
buddy.
cheating
closer
clue
comments.
congratulations
dear
definition
depression
destroy
does.
dollars
drag
dying
energy
epic
etc
failed
false
floor
giant
happens.
hello
hero
him!
hire
hits
jobs
later.
lie
lies
loss.
lower
majority
mod
op,
other.
passed
penis
play.
press
prison
process
push
qb
rate
recommend
relate
research
ruined
sake
screw
shirt
snow
state.
statement
stealing
supporters
sweet.
them!
ton
voted
voting
want.
why?
woman.
##bit
##bling
##fs
##i,
##ign
##iring
##ived
##lect
##o,
##old
##ray
##sion
##ster
##tion.
##ural
##‍♀️
(or
11
14
3rd
account.
adult
agreed
apart
argue
bank
basketball
became
behavior
better,
billion
brave
british
channel
chat
chicago
children.
covered
dumbass
fantasy
federal
french
happiness
hasn’t
heads
heavy
helpful
hitting
hockey
huh?
incredible
injury
judge
messed
mobile
nasty
nice,
page
park
previous
puts
range
recent
refuse
regardless
remind
saving
secret
security
sees
seriously,
size
sold
standing
stop.
subreddit.
summer
tells
there?
to,
today,
turning
uncle
views
while.
works.
would’ve
##:)
##ace
##are
##ent.
##es,
##her
##hhh
##ick
##ience
##ing!
##ionally
##ish.
##itch
##itional
##lation
##mber
##mm
##ooo
##pression
##q
##rant
##rated
##s...
##sive
##ten
##ug
##y?
##’ll
25
>i
active
adorable
again!
am.
answer.
anti
anyways.
ashamed
aw
base
be,
bot
bother
brother.
building
case.
chance.
chances
christmas
cool,
cup
dance
deserved
desperate
doing.
dumb.
effect
email
eu
filled
folks
fresh
from.
gender
guys,
hardly
ideas
including
indeed
it’ll
jail
kicked
know!
ladies
laugh.
least.
life,
lol!
matter.
model
movie.
national
normally
note
oil
out!
outta
performance
please.
prime
reasons
rough
salt
sense,
speed
staying
street
thing?
thrown
til
tiny
tree
valid
wanting
weekend
welcome!
whats
winter
work,
##11
##a!
##a?
##acy
##age.
##ain
##ash
##ates
##ax
##b.
##bility
##d?
##da
##day.
##ed?
##er!
##f.
##gic
##head
##hip.
##how
##ity,
##ler
##lies
##mes
##mon
##ney
##or.
##play
##rass
##rn
##rry
##so
##stic
##table
##te.
##ters
##tive
##ure.
##ury
##ward
##ys
##’ve
#1
100
ability
again?
agreed.
alive.
angry.
apply
article.
beginning
bloody
box
bus
cash
child.
chill
commenting
concept
cream
creepy.
cute.
decision
degree
did,
dm
dudes
enough,
everytime
experience.
explaining
fail
feeding
finds
finished
flair
flat
funny,
growing
grown
hi,
horror
hospital
idea!
impossible
include
individual
interesting,
irony
it!!
kills
language
leave.
liberals
lines
meeting
men.
min
modern
moments
months.
of.
once.
opportunity
players.
playoffs
practice
pregnant
problems.
quote
racism
reach
remain
remindme!
repost
result
retarded
selfish
switch
terrifying
threw
typical
unfortunate
up?
upon
vegan
wait.
was,
wash
wasnt
wondered
worst.
wouldnt
"the
##'re
##2.
##am.
##ar.
##ary.
##ats
##c,
##ch.
##co
##eal
##een
##er?
##field
##fit
##ga
##ication
##ie.
##ils
##ined
##ists.
##key
##load
##night
##oke
##orn
##ose
##pers
##port
##posed
##press
##que
##tch
##ter.
##ternal
##ting.
##ude
##um.
##unce
##up.
##va
*hey
18
^(hug)
abusive
acts
advantage
affect
ago,
ain’t
anyway,
are,
arent
ate
attention.
baby.
basic
bastard
before,
board
breaks
bringing
bs
but,
cakeday**
challenge
confirm
could've
course.
crowd
cruel
defensive
describe
destroyed
driver
embarrassing
exists
eyes.
first,
florida
fly
following
former
freedom
fuckin
goals
god.
goddamn
gorgeous
head.
heart.
impact
insult
internet.
involved
jerk
joy
left.
liberal
map
marry
mean.
memory
month.
mr
net
nope,
nose
noticed..*
oh.
on!
opinions
overall
owner
phones
photos
planning
plastic
playoff
praying
racist.
read.
reality.
recognize
refs
relevant
reminded
reply.
response.
results
ride
rude
she'll
shit,
sir
smoking
sometimes.
steps
stops
student
supporting
talked
tank
taxes
teeth
themselves.
this...
troll.
update
useful
user
violent
wars
watch.
website
we’ve
who’s
word.
yellow
##'t
##),
##.”
##12
##_
##ade
##ale
##ched
##chy
##cs
##do
##dom
##e!
##ed!
##ence.
##ened
##ens
##ently
##fuck
##ges
##gle
##icing
##ind
##ion,
##ires
##ising
##ities.
##lay
##low
##n,
##ob
##ony
##ops
##pa
##pm
##post
##reak
##thing
##tions
##ture
##u.
##uction
##uing
##urd
##very
##y!
..
1.
2020
:-)
anger
anime
area.
arguing
arms
attitude
awesome,
aww
battle
believes
better!
border
bottle
bud
butt
cheaper
claims
comedy
comic
congratulations!
country.
crap.
crime
crying.
curious.
cutting
data
deal.
different.
dog.
downvoting
drawing
drivers
embarrassed
event
faces
film
financial
fish
flag
forever.
friendly
gf
god,
government.
hadn't
have,
held
hence
high.
history.
hole
house.
implying
in,
kick
king
lazy
leg
levels
line.
look,
luckily
male
meat
mother.
moves
movies
nightmare
normal.
not?
onto
owners
past.
perhaps
picked
points.
poorly
pre
pulling
pushing
release
remove
rent
responding
ring
sadly,
screaming
sex.
ship
skills
smoke
solo
someone's
speech
stars
stole
surgery
terrifying.
then?
theory
toilet
too?
triggered
trolls
ugh.
uh
underrated
united
votes
wall.
weeks.
win.
wing
work!
work?
😂😂
"[name]
##ability
##aha
##ants
##ass
##ave
##b,
##bies
##boy
##che
##den
##ert
##even
##ff
##hood
##iation
##ible.
##ild
##inate
##ink
##ision
##ism,
##itty
##iver
##kes
##lf
##nse
##n’t
##of
##oid
##ook
##pose
##r!
##ribe
##ried
##side
##sity
##t?
##tain
##tes
##tors
##tory
##ule
##urs
##uses
##vy
##why
##wing
##zz
--
17
3.
50
[religion].
about,
abuse.
accident
actually,
alright,
annoyed
anxious
appears
apple
bathroom
becomes
begin
bench
benefit
bill
boy.
brutal
bud.
caring
cast
center
changing
charge
china
chose
city.
coaching
comment,
commercial
concern
conspiracy
cop
corporate
crack
cried
dealing
depressing
do?
edge
entitled
explains
fingers
fun!
gas
gift
go,
guilty
heat
help!
horribly
horrifying
impressed
in?
income
injured
iq
issues.
itself.
justify
lawyer
lesson
liking
lord
makeup
millions
minimum
morning.
nope
off,
pack
pc
period
picture.
policy
pop
poster
prepared
present
pressure
proven
purpose
quiet
raise
really,
rookie
sad,
satire
scream
seasons
shame.
six
sleeping
source:
spelling
stream
students
study
suit
suppose
table
talks
target
that'd
theres
tip
track
try.
unique
universe
unpopular
upvotes
via
weird,
welcome.
why.
window
wise
wishing
worrying
yep
yet,
you...
yourself,
you’d
yup.
##'m
##.....
##/10
##0%
##5.
##act
##ance.
##asing
##bing
##board
##bot
##dle
##em
##end
##fc
##gan
##ge.
##gging
##hi
##hips
##iable
##icted
##il.
##ison
##iss
##ister
##ital
##itive
##ius
##ker
##l,
##lection
##let
##lly
##long
##ma.
##mate
##ment,
##mit
##ntly
##oast
##og
##ogue
##oon
##ories
##ost
##our.
##ove
##ows
##pd
##posing
##ract
##ream
##ribute
##rio
##rists
##room
##s*
##season
##st.
##that
##they
##too
##umble
##une
##ung
##urse
##ush
##utch
##uts
##vel
##vo
##z.
##zing
2018
90
>[name]
[name]!!
after.
ahh
aim
alright.
amazing,
annoying.
anytime
apologies
apologize
arrested
attracted
ban
beauty
blow
boss
brilliant
bruh
change.
cheers!
cheers,
circle
cities
comfortable
convince
costs
criminal
cringe.
crush
curious,
death.
dinner
disappointing
doctors
drama
draw
dress
drinking
dry
education
emotions
episodes
exciting
exist.
fantastic.
field
filming
finger
forcing
fox
general.
gm
goat
going.
handsome
herself
he’d
home,
horse
huh,
hurting
ignorance
immediately
insecure
instantly
intense
ironic
is!
it'd
job,
justice
kinds
kiss
knife
legend
lights
links
listened
lmfao
machine
me:
memories
mentally
minor
mix
move.
music.
native
neck
nowhere
opening
pants
passing
pathetic
people?
perfect.
person,
petty
place,
precious
properly
raised
realise
realizing
respond
role
safe.
salty
sauce
separate
serve
sexually
sharing!
shot.
skip
solve
someone.
stock
stopping
stuff,
sub,
suffering
survive
talent
that'll
those.
threads
through.
treated
trick
trolling
ultimate
understand.
us,
uses
wasting
wedding
whose
workers
yesterday.
yup
y’all
!!
##'ll
##'s.
##0.
##ab
##ame
##ana
##cating
##ching
##craft
##duce
##ents
##ers?
##es!
##for
##gles
##hill
##iated
##ib
##ief
##ies,
##ification
##igh
##ing?
##ining
##inity
##ist,
##iting
##ival
##ives
##iving
##ized.
##jective
##k,
##lated
##les.
##life
##lord
##mi
##ming.
##nation
##nded
##nent
##nial
##nt.
##ock
##ology
##ong
##ork
##pendent
##rary
##rough
##ted.
##tent
##test
##thy
##ucks
##uous
##ured
##ures
##where
##|
-[name]
....
10/10
13
24
actively
adding
all!
among
at.
attacked
believe.
belongs
bitter
boi
brand
capitalism
car.
changes
civil
climate
clip
clothes
combat
commit
comparing
conservative
da
daddy
dallas
danger
dead.
defending
delicious
delusional
direct
don't.
edgy
employees
equal
error
exactly,
fake.
famous
freak
friend,
fun,
garbage.
get.
gods
gone.
guard
guns.
ha!
hatred
havent
heck
him?
honest.
huh
identity
idiots.
impressive.
improve
incels
indeed.
info.
insane.
know?
lil
limit
linked
lunch
matters
me...
mediocre
minutes.
money,
nature
nfl
nor
omg,
otherwise.
particularly
parties
phrase
pics
plans
plate
pretending
program
project
provided
question,
rain
ran
raped
reasons.
relationship.
relationships
released
religious
reminding
remotely
reported
rn
scary.
school,
seek
serious.
should've
significant
situations
smash
socialism
society.
something?
somewhat
son.
specifically
spell
split
stayed
stomach
stronger
success
support.
tag
tf
therapist
they’ve
throws
times,
tomorrow.
tongue
tool
topic
tweet
uber
unfortunately.
university
what.
will,
wine
woke
yeah!
yet?
yikes
##'ve
##ages
##aked
##aries
##ater
##atic
##bc
##be
##born
##cate
##cies
##cked
##dia
##don't
##ec
##ef
##gth
##house
##ibility
##ibs
##icial
##ics.
##ids
##iers
##iety
##ike
##ine.
##ings
##irt
##ise.
##itor
##ken
##ket
##lin
##look
##lusion
##m?
##mer
##mies
##mp
##ncing
##nd.
##nsion
##ome
##per.
##pressive
##r?
##raction
##rating
##rily
##rist
##row
##se.
##ses
##s”
##thank
##ti
##uad
##uit
##ular
##ulation
##umor
##ums
##urry
##vs
##wer
##wks
##word
##’m
19
21
60
accurate.
addiction
af.
age.
ahhh
argument.
australia
bad?
bay
bf
birds
bizarre
blessed
bored
burned
business.
cap
causing
celebrate
club
communism
community.
confusing
conservatives
copy
crisis
cursed
customers
debate
depressed
designed
desperately
did!
dig
disappointed.
discord
dollar
downtown
downvotes
dr
dreams
dropping
dunno
edited
effects
episode.
experienced
explanation
fan.
fancy
fill
flex
flip
forgive
fortnite
frame
frustrating.
glorious
grade
gross.
gym
haha!
happily
hardest
hidden
himself.
honestly.
hopes
however,
humor
hungry
idea,
incredible.
involved.
is...
island
joke,
joking
judging
legally
legitimate
lie.
load
lock
made.
master
milk
mirror
mom.
more,
moron
most.
mum
nailed
necessary
nervous
no!
no?
now...
offensive
olds
ones.
owned
pair
particular
patient
people’s
picking
pink
post,
quickly
rage
remember,
replying
rise
rolling
ruining
runs
russia
scam
score
sea
second.
she'd
shop
show,
silver
sleep.
slowly
smaller
socialist
solution
sooo
spam
spirit
start.
strong.
stunning
suspect
talented
talk.
tall
tea
that...
therefore
things,
today!
travel
tries
truth.
ugh,
unit
utterly
valuable
violence
weak
we’ll
what,
will.
wishes
worries.
worry.
“the
"i'm
##$
##***
##-right
##-up
##20
##30
##50
##9%
##9.
##antic
##ases
##ault
##box
##cated
##ced
##cise
##cted
##dium
##ds.
##ection
##eds
##ell
##ency
##ess
##ever
##f,
##fucking
##good
##hhhh
##iance
##icious
##ie,
##ievable
##ieved
##if
##ift
##ina
##ino
##ious.
##ises
##lic
##line.
##lines
##lish
##lo
##lt
##mic
##mmm
##n?
##nce.
##nces.
##ness,
##o!
##ots
##pare
##ply
##point
##rading
##ria
##rified
##ron
##ruction
##she
##t!
##ther
##ty.
##uate
##uding
##ued
##uh
##ump
##uns
##ur.
##urger
##vice
##volution
##vp
##ycle
5th
abortion
accepted
actions
aggressive
aint
alt
amazed
anyone.
arguments
artist
aside
asleep
attacks
aunt
bears
believing
bike
blaming
blind
blocked
boat
book.
break.
brexit
brilliant.
bro,
btw.
burning
canada.
central
checking
checks
child,
chinese
chocolate
choices
close.
companies
confused.
consent
convinced
course,
creative
customer
cute!
dad.
dc
decision.
decisions
design
difference.
disagree.
disappointing.
disney
doctor.
dodged
down,
drives
economic
eh,
elected
election
empty
entertaining
equally
experiences
explained
eyebrows
fact,
fair.
familiar
feel.
fool
friend!
funding
gain
game!
gay
gg
gif
gop
grab
handled
hating
heard.
heavily
helpful.
helps.
her?
here’s
homeless
honey
hot.
hours.
huh.
ignoring
illness
increase
information.
inspired
instant
insulting
intelligent
late.
laughing.
leader
leafs
league.
legitimately
little.
location
locked
logical
lonely
look.
loose
love,
mac
manage
mask
matches
meal
memes.
metal
mine.
mountain
nail
naturally
nonsense.
nsfw
nuts
obsessed
oddly
official
opened
organization
own.
panic
passive
period.
photo.
picks
player.
pls
podcast
pot
praise
prices
promise
propaganda
pulled
punch
rams
rank
real,
reminder
removing
revenge
ripped
roads
rooting
rush
sadly.
sarcasm
scare
scares
seats
sensitive
series.
smile.
soft
song.
staff
stands
strangers
stress
stupidity
successful
sucked
suffer
surprised.
team,
therapy.
these.
tho,
thus
tip.
to?
training
trigger
trump
tv.
useless
usual
victim
video,
walked
want,
weather
western
why,
world,
##-old
##10
##15
##3.
##4.
##>
##?)
##acial
##alty
##amp
##ank
##art
##ashed
##ashing
##ate.
##ation!
##ation,
##atives
##ays
##bi
##bor
##ces
##cial
##cist
##come
##duced
##ees
##eez
##els
##en.
##eping
##ers,
##formed
##ful,
##gate
##gers
##get
##happy
##hed
##hes
##hief
##hing
##hole
##ic,
##ical.
##icism
##ier.
##ieve
##iles
##ilities
##illa
##inary
##ired
##lade
##lain
##lating
##ld
##leading
##less,
##lessly
##lk
##lock
##made
##mission
##most
##mous
##ms.
##nc
##nect
##nical
##nn
##ns.
##ooked
##oth
##ough
##ourage
##ous.
##ously
##ped.
##phone
##rable
##race
##rain
##rat
##read
##reat
##reck
##rely
##ren
##rial
##rific
##rmed
##rown
##rs,
##s'
##season.
##ssed
##star
##stop
##tery
##tics
##tling
##tte
##ube
##ubs
##uckle
##unny
##urred
##used
##vation
##vor
##w!
##w,
##wed
##with
##x.
##🤣
(which
2016
35
acceptable
advice!
affected
agent
agreed,
alcohol
amazon
anymore,
anyways
assaulted
asshole
asshole.
attractive.
auto
badass
bag
bait
balance
beating
believed
bell
bird
birth
blew
bomb
boring.
bout
boys.
breath
budget
bumper
bye
call.
camera
can,
canadian
cancelled
cat.
charged
childhood
company.
confirmed
creating
curiosity,
described
died.
disaster
distance
do!
documentary
dogs.
easy.
effective
egg
ego
eh
elite
embarrassing.
empathy
england
equivalent
ever!
excuses
falls
families
farm
fault.
feelings.
followed
for?
fruit
fuck,
funnier
games,
gaming
gear
generic
genius.
genuine
go!
gold.
googled
group.
groups
gun.
hanging
happening.
head,
healing
healthcare
hell,
honor
hope.
hugs.
info!
injuries
international
ireland
ironically
jumping
kidding.
kids,
killer
labour
lakers
lawyer.
leading
leads
lick
lied
limited
lives.
loses
lost.
maga
mark
mate,
matters.
maybe.
mid
mind,
mistake.
mods
monster
moron.
movie,
movies.
nah.
necessarily
need.
office.
often.
opinions.
options
out?
over,
owe
pats
percent
personally,
perspective
pick.
planet
plant
poop
powerful
ppl
president.
pretty.
prevent
problem,
products
progressive
proving
pump
pushed
quickly.
radio
rap
rarely
realised
realistic
reddit,
relax
reverse
ridiculously
roster
row
sacrifice
saying.
scored
screenshot
seat
selling
sexist
shared
shocking
sides
sir.
skill
smells
snake
so...
so?
sooner
soooo
sources
southern
spin
spoiled
spread
spreading
station
stone
stretch
strike
stupid,
sugar
suggesting
sun
supports
surprising
teen
theme
thin
thing!
thousand
thx
time...
time?
turkey
tweets
types
typically
unironically
upper
upvoted
us!
usa
vacation
videos.
view.
virgin
waited
water.
wealth
weren’t
where's
whining
wind
ye
yelling
"it's
##!<
##*,
##-10
##-1|
##/s
##1.
##6.
##able,
##ac
##af
##aid
##al,
##am,
##antly
##ard.
##arian
##ason
##asty
##atch
##ational
##avs
##backs
##bon
##book
##by.
##can
##cent
##cho
##cking
##core
##cracy
##d's
##d...
##dict
##dinary
##eans
##eration
##ern
##erving
##ese
##ew
##fa
##fer
##form
##fort
##gard
##hase
##having
##hest
##hold
##hs
##icate
##icked
##ide.
##ider
##ifying
##ilt
##inating
##inct
##iously
##ishing
##istant
##it,
##ji
##ka
##kin
##lb
##lerance
##lice
##ling.
##list
##lop
##love
##loyment
##lving
##ly?
##m!
##mates
##matic
##maybe
##ments.
##nable
##now
##nsure
##oe
##om.
##ops,
##ors.
##ot.
##other
##ounds
##outs
##owl
##po
##pped
##pping
##ption
##rade
##rash
##ration.
##re.
##rect
##ree
##rel
##rical
##rid
##rim
##rite
##ritical
##rl
##rop
##rrow
##rt.
##s!!
##school
##set
##sk
##sm.
##state
##sted
##sy
##tail
##tation
##tended
##that's
##thical
##tood
##top
##try
##uary
##uce
##uct
##udio
##uice
##uid
##uk
##ulated
##ulating
##uld
##usted
##v.
##visible
##wards
##ware
##well
##while
##wo
##ye
##yyy
##zi
##zy
##é
##❤️
##🏻
(but
2017
4.
45
[name]"
access
accused
address
adorable.
ads
advice,
aged
ah.
alot
analogy
answers
anxiety.
appear
army
art.
articles
asks
assumed
attacking
away,
back!
bacon
badly.
bang
beach
beautiful!
beer.
belt
best,
birthday!
bitcoin
bite
blatant
blown
bones
books.
bothered
bothers
bread
bro!
bulls
but...
campaign
ceiling
century
championship
cheers.
chemistry
chick
clarification.
code
compare
competition
competitive
condescending
congratulations,
consistently
console
contact.
couples
damage.
date.
debt
decades
deeply
democratic
democrats
dems
description
detailed
details
developed
discuss
disorder
disturbing
divorce
dump
emotionally
everyone's
everywhere
everywhere.
existed.
expectations
fact:
factor
failure
fallen
fan,
faster
fav
favor
favorite.
fbi
fed
feminism
fight.
file
fits
friday
frustrating
ftfy
girl,
gladly
goodness
guaranteed
guilt
guys!
hand.
handling
harassment
her!
hero.
hey!
hiding
highlights
hill
him...
holiday
hotel
hunting
identify
imagining
incel
invite
item
job!
kidding
knee
lake
lane
lately
latest
laugh,
leaves
legend.
lions
list.
live.
lmao,
logo
loser.
lovely.
man's
man...
management
manager
mate!
material
measure
media.
member
members
mins
miserable
misread
moral
much?
mutual
myself,
neat
night,
nurse
officially
old,
online.
op!
outcome
page.
parents.
partner.
pathetic.
perspective.
pieces
pleasure
point?
price.
problem?
progress
props
protection
proves
purple
questions.
react
regarding
relief
remains
removed.
repeat
reporting
require
required
responded
reveal
sadness
same!
san
sand
say?
see!
serial
serious?
served
services
shite
shooter
shoulder
sick.
side.
significantly
signs
skins
sky
slap
smug
socially
spanish
sport
spot.
stance
standards
stated
stolen
store.
subtle
sucks,
suggestion
sweet!
swing
taught
thinking.
thought.
thoughts.
thru
tier
tinder
toddler
tone
tons
toy
underestimate
unexpected
union
unlike
ups
upvote.
username.
utah
vaccines
various
washed
washington
way!
weapon
weekend.
wife's
windows
woman,
wonderful.
words,
worries
worse,
yay
years,
"[name]"
"you
##-0
##-2
##-5
##09
##14
##7.
##99
##?!?
##action
##ager
##ah.
##aks
##ang
##ange
##aning
##ant.
##arily
##aring
##arn
##ars
##ated.
##ather
##aven
##ays.
##base
##bel
##bie
##bs.
##cade
##car
##cc
##ce.
##ch!
##cha.
##cles
##coming
##cribed
##dia.
##duct
##duction
##e?
##ead
##ean
##eb
##ect
##edly
##em.
##ergency
##erve
##ery
##ession
##evere
##front
##fying
##ginal
##gon
##ground
##hai
##heat
##hift
##hl
##hor
##hy.
##ia,
##iar.
##icated
##id.
##iece
##ield
##iend
##ients
##igence
##ii
##iled
##iler
##illed
##ills
##imate
##ime
##iming
##ingly
##inist
##ins.
##ionate
##ips
##isa
##itable
##itarian
##itation
##itions
##ium
##ivated
##ivision
##ization.
##izes
##ja
##last
##lc
##le,
##ledge
##lings
##lling
##lol
##losing
##lp
##lue
##ly*
##man.
##mand
##many
##me.
##mined
##my.
##nials
##nounced
##nting
##o's
##obs
##ody
##ok
##ole
##ond
##ones
##oooo
##orny
##ort
##ory
##os.
##ouch
##ox
##pending
##pire
##pit
##poke
##propriate
##pth
##put
##quel
##rand
##rants
##rap
##rassing
##rations
##related
##resentative
##rived
##rn.
##roll
##rozen
##rse
##s4
##scape
##sh.
##sire
##some
##sp
##stics
##struction
##style
##tage
##tant
##think
##toon
##torm
##town
##tributing
##ualified
##uclear
##uded
##uge
##uling
##ummed
##umption
##ups
##urb
##urgers
##urr
##urt
##us,
##ustrated
##version
##viding
##volve
##watch
##ways
##who
##x,
##xual
##zard
##zes
##‍♂️
##🏼
##😭
(not
10%
2,
2-3
2016.
2019.
50%
7th
admitting
advance
alabama
already,
amazingly
and,
answer,
anything?
apartment
appreciated.
asap
assault
attack.
awhile
backup
better?
bias
bible
bills
bipolar
bone
brain.
bridge
browns
bucks
buff
bug
bull
bump
button
cancel
cancer.
candidate
cares.
catching
charges
class.
cleared
clearing
click
clock
closed
clown
club.
combo
comeback
commie
communities
compliment
computer
condoms
confident
confusion
contract.
control.
convert
cooking
correcting
corrupt
cousin
crazy!
crew
crimes
crossing
cult
cunt
cute,
cutest
dang
de
defeat
disrespect
donate
done,
dream.
drugs.
ears
earth.
east
eastern
eaten
educated
effort.
embrace
enemy
engage
enjoys
entered
essentially
existed
explanation.
face!
fact.
faith.
false.
far,
fart
fascism
fast.
fb
feeling.
fetish
fights
flash
focused
for,
foul
fuck?
game?
gen
generation
girls.
goal.
greater
had.
hahaha,
hahaha.
hands.
hella
help,
he’ll
highest
hmm
homophobic
housing
humanity
hundred
hype
i,
immigration
initial
inside.
insight
instead.
insults
investigation
irrelevant
is?
israel
italian
journey
juicy
killed.
kitchen
knock
knows.
lady.
laid
lately.
lay
less.
license
lip
loop
loser
mad.
mafia
maintain
make.
mama
march
marketing
maybe,
meant.
men,
mentioning
messing
mindset
moderate
moment,
moms
morons
mouth.
movement
murdered
naked
next.
nice!
nights
notes
nothing,
obviously.
off?
offered
ok?
omg.
once,
one?
oof
ooh
oooh
opens
opposite.
opposition
optimistic
ours
ourselves
paint
panel
parts
party.
patch
patriots
peak
pee
phone.
place?
plane
please,
please?
politicians
pool
popped
possibility
pr
preferred
probably.
profile
pun
quarter
quoting
raping
reached
reason,
receiving
refer
rejected
relatively
replies
requires
response!
review
riding
rocket
root
saddest
saints
saturday
scenes
screams
scum
searching
season,
sentences
seriously?
service.
shake
shall
shits
should’ve
shout
shown
signing
simple.
snap
sorry!
sorts
space.
square
statement.
states.
status
steam
steel
steelers
still,
still.
struggle
struggling
such.
suck.
sue
switched
syndrome
tagged
tape
tbf
teaching
term.
terribly
texas
then!
there...
they’ll
though...
thought,
ticket
tips
title.
too...
touched
tournament
trap
trash.
trolling.
trouble.
try,
twice.
u.s.
uh,
understand,
updated
utter
vague
vid
visited
visiting
wage
warning
wet
wide
wings
wish.
women's
won.
wrong?
yeh
yell
yikes.
zone
😂😂😂
###
##&
##<
##=
##@
##[
##\
##^
##`
##{
##}
##~
##¡
##£
##¦
##©
##¯
##°
##´
##·
##ß
##á
##æ
##ç
##è
##í
##ï
##ñ
##ò
##ó
##ø
##ú
##ā
##ē
##ī
##ı
##ň
##ǝ
##ɐ
##ə
##ɡ
##ɪ
##ɹ
##ʌ
##ʍ
##ʖ
##ˈ
##̶
##͜
##͡
##δ
##ω
##я
##‍
##–
##—
##‘
##“
##„
##•
##…
##‪
##‽
##€
##™
##√
##≠
##▫
##☁
##☆
##☕
##☝
##☹
##☺
##♀
##♂
##♡
##♥
##♪
##♫
##⚔
##⚡
##⚰
##⛏
##✊
##✌
##✔
##✨
##❄
##❣
##❤
##⠀
##⠁
##⠃
##⠄
##⠇
##⠈
##⠉
##⠊
##⠋
##⠏
##⠓
##⠘
##⠙
##⠚
##⠛
##⠞
##⠟
##⠢
##⠦
##⠫
##⠳
##⠴
##⠶
##⠸
##⠹
##⠻
##⠾
##⠿
##⡀
##⡄
##⡆
##⡇
##⡏
##⡜
##⡟
##⡶
##⡷
##⡼
##⡾
##⡿
##⢀
##⢠
##⢣
##⢤
##⢧
##⢰
##⢸
##⢹
##⢻
##⢿
##⣀
##⣄
##⣆
##⣇
##⣕
##⣘
##⣠
##⣤
##⣦
##⣧
##⣴
##⣶
##⣷
##⣹
##⣻
##⣼
##⣾
##⣿
##⭐
##ツ
##中
##么
##人
##什
##你
##做
##加
##国
##在
##情
##查
##油
##清
##玛
##雅
##개
##면
##무
##병
##억
##인
##청
##허
##！
##？
##･
##🅱
##🇦
##🇫
##🇲
##🇵
##🇷
##🇸
##🇺
##🌈
##🌟
##🌹
##🌿
##🍀
##🍁
##🍍
##🍧
##🍩
##🍰
##🍻
##🍿
##🎂
##🎉
##🎏
##🎖
##🎣
##🎵
##🎶
##🏈
##🏊
##🏽
##🏾
##🏿
##🐃
##🐇
##🐊
##🐕
##🐢
##👀
##👁
##👅
##👉
##👊
##👋
##👌
##👍
##👎
##👏
##👐
##👑
##👓
##👨
##👩
##👴
##👸
##👻
##💀
##💁
##💃
##💄
##💅
##💆
##💋
##💎
##💓
##💔
##💕
##💖
##💗
##💙
##💚
##💛
##💜
##💡
##💥
##💦
##💨
##💩
##💪
##💭
##💯
##💰
##💲
##💸
##📚
##🔑
##🔥
##🔪
##🕺
##🖐
##🖕
##🖤
##🗑
##😀
##😁
##😃
##😄
##😅
##😆
##😇
##😉
##😊
##😋
##😍
##😎
##😏
##😐
##😑
##😒
##😓
##😔
##😕
##😖
##😗
##😘
##😛
##😜
##😝
##😞
##😟
##😠
##😡
##😢
##😣
##😤
##😥
##😦
##😧
##😨
##😩
##😪
##😫
##😬
##😮
##😰
##😱
##😳
##😴
##😵
##😸
##😹
##😻
##😾
##😿
##🙁
##🙂
##🙃
##🙄
##🙆
##🙈
##🙊
##🙋
##🙌
##🙎
##🙏
##🚀
##🚒
##🚓
##🚫
##🛡
##🤓
##🤔
##🤕
##🤗
##🤘
##🤙
##🤚
##🤜
##🤞
##🤠
##🤢
##🤤
##🤦
##🤨
##🤩
##🤪
##🤫
##🤭
##🤮
##🤯
##🤰
##🤲
##🤷
##🥀
##🥰
##🥺
##🦀
##🦈
##🦗
##🦵
##🧛
##🧡
