<unk>
<cls>
<sep>


!
"
#
$
%
&
'
(
)
*
+
,
-
.
/
0
1
2
3
4
5
6
7
8
9
:
;
<
=
>
?
@
[
\
]
^
_
`
a
b
c
d
e
f
g
h
i
j
k
l
m
n
o
p
q
r
s
t
u
v
w
x
y
z
{
|
}
~









¡
¢
£
¤
¥
§
¨
©
«
­
®
°
±
²
³
´
·
º
»
½
¾
¿
ß
à
á
â
ã
ä
å
æ
ç
è
é
ê
ë
ì
í
î
ï
ð
ñ
ò
ó
ô
õ
ö
ø
ù
ú
û
ü
ý
ÿ
ć
ě
ı
ō
ő
ş
ū
˙
̇
а
г
д
е
и
к
м
н
о
ủ
–
‘
’
“
”
…
★
♦
戒
色
！
ｃ
ｋ
ｏ
ｒ
the
and
of
to
is
in
this
that
it
/><br
was
##,
as
with
for
##.
but
on
movie
are
his
not
film
you
have
be
he
one
at
by
an
they
from
who
all
like
so
just
or
has
about
her
it's
some
if
out
##"
what
##s
when
very
there
more
##'s
their
would
good
she
even
##)
##<br
no
only
my
really
up
which
can
had
see
were
than
been
into
we
get
will
much
because
story
most
how
other
also
first
its
do
don't
time
great
make
/>the
people
could
me
any
after
bad
then
##.<br
made
being
think
##!
him
many
never
two
<br
where
too
little
##?
well
way
them
watch
your
did
movie.
does
it.
characters
best
love
know
character
these
##'
movies
ever
seen
##:
films
##;
while
plot
should
over
still
such
better
off
acting
those
film.
why
something
go
show
doesn't
through
makes
didn't
##ing
scene
say
real
movie,
going
back
find
new
i'm
scenes
film,
watching
every
actually
few
same
##),
nothing
life
man
another
lot
look
/>i
##ed
##).
quite
want
thing
end
seems
pretty
old
##ly
can't
before
got
part
take
give
actors
years
between
both
young
that's
may
things
thought
us
without
must
around
now
it,
director
i've
though
there's
own
whole
big
he's
saw
gets
isn't
horror
here
almost
always
come
last
cast
"the
work
might
bit
down
enough
action
##d
feel
least
long
since
probably
am
funny
fact
far
rather
each
found
trying
##y
kind
##..
our
having
interesting
world
original
guy
worst
comes
anything
making
right
however,
##s,
worth
##a
played
believe
done
goes
main
yet
plays
role
hard
put
point
especially
during
anyone
looks
/>this
different
##e
takes
looking
wasn't
series
music
script
seem
three
minutes
performance
away
shows
sure
maybe
someone
comedy
girl
tv
american
family
watched
times
##er
set
although
everything
woman
time.
john
simply
special
once
used
you're
fun
completely
seeing
left
everyone
##s.
##",
##i
sense
until
again
black
play
reason
--
use
high
well,
need
place
idea
try
second
given
true
truly
getting
help
keep
couple
ending
effects
money
instead
nice
came
less
along
dvd
read
##n
poor
said
day
gives
##".
##t
recommend
rest
excellent
job
half
full
tell
let
actor
##r
definitely
shot
went
start
war
next
enjoy
beautiful
(and
understand
playing
together
couldn't
screen
##o
audience
become
himself
small
supposed
doing
several
certainly
perhaps
early
fan
liked
hollywood
entire
against
absolutely
later
men
time,
often
star
wife
seemed
version
all,
hope
women
sex
totally
night
performances
book
felt
sort
(the
is,
year
death
##-
based
10
remember
becomes
lost
camera
waste
able
human
wonderful
live
them.
short
home
she's
top
kids
else
final
you'll
wanted
production
dead
under
that,
piece
line
loved
course
tries
friends
lead
classic
video
called
despite
one.
wants
starts
person
house
low
school
name
won't
father
they're
mind
story,
care
problem
stupid
him.
enjoyed
turn
gave
this,
already
turns
budget
moments
either
this.
perfect
i'd
finally
face
boring
guess
lines
written
extremely
group
kill
mean
itself
head
dialogue
took
well.
mother
favorite
me,
story.
title
guys
fans
me.
boy
looked
others
behind
expect
friend
and,
wouldn't
terrible
sound
dark
taken
beginning
decent
lives
fine
style
evil
##...
all.
fight
throughout
##es
killed
attempt
episode
entertaining
stars
film's
run
obviously
heard
highly
save
case
wrong
awful
good,
leave
white
/>if
sometimes
/>it
/>in
cannot
laugh
directed
known
direction
across
feeling
type
finds
exactly
good.
lack
stop
quality
picture
mr.
son
game
living
movies,
soon
movies.
late
coming
course,
complete
wonder
except
michael
thinking
##l
past
act
police
whose
life.
obvious
turned
close
says
particularly
car
somewhat
humor
killer
parts
taking
usually
robert
told
female
running
town
viewer
call
works
side
films,
matter
david
none
acting,
opening
fact,
including
strong
wish
here,
horrible
major
tells
huge
writing
worse
happens
single
james
themselves
important
children
amazing
knew
number
myself
##ness
characters,
##the
it.<br
drama
order
history
strange
city
bring
bad.
mostly
again,
ends
happened
started
beyond
clearly
shown
local
one,
brilliant
yes,
##on
due
giving
end,
way,
hour
stories
british
i'll
involved
way.
days
girls
##).<br
aren't
relationship
seen.
daughter
certain
serious
lots
that.
##m
here.
haven't
films.
supporting
miss
falls
out.
four
however
saying
bad,
kid
cinema
cut
named
typical
add
heart
appears
child
basically
talking
upon
but,
/>there
hit
/>but
french
kept
change
movie.<br
within
actress
easily
blood
moment
comic
brought
modern
apparently
him,
hours
again.
among
interest
bunch
similar
chance
knows
plot,
score
overall
middle
talk
is.
/>and
film.<br
near
using
stuff
feels
mention
simple
de
violence
hate
murder
nearly
whether
fall
usual
eyes
begins
power
working
end.
stay
released
genre
gay
romantic
/>
happy
sad
jack
slow
voice
cheap
husband
showing
so,
/>as
life,
sets
tried
/>a
hell
##in
easy
them,
##al
silly
clear
what's
body
documentary
killing
needs
light
attention
elements
who's
experience
english
george
happen
##!!
ten
character,
buy
##h
her.
flick
towards
hand
surprised
above
too.
you've
events
decided
funny.
hero
cool
annoying
funny,
song
art
five
##ers
shots
(i
leaves
previous
straight
##man
actual
possibly
view
yourself
example
filmed
learn
stand
age
room
sit
(as
became
career
(or
out,
on.
word
(which
greatest
ridiculous
richard
hear
leads
nor
talent
poorly
sexual
third
rent
musical
##!<br
forced
please
difficult
keeps
personal
brother
/>it's
gore
##k
various
means
famous
parents
jokes
oh
characters.
forget
problems
on,
##."
reading
also,
comments
sequence
level
peter
imagine
possible
somehow
alone
avoid
sequel
deal
roles
fairly
move
tom
theme
gone
red
##g
cinematography
doubt
realize
##an
reality
hilarious
total
manages
up.
interested
tale
whom
brings
scary
eventually
message
##en
country
figure
appear
dialog
now,
though,
general
##and
viewers
male
unfortunately,
meet
##',
begin
meets
incredibly
points
check
scenes,
crime
storyline
review
plenty
watch.
worked
up,
team
ones
york
words
leading
unfortunately
enjoyable
fast
future
average
television
emotional
hold
meant
pay
novel
writer
moving
reviews
former
open
paul
better.
create
deep
songs
unless
say,
you.
features
powerful
front
(a
mystery
whatever
telling
crew
form
expected
god
older
dramatic
then,
battle
write
needed
feature
minute
cop
premise
effort
caught
sequences
political
hardly
##ic
herself
show.
expecting
western
work.
##..<br
(who
dr.
rich
monster
follow
scene,
uses
king
subject
sci-fi
william
##,"
there.
particular
##it
there,
unlike
comment
footage
japanese
20
lee
sounds
writers
spent
decides
man,
outside
joe
episodes
memorable
plain
slightly
created
earlier
unique
cheesy
##'.
we're
etc.
viewing
'the
neither
question
lady
considering
attempts
character.
fighting
class
fails
deserves
portrayed
secret
theater
social
##le
crap
fantastic
let's
result
stage
release
##ie
compared
waiting
disappointed
perfectly
space
wait
large
pure
quickly
inside
people,
sorry
##p
copy
van
box
weak
##s"
badly
married
brothers
period
soundtrack
spend
dog
eye
free
lame
comedy,
filled
dull
german
gun
realistic
return
amount
forward
editing
hands
ways
present
harry
talented
entirely
rating
times,
filmmakers
"i
die
decide
italian
runs
truth
...
animation
appreciate
plot.
you,
missing
suddenly
involving
plus
follows
sees
portrayal
agree
people.
seriously
wasted
entertainment
predictable
hot
(in
her,
surprise
admit
following
years.
background
setting
thriller
biggest
rock
weird
atmosphere
visual
actors,
common
material
break
said,
fit
screenplay
basic
oscar
##u
popular
thinks
bill
shame
suspense
laughing
public
recent
made.
crazy
/>what
familiar
ask
##ist
in.
leaving
showed
be.
earth
##able
great,
##*
clever
ended
moves
sister
barely
silent
alien
wrote
likes
otherwise
odd
ideas
force
weren't
mark
world.
##or
twist
escape
opinion
show,
situation
air
further
remake
violent
screen.
directors
ago
utterly
starring
##ity
believable
cult
effect
apart
cover
##!"
sam
##but
##is
today
science
nature
romance
solid
creepy
producers
ultimately
business
work,
knowing
bought
generally
recently
boys
scenes.
positive
thrown
too,
casting
credits
historical
doctor
minor
state
it!
charles
times.
glad
society
great.
party
college
island
bruce
role.
consider
mysterious
produced
members
trouble
pick
##us
managed
movie's
comedy.
concept
directing
zombie
bored
speak
prison
street
rare
disney
/>so
focus
loves
younger
dance
explain
script,
cause
potential
30
longer
##c
credit
girlfriend
ok
season
america
cast,
detective
first,
##re
successful
kills
puts
considered
failed
more.
##ting
##!!!
##")
catch
cinematic
imdb
gang
dumb
impossible
was,
/>my
effective
not.
normal
acting.
fantasy
martin
series.
likely
touch
you'd
/>all
finding
joan
cute
scene.
fear
acted
mentioned
bizarre
added
hoping
chemistry
choice
development
indeed
la
series,
##b
indian
years,
central
superb
success
thanks
director,
drug
intelligent
10.
in,
nobody
##y,
company
much.
stuck
off.
later,
adds
ability
aspect
missed
music,
shooting
tough
##ling
##z
exciting
giant
studio
off,
beauty
changed
dream
standard
control
immediately
incredible
military
reasons
constantly
know,
15
list
##ia
##ment
sitting
was.
do.
lacks
rate
slasher
died
shoot
frank
surprisingly
##er,
##ion
adult
##ry
throw
fully
note
teen
##?<br
cartoon
questions
remains
walk
equally
sent
animated
changes
love,
##!)
literally
pull
baby
seemingly
value
falling
either.
master
pointless
presence
terms
chase
notice
henry
##ism
appearance
makers
##ation
convincing
becoming
pace
##-like
##less
/>one
contains
laughs
no,
lovely
mess
world,
beautifully
store
train
merely
shouldn't
walking
bob
natural
fake
respect
villain
allowed
amusing
naked
south
action,
stands
together.
/>for
complex
computer
ghost
mary
situations
steve
absolute
suggest
office
##ian
singing
##rs
government
road
billy
excuse
fire
cold
##ly,
tension
place.
hasn't
water
brief
win
worthy
depth
issues
mean,
scott
inspired
mainly
reminded
sweet
plan
putting
thing.
anyway,
enough,
lived
robin
thats
ok,
available
include
innocent
language
offers
serial
stick
charlie
everybody
kevin
teenage
mad
won
army
lets
six
slowly
##f
wild
acts
best.
race
attack
held
jason
oh,
impressive
paid
sexy
suppose
with.
images
provide
supposedly
chinese
opportunity
presented
did.
performance.
support
provides
still,
turning
surely
##nt
delivers
nudity
thus
building
hair
about.
aspects
bother
sick
match
rented
"a
mood
pass
era
ever.
jim
cast.
disturbing
minutes.
##ted
flat
share
yet,
fair
random
minutes,
drive
mike
news
blue
key
twists
ride
onto
appeal
subtle
tired
born
fun.
##?"
man.
##ally
negative
self
mix
point,
ben
##a,
painful
search
##ies
##el
heavy
meaning
audiences
example,
magic
pathetic
culture
terrific
funniest
movie!
humour
sense.
student
wondering
wrong.
hated
laughed
continue
day.
wearing
aside
comedic
not,
role,
##e,
##th
martial
tone
book,
channel
land
speaking
wanting
fresh
##te
revenge
instead,
boring,
grant
honest
brain
independent
smart
##st
day,
somewhere
away.
band
beat
led
man's
moral
details
million
effects,
ready
masterpiece
carry
rarely
(not
captain
moved
thing,
filming
impression
lose
bloody
drawn
honestly
values
willing
trip
##ch
actors.
joke
project
camp
interesting.
thank
extra
proves
soldiers
allen
asked
discover
favourite
journey
picked
awesome
vampire
describe
made,
bond
##s.<br
agent
appeared
developed
step
##ized
actor,
russian
case,
helps
unusual
purpose
though.
80's
fell
blame
ending.
green
really,
character's
jane
member
ship
fellow
impressed
touching
##this
comedies
dennis
narrative
to.
books
feelings
overall,
redeeming
track
/>when
edge
followed
includes
script.
fiction
girl,
faces
sure,
##s'
bottom
chris
door
double
law
seen,
tragic
adventure
mixed
##la
(with
confused
names
now.
boring.
cat
places
wife,
constant
money.
tony
awful.
holds
jones
spirit
gangster
genuine
physical
watch,
##ton
90
actresses
damn
intended
job.
themes
book.
##x
cgi
helped
information
charming
deliver
##ra
done.
introduced
returns
dvd.
eddie
original,
outstanding
time.<br
century
genius
superior
pictures
##ous
accept
else.
nowhere
other.
right.
ahead
hidden
prove
##ful
##ne
fascinating
nasty
dancing
ms.
pieces
afraid
hand,
it?
before,
creature
disappointed.
emotions
before.
seven
adaptation
allow
christopher
do,
long,
personally
producer
color
keeping
see.
unknown
##na
dad
entertaining.
grand
likable
okay,
asks
food
pop
quick
yes
element
flying
numerous
critics
direct
limited
mediocre
hits
arts
sat
##)<br
photography
responsible
understanding
approach
rated
realized
sadly
foreign
surprising
woman,
better,
family.
prince
toward
accent
americans
creating
interesting,
religious
trust
angry
aware
queen
(if
adam
be,
##ish
flick.
hotel
boyfriend
ending,
forces
happening
apartment
##0
count
creative
judge
##as
deserve
costumes
desperate
director's
back.
gonna
one's
whenever
##er.
calls
dirty
part,
cinema.
image
shock
began
compare
murders
porn
##ter
award
christmas
opinion,
zombies
##ing,
howard
president
smith
victims
(like
heroes
mom
reminds
students
super
loud
marriage
sheer
don
featuring
so.
build
climax
dying
##ce
cliché
cross
much,
music.
okay
exception
festival
mental
today.
learned
victim
##".<br
##ate
driving
extreme
moments,
motion
starting
terrible.
/>i'm
/>to
besides
deeply
gotten
opens
/>you
alive
love.
ultimate
audience.
holes
manage
struggle
who,
##?)
genre.
growing
heads
loose
himself.
overly
teacher
till
##ble
apparent
taste
##o,
soul
##r,
best,
guy,
plane
##ts
met
performance,
therefore
treated
attractive
discovers
forgotten
commentary
difference
offer
bigger
together,
dean
fun,
involves
bits
relationships
short,
today's
aliens
christian
down.
##ar
itself.
jerry
expectations
humor,
original.
professional
ray
skip
stunning
addition
answer
ed
spot
them.<br
compelling
father,
williams
family,
finished
hopes
lacking
london
point.
suspect
##--
dealing
european
intriguing
night,
other,
psychological
screen,
brutal
detail
pulled
regular
twenty
ugly
epic
moore
scientist
week
with,
thin
whilst
confusing
technical
unbelievable
capable
drama,
gorgeous
location
thoroughly
current
charm
dangerous
disappointing
lover
native
shocking
##se
breaks
loses
relate
unable
mexican
quiet
states
##-up
##ley
stone
intense
lucky
hadn't
majority
sean
they've
to,
jean
##ive
alan
bright
broken
fights
industry
virtually
west
ago,
animal
eat
kinda
park
woody
##son
bar
captured
lies
necessary
stock
boss
conclusion
folks
ring
standing
grace
hurt
trash
##ine
##ty
genuinely
low-budget
##he
date
fat
mistake
criminal
leader
station
##...<br
impact
originally
pain
reach
adults
##ner
are,
deals
recommended
saving
somebody
terribly
watching.
normally
phone
sense,
artistic
flicks
spanish
##ey
(even
(for
bringing
planet
private
scenery
sex,
wooden
dialogue,
emotion
/>at
/>while
actions
knowledge
vote
70's
collection
powers
hitchcock
sign
international
lighting
like,
we've
anthony
davis
mind.
right,
/>not
enough.
price
fan,
nick
death.
games
meeting
mission
months
proved
radio
see,
stephen
night.
painfully
pilot
wonderfully
##w
below
higher
issue
done,
over.
personality
travel
anybody
friends,
garbage
murdered
(played
anime
for.
remain
100
occasionally
performances.
thomas
ago.
disaster
eating
##1
largely
saved
villains
yeah,
##d,
##ma
content
dreams
national
##est
noticed
rescue
roger
dies
mrs.
portrays
##e.
##land
affair
continues
others.
patrick
##ed,
beautiful,
history.
ice
memory
witty
gary
gold
grew
plots
practically
roles.
steven
talks
"what
##ge
academy
direction,
listen
loving
mother,
nicely
officer
##ated
according
allows
well.<br
##my
finish
ground
hospital
jump
lord
ran
seconds
cops
empty
united
(although
douglas
received
utter
##led
explanation
away,
exploitation
scared
through.
village
##ll
sea
/>overall,
noir
picture.
place,
sell
steals
streets
violence,
holding
latter
pleasure
combination
partner
##"<br
##ck
##ke
capture
described
essentially
machine
terrible,
u.s.
action.
ii
something.
al
crap.
experience.
jeff
jennifer
loss
things.
wars
worse,
wrong,
justice
pulls
asian
asking
childhood
evidence
laughable
losing
twice
50
crawford
horribly
reviewers
worse.
##3
(though
crappy
fred
included
spends
summer
##--and
/>after
himself,
ordinary
trailer
walks
##ng
energy
event
remarkable
winning
choose
chuck
johnny
passed
steal
theatrical
##r.
/>on
cable
cry
gem
hearing
money,
pacing
performances,
reason,
visit
design
discovered
relatively
##to
believes
fox
graphic
grow
moments.
north
remembered
##d.
/>with
deserved
realizes
budget,
more,
pair
woods
conflict
effects.
learns
marry
viewed
lewis
produce
southern
suffering
unexpected
##2
##et
built
claim
gene
grade
one.<br
assume
cameo
connection
flaws
intelligence
vhs
zero
area
destroy
featured
house,
manner
owner
revealed
treat
uncle
unnecessary
opposite
study
(but
commercial
finest
individual
tears
brian
dressed
stayed
club
filmmaker
horse
movie?
sheriff
back,
genre,
haunted
ancient
here's
professor
actor.
around,
desire
dracula
fly
kick
references
tim
##red
gory
legendary
send
us.
##i,
bed
nazi
##no
holmes
sleep
memories
range
survive
##t,
/>some
exact
parody
clichés
focuses
home.
legend
of.
players
seriously,
##ping
accurate
fill
matt
own.
post
provided
skills
awkward
bank
blind
delivered
metal
numbers
process
shocked
teenagers
wear
creates
explained
joy
portraying
tend
brilliantly
cuts
endless
mind,
mr
portray
smile
today,
##ier
##n,
down,
strongly
breaking
classic.
emotionally
length
nuclear
paris
record
speaks
stupid,
torture
trapped
unfortunate
artist
bear
bodies
brown
concerned
feet
part.
source
themselves.
##de
around.
efforts
guns
humor.
soap
veteran
wedding
blow
julie
murphy
tragedy
us,
convinced
fail
golden
him.<br
humans
presents
system
hide
least,
remotely
rose
underrated
wayne
serves
##??
cars
caused
generation
humorous
son,
suffers
war,
blonde
engaging
eric
fits
tape
develop
draw
hanging
media
rape
story.<br
stuff.
walked
wide
##da
****
are.
job,
lesbian
multiple
passion
spoil
community
know.
mouth
shallow
stopped
theatre
##by
edward
ruined
women,
##nce
##ve
crash
itself,
sympathetic
director.
drunk
facts
treatment
year.
awful,
boy,
drop
enjoying
rise
stupid.
cant
greater
/>however,
dinner
##ant
death,
edited
locations
searching
vision
which,
actually,
andy
paper
##ped
/>that
alex
flashbacks
supernatural
teens
types
/>we
decision
horrible.
identity
twisted
##ny
anyway
cutting
debut
insult
jackie
stolen
window
witch
"you
##a.
about,
adding
anywhere
context
display
ever,
field
gags
hired
latest
lovers
plans
reaction
abandoned
audience,
claims
film!
friend,
gratuitous
hong
of,
opera
results
slapstick
vincent
##4
##ta
arthur
board
directly
dvd,
face.
proper
tiny
urban
could've
experienced
refreshing
war.
witness
cinema,
fbi
finally,
magnificent
writing,
/>even
absurd
boat
closer
ryan
soldier
warner
(especially
encounter
round
sides
stars.
youth
##les
beach
deadly
downright
initial
regarding
serve
things,
would've
/>now
cash
center
curious
dated
ford
occasional
others,
russell
wealthy
wears
appropriate
disappointment
join
men,
true,
##tion
##v
attitude
committed
contrast
drag
raised
watchable
##ring
clothes
entertaining,
pleasant
prefer
shot,
sight
this.<br
depressing
desperately
explains
stereotypical
struggling
why?
##ent
bomb
carries
father's
hopefully
monsters
research
sadly,
weeks
wise
12
contrived
drama.
gas
heavily
max
reviewer
speech
talents
wall
cinematography,
floor
inner
spoilers
##me
(he
barbara
driven
enter
friday
indeed,
instead.
protect
reminiscent
(it
bland
hilarious.
kinds
paying
reason.
scare
tv.
##ary
40
anything,
behavior
fashion
strength
throws
amongst
and/or
career.
people's
realism
style,
sudden
##ize
ain't
convince
figured
friends.
imagination
laugh.
lines,
sing
test
werewolf
##um
children,
contemporary
depicted
excited
guy.
handsome
insane
##h,
me.<br
recall
anna
bet
changing
days.
fault
frame
grown
lousy
lower
performed
satire
seriously.
accident
dark,
lives.
over,
spite
##ro
flick,
mere
placed
prime
shark
very,
vs.
##am
##ating
ball
beginning,
dreadful
forever
influence
mainstream
served
style.
accidentally
donald
excellent.
girl.
goofy
gore,
nightmare
pile
player
reveal
security
singer
sum
texas
jackson
starred
suicide
##-out
##way
ann
anything.
does.
else,
guest
home,
house.
massive
praise
product
screaming
sequels
whoever
##5
##man,
/>there's
amazed
another.
clean
handled
remote
traditional
##dy
bothered
captures
children.
kids,
kong
that.<br
via
##at
##il
attempting
chosen
critical
danny
deeper
kelly
mine
regret
this?
vehicle
##.)
advice
desert
drinking
he'd
heroine
horror,
model
reporter
satisfying
universal
words,
b-movie
calling
determined
dozen
entertainment.
initially
interviews
possible.
proud
rip
touches
##7
##ding
##ss
comparison
helen
life.<br
throwing
formula
hey,
obsessed
production.
saturday
way.<br
##os
did,
for,
linda
sensitive
susan
drugs
enemy
no.
blown
canadian
carried
dogs
long.
san
seek
wife.
##es,
account
attacked
chief
creatures
dress
nude
pretentious
required
spectacular
visually
classics
elizabeth
hunter
later.
los
necessarily
soft
##-year-old
##ging
##ious
all.<br
dead,
dialogue.
highlight
make-up
novel,
warm
woman.
##ed.
##y.
/>of
guilty
line,
predictable,
unfunny
cartoons
excellent,
game.
thoughts
wind
##ky
##ness,
crowd
episode.
lesson
lloyd
real.
cost
haunting
lights
promise
raise
segment
tedious
variety
##);
##s)
(at
animals
chose
court
dead.
driver
failure
insight
mess.
robot
##..and
##on,
cary
dollars
interview
young,
author
beast
direction.
fate
hang
lake
otherwise,
over-the-top
quirky
sympathy
wood
##ns
anne
anyway.
children's
clue
contain
conversation
daughter,
flashback
related
think,
(one
/>-
/>then
anderson
arrives
executed
humanity
lonely
protagonist
suit
version,
/>don't
cagney
deaths
jewish
kate
learning
luck
ruin
spoiler
suffer
sword
##do
ass
covered
daniel
destroyed
hole
mob
nothing.
prior
rules
struck
written,
batman
erotic
forgot
history,
riding
rights
buying
meanwhile,
notable
slow,
##:<br
amazingly
australian
costume
false
happen.
line.
morning
service
stereotypes
unrealistic
(this
2.
days,
go.
raw
##men
(including
adventures
closing
favor
forest
kids.
miles
oil
teenager
##if
causes
dubbed
jr.
lot.
remind
tight
##king
amateur
cultural
here.<br
ignore
lines.
matters
reference
site
##"),
##ard
african
charge
eyes.
priest
rental
reveals
surreal
##ff
england
heart.
old,
passing
previously
repeated
sharp
##ably
##ur
bollywood
frankly
freedom
joseph
laura
recognize
##a's
##ing.
delightful
gritty
offered
relief
roles,
spending
true.
13
facial
families
hill
letting
nominated
picture,
so-called
visuals
ways.
##ly.
arms
believed
core
devil
forth
halfway
laugh,
mildly
picks
pink
safe
seat
skin
sounded
stays
surrounding
version.
80s
cares
complicated
depiction
designed
experiences
film-making
football
friendship
julia
ladies
louis
target
actress,
bette
cruel
embarrassing
finale
flynn
magical
rob
/>although
gordon
logic
non
perspective
revolves
ripped
rough
sake
another,
dunne
hint
ninja
roll
scream
##....
church
end.<br
makeup
play,
shop
sinister
stood
succeeds
episode,
face,
helping
propaganda
school.
seeking
significant
tall
understood
decade
lucy
purely
real,
speed
terrorist
year,
##well
perform
##-looking
civil
device
gain
god,
handle
hundred
mindless
powell
technology
versions
##ial
believable.
crying
future.
sandler
wasting
women.
##per
aged
dan
factor
fans.
heck
inept
shoots
terror
unlikely
##8
drink
horrific
interest.
outer
prepared
qualities
royal
sarah
standards
wanna
clichéd
express
faithful
flesh
greatly
irritating
jimmy
naturally
school,
stops
underground
achieve
base
contact
glimpse
j.
print
production,
side,
##der
campy
different.
handful
hiding
horrible,
naive
walter
##ure
fish
go,
instance,
kim
locked
nonsense
reputation
star,
##ness.
(of
dry
execution
greek
irish
like.
statement
term
touched
welcome
##t.
corny
eight
increasingly
out.<br
promising
rubbish
sun
warning
correct
film?
indie
internet
is.<br
leslie
mature
network
princess
##one
appealing
daily
disgusting
fan.
grows
throughout.
vietnam
/>another
/>so,
frightening
gruesome
harold
level.
psycho
through,
twin
dick
focused
korean
man"
marie
oliver
on.<br
screening
whereas
##-style
carrying
choices
examples
exist
godzilla
guys,
happened.
massacre
simon
sorry,
struggles
talent.
uncomfortable
##l,
bugs
combined
east
equal
game,
masterpiece.
rolling
sir
spoiled
##iness
birth
bitter
brother,
consists
faith
first.
thousands
weapons
##!).
##ning
again.<br
bus
challenge
introduction
tour
##ers,
##ned
allowing
delivery
lesser
paced
page
separate
sequel,
silver
titles
uk
why,
(no
either,
far,
something,
turner
chick
everyday
mickey
nudity,
pleasantly
section
sold
solve
##izing
dull,
frequently
fu
funnier
irene
pity
routine
suspense,
town,
tribute
what?
##it's
belongs
excitement
fallen
fine,
mother's
once,
par
say.
##").
##id
chainsaw
dollar
idiot
opposed
plastic
reasonably
sleeping
tommy
##ily
city,
entry
fans,
harsh
jungle
quest
rachel
shot.
albeit
cynical
etc
extraordinary
flight
offensive
plus,
score,
stories,
(that
/>they
attempted
broadway
cannibal
drives
laughs.
sleazy
structure
thriller.
##bly
##ger
##istic
/>anyway,
amazing.
buddy
flash
hunt
levels
marvelous
obscure
past,
poor,
sex.
sisters
sophisticated
spy
strangely
suspenseful
tv,
##ct
##her
acted,
danger
demon
kung
recommended.
stated
stealing
training
while,
##ay
annoying.
blood,
city.
eyes,
listening
program
ridiculous.
##field
/>by
beloved
countless
killers
mask
millions
obnoxious
voices
von
balance
bears
head.
i,
kidnapped
name,
packed
that?
two,
victor
why.
woman's
##ee
(john
attacks
candy
degree
mass
medical
minds
moon
slight
strike
subsequent
they'd
tied
trick
##er's
clips
effectively
foot
husband,
infamous
jokes,
remaining
selling
title,
world's
##9
(except
associated
embarrassed
expert
expression
mother.
myself,
ron
rule
status
studios
##n't
broke
clark
happily
identify
market
murderer
piano
refuses
saves
spoof
thirty
2,
advantage
ashamed
connected
drew
existence
fictional
forgettable
forgive
he'll
hills
own,
shut
striking
town.
violence.
budget.
classic,
established
homage
ill
men.
right?
surprises
thriller,
##ance
##ged
act,
circumstances
concerns
dislike
evening
idea.
play.
rocky
stars,
survivors
##ler
##lin
child.
entertain
hero,
kirk
look.
matter.
parts,
perfect.
taylor
troubled
"this
##ps
camera.
dragged
gross
guard
honest,
maria
movement
per
pool
position
shows.
sports
unbelievably
asleep
baseball
breath
quality.
renting
winner
##ise
70s
blair
buried
case.
colorful
continuity
fame
storyline,
##lo
25
appearing
chasing
concert
father.
sets,
surface
tales
usa
ways,
##age
arrive
burning
curse
editing,
fool
movie:
peace
resembles
sexually
thousand
torn
unconvincing
while.
works.
##--the
##..but
##io
##ri
brad
california
castle
dialog,
escapes
fourth
jumps
league
nine
paint
path
repeat
successfully
they'll
vicious
worthwhile
"i'm
"my
##.the
##li
##m,
abuse
act.
alone.
guessing
instantly
neil
opinion.
regardless
andrew
causing
hundreds
load
push
teach
##ha
##ka
##ki
##up
does,
dropped
fabulous
holiday
lynch
simple,
stewart
sucked
watches
##er"
/>i've
corrupt
extras
gotta
mgm
stylish
sucks
theaters
uninteresting
amateurish
anymore
artists
brave
ensemble
france
hammer
mansion
poignant
reality.
rival
scenario
subtitles
unintentionally
viewing.
##head
##ms
##o.
america.
basis
blows
builds
glass
march
narration
overcome
pretend
racial
ranks
sadistic
screenwriter
star.
stole
talked
##..the
##e's
(to
attention.
country.
criticism
description
develops
fifteen
figures
flaw
flow
host
khan
please,
returned
shadow
sorts
suffered
thought,
views
##not
##you
cell
cooper
grim
hall
kiss
michelle
prevent
providing
reaches
returning
same.
##t's
anger
atmospheric
chaplin
crystal
dude
essential
honestly,
laid
matthew
quote
realise
replaced
smoking
terry
usual,
wit
##..i
##???
##ks
duke
head,
ironic
kid,
physically
rid
scary,
##ists
##sh
##so
carefully
convey
hell,
jumping
repeatedly
ridiculously
scale
sends
themselves,
##out
burn
eerie
jail
larger
mentally
once.
opened
pointed
portrait
says,
swedish
threat
truck
writer/director
##house
##j
##n's
##what
beaten
dawn
directorial
extended
goal
idiotic
importance
lawyer
offering
or,
past.
polish
predictable.
reasonable
sunday
this:
tree
tune
##6
##o's
aforementioned
appreciated
at.
child,
digital
drunken
era.
everything.
financial
good.<br
ken
neat
perfect,
person,
politics
reduced
river
sequel.
tons
too.<br
traveling
##i's
ambitious
authentic
barry
bound
burt
commit
expensive
gripping
johnson
planning
restaurant
revealing
sad,
second,
subplot
viewer.
##!!!!
adapted
age.
disappointment.
have.
india
parts.
racist
shortly
spoken
worry
##y"
/>like
accepted
assistant
creators
expressions
facing
her.<br
mexico
old.
romance,
silly,
snow
tricks
university
upset
video.
whatsoever.
wondered
answers
aunt
bogart
busy
criminals
farm
killer,
moment,
mountain
shines
suggests
ted
undoubtedly
##+
##ds
##ir
ages
coach
decades
el
everyone.
flawed
idea,
jesus
newspaper
rain
task
timing
urge
warn
##!),
##ised
##tive
1st
blockbuster
brilliant.
chance.
comical
encounters
errol
film;
lives,
proof
split
strictly
table
wins
##gs
##like
1.
angle
anymore.
caring
circus
cool.
enjoyable.
hoped
larry
pregnant
presentation
prisoners
properly
seasons
situation.
watching,
wilson
##how
##ible
##ism,
/>first
believing
courage
delight
directing,
freddy
hollywood.
kicks
murder,
period.
picking
typically
##'s,
##/
##es.
##nd
art.
awards
beneath
blend
exceptional
fonda
inevitable
killer.
laughter
object
originality
potentially
silence
stunt
##co
##in'
chilling
entertained
intellectual
lacked
look,
ludicrous
passes
producing
society.
specific
strikes
title.
##be
##ford
##that
grab
gradually
jonathan
movies.<br
politically
room,
shall
skill
beautiful.
cardboard
cool,
hitting
inspiration
least.
risk
stories.
substance
there.<br
##we
car,
competent
countries
crude
evil,
exercise
lying
matter,
nice,
prostitute
ruth
trek
wonders
wont
10,
actress.
attracted
bad.<br
camera,
dutch
garbage.
jobs
protagonists
punch
real-life
storytelling
surrounded
technique
throughout,
wolf
##?!
##ities
achieved
america,
better.<br
elderly
horror.
level,
material.
problem.
travels
twins
vast
wishes
##pe
/>well,
albert
chan
del
franco
girls,
harder
heart,
hilariously
insulting
novel.
planned
precious
primarily
scary.
sings
##for
accomplished
agents
angel
belief
brilliant,
devoid
enjoys
era,
fairy
lou
morgan
notorious
occur
rating:
seeing.
stomach
todd
tortured
tremendous
turkey
##a"
##ney
##ver
aging
confusion
hardcore
highlights
hollywood,
lazy
noted
press
shape
spiritual
willis
##ors
deliberately
effort.
enormous
gift
hilarious,
isolated
it)
lugosi
obsession
problems.
reality,
size
sky
wake
##'s.
##-minute
##ite
##sing
/>despite
age,
beats
brand
checking
crimes
fare
harris
primary
religion
##ming
carol
chaney
crafted
developing
faced
involved.
lie
nevertheless
possibility
rush
useless
##k,
##ot
agreed
annoying,
films.<br
hates
mafia
miller
removed
resemblance
roberts
secrets
superman
taught
technically
toy
##go
accents
attraction
bay
closely
cousin
definite
displays
dragon
franchise
hours.
lifetime
logical
meat
mel
outrageous
regard
response
retarded
rural
sole
stuff,
tense
tradition
##ko
argue
beating
bore
delivering
effect.
europe
halloween
involve
keaton
requires
signs
son.
st.
stranger
string
teeth
threw
up.<br
westerns
##-type
c.
conspiracy
everyone's
everyone,
extent
friendly
funny.<br
ghosts
harrison
maintain
melodrama
oddly
ok.
person.
represents
score.
then.
two.
waters
16
aired
atmosphere,
colors
daughter.
explore
lovable
many,
moment.
name.
productions
remarkably
scientists
stereotype
taxi
treasure
workers
##bs
10/10
antics
armed
brooks
bush
dealt
disagree
editor
explaining
indians
jessica
needless
novels
ones.
partly
release.
shows,
tear
worried
##ham
:)
career,
complain
disbelief
exists
girl's
hood
innocence
laughs,
lot,
melodramatic
resulting
scientific
strip
tcm
techniques
theater.
thrilling
##cy
##ence
##r"
/>now,
alas,
claire
doomed
dull.
happens.
hey
karloff
parents,
penn
rings
sub
unpleasant
watch.<br
wonderful,
##who
/>from
alone,
annoyed
art,
blowing
credible
department
dig
film:
frustrated
generic
hire
honor
hunting
ian
investigation
notion
official
personalities
scares
scripts
soundtrack,
suspects
##ery
##ia,
##ls
##s:
chances
concerning
connect
crack
devoted
discuss
drags
engaged
entertainment,
horrors
hours,
investigate
mistakes
mixture
rip-off
sister,
think.
upper
##--but
##ad
##m.
emily
escaped
frankly,
graphics
help.
kurt
l.
lucas
mid
performers
predator
ralph
really.
ruthless
writer,
##tte
bare
bobby
charisma
experience,
exposed
frankenstein
hopkins
movie)
parker
puppet
settings
sits
thankfully
truth,
uninspired
work.<br
##mer
##ron
##when
(by
/>an
absence
cared
dare
earth.
elaborate
enjoy.
fields
film)
garden
junk
lenny
listed
next.
solely
soviet
staying
vacation
villain,
##.i
##cent
##e"
##i.
##ical
##ice
##sa
##there
##ue
(from
/>overall
alice
amounts
beginning.
cabin
conclusion,
cowboy
guilt
health
influenced
it'll
miserable
nevertheless,
officers
root
seagal
steps
tad
weight
##-year
##h.
##ties
(such
2nd
because,
brutally
classical
currently
interest,
knock
monkey
poster
pulling
repetitive
sherlock
stanley
television.
"bad
##'d
##n.
80
alfred
attached
basically,
blatant
draws
enters
essence
mild
noble
overlooked
pet
topic
visiting
yourself.
##ving
/>"the
belong
bit,
characters'
childish
development,
freak
had.
imagery
interaction
japan
kicked
lessons
movie...
poor.
portion
receive
santa
tie
unforgettable
"it's
##man's
##wood
(i.e.
20th
burns
business.
combat
easier
francis
grandfather
holocaust
illegal
lisa
meaningful
misses
pretending
report
shy
slice
summary
"in
##med
##tes
11
always,
angles
battles
credibility
darker
groups
heroic
intentions
liberal
murder.
ratings
screams
sentimental
storyline.
stronger
stunts
universe
weapon
wicked
wow,
yeah
##ide
/>most
ad
affected
anyone.
beverly
cheap,
communist
continued
cruise
curiosity
dynamic
evident
experiment
happen,
hysterical
ignored
incident
letter
louise
mirror
murderous
proceeds
quaid
sacrifice
stiff
trash.
video,
wave
worst.
##%
##all
##ow
(it's
/>also,
/>he
3.
accompanied
afford
aka
backdrop
briefly
characters.<br
clues
con
consistently
covers
enjoyment
gentle
imaginative
is:
killed.
killings
le
narrator
ought
personally,
philip
reasons.
scorsese
seeks
smaller
stupidity
suits
tiger
##ers.
accused
afternoon
amazing,
apparently,
bbc
card
centers
chases
contained
darkness
destruction
headed
jet
performing
possessed
pushed
roman
success.
virus
weak,
wonderful.
yet.
(she
aimed
arrested
benefit
charismatic
comfortable
comparing
different,
explicit
gag
guy's
harvey
have,
joke.
movie;
occurs
philosophical
someone's
sweet,
vampires
warren
wwii
##--a
##r's
(they
/>director
/>how
admit,
aid
alternate
appearances
bag
catholic
demonstrates
eccentric
individuals
inspector
intention
legs
motivation
norma
project.
quality,
ridiculous,
show.<br
soundtrack.
spooky
start,
succeed
we'll
weekend
##'.<br
##00
##tic
8/10
abilities
along.
documentary,
guys.
joins
kennedy
liking
marks
occurred
rank
recorded
spin
##bing
##off
##tor
14
admire
bride
cheese
die.
disc
ellen
hence
intelligent,
interpretation
irony
knife
nurse
one!
pat
population
presumably
reads
receives
relevant
stretch
underlying
you.<br
##ball
alongside
atrocious
be.<br
clint
clumsy
crap,
dozens
heat
loads
painting
pays
revelation
similarities
song,
sure.
tarantino
thrillers
trio
vaguely
##"?
##even
##ising
/>why
buck
doll
everywhere
guts
hbo
jaws
meanwhile
persona
profound
psychotic
release,
sons
start.
suspense.
union
wes
wrapped
##c.
believable,
betty
broad
chicago
code
decisions
fond
kid.
material,
reached
shower
smoke
terrorists
trained
##iest
##just
all-time
can.
carter
cases
demands
earned
ex
granted
guests
guide
introduces
it...
justify
kudos
legal
problems,
rely
result,
short.
surprise,
thief
trade
##ded
##ile
##over
(brazil):
climactic
conversations
costumes,
funeral
general,
grave
perhaps,
raped
truth.
whatsoever
##)and
##ore
##y's
/>title
agrees
arrival
bit.
brothers,
chain
documentaries
exchange
framed
helicopter
midnight
naturally,
norman
poverty
staring
swimming
talent,
trial
viewer,
wilder
woo
##ga
##ization
##zing
4/10
broadcast
conventional
corporate
crucial
differences
disturbed
format
from.
germany
hat
hollywood's
ideal
intent
karen
maker
mighty
pace,
sequences,
shoes
strong,
superb.
theory
treats
trite
vs
writing.
##berg
(see
100%
45
50's
beer
bridge
britain
casual
couples
course.
die,
displayed
equivalent
fighter
finger
loyal
mitchell
nervous
realistic,
sequence,
spare
suck
suspicious
swear
wacky
were,
york,
##ates
##ber
##its
##ut
allen's
bullet
catherine
clown
describes
discussion
dubbing
environment
hero.
highest
husband.
leg
meaningless
note,
parallel
pride
quit
reactions
replace
shorts
sidekick
suggested
unbelievable.
##-time
##ction
##ing"
##kin
(i'm
acceptable
animation,
aside,
copies
detailed
directed,
earth,
explosions
hell.
lame.
lowest
masterpiece,
nail
severely
staff
sticks
teaching
titled
value.
ward
winds
##ca
##line
##ters
##ti
##which
##ze
assigned
chapter
controversial
eastern
foster
freaks
hype
jokes.
kicking
lane
link
menacing
mutant
premise,
shots,
sloppy
spread
store.
superficial
thick
washington
##ening
##rd
##s?
chicken
enemies
failing
fortune
hints
instance
it;
jamie
lay
lead,
maggie
minimal
navy
patient
prisoner
projects
props
relies
require
shine
thumbs
transformation
trap
white,
##')
##ism.
##lt
##they
18
bambi
campbell
characterization
composed
connery
considerable
fired
genius.
homosexual
hooked
intrigued
jay
landscape
laughable.
notably
notes
ourselves
pulp
relative
remained
rushed
smart,
##(
/>also
/>unfortunately,
24
bullets
challenging
china
condition
consequences
dave
development.
distant
fought
island.
marc
nancy
realizing
side.
vivid
world.<br
##ah
##an,
##chi
##in,
##ions
##izes
##rt
/>just
alternative
boy.
cameos
camera-work
closest
confrontation
daring
disappointing.
doc
errors
friend.
hardy
holy
jenny
jesse
messages
nearby
new,
rage
serving
spielberg
staged
superbly
toilet
wet
##gan
##ries
60's
cameras
category
defense
far.
forever.
fx
instant
manner.
owen
pleased
represent
screenplay,
videos
##ens
##ess
##g,
at,
blah
coffee
command
craft
credits.
diamond
documentary.
hearts
heaven
hip
hook
inane
iron
judy
miike
passionate
pitt
samuel
surviving
works,
##en,
##ified
##ld
##nie
##p.
##with
2)
admittedly
angeles
bernard
canada
cave
claude
cleverly
columbo
continually
dear
dedicated
doubt,
eastwood
feed
fitting
intensity
jealous
particular,
persons
phantom
philosophy
robbery
room.
settle
sexuality
spoke
warned
whole,
##...and
##hi
##his
##ina
##l.
##p,
3rd
adequate
argument
arnold
block
craig
endure
exotic
fancy
fears
impress
jerk
not.<br
rick
ross
sending
special.
tends
time!
turkish
unintentional
wished
##ments
(yes,
/>maybe
bucks
character.<br
commented
dialogues
exceptionally
fantastic.
gregory
hatred
humphrey
judging
method
photographed
satisfy
society,
storm
survival
ties
valuable
"it
##(the
##k.
##ker
audio
bela
car.
claimed
comedian
country,
duty
eve
everything,
girls.
innovative
island,
isn't.
joined
olivia
ones,
racing
recognized
roy
rubber
shares
showcase
slightest
violent,
women's
"why
##-off
##ji
##s!
##ya
(an
/>no
also.
catches
catching
chooses
come.
complaint
disease
eager
fine.
fooled
hand.
hitchcock's
improve
improved
inventive
june
knight
lame,
mst3k
neighborhood
offended
pack
people.<br
power,
pushing
raises
specifically
suited
theater,
ticket
view.
wallace
wound
##han
##lly
##ons
(there
(what
60
angela
cheesy,
coherent
corner
costs.
creation
derek
doris
drawing
executive
expected.
future,
laughably
react
secondary
seen.<br
situation,
slick
terrifying
useful
walls
##-movie
##ual
brilliance
cute,
damme
depressed
diana
earlier,
engage
episodes,
i.e.
investigating
jazz
loosely
mitchum
myself.
orders
purchase
robots
ruins
thrill
wishing
##,000
##rate
'em
19th
addition,
advance
big,
bleak
blew
colin
combine
constructed
culture,
depicts
empire
episodes.
et
finish.
germans
importantly,
lawrence
madness
owned
pathetic.
plot.<br
problem,
psychic
raymond
will.
##she
anyone,
books,
cameron
concern
dialog.
gangsters
gore.
hard,
juvenile
killed,
neck
odds
revolution
set,
shared
silly.
spell
superb,
trilogy
wannabe
##boy
##don
##py
("the
(you
2"
3/10
access
arm
banned
bird
butt
captivating
dialogs
events,
gothic
made-for-tv
nostalgic
popcorn
sequences.
seth
setting,
soon,
survived
tunes
unaware
user
vice
weakest
"so
##cing
##on's
##ress
##sed
##ville
.<br
/>*
border
boy's
capturing
celebrity
century.
cup
dire
dramas
girlfriend,
global
jews
perfectly.
pressure
rat
reviews,
sadness
scores
stan
suitable
transition
ups
waited
##o"
##where
adopted
africa
ali
areas
been.
blood.
burned
chased
corpse
cringe
discovering
discussing
evil.
exaggerated
explores
ginger
herself.
historically
involved,
jeremy
nazis
recognition
screwball
secretly
slave
spaghetti
subtlety
threatening
"american
"we
##-eyed
##-in
##low
/>perhaps
alive.
andre
estate
fatal
forms
frequent
ignorant
inappropriate
inferior
involvement
mouse
other's
outcome
plant
relationship.
review.
scripted
set.
splendid
sucks.
vague
wandering
wildly
##bo
##ked
##u,
1)
4.
beatles
closed
conan
demand
fashioned
gifted
grasp
grey
implausible
it:
medium
mtv
opinions
overwhelming
rating.
sad.
shadows
shake
strangers
trashy
undercover
"how
##-on
##hip
##ly)
advertising
body,
boris
depicting
directs
fortunately
inability
installment
lon
pan
points,
representation
review,
robinson
selfish
shirley
values,
villain.
web
"oh
##ak
##s",
##side
##uous
13th
additional
attitudes
care.
chance,
clive
damage
defeat
diane
dimensional
dr
earn
ernest
flat.
horrid
hugh
kid's
leo
lifted
luke
nowadays
off.<br
photo
poetic
possible,
rap
represented
satan
switch
symbolism
team.
theme,
thoughtful
trailers
try.
well-known
words.
##'re
##ory
1950s
barrymore
brains
coast
courtroom
discovery
drops
flat,
flies
floating
focusing
formulaic
happens,
leigh
library
list.
manager
margaret
month
one-liners
pages
painted
period,
places,
realistic.
similarly
slap
territory
viewers.
visits
wing
##d"
##fully
##ity.
a.
angels
awesome.
boxing
careful
clever,
convoluted
disjointed
endearing
endings
general.
lance
loser
mentioned,
messed
motives
mystery.
parent
photography,
principal
punk
referred
rides
rogers
scheme
show's
stellar
streep
subjects
surprise.
teaches
wholly
widow
witnessed
wore
##'ll
##gy
##why
(michael
arrived
atmosphere.
beings
benjamin
birthday
bottle
buster
crisis
foul
freddie
happiness
heading
ho
hour,
jake
police,
power.
quentin
quietly
reflect
respected
ultimately,
wreck
##ering
1/2
2000
7/10
attacking
breasts
bronson
calm
carl
cia
cook
cried
didn't.
futuristic
get.
lands
lasted
lifestyle
maid
movie"
obligatory
potential.
practice
prominent
raising
released.
severe
snake
thru
vengeance
you!
"good
"la
##!!<br
##?).
##some
##va
##z,
(his
/>though
1970's
amy
button
cage
campaign
deranged
expectations.
francisco
grotesque
hears
invited
nature,
nights
nothing,
party,
pot
prepare
randomly
rising
songs,
threatens
trademark
understated
valley
view,
wife's
wong
##ol
##que
##time
##very
/>watch
90's
angus
assumed
austin
b.
bumbling
careers
choreography
cinematographer
class,
cliff
critic
destroying
duck
etc.,
fairbanks
giallo
great!
handed
in.<br
italy
must-see
neighbor
orson
process.
responsibility
scenes.<br
text
top,
unfolds
what,
"death
##-down
##of
/>oh,
/>yes,
affect
background.
child's
defend
farce
forcing
generous
gray
guarantee
happening.
holden
humour,
idiots
irrelevant
marries
masterful
phantasm
somehow,
spider
stanwyck
tongue
tracking
voice-over
welles
whats
wounded
yellow
york.
yourself,
"no
##-made
##able.
##er)
##hing
##ies,
##im
##n)
##ni
##ral
/>1.
/>i'd
/>other
citizen
competition
convincing.
curtis
dog,
exciting,
fed
fifty
folk
glorious
glory
guessed
hostage
hughes
humble
kitchen
latin
mayor
moving,
murdering
mystery,
perfection
refuse
route
said.
screen.<br
screenplay.
seldom
sticking
therefore,
"don't
##al,
(also
(just
/>2.
arguably
comfort
daniels
darn
decent,
elegant
flicks.
goes,
granted,
happened,
herself,
inspiring
lana
language,
marketing
morality
more.<br
nowhere.
parents.
recording
scene.<br
sharing
shining
supported
suspend
television,
timeless
visible
worn
zone
##gle
##ity,
##nts
##ster
##t"
(all
/>finally,
/>its
3,
alcoholic
allan
besides,
breathtaking
candyman
chair
citizens
cold,
controlled
credits,
dimension
distinct
example.
fingers
g.
horny
loaded
magazine
montage
notch
parties
phil
plausible
precisely
pursuit
reaching
row
solution
sung
tale,
visions
voice,
wakes
worthless
##-american
##."<br
##?),
##uring
advise
america's
bell
business,
cinematography.
culture.
devices
entering
etc.<br
ha
hideous
horrendous
indiana
intrigue
introduce
lone
mason
merit
message.
mixing
moreover,
obviously,
pacino
promises
reflects
situations.
smooth
thrills
unit
watson
were.
writes
##):
##e)
##end
##mo
1930s
1970s
appreciation
attorney
balls
commander
compelled
conservative
contract
crazed
demons
emphasis
equipment
etc.)
eventually,
exploration
explored
festival.
firing
homeless
hour.
invites
lit
meryl
next,
noise
pants
plight
porno
regarded
resemble
rotten
since.
subjected
succeeded
sunset
wizard
##back
##ever
##rk
##tt
(after
affection
along,
behave
bible
charlotte
conclusion.
cue
dances
downhill
fascinated
favorites
hack
heist
him?
hugely
iraq
lost.
lust
malcolm
menace
metaphor
miscast
puzzle
quickly.
redemption
relationship,
retired
scenery,
simple.
small,
song.
unsettling
"if
##hed
##ran
##rs,
adorable
beside
blond
che
class.
date.
emma
guards
half,
im
incompetent
indeed.
jon
light,
literary
marked
nation
nonetheless
nyc
presenting
purchased
reno
sentence
spring
stark
twilight
viewer's
##_
##an's
##ations
##well,
/>john
ants
babe
bite
boredom
construction
did.<br
edition
enjoyable,
entitled
firmly
fix
flawless
games,
grade:
half.
honesty
invisible
keith
mummy
myers
pirate
pitch
points.
primitive
randolph
refers
regards
resident
ride.
scope
series.<br
shame,
thugs
versus
virginia
walker
weak.
weakness
wesley
word,
"one
##ini
##le,
##more
(robert
(when
***
ace
advanced
antonio
cars,
challenges
choreographed
colour
destined
effect,
exception.
graham
horses
hudson
imagination.
knocked
luckily
nomination
on-screen
one-dimensional
operation
piece.
pops
resort
rod
shots.
square
stumble
tension,
throat
tracks
twelve
worlds
yes.
"big
##em
##was
bat
bathroom
burke
change.
channels
comedies,
commercials
companion
conflicts
containing
credited
creepy,
cure
disguised
distance
doom
doug
duo
electric
eugene
family's
heck,
historic
hopelessly
lift
mini
models
murray
nicholas
phrase
pointless.
potter
promised
quotes
racism
randy
reluctant
rises
romance.
simultaneously
stranded
thinking,
trail
tribe
triumph
underneath
unoriginal
year's
(out
---
..
/>do
/>oh
abused
abusive
accident.
apocalypse
arrogant
bold
checked
compete
cop,
crashes
drugs,
education
english,
excessive
explosion
friend's
lighting,
monk
monster,
mundane
objects
online
prey
repeating
respective
sink
suburban
survivor
times.<br
topless
visited
water.
we'd
widely
##work
**
aboard
avoided
body.
bonus
crush
daughters
dead"
disappear
disappears
duvall
edgar
expects
festival,
fortunately,
genres
glowing
ingredients
joke,
journalist
king's
lab
lee's
levels.
macho
memorable.
newly
nose
often,
okay.
performs
pig
rather,
screwed
ships
simplistic
soon.
store,
sums
troops
voice.
was.<br
water,
##op
##s),
(some
aim
appalling
basement
believe,
buddies
cats
cities
combines
do.<br
drive-in
expect.
flaws,
incoherent
inexplicably
intimate
invasion
kane
lengthy
lionel
matches
motivations
phony
plague
satisfied
situations,
sixth
transfer
understandable
"b"
1/10
continuing
cream
delightfully
depending
disaster.
dropping
effort,
feel.
form.
going,
language.
me!
morally
peoples
poetry
preferred
psychiatrist
relation
remember,
shirt
spike
unhappy
with.<br
witnesses
##3)
##ba
##man.
##n"
(maybe
1950's
amusing,
been,
boys,
claiming
creativity
dating
depression
doctors
eighties
elm
follow.
iii
imagined
jeffrey
lasting
laws
mario
nightclub
pointing
prize
r.
rebecca
redeem
remove
resolution
revolutionary
riveting
sally
shore
specially
standards.
steel
strongest
such,
sympathize
tame
this!
troma
##is,
##ist,
abbott
adventure,
ambiguous
chest
comics
demented
destroys
dignity
expose
fiction,
forty
goldie
gone.
hindi
ireland
kind.
mentioning
orange
peak
photos
pirates
popularity
pretends
referring
sappy
scifi
team,
thrilled
warrior
wrap
written.
##day
##lan
##ris
/>that's
actor's
attention,
australia
awfully
crime.
derivative
either.<br
english.
fair,
hoffman
jumped
justice.
methods
movements
petty
photographer
pushes
romero
segments
sitcom
steer
teams
timothy
tonight
tunnel
week.
##'ve
##less,
/>still,
1,
2:
70
assassin
clothing
corman
couple,
coupled
crime,
dancer
dies,
doors
dorothy
dwarf
establish
events.
gained
grabs
grandmother
guitar
however.
imitation
invented
jill
lead.
marriage,
moody
morris
owns
patience
revenge.
rocket
rocks
shakespeare
sincere
sound,
stumbles
will,
winter
world"
wow
years.<br
##,and
##ie,
##land,
##ten
##zed
(well,
/>well
about.<br
appropriately
balanced
black,
chaos
close.
collect
copied
danish
die-hard
don't.
earl
etc,
fantastic,
frustrating
generations
guess,
holly
joel
leads,
lover,
mentions
muslim
no-one
office.
pal
place.<br
posted
reflection
refused
saying,
senses
shame.
sharon
shelf
smith,
spots
tank
testament
time)
triangle
vein
"love
##.."
##au
##ica
##rated
##us,
##za
(both
/>many
/>see
accent.
alive,
aspiring
blast
blatantly
bones
boss,
cheating
clear.
comedy.<br
composer
experimental
goodness
handles
height
horrifying
junior
keen
kidnap
lyrics
medieval
message,
musicals
namely
opportunities
ordered
pearl
playboy
positively
potential,
prison,
questionable
rear
recognizable
setting.
shaking
sometime
souls
threatened
titular
victorian
walt
worker
##**
##4)
##che
##ed"
##play
##q
##un
(where
/>8/10
alcohol
already.
audience.<br
bang
belle
biased
blade
blank
bored.
buildings
can,
dinosaur
distracting
divorce
economic
exploring
frances
hair,
household
industry.
jan
lasts
manhattan
marx
moronic
nelson
note:
panther
paranoid
preview
rejected
remade
she'd
skull
suffice
tempted
unseen
weather
##-headed
##-the
##den
##gh
##ja
##maybe
##o)
adaptations
address
agatha
akin
ape
astonishing
authority
champion
complaints
concept,
consistent
describing
disney's
emerges
flair
frozen
hangs
little,
marilyn
measure
minority
miserably
mistaken
nicole
niro
ocean
old-fashioned
provoking
rolled
rubbish.
senseless
shell
shift
slip
special,
stumbled
supply
tarzan
unbearable
unexplained
voted
##-man
##die
##ied
##ion.
##mi
##rn
##watch
/>two
airport
background,
beauty,
both.
burst
by,
cartoon.
charming,
choice.
coffin
comedians
complaining
crow
doctor,
dreary
drinks
gem.
hippie
humour.
kind,
l.a.
legends
li
lips
only.
pryor
reunion
sergio
sin
straightforward
stretched
stuart
success,
t.v.
tender
trees
underwater
uneven
waitress
wanders
website
##--it
##-faced
##b.
##body
##don't
##ell
##ino
##our
##s;
airplane
amazon
animation.
bin
bounty
brother's
businessman
by.
centered
christie
clock
collection.
concepts
confidence
confront
contribute
debate
difficulty
film-making.
frightened
high.
hitler
illness
middle-aged
northern
park,
person's
polished
pursued
serious,
spark
stooges
subtly
sue
taped
that!
theme.
thought.
thus,
viewing,
vital
watchable.
wow!
wrong.<br
ya
"real"
##";
##light
(aka
above,
assuming
avid
baker
billie
clothes,
confronted
died.
editing.
effective.
flag
folks,
form,
has,
heartbreaking
husband's
label
lackluster
laurel
means,
milk
mistake.
nature.
one)
places.
policeman
rates
rich,
same,
sequence.
sexy,
showdown
story's
styles
washed
##/10
##ane
##hood
##long
##s).
/>3.
9/10
all!
alright
annie
assassination
befriends
bunny
comparison.
conditions
crawford's
day.<br
doing.
dont
eaten
ego
engrossing
eternal
expense
femme
flashes
gather
imdb.
immediate
insists
mess,
minded
mutual
non-stop
openly
progress
project,
samurai
seventies
space,
species
stilted
surprised.
surprisingly,
thai
vastly
vegas
virgin
volume
walken
would-be
##...but
##...i
##a)
##b,
##c,
##ies.
##mp
##pt
##s".
(most
achievement
acting.<br
air.
amusing.
apart.
boasts
costello
definition
deserted
dies.
drove
dumb,
fascination
film).
from,
furthermore,
generated
greedy
griffith
guns,
healthy
identical
illogical
inevitably
internal
less.
lindsay
m.
mae
mile
progresses
respectable
ripping
shallow,
sketch
tag
tale.
terminator
them?
unpredictable
upcoming
wait,
"all
##.'
##des
##g.
##ians
##j.
##or,
##wing
(so
/>great
agency
aircraft
awe
borrowed
brother.
cards
charged
deep,
dirt
earlier.
empathy
feature,
fiction.
glued
god.
going.
highlander
imdb,
intentionally
issues.
josh
leaders
lee,
line:
maniac
minus
minutes.<br
missing.
motorcycle
outstanding.
pace.
planes
pointless,
question,
rating,
refer
resources
rooting
run,
season.
seeming
sketches
slater
some,
spirits
stress
word.
##***
##board
##ew
##nes
(james
/>having
60s
admits
adolescent
agenda
area.
bergman
billed
bombs
disappeared
district
do?
emmanuelle
fathers
fishing
flicks,
gibson
god's
hal
help,
ideas,
ii,
immensely
injured
interests
kay
las
leonard
letters
marine
miniseries
myth
nails
nightmares
overdone
pale
partially
performer
personality.
property
purple
rebel
rooms
satirical
son's
sutherland
tower
un
"get
##ative
##ett
##let
##oh
##om
##ton,
##ude
*****
/>but,
approaching
associate
awake
bad!
charm.
clockwork
demonic
directors,
drivel
encourage
hope,
introducing
it).
meg
party.
peculiar
premise.
screenwriters
screw
secretary
signed
sneak
space.
standards,
suspension
thing.<br
topics
travolta
trend
twist,
vintage
wives
"when
##ment.
##nic
##point
##try
##é
/>she
17
1980's
acclaimed
as,
attract
audience's
baldwin
believe.
bernie
books.
caine
conveniently
corruption
crooked
daddy
demanding
depends
disappoint
dysfunctional
eats
expressed
eye.
guess.
it`s
lethal
likewise
made.<br
making.
marriage.
miracle
moore's
much.<br
natalie
nice.
overrated
piece,
released,
safety
soul.
sounding
static
teachers
unfair
value,
warmth
##can
##cher
##ration
##ves
/>i'll
/>these
altogether
attend
beauty.
behaviour
building.
clueless
convincingly
countryside
defined
dubious
egyptian
expect,
experiments
grateful
greatness
laughing.
likable,
marvel
muddled
mysteriously
nonsensical
now.<br
proceedings
producer,
realised
realm
rendition
should've
shouting
sidney
smiling
stage.
subplots
viewers,
vulnerable
weird,
widescreen
"that
##000
##ade
##ally,
##on.
##ric
##val
##ward
5.
accent,
alter
anyone's
artificial
basketball
climax.
close-ups
confident
desperation
dinosaurs
educational
footage,
frustration
glamorous
glaring
gorilla
hard.
hockey
hokey
hopeless
jones,
lends
lion
live.
minimum
modest
mrs
office,
punishment
recently,
rude
russians
safely
sandra
slaughter
sleaze
stage,
substantial
token
uniformly
unsuspecting
vulgar
wider
wretched
##"!
##--i
##-minded
##bi
##fied
##l's
##oy
##ple
/>where
1960s
21st
abysmal
amusement
blake
butler
challenged
cheer
chow
detectives
edwards
ending.<br
explosive
fashion.
filmed.
fortunate
gems
gun,
hannah
helpless
immature
jersey
jordan
little.
neurotic
out!
overacting
patricia
produces
proving
purpose.
quarter
ronald
season,
setup
shifts
shoddy
spain
stages
tacky
tax
tea
tiresome
top.
troy
wasted.
western,
worst,
wow.
yelling
you?
"little
##`s
##ment,
/>good
accurately
adore
approaches
april
bands
battling
bedroom
before.<br
berlin
bloom
cannon
circle
civilization
claustrophobic
company.
contrary
deceased
deserving
doubts
embarrassment
enhanced
escaping
expected,
flip
games.
handling
has.
hurts
ideas.
insanity
jacques
jewel
kurosawa
light.
lively
midst
monks
nicholson
overlook
possess
possibilities
powerful,
publicity
questioning
slow.
sly
transformed
translated
voyage
##-life
##ast
##away
##ching
##di
##ers"
##i)
##matic
##ul
accepting
admirable
anywhere.
authorities
avoid.
boyfriend,
cheated
chicks
convinces
desires
disgusted
disliked
e.
elite
en
exploits
fact.
favour
flaws.
intelligence.
interactions
kingdom
kyle
loy
mothers
new.
obvious,
owes
pray
prison.
promote
rats
relatives
ricky
sale
shed
sometimes,
songs.
stopping
symbolic
synopsis
to.<br
wright
youthful
##ana
##hard
##mond
##now
##rick
##ry,
/>avoid
absent
amused
andrea
communicate
conveys
da
dante
date,
deaf
dealer
deleted
deny
disastrous
dose
else.<br
emotions,
entered
exposition
had,
hand-held
hogan
homosexuality
hung
knocking
looney
marrying
none.
passengers
relationships.
role.<br
roots
say?
sci
set-up
snoopy
sorority
subsequently
tears.
temple
understand.
yesterday
##-ish
##-line
##able,
##ator
##ened
##ert
##fire
##gling
##rey
(on
/>rating:
1000
2/10
after.
angst
average,
blues
bow
casts
colbert
commits
corpses
creator
disco
dolph
dumped
feeling.
film-makers
forrest
garner
hayes
he,
herbert
hospital,
houses
inexplicable
intense,
juan
king,
lancaster
landing
leather
lieutenant
limits
lock
lynn
mark.
masked
matched
mini-series
nowhere,
o'brien
occasion
on!
rainy
reasons,
remake.
reviews.
roller
romp
savage
scottish
selected
steam
takashi
technicolor
told,
too!
twist.
uncut
veterans
w.
##'t
##..it
##.this
##because
##bility
##ez
##from
##lon
##room
##´s
*1/2
/>here
/>is
abrupt
aids
array
automatically
bulk
carrey
comments,
companies
considerably
contest
costs
couple.
dame
elements,
endlessly
hands.
inspire
karate
kidnapping
legitimate
masters
mayhem
mia
missed.
nonsense.
nostalgia
offer.
porky
roth
s.
second.
secondly,
stale
standout
stunned
superhero
tool
translation
watched.
##,'
##6)
##ans
##bed
##box
##cting
##fy
##ic,
(my
/>7/10
adventure.
asylum
butcher
cast.<br
century,
channel.
clip
comedies.
concentrate
dakota
diverse
dolls
door,
ears
elephant
evolution
favorites.
feel,
filmed,
fist
gable
gigantic
happy.
hides
immortal
joey
kissing
laughable,
liam
longing
make.
manipulative
maybe,
movie).
mute
nephew
nerve
perry
roof
scott,
sinatra
sleep.
steady
tendency
unrealistic.
venture
wherever
witty,
wrestling
"star
##bling
##ch,
##hy
##ings
##ley,
##only
##ses
##son,
##ved
(because
(don't
(very
accomplish
actors'
applaud
assure
beg
betrayed
burton
celluloid
cigarette
clad
cliche
confronts
crew,
depth.
dresses
dressing
emotion,
england,
exciting.
factory
fart
fashion,
faster
fear,
gal
genius,
hackneyed
human,
indication
insightful
laughter.
locals
london,
mortal
musicians
mysteries
other.<br
performance.<br
pg-13
reggie
reports
reynolds
right.<br
sadako
separated
startling
studied
stunningly
swept
system.
titanic
trouble.
turn,
understand,
val
values.
"they
##'m
##...the
##city
##ished
##ius
##k"
##lation
##oo
##s."
1930's
activities
album
aliens,
banal
bargain
begs
brooklyn
brothers.
buffs
buys
carradine
choosing
confusing,
conscious
contribution
coppola
difficulties
dog.
fest
fills
function
hapless
hearted
humanity.
is!
issues,
killer's
labor
madame
misguided
phillips
pun
relationships,
remembers
reminder
residents
satanic
sharks
sound.
stare
sterling
sucked.
suitably
thankfully,
thought-provoking
turtles
twists,
##]
##ation.
##especially
(that's
2005
2006
away.<br
beth
bone
brainless
brutality
bug
clichés,
club,
co-star
colonel
comparable
complex,
concentration
death.<br
depict
depths
elsewhere
enterprise
enthusiasm
eventual
everett
exploit
fifth
firm
forbidden
grant's
happy,
hooker
hostile
hot,
hungry
impressive.
inch
lifeless
liners
live,
mean.
nathan
notices
panic
parade
paris,
public.
russia
sharpe
sick,
smell
so.<br
subject,
them!
thompson
tossed
understands
well-written
!!
##(i
##bert
##ced
##ft
##gate
##ia.
##ins
##ken
##ray
##rian
##rie
##ugh
##ura
(probably
/>only
3-d
3d
accepts
arrest
beliefs
cliché,
confusing.
cultures
damaged
damned
decade.
deciding
dust
else's
elvis
expedition
experiencing
flop
guru
informed
insipid
instances
merits
miserably.
nero
obvious.
offbeat
parallels
pictures.
popping
published
quiet,
reeves
resembling
run.
sand
sellers
senior
significance
smash
sorely
stinker
studying
subtle,
suggestion
surfing
together.<br
toxic
toys
troll
ultra
uplifting
wander
##ain
##lli
##ously
##ture
##ud
3)
4th
active
ah,
ash
begging
being,
belly
boarding
comparisons
confuse
costner
crashing
died,
distracted
disturbing,
doesn't.
dustin
ease
exterior
fantasy,
federal
fight.
france,
fun.<br
glenn
heartfelt
heather
hulk
incomprehensible
it"
lend
life's
locations,
love.<br
manner,
morals
nonetheless,
pathetic,
portrayals
premiere
present,
purpose,
rapidly
region
relentless
romeo
seedy
sense.<br
ship,
skilled
states,
strange,
traffic
unfamiliar
vinnie
"night
##-hearted
##sm
##tz
##ured
accounts
altered
anyway.<br
audiences.
avoiding
blacks
close-up
control.
crew.
decidedly
directing.
disguise
dream.
emotion.
escape,
freaking
goldblum
guaranteed
ignoring
ingenious
items
longest
losers
loud,
love"
matrix
melissa
misfortune
motel
mountains
obsessive
pilots
pressed
pro
race,
races
releases
reminding
results.
scenarios
spinning
squad
today.<br
turkey.
victims.
##ake
##dle
##ner,
##rs.
##wick
adams
aggressive
air,
approached
attended
bee
benny
berry
cancer
care,
cassavetes
cg
charlie's
compassion
concerned,
covering
credit,
criticize
disappointed,
duel
elsewhere.
ends.
engine
food,
forgotten.
glimpses
great.<br
heroes,
immense
important.
indicate
insurance
interact
less,
mankind
me"
me?
miami
monologue
noteworthy
ny
often.
older,
ominous
patriotic
posing
promptly
receiving
reflected
sacrifices
sarcastic
script.<br
thieves
wealth
when,
"movie"
##?'
##ion,
##nk
1980
about?
abruptly
acted.
affairs
bearing
benefits
bent
biography
chaplin's
cheaply
cinderella
clichés.
combining
cox
creep
depth,
disappointed.<br
divine
divorced
dylan
emerge
enid
existence.
exploited
film),
fire,
footage.
hercules
hungarian
incredible.
insults
jaded
joining
katherine
lavish
left,
memory.
musician
nbc
occupied
oldest
outdoor
paced,
paints
park.
pivotal
practical
predict
realization
remarks
rolls
rupert
servant
slept
snipes
sport
stray
subject.
substance.
sucker
suddenly,
survives
taste,
taste.
used.
week,
##!!!!!
##!.
##-less
##ability
##com
##ek
##ight
##ises
##k's
##logy
##pers
##st,
##writing
(richard
28
acid
adrian
aesthetic
affecting
alexander
anymore,
arc
authenticity
avoids
bud
cake
confess
content.
conviction
cracking
crossing
cruelty
egg
ever!
exquisite
fires
flower
good!
ham
heavy-handed
hires
imaginary
impressive,
inhabitants
intricate
juliette
laser
maintains
motive
natives
nod
nudity.
objective
pacing,
passable
pictures,
punches
raging
recycled
relations
remembering
resistance
shearer
slaves
stalking
sub-plot
suicide.
sunny
switches
talk,
tramp
vain
whatsoever,
you"
"oh,
##....<br
##ched
##hold
##most
##ra,
##right
##sy
(how
1980s
achieves
again!
andrews
angles,
axe
betrayal
biker
blessed
bored,
carpenter
collins
cope
descent
detail,
disgust
educated
ensure
ethnic
existed
fast.
fools
gambling
generate
georgia
hackman
hair.
hamilton
hammy
improvement
it.i
lays
lost,
mixes
narrow
ninjas
noises
oscars
package
posters
recommendation
remakes
rendered
resist
rips
scott's
senator
silliness
sister.
smarter
stallone
stream
symbol
ton
transport
transported
unexpectedly
vanessa
villains,
violin
well...
##'s"
##(and
##ci
##cial
##coming
##cs
##has
##ncy
##w,
(despite
(particularly
/>4/10
accident,
after,
aided
although,
ambition
assembled
carnival
counter
cronenberg
dated,
designer
designs
embarrassingly
employed
enhance
evidently
feminist
flashy
grisly
ground.
hands,
hank
hats
helpful
hollow
hooper
hopper
implied
infected
kung-fu
linked
literature
longer.
manga
marple
mechanical
mouth.
neglected
outright
peaceful
please.
plotting
preston
provocative
psychology
pursue
quinn
readily
realities
reel
rescued
ringu
rope
ruining
saw,
seduce
shaky
sincerely
stuffed
sufficient
sundance
tension.
uma
unlikeable
up!
vocal
whiny
wisdom
writer.
##!!!<br
##-level
##bles
##er.<br
##ire
##ok
##pa
##tle
##wa
##world
##zy
50s
assault
awaiting
banks
camp,
circumstances.
classics.
cliches
crazy,
crisp
dario
dates
decent.
design,
domestic
emperor
ends,
faults
females
floor.
foolish
gloria
godfather
greed
grip
hawn
heston
id
jarring
jaw
kathy
launch
limit
loneliness
lt.
map
morbid
option
outfit
packs
partners
pitiful
populated
pose
prequel
records
respect,
routines
simply,
story"
strict
sylvia
tone,
veronica
wayne's
well-made
year-old
##..)
##2)
##fest
##gie
##in.
##ou
##res
##row
##spoiler
##wise
##y)
(more
(we
(why
....
/>bottom
/>once
/>please
/>very
10/10.
48
advertised
amidst
biting
breast
category.
charm,
chevy
classes
color,
coming.
confined
crocodile
davis,
delicious
demonstrate
differently
disturbing.
done.<br
dumb.
enduring
fake.
filling
genre.<br
harrowing
ignorance
influential
inherent
intro
iq
lady,
late,
lauren
madonna
masterpieces
men's
most.
ned
neighbors
nigel
pedestrian
penny
pete
players,
priceless
prostitution
question.
questions,
redneck
regularly
shields
smith's
teacher,
theaters.
ugly,
woods.
youngest
"do
##-film
##7)
##ces
##els
##master
##mation
##using
##’s
(david
(only
alright,
answered
area,
baby,
backgrounds
bed,
beowulf
boring.<br
bridget
bros.
buff
cap
channel,
chuckle
climax,
connections
consist
conveyed
despicable
devastating
effective,
examination
family.<br
fast,
fi
freeman
girl"
ground,
group.
happening,
hope.
hunted
ignores
impending
invested
ironically,
jury
land.
legacy
light-hearted
milestone
miss.
mobster
myrna
pain,
passage
planet.
point.<br
poirot
politics,
radical
remake,
rest.
reviewing
rex
robbed
sane
see.<br
states.
stating
stop-motion
street.
suggesting
suspected
terrified
tip
touching,
travesty
tucker
unfold
upside
usual.
vehicles
warming
whatever.
##-star
##8)
##cast
##down
##fter
##ics
##ological
##ome
##port
##uch
##zer
##}
(peter
/>since
1940s
acquired
adults.
ages.
ample
bed.
bizarre,
brooding
brooke
carole
cattle
choice,
clash
clone
closet
community.
conceived
contributes
daffy
dana
definitive
departure
door.
dump
elevator
emotions.
enough.<br
experience.<br
feeding
finishing
forgetting
fright
ghetto
girlfriend.
gorgeous,
greg
harm
here)
hysterically
interrupted
into.
left.
leopard
mac
males
mind.<br
minute,
monster.
norris
operating
phenomenal
pit
preparing
previews
reign
revenge,
richards
rivals
saint
sandy
scooby
serious.
shoulders
shout
sonic
spectacle
splatter
stern
stevens
stunning.
that)
this...
told.
tormented
tragedy.
trials
unrelated
unwatchable.
voodoo
wash
way)
western.
windows
##10
##cal
##ey,
##hart
##ifies
##in's
##ison
##lic
##lock
##sion
##tter
##ural
##ures
/>grade:
/>however
30's
4)
amanda
average.
baby.
beach,
break.
bridges
classy
climbing
collective
commenting
company,
contributed
convincing,
dad,
defeated
dilemma
dvds
estranged
event,
exposure
gap
gate
hellraiser
human.
ii.
inclusion
inject
insist
intelligence,
job.<br
kidding
layers
life"
lightning
looking,
madman
murders,
nanny
non-existent
noticeable
parking
permanent
presence.
present.
rehash
reliable
selection
sequels,
shorter
singer,
stabbed
stepped
swinging
tactics
tightly
type,
virtual
window,
wine
witnessing
"hey,
"old
##-and
##-based
##.....
##1)
##art
##ation,
##ick
##mon
##vi
##writer
'a
/>everything
agent,
american,
angelina
apple
apply
attending
backwards
baron
bitch
boom
borders
capital
caricature
celebrated
change,
chronicles
climb
confederate
coolest
cuban
cycle
deputy
detail.
displaying
elliot
especially,
europe,
evoke
feast
fellini
fight,
fights,
filler
further,
harmless
haunt
hayden
heroin
icon
images,
interestingly
itself.<br
jar
judged
justin
king.
list,
lush
mistress
money.<br
narrated
neatly
organization
organized
otherwise.
pattern
rabbit
recurring
samantha
sells
sergeant
services
sf
sixties
story?
summed
sustain
swamp
swearing
tail
tom's
transform
underworld
unique,
victory
villainous
walsh
wartime
wasn't.
watchable,
west.
wig
zombies,
!!!
##)?
##gon
##iled
##ition
##n`t
##nies
##po
##rich
##use
##van
##wn
'i
(e.g.
(william
/>1)
accuracy
admired
afterwards
alike
alot
attractive,
august
badly.
biblical
bites
commitment
contrived,
controlling
cursed
dance,
deadpan
dismal
divided
edgy
executed.
film...
fire.
glasses
group,
him!
impact.
inadvertently
interior
last,
lohan
lynch's
marshall
mcdowell
me)
mississippi
nora
olivier
pam
paradise
perspective,
plot:
preachy
recover
reviewed
scratching
seat.
similarity
slapped
spielberg's
story:
stylized
substitute
subtitles.
surface,
the<br
there?
touching.
treat.
wardrobe
who've
worked.
##!"<br
##ck,
##jack
##mate
##ola
##ona
##place
##rest
##ship
##zo
'cause
/>what's
90%
absurdity
abuse,
apocalyptic
aura
austrian
bath
carnage
christie's
considers
conventions
counting
crosses
crown
daughter's
dodge
dragging
elements.
energetic
excellently
explosions,
fade
fantasy.
florida
flows
freaky
generation.
gimmick
grief
imagination,
importantly
incidents
it!<br
it),
jolie
kenneth
locate
lois
martha
messy
mill
music.<br
newman
nut
orleans
paramount
parodies
pleasing
praised
prehistoric
releasing
relevance
repressed
roughly
scenery.
september
she'll
shockingly
solid,
sparks
stab
staple
sub-par
sucks,
touch.
trace
translate
verbal
votes
wipe
wire
"good"
##ars
##el,
##ered
##good
##ium
##lla
##on)
##ts,
##u.
(perhaps
/>4.
/>every
/>let's
/>p.s.
2001
35
acceptance
affair.
affects
alec
argento
army,
astaire
banter
best.<br
box,
cleaning
completed
crossed
dazzling
delicate
elaine
elder
ended.
error
expertly
feeble
finale,
forgiven
fritz
gangs
grainy
hating
here?
highway
increasing
informs
interviewed
jacket
kapoor
kubrick
located
mate
mccarthy
mick
misleading
molly
ms
mystical
occasions
only,
origin
palm
partner,
programme
prostitutes
realistically
sara
sci-fi,
semblance
shady
sheep
shocks
stores
street,
streets,
swim
time?
todays
tragedy,
train,
unwatchable
voiced
wastes
writers,
"just
"lost
##-filled
##-hand
##-inducing
##..a
##bie
##ctor
##dor
##fer
##ically
##ich
##nne
##rry
##tar
##z.
90s
aamir
accessible
addiction
appeals
back.<br
baddies
bar,
bo
brat
bully
bury
camp.
campus
catchy
chad
cheesy.
commanding
competing
cracks
debt
deliciously
despair
determination
distract
down.<br
du
explained.
eye,
fulfill
furious
girlfriends
grant,
hilarity
holes,
huh?
judgment
kisses
lange
license
listened
maris
married.
maximum
medicine
misunderstood
monkeys
monty
most,
offend
outlaw
pbs
perspective.
perverted
pieces,
pistol
pompous
possesses
profanity
quickly,
ranger
realises
recipe
remember.
respect.
restored
rightly
rita
roommate
sang
schools
scored
self,
shelter
simplicity
spirited
spoiling
sporting
station,
steaming
sunshine
supreme
toronto
toss
tripe
up"
vince
volcano
wars,
whole.
wilderness
"to
##)is
##--even
##/5
##aries
##en's
##ges
##ita
##land.
##min
##ne,
##will
(now
/>***
/>2)
/>best
/>ok,
actors.<br
addicted
bates
blends
breakfast
brody
christine
crazy.
dancers
detective,
dietrich
disgrace
dominated
dramatically
dual
edit
embarrassing.
encountered
everywhere.
fifties
film-making,
forget.
gates
gathering
habit
hit.
identity.
impressed.
janet
john's
keys
lemmon
martin's
mock
normal,
novelty
oblivious
orphanage
participate
pie
producers,
protagonist,
rave
realism.
ride,
ripoff
roddy
screens
snappy
soccer
soft-core
surgery
switched
sydney
though.<br
top-notch
watching.<br
waves
west,
young.
"who
##--this
##-horror
##boat
##book
##rating
##tal
##uting
##ven
(albeit
(he's
/>final
1999
2003
2004
animals,
apartment,
applied
assumes
bachelor
battle,
bitten
bland,
changed.
christina
cindy
connor
conscience
contestants
country's
credit.
cynthia
dafoe
daisy
defies
determine
dodgy
entertaining.<br
exist.
firstly,
fog
found.
fuel
helm
house"
immigrant
infinitely
inmates
insights
intensely
jack's
julian
keane
landed
leap
les
liberties
lighter
looks,
midler
moore,
morning,
nerd
not?
pacific
paired
palace
payne
percent
pimp
powers,
pretty,
protecting
puppets
rate,
relates
relentlessly
riot
salvage
seen!
settled
severed
sick.
since,
skills.
sought
sources
spoilers,
statements
stroke
sylvester
system,
them)
themes,
through.<br
tomorrow
transcends
trevor
tuned
uneasy
unlikable
unsatisfying
updated
verge
victims,
where's
"mr.
##.it
##ax
##did
##esque
##get
##i'm
##ine,
##man)
##nell
art-house
ashley
available.
begins.
binoche
bittersweet
blamed
box.
brett
cartoon,
characterizations
color.
columbia
comments.
complained
computers
conclude
cunning
deliberate
deniro
department.
dragons
ever.<br
finale.
fodder
for?
forever,
fort
free,
gear
hart
heartwarming
high,
hooks
hybrid
iconic
increase
interesting.<br
last.
lied
limitations
linear
maintaining
man.<br
managing
min
minister
move.
musical,
noah
nun
nuts
olsen
one?
others.<br
own.<br
pairing
paranoia
picture.<br
pierce
prejudice
profile
qualify
restrained
rounds
scratch
shaw
socially
spice
stereotyped
suicide,
suspicion
swiss
t.
tapes
tell,
theories
tops
uncover
unsympathetic
variation
warrant
woven
##,but
##,the
##.but
##dom
##gging
##nn
##od
##vin
##while
(mostly
/>okay,
80's.
apartment.
astronauts
aussie
bald
barrel
basil
begun
bothers
caper
cd
celebration
cgi,
championship
coat
colleague
come,
concept.
define
delighted
deserves.
directions
distinctly
document
does.<br
dread
dream,
effortlessly
emergency
enthusiastic
example:
fake,
farrah
feature.
fighting,
follow-up
ford's
gilbert
glance
grounds
gut
hanks
hardest
himself.<br
homes
hop
hospital.
ironically
isolation
judith
kids'
manic
match.
mood.
nations
nerdy
newer
no!
ol'
pg
phenomenon
profoundly
questions.
race.
rani
refreshingly
rewarding
rochester
rounded
saga
sanjay
shannon
sight.
sinking
sooner
spaceship
station.
stereotypes,
students,
subtext
thinking.
tierney
tobe
trivial
unbelievable,
undeniably
waits
##)!
##*<br
##-all
##arily
##great
##ines
##kers
##late
##ram
##roll
##that's
##tory
##vo
##vy
(much
/>anyone
1940's
`the
abandon
abducted
actions.
alike.
already,
amid
arguments
ate
bonnie
brando
brazilian
centre
chaotic
characteristics
chewing
committing
completely.
complexity
critique
dee
demonstrated
discussed
distribution
donna
dumbest
establishing
expectations,
expressive
factual
faded
fiancé
fighters
for.<br
forgettable.
funny!
gender
hans
hero's
hit,
important,
inconsistent
integrity
likeable
low-key
lunch
mail
mine,
misery
moving.
paris.
passenger
perfection.
preposterous
principle
protection
reported
representative
resolve
rice
scheming
sensible
shades
shiny
slavery
sleeps
stripped
summary,
sweeping
tasteless
telephone
thereby
three,
thrust
thurman
tickets
tongue-in-cheek
troubles
type.
void
wit,
woods,
"friday
"high
"not
##!).<br
##--it's
##-haired
##.and
##are
##bble
##dge
##ette
##gue
##ify
##ingly
##iting
##kes
##miss
##rs"
##ry.
##star
##tation
##ther
##ux
##vision
(another
(george
/>10/10
/>being
/>his
7.
actresses,
adapt
african-american
akbar
alleged
b-movies
babies
behavior.
being.
between.
billing
borderline
both,
building,
bull
cab
caliber
carey
carroll
cartoons,
casting,
celebrities
chop
cinemas
continuous
courtesy
cover.
crawling
cries
cute.
di
directed.
distinctive
dreams.
efforts.
entertained.
examine
faces,
fare.
filthy
flimsy
folks.
framing
fun!
fury
gaps
geraldine
groundbreaking
gun.
heap
hepburn
intend
izo
jealousy
jess
kathleen
knows,
late.
laying
leads.
lombard
low.
madsen
magically
masks
mcqueen
meaning.
memorable,
minute.
neon
ness
night"
obtain
over.<br
painful.
pause
poem
politicians
post-war
sam's
scarlett
should.
stand-up
sublime
threads
threaten
tourist
travis
unnecessary.
unwilling
upbeat
varying
w/
wally
wendy
white.
woefully
writer's
younger,
"dead
"he
##..this
##2.
##50
##bad
##bby
##ches
##g"
##ik
##real
##t)
##tage
##ter,
##tto
##u's
##ug
##urn
(think
/>3/10
/>directed
40's
9/11
aaron
abortion
anonymous
anthology
anxious
arab
assist
box-office
bruno
burnt
captivated
chase,
chef
chops
christ
christians
circumstances,
close,
communication
corey
crooks
dna
dramatic,
drugs.
escape.
europe.
excruciating
excruciatingly
extensive
farmer
flowers
gathered
gay,
geek
glossy
good"
government.
gym
h.
havoc
heights
howling
illustrate
improbable
industrial
industry,
inserted
insulted
intriguing,
irritated
jackson's
legion
lengths
lesbians
limp
loyalty
lure
meal
mention,
modern-day
mulder
norm
note.
novelist
p.
pc
perception
personality,
perverse
phones
police.
popped
possession
qualifies
read,
repulsive
rewarded
robbers
scariest
shown.
something.<br
somewhere,
straight,
stuff.<br
sugar
sullivan
talk.
theaters,
thread
three.
traits
tyrone
weekly
wonder,
yard
##!,
##-esquire
##-girl
##ght
##ional
##lum
##m"
##making
##ora
##rent
##teen
(well
30s
abc
ads
advances
awesome,
breathing
brief,
cagney's
charley
club.
compensate
contempt
control,
convenient
cry,
debbie
digging
earliest
england.
enigmatic
excels
expectation
failure.
fantasies
favorite.
flick.<br
frames
free.
fundamental
gang.
garbage,
goldberg
hippies
hopeful
hunk
hunters
illusion
innocent,
institution
item
joshua
know.<br
lily
lingering
lurking
macabre
mad,
magic.
masterfully
midget
mimic
monica
movie),
mum
naughty
nikita
o'toole
order.
outfits
pamela
peck
perceived
pianist
product.
psychedelic
ranch
relief.
remainder
result.
resulted
retain
rider
saw.
scares,
secure
see!
shotgun
shoved
singers
skipped
sonny
speaking,
started.
submarine
such.
supplies
tastes
thinking?
trains
triple
tv's
uniform
users
vividly
willem
williams,
##-ridden
##cluding
##cut
##dale
##ed.<br
##fast
##lay
##lyn
##sen
##then
##und
##x,
4/10.
americans,
anguish
anticipation
appearance.
are:
audrey
ballet
bava
bike
boys.
bravo
cheering
cher
colleagues
counted
details,
devil's
disappearance
dreamed
electronic
feat
flashing
follow,
franklin
ghostly
gritty,
history.<br
husbands
identified
if,
imprisoned
keitel
leatherface
likable.
liza
luck.
machines
monstrous
must've
niece
nifty
nightmarish
original.<br
outing
overlong
pain.
pound
programs
pursuing
radioactive
rangers
rape,
recently.
relax
rental.
resolved
resume
retrieve
ruled
seconds,
seems,
ship.
shortcomings
shown,
signature
slimy
spencer
straight.
strain
street"
strings
suave
surgeon
terminal
thin,
twice,
unimaginative
valid
victoria
viewings
vile
visceral
wagon
war.<br
well-done
wounds
"that's
##!!)
##ap
##cha
##cle
##d's
##face
##ic"
##is.
##lot
##oid
##possible
##ride
##stic
##town
##u"
##worth
1960's
1970
8/10.
actions,
admiration
admitted
aiming
alley
alonzo
anderson's
angry,
assured
backed
bars
bother.
breed
brent
cells
choppy
circa
co-stars
college.
compelling.
content,
controversy
convicted
conway
county
crawford,
death"
despise
diary
dismissed
disregard
doyle
easy,
elliott
embrace
eva
event.
excess
f.
faint
filipino
force,
force.
further.
gods
gold.
golf
hesitate
hitch
holes.
india,
insanely
intentional
invest
invite
jack,
july
ladd
levy
luis
mark,
marty
monsters,
montgomery
movies)
nasty,
net
noir,
norwegian
ongoing
opera.
origins
out?
overweight
patients
phillip
pierre
raid
rathbone
reed
religion,
repeats
representing
rko
rousing
satellite
screened
seconds.
seymour
shameless
shawn
she,
sheen
shocking,
shoulder
smiles
someone,
sorry.
soul,
spit
stairs
swing
tap
tolerate
town's
unique.
visuals,
"city
"is
"le
##aging
##al"
##ath
##life
##tions
##win
(her
/>because
/>first,
/>set
/>still
aftermath
apart,
bunuel
casey
chamber
chaney's
check.
chemistry.
clear,
clerk
conflicted
cover,
crawl
custody
dashing
deal.
details.
difference.
doctor.
dreams,
dub
dumber
dvd.<br
excuses
explode
famed
filmmaker,
flavor
forgets
formed
from?
gang,
garland
handsome,
heard.
high-school
hiring
info
ira
knack
layer
lives.<br
lover.
ma
marlene
mates
means.
men"
mouth,
mouths
observe
oldman
one:
otto
overused
pathos
perfectly,
plagued
player,
plethora
powerful.
prospect
ranging
robbing
romantic,
sarandon
seriousness
smile,
smoothly
stop.
studies
table.
tech
ten.
thing:
undead
unsure
update
vibrant
villagers
warden
youngsters
zany
##!'
##-a
##aring
##berry
##dia
##es'
##girl
##hole
##l)
##lor
##love
##m's
##man"
##os,
##posed
##taking
##tti
##uff
(whose
/>people
accompany
addresses
annoy
atrocious.
attack.
belief.
buscemi
canceled
childhood,
chopped
cloud
correctly
costumes.
curly
cut.
depressing.
discussions
don't,
drowned
earnest
emphasize
factors
fate.
features,
feel-good
figure.
fleshed
format.
funding
gentleman
graduate
inhabited
joanna
jock
karl
loretta
lovers.
lovingly
luc
married,
masses
melodrama,
members,
mice
museum
names,
never,
ninety
o'hara
oddly,
outside,
owe
pieces.
plodding
post-apocalyptic
profit
psychopath
puzzles
qualities.
rapid
reruns
reserved
rome
sea,
sea.
sensational
sequels.
shaped
shootout
sophie
span
spared
squeeze
strung
t&a
tools
trip,
tyler
unfunny.
used,
vic
visitor
voting
weird.
who'd
wrong!
"bad"
"best
##!?
##30
##bill
##bin
##e'
##fe
##h!
##h's
##ie's
##ifying
##le.
##lie
##load
##lone
##met
##ole
##power
##rock
##sted
##table
##tv
##um,
##wed
##yn
(along
(and,
/>did
/>much
19
200
2007
absurd,
accurate.
adopt
arizona
athletic
babes
bale
be?
bishop
buzz
carlos
cases,
casting.
cbs
coen
coincidence
collecting
comeback
could.
curiously
cut,
dancing,
dark.
defending
desired
detract
disappointment,
dominates
dreadful.
drivel.
dynamite
edmund
eggs
entrance
existing
exploding
facility
failed.
fascinating.
fast-paced
few.
film"
flee
fresh,
fuzzy
gags,
garbo
garfield
goes.
hallmark
her?
hinted
home.<br
hotel,
i.
ii"
inaccurate
indigo
influences
integral
invention
jail,
joint
knocks
laughing,
lighthearted
lip
live-action
loud.
lovers,
magic,
mannerisms
many.
melanie
move,
nearest
newcomer
opposing
paige
process,
proudly
purposes
railroad
re
readers
rest,
reunited
rogue
romanian
rosalind
sailor
says.
sensual
sentiment
shopping
ski
skinny
slowly,
someday
spies
spiral
stripper
student,
tacked
theft
third,
thug
tough,
trash,
unstable
varied
warns
we,
wisely
##ading
##al.
##ave
##ho
##inal
##michael
##ov
##part
##re,
##se,
##ung
##woman
##y'
70's.
9/10.
acknowledge
action.<br
again?
amitabh
anyways,
artwork
auto
bees
behind.
boat,
book.<br
bryan
changes,
cheap.
chill
clan
colman
compliment
copy.
cosmo
couple's
course)
cusack
dad's
directors.
distinction
distinguish
ensues
etc)
exorcist
expressing
fame,
farrow
feminine
fierce
flynn's
foundation
friendship,
future.<br
gains
grips
hoot
identity,
incidentally,
irving
is...
john,
keaton's
lad
later.<br
laughton
liberty
like.<br
living,
marcus
maureen
melvin
mine.
mode
needing
offense
oscar.
ounce
outrageously
performances.<br
produced,
saif
saloon
schlock
seasoned
sfx
shah
shock,
shoe
showcases
suicidal
surround
survive.
technology,
thailand
themselves.<br
there!
tracy
tragically
transferred
transitions
traumatic
trouble,
uwe
village,
virtue
watched,
weaker
wooden,
"film"
"horror"
"what's
##"...
##ald
##an.
##force
##ibly
##ification
##ish,
##living
##plus
##rio
##rish
##s,"
##ually
##vation
##x.
##zen
/>highly
/>let
1939
75
adrien
annoyingly
antagonist
anytime
anyway?
applies
asoka
atrocities
audiences,
b)
backs
boston
botched
boundaries
bust
cabaret
cameraman
candidate
casually
cemetery
charms
chess
college,
compassionate
cop.
couch
courageous
crashed
cuba
darren
days.<br
decline
depressing,
desired.
dim
distinguished
doing,
dvd's
dynamics
e.g.
employee
entries
fiancée
fluid
frantic
french,
full-length
gail
garage
genetic
gone,
grandson
grounded
growth
harriet
hes
hk
how,
howard,
hurt.
images.
jody
jules
kidnaps
landmark
lewton
living.
location,
low,
manipulate
marketed
matthau
mimi
mission,
motivated
nerves
neutral
order,
out"
outdated
passion.
people"
pizza
plate
players.
plot?
poison
quintessential
rampage
rational
realism,
record,
respond
sacred
sentenced
sickening
sid
skillfully
slower
somewhere.
stephanie
stylistic
subdued
switching
tables
tell.
thankful
these,
trailer.
unfunny,
vapid
vigilante
yakuza
yell
"happy
##!".
##(s)
##--with
##-written
##aking
##bbed
##black
##burg
##charlie
##could
##dead
##dling
##ely
##except
##g's
##going
##hal
##iate
##ined
##nny
##nt,
##rates
##rch
##ult
##walk
(paul
...<br
/>1/10
/>3)
/>before
/>both
7/10.
above.
admittedly,
agnes
ala
all-star
am,
americans.
analysis
announces
bar.
bout
chat
chocolate
cinema.<br
colours
complications
corporation
crippled
customers
dangers
daryl
delta
destiny
diabolical
disabled
disappointing,
dismiss
drill
easy.
encouraged
ended,
excitement,
fiery
filmmaking
finish,
first-rate
fixed
flew
france.
gallery
get,
gets.
given.
grabbed
greats
handicapped
his/her
homicidal
humanity,
india.
intends
it."
justice,
kal
leader,
leon
like:
lola
lorenzo
meandering
mexico,
mins
mistake,
neeson
number,
omar
ostensibly
overblown
pad
palma
passion,
patch
people?
proceed
productions,
promoted
replacement
replacing
road,
road.
satisfaction
scale.
scarlet
scotland
secret.
seduction
skits
sleepy
slips
smug
soldiers,
solo
spiders
stereotypes.
stone,
stretches
surpasses
tolerance
travelling
tropical
unusually
waking
warriors
waste.
whale
where,
whining
willie
willy
window.
woodstock
##--as
##-hour
##-scene
##/horror
##cat
##cies
##ky,
##l"
##lies
##owing
##r)
##tan
##tering
##two
##uate
##vious
/>basically,
/>nothing
/>those
ah
all:
altogether.
any.
appearance,
arise
awarded
awhile
boost
bore.
borrow
boyfriend.
breakdown
candle
career.<br
celebrate
china,
context,
cops,
copying
criticized
depend
developed,
devotion
distributed
downfall
drugged
evokes
exit
experts
extent,
face.<br
flowing
forced,
gloomy
governor
hate.
is?
israeli
ivan
junk.
kansas
kubrick's
labeled
lambert
landscapes
largest
law,
leave.
links
literal
machine.
micheal
mom,
movement,
nicely.
odd,
officially
paranormal
paths
planet,
pocket
prolific
put,
rate.
replies
return.
rhys
risks
scattered
session
siblings
sincerity
singapore
slim
spoofs
squid
stacy
stir
students.
successful.
sucking
talents.
tedious,
time"
tire
towns
trilogy,
turtle
twice.
universe.
vaughn
village.
weary
wood,
worse.<br
wyatt
"an
"evil
"last
"special
##--not
##-class
##-screen
##ani
##cious
##d.<br
##es"
##ist.
##jo
##lle
##maker
##new
##playing
##pped
##put
##tly
##w.
#1
1984
1998
40s
8.
absorbing
abstract
adults,
affair,
aims
analyze
and...
arguing
atomic
back!
barney
behavior,
boredom.
capacity
caricatures
character)
cherry
clay
co
commentary.
confused,
consideration
convention
cookie
crap.<br
created.
cushing
darkly
deformed
eagle
easter
economy
employ
end?
endured
exposing
fascinating,
felix
fincher
find.
fragile
garcia
hale
here:
hill,
incapable
incorrect
indifferent
informative
inn
judges
kenny
leaps
liz
london.
loss,
makeup,
mercy
mockery
muslims
naked,
needed.
notions
oddball
outline
owner,
pans
pilot,
plots,
policy
precise
protest
queer
radiation
rampant
raping
rebellious
recalls
retelling
rhythm
ritual
roles.<br
romero's
sake,
seeing,
select
sets.
slide
soderbergh
sordid
spree
stones
stunning,
successful,
talented,
tango
terrorism
torment
transforms
treating
truths
uncanny
universe,
unreal
vera
virgil
vitus
warned.
wherein
wiped
"black
"for
"plan
##'<br
##-way
##..or
##1.
##ag
##als
##bit
##burn
##cating
##hone
##kind
##la,
##lee
##live
##ly"
##ment"
##nia
##re's
##see
##shot
##space
##ways
##ye
(charles
(jack
/>speaking
/>unlike
1992
:-)
ably
absurd.
agony
amazes
animals.
appeal.
article
artsy
authors
awful.<br
beery
biological
birds
blames
bleeding
bless
boll
boxer
butchered
california.
cares?
carpenter's
cartoonish
cartoons.
chills
church,
civilians
classics,
climatic
compelling,
concentrated
contrived.
cry.
deemed
distorted
dollars.
dusty
ear
enforcement
epitome
expresses
features.
feelings.
few,
floor,
game.<br
gays
granny
gypsy
horrified
hunter,
huston
inform
interested.
interspersed
is)
jackson,
jagger
japan.
joe's
jr.,
known,
knows.
korea
lewis,
long.<br
mall
members.
mentor
mission.
murdered.
nikki
noticing
overwhelmed
pals
patty
penis
polar
premier
queen,
rejects
richly
roland
sleep,
stabbing
stiller
stupidest
subtitles,
suck.
sunk
surf
surface.
surprising,
surroundings
tearing
teenagers,
thanksgiving
tone.
torture,
two.<br
underdeveloped
unfolding
ving
wagner
what.
wise,
would.
zombies.
"comedy"
"you're
##'nt
##--especially
##-fest
##-shot
##..."
##ch.
##elle
##eur
##film
##ie.
##isation
##lain
##ling,
##mie
##mission
##night
##s...
##tty
##ty,
##until
##zi
'80s
(is
/>without
1995
a)
adapting
africa,
ages,
alert
alien,
altman
anticipated
arriving
asia
astounding
astro
belt
bikers
breakthrough
brothers'
candy,
cerebral
charges
clearly,
cliché.
cocaine
compares
connie
continuously
contrast,
convicts
creepy.
crowded
direct-to-video
earns
edge.
exclusively
existential
families,
feeling,
flipping
focus,
foil
goodman
grocery
gwen
heels
heroes.
hilarious!
honest.
immigrants
injected
it'd
jo
jr
kill,
kindly
land,
lately
launched
laurence
lean
lens
locusts
magnum
matching
middle,
moderately
monroe
mythology
noted,
officials
overshadowed
paintings
paper,
pauses
peanuts
photographs
physics
placing
playful
pounds
profession
python
refuge
relied
relying
rendering
revive
sanity
satire,
scorsese's
seduced
significantly
sinks
sites
skills,
skipping
small-town
solved
someone.
spelling
stamp
state,
stone's
story;
straight-to-video
subtitled
supportive
talking,
teenager,
terrific,
threats
tokyo
traces
trailer,
unanswered
unnecessarily
use.
victim,
vision,
wall.
weaknesses
westerns,
wheel
whites
wholesome
whore
wielding
zohan
"dark
"i'll
"new
"there's
"too
"well,
##--he
##-cut
##-day
##-it
##-long
##ai
##bar
##con
##cted
##cts
##d)
##ders
##gen
##heart
##ie"
##ley's
##ner's
##oe
##oon
##ptic
##rose
##though
##tion,
##us.
##worthy
'70s
(unless
(while
/>meanwhile,
/>unfortunately
/>watching
afterwards,
agent.
all?
always.
anniversary
answer.
approximately
apt
architect
artistically
better!
bill,
board.
brain.
brick
brown,
cheek
chopra
comment,
community,
conflict,
conquer
contrary,
cooking
corn
corny,
cronenberg's
crummy
demi
demise
denied
descends
developed.
disappoint.
disaster,
drab
dracula's
drowning
earth's
echo
engaging,
enjoy,
everywhere,
extraordinarily
frankie
freedom.
freeze
frontal
fuller
funky
globe
good-looking
guardian
henry's
idol
illustrates
injustice
insane.
inside.
investigates
issue.
it!!!
johnson,
juliet
know?
lang
life!
lo
making,
mantle
marital
marlon
master,
ming
muscle
naval
nonetheless.
numbers.
officer,
originality.
outlook
patrol
pauly
penchant
penelope
rabid
redundant
relief,
reverse
revolving
reward
rusty
scientist,
scully
shelley
sights
simpsons
sister's
snaps
sour
speak.
spirit,
spreading
stinker.
supports
swallow
teddy
terrific.
track.
trivia
try,
unnatural
vengeful
vet
vision.
wall,
wars"
whatever,
worthwhile.
"life
##-story
##...it
##after
##bbing
##dd
##first
##give
##iling
##imate
##ion"
##ix
##kill
##na,
##ort
##per,
##rising
##si
##st.
##thing
##ulation
/>bad
/>take
1969
abomination
adequately
admission
afterwards.
all)
allied
amoral
anger,
arms.
audition
awareness
banderas
board,
boss.
breathe
budgets
bump
celluloid.
chunk
cigarettes
comprehend
condemned
consisting
cube
declared
degrees
depictions
derived
detached
disagree.
dive
documents
dreaded
duration
eleven
employees
enchanting
environment.
exchanges
far-fetched
fat,
figure,
forward.
fruit
furniture
got.
grass
humorous,
inconsistencies
instead.<br
interplay
islamic
jurassic
katie
legend,
ling
liv
logic,
lol
longtime
madeline
malone
maurice
merry
misty
momentum
months.
noting
now!
nuanced
opera,
passive
plainly
predecessor
price.
privileged
question:
recreate
reflecting
relaxed
requisite
restore
richardson
salvation
say:
sensitivity
shooting,
skeptical
smack
solving
stares
statue
stinks.
stirring
strengths
struggled
superstar
take.
tape.
taylor,
teresa
thankless
theatres
trauma
treatment.
up?
vietnamese
warehouse
well!
wheelchair
"and
"house
##"the
##--in
##0's
##7,
##9)
##>
##ao
##come
##das
##h"
##have
##kate
##lap
##les,
##less.
##lis
##mmy
##old
##roy
##sey
##sky
##ular
##v,
##word
##would
(about
/>and,
10!
1979
21
activity
addict
amateurish,
anderson,
angie
arrow
artist.
association
assorted
avenge
b-grade
backwoods
band,
battle.
beach.
beard
blah,
bogart's
borrows
brutal,
buffy
camps
circles
clowns
coming,
context.
controls
cow
crowe
dared
decades.
diner
dogs,
doubt.
drake
em
faces.
fault.
filmmakers,
franchise.
gestures
gory,
goth
gus
hayward
hoskins
hotel.
hyped
independence
inuyasha
investigator
junkie
lurid
make,
marion
mars
martin,
maury
me:
miguel
morning.
movies!
name)
narrative,
necessity
newest
numbers,
of)
ordeal
palmer
penned
permanently
plague.
played.
poke
portrayed.
poverty,
prefers
prevented
purposely
recognise
reverend
ring,
rodney
roll.
same.<br
self-indulgent
shamelessly
sixteen
speeches
spelled
staging
status.
steamy
stoned
stumbling
submit
support.
swanson
swords
table,
testing
thumb
time;
tired,
tricky
trip.
unconventional
uncredited
utilized
victim's
vin
want,
weapons,
"plot"
"red
"war
##').
##--just
##-guy
##being
##ble.
##ckle
##crime
##death
##eon
##ets
##gers
##gged
##gger
##ister
##lar
##las
##lity
##ma,
##mes
##mm
##ples
##rist
##sive
##tate
##urs
##wit
(!)
/>apart
/>basically
/>who
1985
1994
2002
adult,
aladdin
ally
argento's
around.<br
artist,
atrocious,
attempt.
awkward,
balloon
bashing
believability
black-and-white
black.
bullock
caroline
cheaper
cole
collaboration
confession
conveying
crumb
denying
desert,
dice
dummy
eagerly
edge,
efficient
elevate
emotional,
entirely.
evening.
execution.
expanded
facts,
field,
field.
figuring
flame
gold,
graf
grating
griffin
harbor
harry's
heroine,
humans.
ii:
insisted
inspirational
interpret
intriguing.
issue,
journey,
knights
laced
lake,
law.
legend.
leonardo
lounge
luckily,
manipulation
marisa
meaning,
mega
melancholy
mesmerizing
minnelli
miraculously
mugging
murky
mutants
necessary.
of.<br
on?
part.<br
patton
perkins
pesci
photograph
pleasure.
produced.
progresses,
prologue
raft
regain
ritz
rushes
salman
say.<br
scandal
seal
seats
sensation
shaft
sheriff,
show"
site.
slaughtered
smile.
spells
springs
stake
structured
suit.
surprising.
sweat
tarantino's
tina
tod
tomb
toro
torturing
train.
tribal
turns,
unbearably
uniforms
uniquely
unnerving
unrealistic,
upstairs
uptight
us.<br
vomit
wrote,
youth,
"blood
"but
"let's
"man
"real
##2,
##ac
##ach
##any
##atic
##del
##ea
##ees
##en.
##gent
##ibility
##ized,
##lier
##mination
##rine
##ulate
##ull
##uted
##wer
##west
(*1/2)
),
/>here's
/>too
accents,
accompanying
addressed
aimlessly
aliens.
annoying.<br
apes
aptly
artistry
asleep.
badly,
basket
bloodthirsty
boils
bombing
boobs
brigitte
cate
cent
chases,
cheerleader
chemical
colourful
confused.
counts
cracked
creative,
donnie
dopey
dreck
driver,
dudes
duncan
ebert
electricity
energy,
entertainment.<br
epic,
evocative
evolved
fame.
flashbacks,
frank,
funny?
ghastly
god-awful
gorgeous.
grodin
housing
indulge
information.
insecure
interpreted
irritating.
irwin
jeanne
kelly,
laughter,
line.<br
lines.<br
location.
low-budget,
luxury
manipulated
manners
marvin
melodrama.
mirrors
mocking
morons
murders.
mythical
nielsen
nina
october
offensive.
olds
optimistic
oriented
overbearing
plants
potent
praying
presented.
presidential
prevalent
program.
rambling
reagan
reeks
reject
reluctantly
remark
resurrected
runaway
salt
seductive
shadowy
shameful
shelves
sinbad
slows
spawned
spirit.
starters,
starts,
storytelling.
structure,
sweetness
tensions
that'll
therapy
toby
tom,
traps
tremendously
victim.
wilbur
willingness
worship
worth.
writer-director
zhang
"are
"el
"great
"kill
##!!!)
##(or
##..it's
##.com
##ail
##ara
##e.<br
##ending
##far
##fi
##hall
##hell
##little
##lord
##lthough
##ly.<br
##orous
##pel
##please
##standing
##tch
##tion.
##tling
##uit
##v.
##ys
(1)
(2)
(?)
/>****
/>during
/>then,
/>yet
300
85
99%
addams
agree.
aishwarya
allegory
animators
annual
appalled
are.<br
ashton
atrocity
attack,
aubrey
awful!
begin.
billion
boat.
bomb.
boot
brandon
bursts
cassidy
characters;
cheat
chorus
claudette
clever.
cocky
commentary,
comparison,
connects
continuation
crammed
credibility.
crowd.
crushed
darkest
deal,
deer
downs
downward
doyle's
drunk,
dudley
earp
eliminated
englund
equipped
extremes
fails.
fast-forward
feisty
fugitive
fulfilling
grandma
gravity
greta
hairy
hate,
he/she
here;
hip-hop
idealistic
imitate
immediately,
inherited
intended)
it´s
joe,
keanu
kill.
lars
latino
lifts
loner
lovecraft
madeleine
malkovich
management
mandy
marginally
millionaire
mills
monotonous
morton
narrative.
nemesis
newton
niven
nuances
omega
one),
opinion.<br
orphan
outstanding,
overwrought
owners
paula
poet
predators
presence,
progression
psychologically
queens
reason.<br
reasoning
reilly
revelations
riddled
rio
rubbish,
scriptwriter
seasons.
self.
sentimentality
sexist
shakes
shatner
shocking.
shouts
skating
slapstick,
slew
slipped
softcore
speak,
stable
strong.
targets
temptation
that).
themes.
things:
tones
topped
unlucky
viking
voices,
washing
washington,
well-acted
woman"
would,
yuen
##(in
##(which
##*,
##-boy
##-something
##-world
##3,
##born
##cho
##cked
##ctive
##elia
##en"
##et,
##every
##fall
##horn
##i"
##igan
##it,
##lers
##lessly
##makers
##mar
##marie
##much
##ology
##or.
##owed
##pes
##quin
##released
##ro,
##ting,
##wan
##zz
(without
***spoilers***
-the
/>1
/>3
/>go
/>sadly,
5th
abilities.
anti
attitude.
axel
bacon
begins,
bias
bickering
blah.
blending
blondell
brady
brass
brits
civilian
closes
concrete
consisted
critics,
darth
decency
dedication
defy
denouement
desert.
desolate
didn't,
diving
downtown
dreadfully
dug
dwight
eerily
elementary
emerging
encourages
enjoy!
ennio
explanation.
fanny
fare,
favor,
favorite,
festivals
films)
footsteps
foremost
frat
gay.
geeks
gently
girl.<br
guy"
harding
harris,
heads.
hitchcock,
horse,
howard's
humor.<br
hunky
imagine,
imitating
impossible.
indicates
inside,
invariably
jafar
japan,
k.
khanna
kirsten
ladies,
laugh.<br
leone
lester
log
looking.
masquerading
mentality
monumental
more!
musical.
myriad
neither.
netflix
notice.
outta
owl
palance
partial
pen
periods
planted
poker
port
poses
possible.<br
preceded
promoting
promotion
psychiatric
raimi
read.
removes
renowned
responds
ringo
roberto
sam,
satisfying.
sealed
seinfeld
sentences
ship's
skin.
smashed
sorta
stations
steadily
supremely
surpassed
suspenseful,
taboo
tackles
tanner
teaming
teenagers.
temporary
tolerable
traitor
turn.
vehicle.
vignettes
wells
wilson,
woke
worldwide
worth,
wrecked
wrong?
ww2
wwe
wwii.
yarn
"let
##-age
##-era
##acy
##ants
##blue
##bout
##dian
##fight
##full
##gal
##gar
##here
##ien
##ig
##ility
##iness,
##iro
##kins
##lands
##ll,
##nders
##onic
##pping
##rene
##set
##te,
##tine
##tors
##unds
##used
##war
##x"
/>based
/>sure,
3000
allegedly
allison
announced
araki
arranged
bags
bash
bastard
be:
blunt
bradley
brute
cable.
cake.
cannes
cannibals
captive
carrie
censorship
cents
certainly,
characteristic
charmed
cinema's
classic.<br
cliched
click
colossus
concerned.
confronting
connecting
convict
could,
craven
crossword
cyborg
dares
day's
deeds
digs
doctor's
dumps
edited,
exceptions
explodes
exploiting
factor.
facts.
fanning
farewell
farley
fighting.
finance
forward,
freely
fry
gina
girls'
go.<br
gould
grudge
hai
hardened
hers
humans,
improvised
injury
justified
kelly's
kent
kidman
laugh-out-loud
lecture
length,
level.<br
library.
lodger
made?
man!
mans
marvellous
maturity
messing
midway
milla
missionary
mobile
movies?
neal
nonsense,
obstacles
opportunity.
overtly
paltrow
paragraph
pouring
powell,
powers.
president's
pretentious,
principals
products
public,
punctuated
quirky,
reaper
relating
relegated
rent,
republic
rigid
rukh
sacrificed
sadie
schemes
seat,
selfish,
sheridan
sitcoms
snippets
snl
solondz
spot.
stabs
stardom
starship
state.
strange.
stretching
stupid.<br
talky
targeted
tedious.
terence
troupe
unravel
unscrupulous
vaudeville
villains.
visuals.
warped
weller
winner.
year.<br
"blue
"die
"hero"
##-but
##-driven
##-i
##-part
##.)<br
##1,
##5)
##as,
##cate
##dden
##fly
##gel
##grade
##hot
##human
##illa
##ito
##jay
##joe
##len
##lex
##los
##mic
##nce.
##nice
##pling
##rable
##rice
##seven
##vering
##vers
(actually
(something
(unlike
).
10.<br
1972
250
3:
4,
abu
advice,
alas
anime,
anti-war
approach.
arkin
arms,
assortment
autistic
awesome!
battlestar
beatty
beware
boards
bodies.
bothering
can't.
case.<br
casted
changed,
characters:
chew
children.<br
clancy
collector
cotton
dane
daytime
defines
defining
delight.
demille
destructive
dil
drastically
dud
easily.
episodic
erin
etc...
exceedingly
executives
expand
faith,
fault,
focus.
forest,
formidable
fredric
gem,
gifts
goods
gremlins
gripe
grossly
harlow
harp
he?
hispanic
houston
implies
incidental
insignificant
joan's
jones'
journey.
justification
kong,
laden
languages
lennon
levels,
life?
lodge
lori
lust,
maintained
match,
matters.
mercenary
michel
monday
movie-making
murphy's
needs.
occupation
open,
painful,
patsy
pleasures
porn.
priceless.
procedure
programming
progressed
promise.
prop
racism,
raj
ranges
raving
raw,
reprise
rhames
rightfully
rivalry
robertson
role)
rooted
rushing
sales
saying.
sections
seventh
sexuality,
singer.
smashing
snuff
so-so
specialist
spectacular,
spotlight
ss
stalked
standard,
stunts,
stupidly
stylish,
suppose,
tackle
tape,
terrible.<br
they,
toned
toni
traveled
trigger
twists.
universally
valerie
vanished
versatile
version.<br
vibe
viewer.<br
wade
way!
williams'
yells
"she
##'?
##-comedy
##-free
##-making
##arian
##ble,
##c"
##ce,
##d'
##eth
##f,
##ge,
##gun
##heads
##hs
##ient
##ler,
##lines
##lu
##make
##mit
##natural
##nce,
##net
##on"
##perhaps
##ppy
##ren
##rew
##son's
##stone
##via
##wards
##water
(christopher
/>5.
/>thanks
/>which
1976
2000,
22
80's,
88
;)
absorbed
accents.
accidental
across.
additionally,
amityville
ang
angry.
assistance
avery
barker
biopic
bitchy
blackmail
bowl
california,
cat.
caution
cecilia
cena
china.
clothes.
concentrates
confines
consciousness
culminating
dale
dance.
denzel
dinner.
disappearing
downside
drum
duane
engaging.
enormously
enthralled
envelope
establishes
fame)
female,
films;
fluff
forced.
fosse
friends.<br
fuss
generation,
gig
gladly
goku
graves
harper
healing
his,
his.
honeymoon
instinct
iv
janitor
jensen
lighting.
limb
lizard
locks
logic.
lovely,
lunatic
macdonald
massacre"
meredith
miike's
mobsters
mood,
murphy,
networks
news,
notch.
nuns
pathetically
photography.
player.
publicly
puppy
ranking
reader
refusing
ringing
roller-coaster
rumors
saddest
satisfactory
shakespeare's
site,
sometimes.
start?
sufficiently
temporarily
tennis
territory.
topper
truly,
turd
tv.<br
unattractive
unclear
usa,
usa.
use,
vulnerability
want.
warners
watcher
wee
whip
wings
zealand
"king
##-budget
##-end
##-sized
##/director
##99
##?".
##a),
##ada
##ar,
##c)
##case
##ground
##headed
##heim
##iel
##ier,
##lating
##mad
##nt.
##ography
##plot
##ps.
##ras
##rum
##ryan
##script
##sit
##sses
##ught
##vent
##way,
##working
##yet
##yle
(which,
/>9/10
/>everyone
/>robert
/>things
1968
1997
80s,
accompanies
actresses.
adaptation.
ago.<br
allies
alluring
amusingly
answers.
anyway)
approach,
arch
arrogance
assignment
astonishingly
attic
audie
awards,
awards.
backing
believable.<br
bennett
bomb,
bosses
brit
brown's
canada,
capsule
capt.
cast:
chabrol
characterisation
childhood.
chip
clooney
colored
cons
coyote
criminally
crowd,
curry
dancing.
data
delusional
denise
department,
der
detective.
direction.<br
disconnected
disgusting.
dominate
drama.<br
email
end!
enemy.
etc.).
ethan
exhibit
eyes.<br
failures
faux
fear.
fewer
fiend
finishes
flashback,
flawless.
fund
funded
gaining
germany,
grady
gregg
happen.<br
happenings
hateful
hector
hit-man
honesty,
hunger
hurry
idiot.
impeccable
it!!
jade
jason's
joyce
jumbled
jungle.
lady.
lamest
lampoon
lawless
limbs
loss.
marsh
marvelously
measure.
mike,
misplaced
moon,
moviegoers
naschy
nefarious
nurses
observations
one"
oscar,
overall.
paycheck
payoff
peasant
peers
people!
pokes
portions
practices
preity
punching
re-make
recognizes
register
removing
research,
revealed,
rewind
robbie
rock,
sanders
scarier
scripted,
sherman
shield
simpson
society's
soldiers.
some.
sounds,
spectacular.
spectrum
spoiler,
storytelling,
streets.
studio,
sub-plots
subway
succession
take,
ten,
this)
tourists
towers
undeniable
unknown,
unoriginal,
viewpoint
way:
well;
worry,
wyman
x-files
"two
"where
##-related
##..you
##3),
##a.<br
##ano
##billy
##character
##da,
##dog
##dr
##ean
##ents
##evil
##ff,
##john
##lip
##me,
##men,
##nation
##nder
##nick
##ns,
##read
##reet
##ria
##run
##tie
##uating
##ula
##vey
##vis
(whom
/>aside
/>our
/>second,
10)
1932
1973
1974
5)
70's,
70s,
7th
academic
achieving
aerial
affleck
alarm
allen,
ambiguity
anywhere,
arty
award.
b&w
benson
blaxploitation
bloodshed
brittany
brosnan
bubble
bursting
caesar
capitalize
carson
chapters
charming.
christianity
clare
clayton
client
coke
collection,
colors,
comment.
complains
consumed
consummate
cooper's
cooper,
criminals,
dam
danielle
dash
dc
demanded
dickens
did!
distraction
dvd!
elsewhere,
engagement
excellent.<br
excessively
excitement.
feature-length
feelings,
fisher
frame,
futurama
geeky
gleefully
goodbye
grease
gwyneth
hail
handy
her!
herbie
honorable
hopefully,
horror.<br
hostages
hurting
idea.<br
image.
imdb's
impossibly
inclined
inducing
integrated
involved.<br
joanne
keller
keystone
kinski
known.
lee.
length.
lest
longer,
madhuri
madison
mary,
maxwell
memories.
mess.<br
mexico.
monsters.
movie..
murderers
now?
nowadays,
obnoxious,
occult
occurring
one).
outside.
overt
overtones
pedro
peterson
phrases
please!
preceding
predictably
prestigious
prince,
prinze
production.<br
proverbial
prowess
pub
pulse
pursues
quaint
rapes
rebellion
revival
rig
rudy
sandler's
schizophrenic
scream,
segal
self-conscious
sen
sensibilities
sh*t
shop.
signal
simple:
spock
spotted
st
stinks
story!
studio.
suggestive
survive,
swinton
talents,
tense,
terror.
theatre.
themed
they?
thora
those.
throughout.<br
tilda
touch,
tribes
uh,
unappealing
unconscious
uninteresting.
valiant
warm,
wars.
weekend.
williamson
writers.
yee
"action"
"double
"from
"white
##*****
##--who
##-one
##-oriented
##-worthy
##er'
##field,
##head,
##hit
##ic.
##ience
##iya
##keeper
##ku
##mary
##ote
##pass
##pot
##pper
##ra's
##rant
##really
##ree
##ridge
##ry"
##spoilers
##t'
##ust
##yeah
(there's
/>worth
23
abandons
acquire
addressing
ask,
associates
assumption
bava's
behaving
bert
betrayal,
bing
blockbusters
bodies,
bond,
boot.
boyd
bright,
brink
bum
careers.
cathy
centuries
charlton
classified
cohesive
commonly
coward
crap!
creature,
creek
d&d
d.
dacascos
daft
david's
dead.<br
deborah
director.<br
drivers
dry,
dundee
eastwood's
educate
eliminate
entirety
envy
executed,
exhausted
external
farce.
fares
food.
ford,
frogs
geared
generates
grabbing
hawk
head.<br
headache
hello
housekeeper
icons
imagine.
implications
impression.
ingrid
inherit
intimacy
isn't,
jeep
jose
jungle,
khan,
killers.
kit
laboratory
lastly,
leave,
lies,
lucille
mastermind
maybe.
merit.
missing,
mistakenly
mix.
mole
must-see.
mutated
neville
news.
nichols
noir.
off!
olympic
operate
operator
orchestra
path.
peggy
pepper
phase
plane,
point?
poking
prayer
preparation
privilege
productions.
protected
punished
quick,
quoted
rebels
republican
respectful
respects
restoration
ripe
rodriguez
rosie
salesman
saxon
schedule
segment,
sessions
shrink
sixty
snoop
someones
sooo
stars.<br
stated,
stepping
strangest
suit,
sun,
teacher.
territory,
throwaway
tight,
time).
tin
tobacco
trips
untalented
valentine
valentino
volumes
weapons.
willingly
worrying
x-men
youtube
##''
##(!)
##--that
##-old
##-war
##..not
##?",
##?,
##az
##bel
##eg
##ent,
##ers'
##f.
##french
##gi
##holes
##hop
##ign
##in)
##itor
##ive,
##key
##lance
##lia
##lian
##mas
##may
##o),
##ock
##pat
##rity
##rst
##ter.
##vity
##yes
(who's
/>2
/>eye
/>michael
/>thank
1950
1959
1993
adaptation,
africa.
akira
ant
archer
arrogant,
aspect.
attitude,
bellamy
benicio
bills
bleak,
bloke
bogart,
bombed
bonding
broderick
café
camping
caribbean
cecil
cheerful
chuckles
chunks
cold.
collected
comedy?
compilation
conflict.
contents
corporations
correct.
counterparts
countess
danger,
dangerously
dated.
deaths.
debut.
depraved
desi
design.
det.
different.<br
disgusting,
dogs.
dying,
dying.
employs
enemy,
environmental
excellence
exclusive
exposes
extreme.
eyed
fanatic
filmmaker.
filmmakers.
fiona
forth.
frightening,
fulci
funds
gee,
generals
geoffrey
gerard
glover
grandparents
grieving
gullible
half-hour
heir
holland
holocaust.
hometown
hypocrisy
immediately.
inherently
intellectually
interest.<br
into,
irresponsible
islands
january
jed
jobs,
jude
katharine
killer"
killers,
kings
knows?
latter.
lick
lists
liu
locations.
long-time
magician
market,
matter.<br
mcconaughey
media.
mediocre.
meet,
melt
michael's
middle.
mifune
miller,
miniature
mom.
moments.<br
morgue
moron
mummies
murderer.
names.
nominations
o.
offer,
one...
opponent
originality,
oxygen
partner.
peek
place?
played,
plots.
point:
porn,
preacher
professionals
properly.
rampling
randall
reality.<br
recovering
redeemed
render
riots
robotic
rock.
russell,
scenario,
schneider
searches
sebastian
semi
settings,
shock.
show!
skit
sopranos
sparse
speeding
standard.
starving
stewart,
stiff,
straw
strikingly
tastes,
teamed
teenager.
theatre,
thoughts.
torture.
tragic,
true.<br
trusted
turmoil
ufo
uncompromising
understandably
underused
unsuccessful
unwanted
vernon
videotape
viet
vivek
wang
wheeler
whit
widowed
wild,
works.<br
yep,
youth.
"escape
##-century
##-clad
##..he
##act
##boys
##cca
##children
##cks
##david
##dly
##ena
##ese
##est,
##ety
##father
##ful,
##ham,
##he's
##hollywood
##is"
##ists,
##ities,
##k)
##ki,
##lander
##lant
##lid
##mates
##no,
##nted
##n´t
##oh,
##rel
##ros
##sea
##still
##ta,
##tably
##take
##tone
##ty.
##typical
##um.
##uts
##video
##ws
##ying
(anthony
/>4)
abel
adjust
adored
advised
afternoon.
angeles.
awaits
b-movie,
belgian
belonged
besson
birch
bits,
blanket
blockbuster.
break,
brothel
bucket
buffalo
but...
cain
candy:
cat,
chock
chore
churning
cleef
clumsily
co.
conclusions
congratulations
conrad
consequence
contributions
convenience
counterpart
cousins
cringing
crop
cruel,
cutter
d'amato
december
decorated
degree.
deliver.
delpy
dial
dracula,
dreaming
dripping
drunk.
dusk
earning
empathize
enlists
er,
europeans
evans
execution,
experiences.
explanations
fading
faye
fence
filming,
fletcher
flynn,
freaked
frederick
frenetic
friendship.
funnier.
galactica
gale
german,
get's
grandpa
haired
haunts
heard,
hooked.
hot.
house.<br
ideals
illness,
indicated
innocence,
institute
instrument
intelligently
isaac
iwo
jobs.
jones.
landis
looks.
machine,
mansion,
mechanic
meyer
miller's
my,
narrates
nicely,
nihilistic
not!
nowadays.
observation
observed
off-screen
offensive,
outlandish
output
padded
parents'
penn's
pinhead
powerfully
pre-code
preserve
prevents
protective
psyche
psychopathic
puzzling
reciting
recommend.
repetition
rescuing
resorting
reunite
revolve
ridden
ripper
rugged
scar
scorcese
scrap
secluded
seriously.<br
shahrukh
shred
sleeper
solar
solitary
something?
sparkling
stalin
stalwart
started,
stella
stoic
stomach.
surrounds
taliban
tempo
these.
thirteen
tho
time:
tricked
uk,
uncertain
vampire,
vinny
wait.
watered
way).
ways.<br
wilder's
"come
"look
##!",
##-handed
##-quality
##-set
##......
##..they
##.he
##4,
##a'
##am,
##bow
##dice
##een
##fies
##gated
##gies
##ids
##iness.
##iously
##lake
##lled
##m)
##maniac
##ms.
##ners
##or"
##p"
##people
##pin
##rma
##should
##such
##ton's
##uel
##une
##walks
'n'
(mark
(sometimes
(tom
(tony
/>acting
/>any
1952
1978
95
ability,
ability.
achievement.
action-packed
actively
airing
alien.
ambiance
american.
answering
astonished
automatic
bad?
baffled
battlefield
benigni
bill.
bimbo
bonds
britain,
brush
budding
cagney,
campy,
canned
cars.
ceremony
chair.
charisma.
choices.
circuit
climate
cockney
coincidences
coma
comical.
commendable
condescending
condition.
confesses
correct,
cost.
cowardly
cowboys
cram
created,
darling
dealers
deft
dern
didnt
diesel
dish
dominant
doo
dunn
duties
ebay
effort.<br
elicit
ex-wife
exist,
explained,
fashions
fawcett
feared
fictitious
financed
find,
flawed,
forgettable,
forgiving
germany.
glow
good?
government,
homicide
humiliating
humiliation
icing
imagery,
incorporated
inflicted
inhabit
insert
invade
irrational
isabelle
jedi
jerky
juicy
landau
lightweight
likewise,
linger
literally,
lopez
madrid
mama
maniacal
mean-spirited
meantime,
milland
mistakes.
mud
natural,
network.
night.<br
nolte
nutty
open.
operatic
opted
outsider
particular.
partnership
passages
pfeiffer
pornography
predictability
projected
promising,
prone
propaganda.
pros
ranked
reception
recommended!
replaces
resurrect
roads
russ
rutger
scarred
scene?
science,
shade
sharp,
shy,
sight,
singing,
sophistication
space"
spider-man
stalker
streak
style.<br
summer,
swarm
tears,
tepid
teri
tooth
trading
traumatized
trite,
trough
unfinished
unflinching
up:
usually,
viewings.
wimpy
wires
years!
"home
"lady
##").<br
##":
##&
##--or
##-loving
##-wise
##/action
##????
##acing
##ant,
##ato
##bes
##call
##dr.
##ee,
##eer
##en)
##fish
##gay
##gled
##ian,
##ico
##ination
##ip
##ith
##james
##lin,
##made
##mber
##nor
##ologist
##ops
##ord
##pal
##present
##probably
##rah
##ret
##rman
##sha
##tore
##uates
##uk
##white
##the
(other
(too
/>definitely
/>her
/>more
/>mr.
1920s
1961
1989
3/10.
500
70s.
8th
:)<br
a-list
abundance
acclaim
accurate,
agree,
alicia
amiable
anchor
animations
anti-hero
anyways
arnie
austen
ava
awfulness
bachchan
beautifully.
believer
big-budget
blended
blocks
bogus
boring!
bouncing
boyle
captain,
carefree
careless
castle,
chun
church.
city"
claus
clichéd,
competently
complex.
complicated,
conduct
consequences.
contrasting
count,
crash.
crouching
darcy
darkness,
deepest
delve
demographic
dependent
descriptions
diaries
disbelief.
drilling
efforts,
egypt
encouraging
engineer
enhances
entertains
epic.
episode.<br
erase
euro
evolve
examines
execute
exploitative
fades
familiar,
fest.
fever
films:
finer
flaming
fleeing
flips
fonda,
found,
gaping
glorified
gloss
graduated
grin
guided
hailed
hallucinations
harlem
havilland
heartless
helmed
him)
him;
housewife
image,
increased
interpretations
intrigue,
invading
irritating,
its'
janis
joys
key,
lacking.
large,
leung
lincoln
liquor
listens
luck,
lured
madness.
magnetic
male,
marathon
market.
meanders
meanings
metaphors
mexicans
mildred
miranda
monotone
months,
mormon
motif
movie!<br
naive,
night's
nods
novels,
ollie
one-liners,
oneself
opposite.
orphaned
oscar-winning
owning
parody,
pigeon
pleasance
pole
politician
pregnant.
presentation.
prints
psychologist
puzzled
refreshing.
risky
saddened
sans
scares.
scriptwriters
se
settles
sgt.
shaun
should,
similarly,
skillful
skin,
smith.
speed,
spliced
sprinkled
stack
subjective
supplied
surreal,
sustained
sweet.
talentless
talking.
tall,
terrence
tested
that:
thematic
torch
unfairly
untimely
vanity
vcr
ventures
vlad
weeks.
weirdness
winner,
wolves
woo's
worries
wry
"ghost
"hey
"no,
"out
##!)<br
##)...
##*.
##-face
##-night
##...this
##..if
##0s
##aa
##ace
##active
##ah,
##b's
##beat
##big
##bridge
##bury
##cker
##dan
##din
##gor
##id,
##ide,
##igned
##kie
##kin,
##la.
##le"
##list
##lit
##nging
##nking
##ny,
##ographer
##pical
##prison
##rium
##round
##rove
##since
##ston
##ted,
##th,
##uck
##ued
##vert
##vised
##yo
(steve
(two
(watch
/>10
/>2/10
/>besides
1930s,
1937
1954
1970s.
1971
2008
90's.
93
accustomed
admirably
adventurous
angel,
antoinette
ask?
avalanche
b-movie.
ball.
barrage
believed.
bethany
bickford
big.
bland.
blue,
booth
booze
bourgeois
boys"
brighton
bruce,
build-up
burial
canal
changes.
cheryl
churned
cinematographic
city.<br
civilized
clara
clouseau
clutches
collapse
commands
complexities
composition
concludes
council
coverage
crass
david,
deadwood
deaths,
decadent
demonstrating
deprived
desk
developments
dicaprio
dignified
dime
disillusioned
douglas,
dramas,
dreadful,
drown
dunaway
eklavya
element,
emmy
employment
emulate
epics
escapist
evening,
everybody's
examining
experimenting
eyebrows
families.
fathom
fellini's
fernando
format,
frederic
furthermore
garson
gere
glen
goddess
goofs
goons
gossip
grace,
happier
harsh,
henchmen
henriksen
heterosexual
historians
holocaust,
hrithik
idiocy
idyllic
immoral
in-depth
inspires
intellect
intended.
josie
kajol
kerry
killer.<br
killing,
kris
lau
leader.
lifetime.
maiden
marines
massacre,
masterpiece.<br
melody
mentioned.
missions
mold
moll
motion,
motley
muddy
nagging
nash
needlessly
nolan
normally,
not)
number.
observing
opposition
oppressive
pacing.
padding
peace.
perpetual
persuade
piper
policemen
pope
positions
pre
prejudices
premiered
presumed
pretty.
projection
provoke
publisher
questioned
rain,
regardless,
regime
reporters
request
restraint
retirement
revolution,
rifle
right!
robber
rooney
rudolph
sci-fi.
screaming,
screening,
seamlessly
seduces
self-centered
set-pieces
showcased
sized
slumber
spain,
spontaneous
spouting
stimulating
stockwell
strains
suspect,
suspended
syndrome
talent.<br
terms,
the,
thirties
throne
timing,
tomei
too)
tragedies
tripe.
unconvincing.
vampires,
vienna
violently
wants.
way),
well)
werner
westerns.
wind,
yours
zero.
zoom
!<br
##(who
##)who
##---
##--so
##-laden
##-men
##...)
##..well,
##12
##ab
##ander
##ari
##blood
##dic
##enough
##fs
##fying
##ggy
##h)
##hes
##hill
##ila
##ioned
##kov
##let's
##li,
##lice
##mal
##music
##nate
##o'
##ous,
##pretty
##rily
##rina
##rise
##romantic
##tein
##tered
##tics
##tled
##tro
##turn
##unk
##usion
##vic
##wise,
'what
(henry
(jason
/>**
/>about
/>back
1988
20's
5,
accidents
accomplice
add,
advertisement
amateurs
annoys
anxiety
apollo
appealed
applause
argued
arises
attributed
based,
behold.
bend
blockbuster,
bond.
boorman
bounce
brendan
brunette
carmen
carrier
casino
chemistry,
city's
classify
clinton
cohen
comically
coping
correctly,
critically
csi
davis'
decade,
demeanor
deservedly
destination
dialogue.<br
dinner,
diversity
edits
embark
energy.
equals
ethical
ex-con
exhibits
exudes
fanatics
fascist
fearful
finely
fleeting
franchise,
freedom,
fur
goals
goofy,
grain
greece
green,
hall,
hampered
happened.<br
haunting,
herzog
hood,
hosts
hound
huge,
hurricane
hurt,
imaginable
imagining
indulgent
insane,
invaded
italy,
kathryn
kinky
knox
kurosawa's
labour
lake.
lansbury
legs,
lifeboat
lord,
lundgren
malevolent
mann
marijuana
mary's
mastery
masturbating
melting
memorably
merchant
minds.
mindset
mining
mounted
natasha
no-nonsense
noisy
non-existent.
norway
o'
on...
organ
others)
oz
paper.
participants
penguin
perpetually
platoon
pod
poets
pool,
praising
prepares
priest,
problem:
producer.
professor,
prospective
pseudo
random,
recovered
refusal
remorse
researched
retains
ridiculous.<br
ring.
rogers,
rules.
sacrificing
satire.
scared,
self-absorbed
seven.<br
shes
sides.
simon,
sisters,
situation.<br
slick,
sluggish
snowy
somerset
streisand
substance,
swashbuckling
target.
tennessee
think)
this;
transforming
transparent
twentieth
two-dimensional
uninspired,
uninteresting,
usage
viggo
warning:
weave
weirdo
witchcraft
woman.<br
worm
yor
yourself.<br
##-bound
##-speaking
##-used
##-wise,
##/early
##13
##3.
##5/10
##6,
##ances
##ard,
##best
##bled
##both
##cy,
##dream
##er),
##ery,
##family
##ha,
##had
##high
##iac
##itch
##knowing
##lam
##lo,
##merican
##mont
##ndo
##ne.
##ness.<br
##or's
##pm
##poor
##rna
##sity
##those
##tian
##verted
##written
(almost
(apparently
(daniel
/>next
/>over
1940
1941
1947
1987
1991
achievements
act.<br
all...
ambassador
amelie
anime.
another.<br
anyhow,
anything.<br
argentina
artists,
aspect,
assistant,
blazing
blindly
blink
boiled
born.
bruce's
burden
button.
candy.
catalyst
ceiling
centres
coaster
comedy!
conchita
converted
crane
crash,
credible.
creeps
crook
crude,
cynical,
czech
dastardly
debut,
defeats
denies
distributors
dove
downbeat
early,
echoes
effects.<br
elevated
elfen
elusive
engages
engrossed
enjoyed.
ensures
entity
environment,
even,
expression.
extension
extras,
fabric
fantastically
fate,
filming.
finished.
first.<br
firth
forest.
fortress
fox,
frighteningly
garnered
generous.
george's
gesture
glory.
goers
granddaughter
gross-out
grumpy
harrelson
have.<br
heads,
here!
hilarious.<br
hillbilly
hum
impact,
initially,
interestingly,
interiors
irony,
isle
it?<br
jam
jang
judd
killings,
kindergarten
least)
least.<br
loan
made!
magazines
massey
meager
mediocre,
merciless
moderate
mother.<br
motions
naturalistic
niche
optimism
outbreak
permission
person.<br
pilot.
plane.
playing,
pornographic
positives
pov
preaching
progressively
prominently
promise,
propaganda,
quarters
quoting
raul
recite
redemption.
relive
renders
return,
revealed.
rewards
runner
sabotage
said:
sailors
says:
scenario.
scripts,
searched
seems.
sensitive,
servants
sharpe's
shoestring
shot.<br
somber
specials
stance
stubborn
stupidity.
sweetheart
symbols
tenants
th
thin.
toll
town.<br
travesty.
trendy
trunk
tucci
twisted,
typical,
ubiquitous
unremarkable
unrequited
verne
wayne,
wheels
wood's
words:
workings
york's
"alien"
"dr.
"go
"grand
"we're
"your
##****
##***<br
##--they
##..just
##an"
##an)
##ass
##atory
##chen
##cia
##da.
##der,
##ect
##funny
##gain
##ge.
##hood,
##ing.<br
##ishing
##jean
##le's
##ler's
##llo
##llow
##mann
##mping
##my,
##nces
##ne"
##nity
##rap
##rative
##rid
##rts
##sex
##sian
##sman
##smith
##ssing
##sweet
##thank
##tical
##too
##true
##uing
##v's
##vating
##words
(note
/>dvd
/>none
18th
1931
1964
1982
2001,
9.
99
actors/actresses
ahead.
along.<br
angeles,
any,
appreciated.
army.
arquette
articles
ass.
attendant
away!
awhile.
bathing
behalf
blanchett
bloody,
bodily
boy"
branch
browning
buddhist
buddy,
budget.<br
calculated
canada.
canadians
care.<br
chamberlain
chaney,
chicago,
clerks
clothing,
colonial
comics,
commend
conclusion.<br
confirmed
confirms
confusion,
contend
cops.
copy,
corners
corrupted
course.<br
cross,
curiosity,
cursing
dad.
danger.
daylight
democratic
device,
dictator
discount
distress
distributor
dolly
drawback
dud.
elevates
else?
ember
embodies
embodiment
empty,
escort
etting
exhilarating
exquisitely
favorable
favorites,
ferrell
ferrer
first-time
flamboyant
flees
fleming
fluffy
foley
formerly
gator
girls"
glamour
gleason
grace.
graphics,
greene
grind
groovy
guns.
hacks
hard"
heflin
hence,
here),
here).
heritage
hideously
honey
hyde
imply
indeed.<br
isabella
jekyll
joy,
killing.
laughs.<br
leaden
legally
lingers
loch
ludicrous.
madly
make-up,
marlowe
mermaid
mom's
mostly,
mysterious,
natty
nothing.<br
obscurity
oozes
over-the-top,
paddy
panned
parental
parody.
penn,
petrified
peyton
pier
pity.
plan.
plays.
plea
plotted
politics.
ponder
pool.
prank
predicted
preserved
professionally
qualified
range.
recruited
refined
regulars
religion.
replies,
rooftop
ruby
saddled
scene).
scheduled
schwarzenegger
science-fiction
seattle
secret,
sexy.
shane
shanghai
shifting
single-handedly
singular
slash
smitten
so)
sober
sorts,
soup
south,
spain.
splash
spoon
stalks
strives
sumptuous
supermarket
suspect.
sweep
systems
task.
tease
technological
teens,
temper
them).
time),
timely
titles,
trying.
under-rated
undertones
unleashed
unnecessary,
unrelenting
unresolved
viable
visually,
volunteer
walls,
wasted,
waving
weaves
weeks,
while.<br
whimsical
whispering
winkler
wrath
"gone
"must
"on
"our
##$
##'),
##(?)
##,i
##-drama
##-five
##-school
##-themed
##-ups
##..in
##.00
##/comedy
##4.
##6),
##a!
##also
##am.
##asing
##bob
##coat
##cool
##dam
##date
##do,
##does
##eau
##eddie
##ffs
##grant
##guy
##however
##ield
##ifer
##ii
##ka,
##ke,
##lane
##last
##lated
##lt.
##movie
##mps
##nch
##ncing
##oning
##oral
##os.
##other
##running
##rust
##vian
##view
(no,
(remember
****.
/>each
13th"
1986
50%
6.
accomplishment
actor.<br
acts,
adept
administration
advice:
altering
alternately
amaze
america.<br
antics.
antique
arabian
attracts
attributes
author,
beam
beast,
beat.
begin?
behind,
boulevard
brazil
bumps
burlesque
busey
cancel
cardinal
cargo
carlo
cause.
classic!
coleman
colombian
compulsive
conceivable
consequently
contender
conversation.
correctness
countries,
course).
creatures,
crimes.
criminals.
customs
def
denial
devastated
die.<br
disdain
disturb
documented
doubles
download
drive,
dubbing,
eastman
eclectic
edges
edith
emerged
emotionless
enable
engines
ensuing
everything.<br
exaggeration
falcon
fallon
flags
flirting
frame.
frantically
gangsters,
giggling
gooding
gospel
grave.
groucho
hacked
haircut
half-way
hayek
henchman
hicks
hypocritical
i.e.,
impressions
indians,
induced
inexperienced
insistence
intentions,
internet,
it!"
jessie
joy.
kitano
latter,
lent
lewis'
liar
linking
lubitsch
macmurray
magnificently
mansion.
medium.
middle-class
muster
natural.
nick's
o.k.
officer.
orgy
outs
overboard
owing
paralyzed
paul's
persona.
personnel
perspectives
philadelphia
pitched
poignancy
posting
powerhouse
president,
priests
progresses.
pure,
radio,
redford
regina
reincarnation
release.<br
relieved
resorts
retro
roaring
romania
rouge
rufus
russia,
ruth's
sarcasm
scarface
separates
sequel.<br
settling
shawshank
shoes,
shop,
showtime
similar,
sins
slaps
sneaks
socialite
soldier,
somebody's
sorrow
spunky
steiger
stop,
study,
swayze
tara
terror,
than,
thesis
til
tried,
uneventful
unfaithful
unknowns
vhs.
wanted.
warnings
was!
wedding,
well).
whitney
witless
wronged
yourselves
"cannibal
"i've
"new"
"normal"
"nothing
"there
"three
##';
##'s)
##-director
##-going
##-obsessed
##-piece
##-up,
##-wielding
##...a
##..what
##ali
##aul
##bag
##blade
##boy,
##broken
##ch"
##check
##cop
##cott
##dark
##dean
##dent
##directed
##due
##erson
##eting
##everything
##front
##fus
##green
##hn
##holy
##in"
##ing)
##iser
##ishes
##isms
##log
##mated
##mel
##nant
##nard
##national
##ney,
##nge
##played
##prince
##ption
##py,
##r.<br
##range
##rdo
##s',
##sage
##screen
##sts
##ted.
##ties.
##tus
##um"
##uss
##ute
##weight
##y.<br
##z"
##zzy
(check
(i've
(jeff
(joan
(kevin
/>david
/>given
/>james
1970s,
27
80s.
abilities,
abound
acceptable.
actually.
admirer
adoption
afternoon,
again...
alain
all;
alone.<br
am.
amateurish.
amazing!
amc
andromeda
apologize
approve
articulate
aspects,
australia,
awkwardly
awry
barrier
basis.
bean
beginnings
bread
brenda
bunch.
calendar
carpet
category,
cgi.
chandler
chauffeur
cheats
christy
closure
clouds
cocktail
competitive
completely,
comprised
connelly
consequently,
construct
continuity.
contributing
cook,
costs,
costume,
costuming
creeping
critics.
crying,
curiosity.
cutesy
dante's
degrading
dimensions
dirk
discernible
dispatched
disturbingly
divide
draft
dress,
dtv
dutt
elected
election
enjoyable.<br
ensues.
esther
ethics
expressions,
extreme,
fable
failure,
farrell
fateful
feet.
float
followers
fondly
forensic
formula.
founded
fried
frontier
gardner
george,
gilmore
grizzly
gunshot
hamming
happened?
hard-boiled
hare
hauer
heroism
hesitant
highlighted
holmes.
hosted
hypnotic
idiot,
inaccuracies
incessant
incorporate
indy
infatuated
instincts
interested,
is;
jacqueline
jakob
johnnie
kickboxer
kidding.
kiefer
kira
knives
knowledge,
kristen
lamp
letdown
literally.
logo
lot.<br
lowe
maine
marcel
marco
marcos
masturbation
mccoy
me).
menjou
mercifully
mesmerized
min.
mind-numbing
mischievous
misfits
mos
moustache
movie!!!
mulholland
murdered,
mustache
nauseating
necessary,
nightmare.
noel
occasions,
odd.
odyssey
older.
om
over-sized
packing
palestinian
patrons
personalities.
pic
picturesque
pin
pine
pity,
poignant,
posh
powder
precocious
pregnancy
presume
primal
printed
projects.
prolonged
ransom
reacts
recreation
refugees
reputation.
riders
rose,
routine.
run-of-the-mill
sammy
sample
scantily
scene!
scripting
sensibility
shepard
shepherd
short-lived
sides,
smallest
snakes
soooo
sophomoric
south.
spoilers<br
spoilt
spouse
stars!
stiles
stills
stricken
structure.
superfluous
surprises.
surrealistic
tackled
tasks
tasty
things.<br
tiger,
timing.
tombstone
traveler
trilogy.
truthful
turner's
understatement.
unwittingly
uttered
venus
videos.
villa
villages
violent.
virginity
warp
weed
well-meaning
welsh
willard
winners
witches
wits
won't.
wonder.
wooden.
yankee
zooms
"back
"deep
"texas
"time
##!")
##(a
##--which
##-friendly
##-funny
##-good
##?!?
##aby
##ay,
##baby
##bies
##child
##clear
##cult
##cuted
##ddle
##ection
##ella
##ential
##ess,
##female
##flight
##ford,
##gic
##gment
##hr
##ika
##ities.
##itive
##ivity
##lash
##lean
##les"
##lmost
##married
##mind
##page
##personal
##piece
##rge
##rrow
##rung
##s'.
##say
##se.
##six
##story
##think
##ton)
##uble
##us'
##wolf
'bad
(since
(spoiler
(yet
/>instead
/>or
/>paul
/>technically
/>yes
1,000
1936
1938
1975
1977
1981
activist
alarming
alexis
ana
android
apache
appalling.
appear,
arrives,
asset
avoid,
await
award,
baby"
bag.
bauer
baxter
beavers
become.
beef
behaves
belonging
bigfoot
blackadder
bogged
boone
boxes
breathtaking.
brightest
brisk
bulworth
capone
carla
carlin
charity
cheered
cheers
chimp
classroom
claudius
coming-of-age
condition,
contacts
contrasted
copious
craze
crimes,
cues
culprit
dalton
darkness.
days"
dean's
decently
decision,
decision.
deftly
dialogs,
disorder
distraught
ditto
do!
don´t
dope
drinking,
editors
ellis
ends.<br
entertained,
espionage
essay
everybody,
evoked
existence,
explosions.
extras.
factor,
fail.
familiar.
farcical
father.<br
fearless
fetching
fights.
flop.
fooling
forsythe
foul-mouthed
front,
garbage.<br
good:
gosling
gunfight
guy.<br
hatchet
hawaii
heated
hi
hilary
honor,
horrendous.
ichi
idiots.
incest
incomplete
increases
incredible,
infant
inhuman
instructor
intelligent.
interminable
irresistible
jean-claude
jerks
karloff's
kersey
kitty
lapses
lately,
lie,
lined
lipstick
lol.
loose.
luminous
lyle
madness,
mai
man)
manager,
meantime
meditation
meteor
milieu
mins.
mismatched
mitchell,
moment.<br
monologues
moore.
nam
namely,
ncis
nemo
nixon
november
nukie
observer
one-note
opponents
orlando
overdone,
owner.
ozon
pains
pantheon
pass.
path,
patterns
perky
phoenix
picnic
pills
pioneer
plays,
pleasence
poachers
pokemon
pounding
powered
practicing
president.
prince.
proceedings,
proposed
prostitute,
protagonist.
punched
qualities,
radar
rambo
ratings.
reckless
redgrave
refugee
reiner
repetitive.
resembled
rewrite
rife
righteous
roaming
ruling
rumble
russell's
sack
sassy
scoring
scout
screws
seamless
second-rate
seducing
selena
serbian
serials
series'
shakespearean
sharply
sheriff's
shivers
shooting.
sidekick,
simmons
slashers
smarmy
somehow.
sort.
spectacularly
stereo
strained
strategy
strength,
sultry
summer.
survival.
sympathetic,
tails
tainted
that...
then?
thornton
those,
throwback
ticks
times)
title.<br
to?
townspeople
track,
tracked
traditions
tuck
typing
ugly.
um,
unemployed
unknown.
unrecognizable
unsung
urges
us?
visitors
well?
williams.
worked,
yen
youths
yun
"true
"young
##!!"
##-1
##-ass
##-like,
##-mouthed
##-point
##-show
##-thriller
##ance,
##ar.
##bus
##cking
##class
##cture
##cultural
##dies
##dles
##elli
##formed
##ft,
##gan,
##half
##hey
##hum
##iated
##iers
##ille
##ively
##jason
##lley
##ma"
##modern
##mrs.
##n'
##nating
##nery
##olf
##ors,
##ose
##par
##quel
##ra.
##race
##rats
##remember
##ress,
##riding
##rin
##rm
##roger
##rth
##self
##ski
##sle
##ssa
##suming
##t.<br
##there's
##tor,
##ulating
##ulous
##vre
##wait
##wl
##yes,
'60s
(joe
(oh
(or,
(sorry
/>tom
/>will
/>worst
1942
1990s
2005,
2006.
26
3"
abominable
absurdly
abysmal.
accomplishes
acknowledged
acquainted
acting:
acts.
adaption
again)
agreeing
alpha
ambush
annette
annoyance
answers,
anyone?
appetite
arbitrary
atlantic
attractive.
awakening
backstory
bad:
baddie
baffling
bambi's
bares
barkin
barton
bastards
be!
bemused
benefited
bergman's
better)
bitterly
bloated
boogie
bottles
buckaroo
buff,
butterfly
casper
cavalry
chan's
civilization.
claw
co-worker
co-wrote
coherence
commando
commended
complement
compromise
conference
conflicting
confusion.
constance
cooks
cos
creations
credits.<br
criticizing
crushing
curtain
cynicism
deed
deserved.
despised
difficult,
digest
director)
director/writer
disfigured
divorce.
doe
drastic
dunne,
elmer
empty.
essence,
evelyn
evolves
extravagant
falk
famous,
famous.
farce,
fay
fend
fetched
filth
fish,
fitted
fitzgerald
fleet
fleischer
fonda's
forever.<br
forgotten,
gabriel
gena
gets,
gil
given,
god!
goddard
gong
good)
good;
guidance
half-baked
hanson
hardships
hawke
heal
heartbreak
heiress
heroine.
hid
honored
hooper's
horses,
hysteria
hysterical.
identities
ill-fated
immersed
induce
infested
instructions
instrumental
insulting.
investment
invitation
judge,
kareena
kindness
kumar
laughed,
lifelong
lighthouse
listing
logically
lonely,
loot
lucrative
lynch,
mack
mad.
maltese
man",
manipulating
marie's
master.
mathieu
mc
mcclane
meetings
minutes)
mob,
moon.
morricone
motion.
moves.
movies:
murderer,
name.<br
narnia
nasa
nat
novels.
nuance
occurrence
ode
oral
oriental
overacts
overlooked.
page,
painter
pardon
parisian
perceive
perennial
popular.
praises
proceedings.
pumping
puri
rage,
raiders
range,
raven
realising
recalled
recapture
red,
reeve
renaissance
reportedly
revived
richard,
ridley
riot.
rishi
roberts,
rooms,
roosevelt
rudolf
ryan,
screwing
seals
selleck
sensuality
shocker
simpler
skips
slam
sliced
speech,
spins
splitting
spots,
squarely
stadium
studios,
succeed.
suppose.
surpass
surrender
suspenseful.
swings
sync
synthesizer
tagline
tanks
tenderness
tent
terrible!
terrorized
textbook
texture
then.<br
thinly
though:
tibetan
time...
title)
topic,
touted
trappings
turkey,
turner,
turns.
undermine
unheard
uninspired.
uninspiring
unstoppable
venice
vicky
weapon.
wednesday
well-written,
whatsoever.<br
whipped
win,
yeah.
york"
"family
"twist"
"wild
##(as
##(if
##--though
##-black
##-born
##-dimensional
##-directed
##-house
##-tv
##..even
##/producer
##4),
##ae
##af
##air
##ated,
##ather
##aving
##ban
##cam
##car
##cation
##creature
##cute
##deed,
##dick
##dish
##dy,
##el's
##ey's
##friend
##gan's
##gator
##ggie
##h.<br
##hic
##iko
##il,
##iles
##ils
##law
##liness
##ling.
##louise
##minate
##mr
##na.
##never
##nut
##oes
##ors.
##osh
##rat
##re.
##rf
##rial
##rks
##rse
##rted
##s's
##sel
##son)
##ss,
##te.
##tell
##tories
##ts.
##turing
##vel
##ville,
##yard
##za,
##and
(again,
(based
(before
(dennis
(she's
/>actually,
/>along
/>be
/>finally
/>movie
/>ps:
/>recommended
/>someone
/>spoiler
0/10
1935
80%
abe
adamson
admiral
adrenaline
afterward,
ahead,
aimless
alphabet
altman's
ambitions
amsterdam
angles.
anticipating
aroused
arranges
arthurian
arts,
ass,
assassins
at.<br
attempt,
attention.<br
bad)
ball,
ballad
band.
barn
bass
between,
bewildered
boogeyman
bootleg
boredom,
bowling
brooks,
buildings,
bunker
butler,
cairo
caleb
cards.
caucasian
ceases
celebrating
censors
chained
chance.<br
chi
chong
clarity
clients
clones
closely,
closeups
clubs
co-workers
collapses
compliments
connery,
contrasts
convert
corbucci
count.
criminal.
crosby
crusade
curtiz
cuz
dallas
day"
deep.
delights
delivery.
des
device.
diamonds
disgruntled
disparate
done!
duvall's
eddie's
electrical
eponymous
era.<br
establishment
exceeded
f/x
ferocious
financially
flashbacks.
following.
forum
franco's
freezing
frightening.
futile
gangster,
garrett
good-natured
goof
google
gradual
grau
gregory's
gripping,
groan
gruff
gusto
ha!
happiness,
happiness.
harvard
hathaway
hays
heartily
hell"
herman
hewitt
honour
humane
ideology
imaginable.
income
indictment
infiltrate
injects
innocence.
innuendo
intentions.
inviting
iris
is).
it..
japanese,
jew
joker
kaufman
kentucky
ladder
lie.
life)
life;
liked.
losses
louisiana
loved.
lsd
lump
makings
maniacs
masculine
materials
mediocrity
megan
memories,
men.<br
mgm's
might've
minimalist
misfit
miss,
moods
movement.
moves,
movie".
movies;
muted
nailed
nanon
newspapers
next?
nope.
obscene
off-beat
one;
ones.<br
operations
options
others'
overdone.
packaged
palma's
papers
parks
participating
parts.<br
ping
placement
plans.
plods
poorest
premises
pretentious.
probably,
program,
progressive
props,
protagonist's
proud.
racist,
rarity
ravishing
redemption,
references,
reflective
rescues
resolution.
restless
retrospect,
revel
revisit
robbins
romantically
rotting
rubin
sadako's
salma
scene's
scott.
screenplays
scrooge
sentiments
serling
service,
shabby
shattered
shorts,
show)
similar.
sling
slow-motion
smacks
societal
solace
speed.
spoilers)
staggering
stomach,
story)
story-telling
sudden,
summarize
superiors
superlative
surprises,
surroundings.
symphony
talkie
tangled
technique,
technology.
televised
teller
telling.
tended
thompson,
thorough
thoughts,
tidy
timid
treasure.
trees,
tribulations
unpretentious
utmost
viciously
viewing.<br
virtues
vows
wax
way;
wedding.
weeping
weirdest
well-crafted
woody's
wrenching
ww
yearning
yoko
"o
##-action
##-back
##-do
##-eating
##-ed
##-playing
##.a
##7.
##8,
##ained
##ase
##bbles
##bbs
##bo"
##cd
##cence
##ch's
##cisive
##co,
##cock
##cross
##cus
##cy.
##day,
##done
##er",
##etic
##ffer
##five
##gin
##go"
##hide
##hl
##ia"
##iates
##iating
##ike
##is'
##ites
##itude
##jan
##kas
##lling
##lma
##logist
##luck
##nam
##nting
##ntly
##off,
##ound
##paid
##per.
##peter
##pick
##plays
##plified
##queen
##ques
##rl
##rod
##ser
##sexual
##sia
##teresting
##ton.
##trust
##uity
##ure,
##uth
##va,
##verse
##wow,
'real'
(apart
(bruce
(did
(donald
(sean
(voiced
(yeah,
(yes
/>add
/>enter
/>no,
/>secondly,
/>william
110th
1983
2",
55
8,
95%
a.k.a.
a<br
abundant
acceptable,
again"
alison
amuse
anachronistic
anakin
and<br
angle,
appears.
appreciates
arabs
armor
arrows
awakens
bad...
balances
batman,
begin,
beings,
beings.
bisexual
boats
brain,
breath.
brilliance.
bullied
bullies
buttons
by-the-numbers
caan
cafe
camcorder
camera.<br
cape
capitalist
carrol
champ
chest.
christmas,
chucky
climbs
coincidentally
collar
communists
conceal
condemn
coppola's
creature.
creatures.
crime.<br
crowds
dancer,
decapitated
declare
declares
denis
denver
despair.
devil,
devil.
devious
diego
difference,
dirty,
disk
displeasure
downey
dry.
dumbed
duplicate
dwarfs
earthquake
easiest
eh?
elwood
embedded
emil
empathise
enchanted
etc).
evils
explicitly
eyes"
fairbanks,
faithfully
familiarity
farther
fetish
film-maker
filmography
finished,
flesh.
floats
fondness
foray
forget,
forming
functions
genetically
genocide
ghost,
goings
greed,
grenade
hatch
hauntingly
heart.<br
heaven.
helicopters
helmet
henderson
high-tech
hitler's
hollywood.<br
homosexuality,
horrendously
hunts
icy
ignored.
implication
impossible,
inconsequential
interrogation
intertwined
intimidating
isabel
jail.
jarmusch
jewelry
jfk
jones's
josef
justifies
kane,
kinnear
kline
late-night
lately.
liotta
locales
lucia
lugosi's
magnificent,
magnificent.
mandatory
mankind.
mannered
math
mayan
measures
media,
memory,
mercilessly
michael,
mishmash
misleading.
missile
mistakes,
monstrosity
nameless
nastassja
next.<br
no.<br
non-existent,
nope,
notch,
o'connor
o'neal
obtained
on"
opening,
pare
participation
past.<br
perceptive
persuaded
peter,
philippines
pigs
plain,
play.<br
poe
poisoned
poorer
pour
preach
principles
proportions
puns
quality.<br
r-rated
razor
reckon
ren
renegade
responses
retire
revolting
revolution.
rightful
romances
rub
rules,
ryder
sake.
sands
savini
scaring
scene)
score:
seasons,
seventies,
sewer
sexploitation
sexuality.
shtick
shuttle
sickly
siege
silly.<br
slime
snap
sneaking
snowblood
socks
speech.
spots.
status,
steele
stevens,
stoner
stormy
story...
suggests,
swank
tasteful
taylor's
terrorizing
testimony
tests
thoughtful,
threesome
thrills,
topical
translates
triumphs
troubling
trucks
tube
tunnels
twisting
tying
umberto
uncovers
under-appreciated
unspoken
unsuccessfully
unusual,
up)
utters
variations
vary
vehicle,
verdict:
viva
voyeuristic
w.c.
wandered
warfare
website,
welcomed
wilson's
withers
worthless.
wraps
wreck.
wrestler
writings
yankees
yards
"acting"
"dirty
"hard
"scary
"story"
"yeah,
##--like
##-head
##-ho
##-in-law
##-perfect
##-scale
##-so
##.it's
##/drama
##ado
##akes
##balance
##balls
##breaking
##ck.
##core
##cribed
##dirty
##dt
##e),
##el.
##ement
##ers.<br
##featuring
##founded
##hai
##house,
##ining
##ique
##iss
##les.
##liest
##lm
##lman
##lton
##major
##mark
##mazing
##mm,
##monster
##nier
##nik
##ong
##ont
##osed
##oted
##over,
##parts
##police
##political
##pressed
##r'
##rain
##rass
##rip
##rite
##rous
##shoot
##sities
##son.
##ssed
##street
##to,
##tra
##ues
##uf
##unch
##ution
##vor
##witch
##yl
'this
(jennifer
(playing
(quite
(sort
/>6.
/>spoilers
16th
17th
60's.
7,
90s.
abduction
about:
abroad
acquaintance
acting?
adopts
alliance
aloud
ambulance
amnesia
appallingly
archie
arctic
artifact
as:
ashes
aspirations
backward
basic,
bea
beau
been.<br
behemoth
bodyguard
boots
boys'
butter
cancer.
cannibalistic
canon
carvey
castle.
charisma,
chase.
chloe
clean,
col.
colorful,
come.<br
commentators
conclusion:
condensed
confuses
conniving
considine
corruption,
courage,
cousin,
culminates
damn,
damon
darkened
davidson
depended
detroit
dialect
differently.
digitally
direct,
disappointingly
disposable
dom
door"
dreamy
earth"
edinburgh
eight.<br
element.
embarrassment.
employer
errors,
ewan
exaggerating
excited.
exists.
experiences,
extras:
fall.
fans.<br
feeds
ferrara
feud
filmic
finesse
fit.
flood
forged
formal
framework
franz
freshman
gabe
gabrielle
garden,
garth
genesis
giant,
gloriously
graveyard
greer
guess.<br
guy)
guys"
haggis
halt
harbour
hazel
hole.
holmes,
homeland
homophobic
horrible!
hottest
hunter.
immigration
impersonation
impresses
improves
inadequate
include:
ineffective
innate
insufferable
intact
interviews,
introduced,
iraqi
israel
jane,
jaw-dropping
jerk.
jovovich
julie's
keyboard
kristin
lava
lawyer,
lesson,
lightly
like?
lillian
lime
louie
lucio
luxurious
makeup.
man'
manifest
marching
mccarey
meek
meticulous
michele
military,
millennium
misogynistic
misunderstanding
montages
muscles
myths
naked.
neighbor,
neighbour
newcomers
noon
noticeably
nuke
obligation
occasionally,
old.<br
orient
originals
oscars,
part)
patriot
payed
percentage
percy
personalities,
pickford
plaza
polite
polo
poorly.
pork
precursor
pretense
prisons
professional,
q&a
radiant
ram
rant
ray's
reacting
reclaim
recreating
reform
repression
republicans
researching
resourceful
restricted
retreat
reviewers,
ride.<br
rings,
robbery.
role;
roll,
ronnie
rookie
rothrock
routine,
running,
salute
sam.
satisfying,
scam
scarecrow
scenic
school.<br
score.<br
series)
shoes.
shunned
sierra
silent,
slang
sliding
solid.
spacecraft
spacey
spewing
spitting
spoils
squirm
stalk
statement,
stint
stuffy
submitted
support,
surrealism
takeshi
taut
tea.
teens.
telegraphed
tendencies
terrain
theresa
think.<br
thomas,
ticket.
tighter
tortures
truman
turks
uncomfortably
undermined
units
upsetting
vengeance.
viii
vinod
violence.<br
walls.
welles'
wife)
wife.<br
will.<br
work?
you."
you:
"citizen
"cool"
"saving
"son
##-breaking
##-culture
##-dead
##-inspired
##-talking
##.......
##..all
##..that
##16
##25
##?"<br
##?).<br
##a",
##ant.
##aw
##before
##believe
##beth
##between
##burgh
##cats
##ce.
##charles
##east
##ecutive
##excellent
##four
##gene
##george
##goer
##hetic
##hia
##hine
##icient
##ides
##ier.
##iff
##iga
##ime
##ington
##ky's
##lame
##lates
##look
##loose
##lving
##mother
##ms,
##murder
##nail
##nin
##ond
##phic
##pired
##ply
##ported
##ried
##sis
##tain
##ties,
##tis
##under
##unfortunately
##unt
##walking
##wife
##wling
##wrong
##xed
##y!
##y),
##years
##zilla
(3)
(bill
(eric
(later
(look
/>anyway
/>anyways,
/>apparently
/>jack
/>nevertheless,
/>plot
/>poor
1933
1960
1970's.
1990's
2009
3/4
36
achieve.
afterward
alex's
alienated
amber
america"
anyone.<br
argues
armored
armstrong
arrangement
arresting
asses
attachment
australia.
aviation
balancing
bargained
barrymore,
beckinsale
bergman,
best!
betray
birthday.
bizarre.
blonde,
boob
borgnine
born,
brawl
break!
breasts,
btw,
burgess
bus,
cameo,
cancelled
candid
character?
charlize
cheese.
chopping
chronicle
chronological
cleese
clunky
collision
colossal
computer,
conducting
connery's
consciously
constitute
constraints
continuity,
convent
craven's
damsel
daredevil
debra
decades,
delightful.
delivery,
dentist
depp
devout
discusses
divorce,
doesn't,
domain
doors,
down-to-earth
dracula.
drained
dreamer
drift
edited.
editor,
eileen
eleanor
enjoy.<br
enthralling
evidence,
ex-husband
exhibited
fails,
favor.
federation
fee
file
formula,
forties
ghosts,
gibbs
gila
gillian
goat
goose
gordon,
graced
grandiose
graphic,
greeted
guerrilla
h.g.
hacking
hanged
harassed
helene
herd
hitchhiker
hole,
homosexuals
horn
horror"
horse.
hustle
illustration
imposed
indifference
injuries
innocent.
interacting
intrusive
it".
jackson.
jewels
jodhaa
joke.<br
journal
juice
katrina
knife,
lifting
lions
liven
lobby
loneliness,
loose,
lords
loudly
luscious
maclaine
massacre.
massively
matinée
max,
me...
mind-numbingly
model,
model.
motor
movie...<br
movies"
multi-layered
multitude
murder.<br
narcissistic
neck,
nell
neve
nickname
nonstop
normal.
novel's
nursing
offerings
on)
otherworldly
outlaws
outsiders
outtakes
overacted
owed
par.
parasite
parker,
parties,
pee
perfect.<br
performance)
period.<br
persistent
philippe
phone,
phyllis
platform
plug
population.
porter
positive,
possibilities.
posts
pours
preferring
priest.
prisoners,
prosecutor
punish
purchasing
quaid's
quirks
rainbow
re-watch
received.
recognition.
recommended,
recommending
reese
rehab
relaxing
reprising
resolves
respectively.
restaurant.
retarded.
returns,
richer
robots,
robs
rodman
roscoe
rough,
rourke
scarcely
scars
scary.<br
seaside
seeing.<br
shelf.
showcasing
skill.
smart.
snapshot
spinal
spine
spreads
starts.
stereotypical,
strength.
stripping
strive
striving
studios.
suits,
summon
surfer
surrealist
suspicions
suspiciously
talented.
terminally
tex
thelma
them),
thief,
thrillers,
thrills.
tick
time-travel
tits
tong
tonight,
tradition,
trial,
triumphant
troopers
tycoon
types,
types.
ugliness
unconvincing,
valdez
veers
veiled
videos,
vietnam,
vietnam.
viewers.<br
was...
wed
weddings
whine
wolfgang
working,
wreak
years?
yes!
you)
young's
"actors"
"after
"captain
"his
"lord
"pulp
"take
##--all
##--is
##--to
##-away
##-camera
##-esque
##-movies
##-play
##-sexual
##-side
##..?
##.they
##/thriller
##6.
##:1
##aged
##ame
##ata
##au,
##bbling
##brian
##bride
##cake
##charlotte
##ck"
##damn
##de,
##dha
##dra
##ds,
##du
##ead
##ei
##ep
##ero
##es)
##es.<br
##ester
##ex
##ffected
##ger,
##gn
##gnant
##han,
##having
##hi's
##hope
##ia's
##inted
##ired
##itting
##ized.
##ki's
##killer
##ks,
##lcome
##lene
##lication
##logical
##ls,
##mb
##mering
##mers
##mike
##minated
##mmie
##mming
##must
##non
##os"
##ots
##outs
##ove
##p's
##pants
##pering
##ps,
##rad
##rching
##rky
##sadly
##scary
##sh,
##shed
##small
##special
##stein
##tails
##tead
##tep
##trying
##tzy
##uary
##uction
##ui
##ulated
##unted
##urge
##uro
##warning:
##wood,
'big
'one
(!),
(1999)
(oh,
/>5)
/>again,
/>pretty
1930s.
1950s,
1950s.
1980,
1980s,
2/10.
2005.
65
6th
accolades
acting!
adult.
affluent
ailing
al.
alias
all-out
alright.
amok
amos
angle.
anita
anna's
appeal,
approval
approved
archaeologist
areas.
artful
arthur's
asians
atmospheric,
atypical
aurora
awkwardness
ax
bail
baldwin,
banana
bank.
based.
basement,
battleship
be)
bebop
before?
behaved
behold
bell,
biographical
bit.<br
blood"
borg
borrowing
brow
brown.
bullying
bumping
cannonball
carbon
chanting
characterization,
characterized
cheesiest
cheezy
choir
chord
christmas.
chubby
cleaned
clocks
co-writer
cold-blooded
commercially
companions
conceit
concluding
conducted
consistency
counts.
courtney
cows
creation.
creepiness
criticisms
crudup
crypt
cryptic
dawson
deception
delightful,
demise.
descendant
desmond
deus
dignity,
dilapidated
disappointment.<br
discarded
django
dolls,
dominating
dudikoff
durning
dwell
easily,
edna
edwin
effeminate
elaborated
elegance
emphasized
encountering
enlist
eroticism
eternity.
example)
explanation,
extraordinary.
farmhouse
fashionable
february
ferrari
fiennes
financing
finish.<br
focal
formulaic,
fourteen
fragmented
freshness
friendships
galaxy
genres.
get?
giggle
girlfriend's
glossed
goal.
graffiti
grainy,
grandfather's
grueling
guise
gut-wrenching
hamlet
haphazard
happen?
harmony
harry,
heaps
heighten
horrible.<br
humiliated
incorporates
inept,
ingmar
inheritance
inland
insensitive
inventor
jamaica
jerome
jodie
jolly
just,
juxtaposition
kingsley
knight,
lacklustre
lane,
laughable.<br
leadership
lewis.
li's
littered
longs
lurks
mainland
mask.
material.<br
mcadams
me;
measured
mechanics
microphone
missiles
mode,
more?
morrison
movie!!
much!
muse
n'
naish
nation.
nights,
nonexistent
o'donnell
o'neill
obstacle
omitted
option.
outcome.
over-acting
pales
perpetrated
pervasive
phenomenal.
photographic
pictured
pixar
placid
plan,
plantation
pointlessly
posed
possibly,
price,
pristine
problems.<br
promising.
proposes
punks
queen.
rachael
rai
rains
rapist
raunchy
real.<br
referenced
rehearsal
ritchie
roach
robe
rts
rule,
run-down
saccharine
saturated
scan
scenes:
schindler's
script?
seminal
seventies.
seventy
short:
simon's
skill,
skimpy
slapping
socialist
soda
splendidly
springer
stone.
storm.
story-line
styled
subversive
successes
surveillance
sweden
symbolism,
tabloid
tattoo
tea,
tempting
theirs
them;
throughly
treacherous
troop
typecast
tyson
underrated.
unquestionably
ustinov
vacuum
vessel
visibly
voters
vulnerable,
waist
watch!
wb
wealthy,
who'll
workers,
world!
wrapping
wrecks
wwi
yossi
zack
zoe
"documentary"
"have
"pretty
"return
##**<br
##--at
##-animated
##-bad
##-ball
##-go
##-half
##-nosed
##-produced
##0,000
##20
##40
##9,
##=
##?)<br
##age,
##aki
##ancing
##ante
##ate.
##ault
##berg,
##bs,
##buy
##by,
##camera
##cer
##chuck
##cified
##cribe
##daughter
##easy
##ective
##eed
##ent.
##f's
##fing
##fle
##fun
##gas
##gee
##gles
##go,
##gotten
##gram
##gs"
##haal
##hand
##hers
##hizing
##holm
##ies"
##inger
##ions.
##ive.
##kin's
##lby
##lc
##lda
##lights
##line,
##lls
##lly,
##lost
##mity
##nar
##nberg
##nco
##nda
##neck
##neil
##ner.
##ness"
##nothing
##ntino
##oids
##oke
##ook
##oper
##otes
##oze
##pit
##polis
##re"
##richard
##rley
##ro's
##rrie
##scott
##scripted
##series
##serving
##shooting
##siness
##tated
##ter's
##tin
##tion"
##uated
##us"
##wish
##witching
##z)
##zie
##zzle
##ão
##ère
##ía
(a.k.a.
(aside
(besides
(nick
/>'the
/>according
/>give
/>probably
/>really
/>save
/>sound
1955
1958
1999,
2'
50's,
a&c
abigail
accountant
adequate.
adultery
affinity
afoul
agents,
agreement
alejandro
alexandra
alienation
alternating
anal
announce
anymore.<br
aristocratic
arrange
atop
audacious
austen's
auteur
autobiographical
awesomely
bad;
badge
banner
bart
basement.
basics
bearded
beauties
berenger
bicycle
bikini
blaming
blurb
boldly
bombs,
bram
brash
bratty
bugs,
bunch,
bygone
cabot
callous
cameo.
carlitos
carter,
chant
chap
cheech
chicago.
childish,
chinese,
choices,
clarke
clunker
clyde
columbus
comes,
common.
communism
company's
component
concentrating
concluded
confrontations
coolness
countryside,
creatively
criticism,
cromwell
cruising
crumbling
crusades
daniels,
decay
defends
demonstration
dense
departed
depravity
description.
desirable
detect
detracts
differs
dilemmas
disappoints
diva
division
donkey
drag.
drawings
dumping
elephants
embraced
ending?
enlightened
estate.
excellent!
excesses
exile
expert,
far.<br
fiasco
films'
films?
fincher's
forwarded
four.
frankenstein's
freakin'
fundamentally
gals
gambler
gaynor
genie
genres,
gentle,
go?
granted.
graphically
grit
guevara
habits
hacker
had.<br
halloween,
harpo
heat,
hecht
henry,
hood"
hopkins,
hunter's
illness.
imagery.
inches
information,
insects
insider
inspiration.
inspired,
ireland,
issued
jaguar
job!
jolson
karan
keaton,
knee
knees
landscape,
lap
lennie
less)
liquid
lister
looses
love?
lowly
magazine.
majestic
manor
march,
mckee
me),
met.
mike's
minotaur
mirror,
modified
mona
monastery
moog
mount
musicals,
must.
naomi
napoleon
narration,
narration.
neighborhood.
nerds
nerves.
nicky
nicolas
notice,
occasions.
oddity
one-man
operated
organic
outcast
overact
overthrow
pammy
penguins
performer,
photographed,
pi
pits
playing.
plumber
pondering
populate
possessing
predecessor,
predictably,
presented,
print,
prof.
prompted
prompts
protagonists.
pumpkinhead
purports
raoul
rapport
rare,
re-release
remaking
remarkable.
repair
research.
results.<br
river.
rowlands
s&m
sail
sandwich
sarah's
savvy
scale,
scripts.
section,
seed
serviceable
sex.<br
shack
shape.
sheet
sing,
singing.
sitcom.
skeleton
skirt
sleeve
slipping
slut
smallville
smirk
so...
sons,
sore
spoofing
stakes
stereotype.
stinking
student.
summoned
superior.
sure.<br
techniques,
testify
that?"
titles.
toe
together?
tony's
tori
tragic.
trailers,
trial.
tried.
trusting
tub
ulmer
uncle's
uncle,
underdog
underrated,
understandable,
undeveloped
unforgettable.
utilize
versions.
volunteers
voluptuous
waldemar
wanted,
war"
warning,
way?
wayward
weekend,
west's
whistle
witch,
witnessed.
woeful
wondrous
word:
world?
worldly
wraith
writing.<br
wu
yesterday,
zap
zone,
"first
"making
"meet
"pink
##,000,000
##--one
##-gun
##-of
##-production
##..as
##aic
##at,
##awa
##boy"
##bu
##card
##chick
##ciation
##ction,
##cu
##culture
##current
##dging
##dity
##dled
##dler
##ed)
##eep
##eng
##era
##fans
##form
##fully,
##gaard
##ha.
##herty
##hire
##ible.
##ini,
##ions,
##ious,
##it.
##ited
##ker,
##known
##ler.
##lings
##lining
##lop
##lots
##loud
##lts
##men.
##mia
##nds
##near
##ng,
##nse
##ous.
##pen
##phone
##pire
##prints
##pse
##rly
##rus
##ryl
##shi
##something
##spy
##ss.
##sser
##stand
##tail
##tta
##ue,
##ue.
##uil
##uki
##ulberry
##up,
##var
##zes
##ziest
##zombie
'in
("i
(lee
(mary
(matthew
/>"
/>4
/>8
/>overall:
/>peter
/>please,
/>was
2-3
20s
actors)
afraid.
age.<br
agencies
alex,
also.<br
anderton
andie
angered
anybody.
appealing,
appear.
arabic
arena
aspects.
astute
balcony
barbie
bateman
bear,
beautifully,
beer,
bergen
birth,
bits.
bobbie
bon
bounds
bradford
brave,
breasts.
bride,
brilliant!
brilliantly.
bugged
burying
cancer,
cater
chair,
chaplin,
character-driven
cheadle
cheated.
cheesiness
chews
chin
claudia
cleaner
cleopatra
cloth
coal
coburn
collage
combat.
combs
comedian,
competition.
compromised
conception
concert,
confirm
conjure
contemplate
cooler
core,
creative.
creativity,
creativity.
crisis.
crispin
cuts,
darryl
daughters,
day-to-day
dean,
degree,
derive
desire,
despair,
destruction.
developer
disasters
dislikes
disney,
dispose
dispute
distance,
distance.
distasteful
documentaries,
dragon,
dreamlike
dungeons
dunne's
dunst
duped
dyke
eldest
eli
embarks
entertain.
enticing
ernie
erratic
essentially,
etc.),
everybody.
everyman
excel
exception,
extend
faceless
fakes
fanciful
fantastical
fatale
faults,
feet,
feldman
felt.
ff
flat.<br
florence
flow.
foreigner
francois
from...<br
fueled
functioning
gamble
gameplay
gears
gen
gen.
gentlemen
gist
goods.
gossett
gratitude
gray,
grimy
gross,
guts,
halle
hams
he-man
heinous
highlighting
hijacked
hitchcock.
hodiak
humorous.
illegally
illustrated
in?
incomparable
incompetence
intact.
intense.
interludes
internet.
interviewing
it-
italians
jane's
jason,
joking
joyful
joyous
kazan
kerrigan
kids.<br
kingpin
knockout
know...
krueger
laurie
lds
leisurely
lenzi
life:
lighten
lila
lithgow
lloyd's
lloyd,
locale
long-suffering
loosing
lover's
lyrical
mabel
madcap
marian
marred
masses.
matrix,
maudlin
menacing,
mirren
misery.
mish-mash
mockumentary
monitor
monster's
moralistic
movements,
movie<br
movies...
naïve
newfound
no-budget
nothing!
novarro
occasion,
occur.
of"
one-liners.
overacting,
overcomes
overseas
pakistan
participated
pasted
paulette
pauline
peaks
performers.
piano.
pioneering
plausibility
playwright
plummer
poignant.
points:
poland
pony
portrayal.
prancing
predicament
preferable
professionalism
promotes
properly,
psycho,
psychos
pump
pumped
purposes,
rants
reacted
reasons:
recognizing
recruit
rehashed
relic
remembered.
rene
rents
repetitive,
replete
repulsed
reservoir
resigned
resonance
rhyme
rich.
riddle
ridicule
roam
robert's
rosa
row.
rule.
runtime
rushed,
safe,
santiago
satan.
scared.
scene:
screeching
screening.
screens.
send-up
shows.<br
sibling
sickness
sign.
signing
silence,
sissy
sixties,
sizemore
slack
soldier.
sophisticated,
specialized
spoiler:
spoof,
stagecoach
staircase
stale,
star.<br
starcraft
stature
storm,
study.
sworn
taj
tarantino,
target,
tastes.
telly
tenth
text.
them...
therapist
there`s
thing!
thrillers.
timed
tiring
toback
tosses
tournament
towering
toys,
trait
tree,
triad
tricks,
tries,
truth.<br
tug
tuning
turbulent
understanding,
underwear
unforgivable
unfortunately.
unworthy
upon.
version)
vhs,
watson,
weir
whoopi
whores
wickedly
wind"
wink
worlds,
wrongs
wwii,
yuzna
zero,
"classic"
"full
"girl
"murder
"never
"nightmare
"stage
##'!
##--you
##-10
##-2
##-act
##-board
##-daughter
##-fighting
##-known
##-over
##-run
##-serious
##-violent
##/10.
##0.
##70s
##??<br
##able"
##ague
##although
##ama
##ance.
##anne
##ard's
##arious
##at.
##ator"
##aunt
##avies
##bb
##beck
##ben
##bone
##brow
##certainly
##cini
##clearly
##ddling
##diana
##e",
##eding
##ef
##ev
##fed
##flying
##ful"
##g)
##gating
##gg
##gible
##gly
##grown
##gs,
##hon
##horror
##how,
##illo
##ine.
##inelli
##ity"
##ives
##ject
##jones
##jun
##kle
##la's
##lady
##laid
##lapping
##ley)
##lov
##main
##marital
##me.
##ments,
##mer,
##mey
##mostly
##mous
##moving
##nt"
##nte
##omb
##oned
##ons.
##open
##orse
##ows
##pack
##pathetic
##pet
##pie
##pton
##quet
##r:
##rade
##rayed
##rds
##rehension
##road
##rolling
##romeo
##rro
##season
##several
##show
##simply
##sitive
##sse
##tally
##till
##troll
##uglas
##ulence
##ulsion
##ure.
##usually
##vampire
##vana
##vocation
##well's
##women
##wyn
##zar
##zard
##zzard
##ée
'my
's
(among
(hey,
(jean
(often
(once
(rather
(sorry,
(thank
(usually
...and
/>almost
/>have
/>looking
/>lots
/>part
/>rated
/>special
/>throughout
13,
150
1934
2004.
2006,
97
abomination.
above-average
abraham
adam's
adopting
affectionate
aileen
airwolf
alike,
allen.
allure
allusions
amazement
amazing.<br
anarchist
animal,
appears,
aquaman
archetypal
archive
aristocrat
art.<br
artfully
asks,
assisted
assumptions
atkins
attach
attacks,
attribute
audacity
authentic,
author's
avenger
baby's
back-story
bad-ass
bag,
bailey
bait
baker,
barking
base.
bases
battles,
bearable
beer.
befriended
behold,
belief,
beliefs,
bid
bill's
bleed
boil
book)
both.<br
brainwashed
brightly
britain's
broader
brokeback
broken,
browning's
bumped
burr
butchering
cabinet
cares.
castro
celebrates
celtic
chairs
change.<br
character;
charlie,
cheeky
cheese,
clark,
climax.<br
climaxes
co-production
collaborator
comedian.
comic,
comics.
commenter
commercials,
commission
comparison.<br
competition,
complete.
consumer
continual
contradicts
conversation,
cookie-cutter
core.
corman's
corner.
corridors
crank
crap?
crews
cringed
croc
crux
cruz
curt
customary
damaging
daring,
degenerates
delivered.
delves
democracy
demons,
denmark
depression,
destroyed,
destroyed.
devilish
devils
dim-witted
disjointed,
dog's
dolby
dollars,
down!
dragon"
dramatic.
driver.
drums
each.
ears.
earth.<br
ease.
east,
edie
eerie,
effortless
eighties.
enemies,
entice
equality
events.<br
evidence.
existed.
exploitation,
expression,
f*ck
fabulous.
facets
fairytale
faith.
falsely
female.
ferris
film-
films),
fists
flames
flaw,
four.<br
freed
fresh.
from.<br
frost
gadgets
garish
garrison
graceful
granger
green.
grinning
guilt,
gundam
ham-fisted
handyman
hanna
heaven,
her)
her;
highly.
hillbillies
historian
homer
hoot.
horrid,
hudson,
hulking
hurts.
ilk
imaginative,
imagines
implausible.
impressionable
impressively
in"
indians.
individual,
ineptly
ingredient
inherits
interfere
interpretation.
interview,
invent
it?"
kennedy,
kiddie
kidnapped.
knowledgeable
lambs
layered
lazy,
leprechaun
lesson.
loving,
lupino
maid,
maker,
marginal
marina
mask,
matters,
max.
meals
mean?
mercenaries
mister
mode.
movie-going
mpaa
multi
mumbles
nakata
nastiness
nazis,
neurotic,
ninth
nobody's
notoriety
novice
numbing
occupy
occurrences
offspring
orchestral
overhead
overwhelmingly
paced.
panache
parent's
passable,
peasants
peppered
personal,
physician
piles
place"
ploy
plutonium
popular,
portrayed,
preconceived
predictable.<br
predominantly
pressures
prince's
problem?
producers.
profane
programmes
provoked
purity
putrid
quits
radio.
rally
rash
really?
reasons.<br
rebuild
redeemable
refrain
registered
remarkable,
reputation,
resentment
resurrection
retained
retard
rights,
rituals
riveted
robot,
rundown
sailing
sank
scream.
self-destructive
selznick
sentimental,
sesame
shaggy
shakespeare,
shorts.
show?
shrill
shyamalan
silently
silliness.
sisters.
sky.
slowing
sofia
solidly
sorts.
spotting
spray
spying
squandered
stealth
still.
strangely,
strangled
struggle,
stud
sucked,
sued
suite
superiority
superman,
swears
systematically
tales,
tastefully
terrance
theory,
thing?
three.<br
to)
toho
tolerant
tomas
torturous
tough.
treat,
truck,
trust,
turgid
twenties
u.s.,
uncontrollable
undergoes
uneducated
uneven,
unexpected,
unleash
unrated
ursula
v.
vacant
vacuous
vampires.
vanishes
vantage
ventura
vikings
virginal
virus.
walk,
wary
watts
weapon,
weep
welcome.
why.<br
widower
winding
witty.
word)
work!
wrongly
yet?
yuppie
zemeckis
zone.
"alien
"did
"mystery
"sex
"uncle
"well
##(not
##(with
##,who
##-acting
##-paced
##-tempered
##-thin
##-writer
##..).
##..she
##15
##acle
##asis
##ats
##aways
##bound
##ca,
##captain
##cher,
##cos
##deep
##dock
##each
##ear
##ech
##elling
##ello
##ency
##ete
##ez,
##feld
##ffle
##field's
##fighting
##foot
##ghost
##gia
##gler
##guess
##hopefully
##house.
##i),
##iah
##ider
##ilian
##ing'
##is)
##istic"
##jane
##ju
##kid
##kids
##kling
##lair
##lf
##li's
##lick
##ll's
##llar
##lson
##lush
##male
##many
##max
##mist
##n),
##neither
##nine
##nky
##nsive
##nu
##ore,
##ored
##orn
##pool
##press
##rack
##rather
##reel
##rit
##rix
##rized
##rnal
##rob
##rp
##secret
##state
##straight
##sus
##tel
##three
##tively
##tting
##ua
##uding
##upon
##url
##urney
##urse
##version
##vier
##z's
$10
$5
'50s
'good
(gary
(hence
(kate
(mainly
(was
***1/2
/>7
/>dennis
/>fans
/>george
/>joe
/>mark
/>never
/>stay
/>sure
/>unless
/>yet,
1/10.
1/3
1944
1951
6,
60's,
9,
:.
a+
absorb
abuse.
abuses
acting;
affections
agreeable
altogether,
answer,
answer:
appealing.
appearances,
applauded
applying
ariel
artists.
aspires
assaulted
assembly
atlantis
attractions
avail.
available,
babysitter
back"
ban
banality
banging
barbra
bathtub
began,
behaviors
bettany
bio
blasting
blooded
blurry
boyfriends
bravery
brazil,
breathless
britain.
broadcasting
brolin
buchanan
budgetary
buenos
bunuel's
burnett
bus.
can.<br
cassandra
cat"
catastrophe
caves
cease
censored
characters?
clashes
classes.
clearer
cleverness
clinic
coach,
concert.
constitutes
cotten
coup
craft.
crawford.
criminal,
criterion
crusoe
crusty
curtains
d.c.
damian
dangerous,
dangerous.
dangling
defence
definately
delight,
depression.
desperate,
desperation,
detailing
deviant
devices.
dianne
didn't.<br
disappointed!
discern
disguises
dishonest
dogg
dogma
downhill.
dreck.
duet
dukes
dvd?
eighties,
eighty
elisabeth
eliza
enforcer
enjoyment.
enlisted
enzo
epidemic
ethereal
exactly,
except,
exceptions,
fair.
faking
fearing
finch
flat-out
flaw.
fling
flora
flowed
fly.
foggy
forceful
forces,
foreboding
forgiveness
forth,
french.
frog
gags.
gamut
gangster's
generally,
geographic
girl?
graces
grandeur
graphics.
grief,
grim,
grover
guard,
guest's
guiding
gum
guy?
hackers
haley
hat,
haven
hayes,
heart-warming
heightened
high-powered
hildy
him).
home"
homework
hoods
hookers
horns
hutton
ida
imminent
improving
in!
incarnation
incestuous
included,
ineffectual
infinite
injecting
injury,
insanity.
instance.
instruments
intrepid
investigation,
iraq,
it...<br
jan-michael
jean-pierre
jeb
jen
judgement
kane.
knife.
knowingly
kristofferson
lady's
lara
leaning
leftist
liberals
liberation
lights,
lion's
literate
lom
look.<br
loony
low-brow
lucas,
luther
machinations
majors
maltin
mantee
marshal
mary.
may,
mccartney
mcdonald
mediterranean
mercedes
metal,
meyers
minutes!
mommy
money?
month.
mouthed
muppet
muscular
myself.<br
naa
nation's
need.
neel
nineties
none,
ohio
one-dimensional,
only)
operation.
outing,
paco
palpable
patently
paul,
penalty
perceptions
performers,
periodically
permitted
peter's
phone.
pipe
plausible.
plus.
poop
posse
pranks
precision
preferably
pressing
prima
profanity,
prostitution,
puke
puppies
quaid,
quincy
quotable
railway
rain.
rajesh
rapper
rappers
rednecks
requirement
responsibilities
rests
rethink
rey
rights.
risk.
robot.
rocks.
rubbing
rumor
scathing
school's
screenings
scum
see"
seize
self-righteous
sentence.
seventeen
shallow.
shenanigans
sheriff.
shirts
shootouts
shortage
shu
shue
sided
sigh
silkwood
sillier
simplistic,
sinclair
skirts
slacker
slashing
slayer
sleepwalking
sloane
snow,
snyder
so!
somethings
soulless
spongebob
spouts
stands,
stewart's
sticky
stink
stuffing
stuttering
substandard
succeeded.
surprise.<br
sympathy.
symptoms
tack
tamil
tedium
terrifying.
terrorists.
test.
that),
that`s
there...
theron
thirst
thought:
thriller.<br
trick.
trimmed
ugliest
unbearable.
uncomfortable,
uncommon
undergo
unexpected.
unfold.
unsavory
urging
useless.
vacation.
vanishing
velvet
veritable
vermont
viewers'
visit.
volatile
wallet
waltz
warned,
was)
wide-eyed
winona
winters
within.
wolfe
wonderfully.
wongo
woods"
wrecking
you...
you?"
yuki
"down
"f"
"final
"god
"made
"something
"tales
##(..and
##(john
##,<br
##--particularly
##-art
##-seat
##-smoking
##-tale
##....and
##.if
##.she
##/10)
##28
##60's
##:the
##`d
##ann
##another
##antly
##ark
##asted
##ated.
##b"
##bell
##ber,
##berg's
##bor
##brother
##brush
##christ
##cio
##clusive
##dance
##dered
##dicate
##either
##ellen
##er!
##ern
##esy
##ett,
##ey.
##falls
##field.
##girls
##hh
##hou
##ianni
##iation
##ible,
##ica's
##icles
##iginally
##il.
##isan
##ish.
##ism.<br
##ks.
##lanc
##lion
##lish
##louis
##lower
##lso
##m.<br
##minor
##mpt
##mr.
##mund
##nal
##ne's
##nry
##nstein
##odle
##oma
##ons,
##opers
##pe,
##pect
##pelled
##perfect
##pher
##production
##rator
##resident
##ri,
##rier
##robot
##ross
##rums
##ry's
##s")
##said
##sam
##same
##school
##sco
##short
##sibly
##sic
##sting
##ta's
##ta.
##tack
##tained
##tating
##thomas
##thus
##truly
##uller
##up.
##ush
##ut,
##vably
##vd
##vyn
##wire
##án
##ón
(b)
(pun
(susan
(thanks
(who,
/>"i
/>gary
/>lastly,
/>obviously
/>richard
/>sorry
/>yeah,
12,
16mm
1934,
1962
1989,
2.<br
2007.
400
activists
actress.<br
adventures,
african-americans
afterward.
agar
alcohol,
aldrich
alfredo
almodovar
ambitious,
american's
andreas
anything?
appointed
asleep,
avenging
awake.
awhile,
backgrounds,
backyard
bank,
bashed
bat,
bear.
believably
besson's
betrays
bets
blinded
blocked
blurred
bourne
bridge.
brilliant.<br
burton's
cabin,
camera-work,
cameras,
campbell,
canine
carrey's
cartman
challenge.
chic
churn
clarkson
clinging
closing,
clue.
column
comfortably
committee
companion,
complements
completing
components
concocted
conditions.
consume
contemplating
contemporaries
contrivances
cop"
coscarelli
costs!
cottage
counselor
court,
criticism.
curious,
day!
denominator
dependable
derrida
dialogues,
differences,
disappeared.
disbelief,
disease.
dismay
distracting,
distracting.
do)
doll.
doses
drank
drifter
drifting
drink.
drowns
eduardo
embarrass
empire.
emptiness
end...
enemies.
entertain,
episodes.<br
ernst
escalating
eternally
ethel
evaluation
everyone.<br
everytime
exaggerated,
examined
exceptional,
exorcism
exploitive
factory,
faked
falls,
fantastic!
favourites
felt,
ferry
film-noir
filmmaking.
finest.
fireworks
fixation
floors
fluent
forbin
forehead
frenzy
front.
frustrations
gerald
goal,
grandfather.
gripped
guides
gunned
handing
hard-core
hell's
hellish
him:
holiday,
homemade
honor.
hood.
hoodlum
hours.<br
hubby
hurley
hypnotist
idiotic,
inevitable.
innocently
intervention
interwoven
inventions
iranian
islam
jared
jeunet
keating
keeper
kissed
kombat
lads
laid-back
lawyers
leak
leans
legs.
leigh's
lillie
lina
loathsome
lonesome
look-alike
loop
lorre
lovely.
ludicrously
man?
manner.<br
manson
maverick
medal
memorable.<br
mention.
messes
meticulously
michigan
milian
minghella
mitch
moaning
modern,
money!
monte
moody,
moon"
mutilated
mystic
mythological
na
needed,
negatives
neglects
neighborhood,
nelson,
nicknamed
notoriously
nutshell,
of<br
organizations
osama
outraged
p.s.
pa
pacino's
passed,
patriotism
patronizing
peer
persona,
philosophy,
piano,
piling
pinch
pinned
pleading
plentiful
pluto
poisonous
polanski
potty
poured
power.<br
pr
praise.
predator,
predator.
presentation,
princess,
prisoners.
problem.<br
profound,
projects,
promotional
propel
punchline
punishment.
quickly.<br
quips
reaction.
real!
recall,
recalling
recreated
recruiting
recycling
reduce
relationship.<br
reporting
rerun
resolved.
riches
richness
rico
riley
rimmer
risqué
river,
robbery,
roberta
robinson,
rome,
sadness,
safe.
samir
sardonic
satyricon
scenes;
section.
set.<br
shaken
shattering
shook
shoot,
shooter
short.<br
silva
simone
slit
slums
slutty
smartest
smith)
smooth,
sneaky
soaked
sofa
son.<br
sort,
spee
spent.
splendor
squall
stand-out
stanwyck,
starlet
statement.
stepmother
stilted,
stirs
strapped
stroll
studio's
stuff!
stunts.
stupidity,
sturdy
sub-genre
suck,
sucks!
surly
swann
swift
sympathise
t.v
technique.
teeth.
tens
terrorists,
texas.
them:
thirds
thwart
timeline
times!
tips
topic.
tortured,
trademarks
transcend
transvestite
truck.
twins,
unbeknownst
undemanding
underwhelming
unit,
unjustly
unprecedented
utilizing
veil
vie
villain.<br
vocals
warning.
wasteland
way...
wellman
wendell
whereabouts
whichever
willis,
wills
win.
winston
wiping
wondering,
worthy.
xxx
zac
zach
zombie.
!!!!
"at
"evil"
"fight
"iron
"kiss
"movie
"now
"some
"special"
##!!!!!!!
##(played
##*)
##-com
##-great
##-joke
##-killer
##-rated
##-scenes
##-second
##-stricken
##-wall
##-water
##-work
##...well,
##..so
##..to
##.in
##/the
##1/2
##11
##3).
##8),
##9.
##???)
##ames
##ang
##ar's
##bia
##boxing
##burt
##c's
##cheap
##chy
##cient
##close
##crew
##cry
##ctions
##cutting
##ddled
##dley
##dre
##dressed
##ed'
##episode
##eux
##everyone
##fan
##fects
##gela
##generation
##genic
##gio
##got
##heat
##hos
##iance
##icker
##ided
##idi
##ilia
##int
##ise,
##iter
##iva
##lav
##ley.
##lined
##lli's
##locking
##lung
##ma's
##ma.
##mahon
##midnight
##mins
##nails
##nancy
##ner)
##nger
##och
##on),
##ool
##ordinate
##oring
##orting
##osing
##pace
##ph
##pic
##piness
##ping,
##plicated
##point.
##pure
##rage
##raj
##rama
##religious
##rmed
##rn,
##sible
##silent
##sitting
##sket
##smart
##sque
##stay
##summer
##t."
##t:
##tegration
##ters,
##tor.
##trained
##ub
##uling
##ver,
##verts
##wayne
##wich
##woody
##yed
##yr
'get
(barbara
(ben
(chris
(fred
(good
(i.e.,
(jane
(never
(patrick
(plus
(read:
(sam
***<br
,but
/>9
/>are
/>characters
/>does
/>excellent
/>look
/>rating
/>seriously,
/>something
10th
1953
1963
1967
1997,
20,000
2000.
a,
adviser
agonizing
alice,
all-around
armies
arsenal
assets
astor
astounding.
authentic.
award-winning
b-
b-horror
background.<br
backup
banker
barriers
bartender
bats
befuddled
ben's
better?
beulah
bigotry
bitter,
bizarrely
blasted
blur
boast
bog
bomber
book!
book's
breeding
breezy
briefly,
british,
bucks.
buffs.
butch
cable,
cage,
call.
called,
calm,
campers
cans
canvas
canyon
captivating.
cares,
cause,
cave,
cell,
center,
center.
chahta
chains
chalk
chambers
chan,
charlie.
cheerfully
cheerleaders
cherish
child.<br
classmates
clichéd.
cody
collectively
combo
commentator
completes
comrades
congress
connolly
conquering
conquers
cop's
corny.
costume.
country.<br
craving
creation,
cronies
crumb's
customer
cw
d.w.
danced
deck
degenerate
deja
delivers.
derivative,
desires.
detest
differing
difficult.
dillon
diminished
dino
discerning
disney.
distribution.
dives
dixie
dixon
dj
documenting
dominique
dragon.
dreamworks
drink,
droll
dv
ears,
endures
enraged
evil"
excalibur
exiled
exists,
explorers
extent.
fail,
failings
familial
fan.<br
fidel
films!
fisherman
flavour
flesh,
flipped
flown
fortune.
fortunes
four,
fraction
franchises
francisco.
fraser
fraud
frenzied
fulci's
fusion
futility
gardener
gellar
ghai
giants
glances
glimmer
gomez
grad
grande
greasy
grinding
hannibal
hear.
heart-wrenching
heaven"
heavens
hero.<br
herrings
hitchcockian
holiday.
holmes'
horsemen
horses.
hottie
house?
humanoid
hutch
hype,
hypnotized
ie
import
incoherent,
input
insipid,
insomnia
inspiration,
inspired.
inspiring.
introspective
invents
investigation.
iraq.
japanese.
jeans
jericho
john.
journeys
jumpy
karen's
kimberly
kong.
la,
latter's
laura,
learn,
leaves,
lesley
liner
listless
long-term
lousy.
luggage
magical.
makers.
malicious
malle
manhattan,
manipulates
marjorie
mastered
mediocrity.
member,
merit,
merits.
metro
milius
misery,
mislead
mob.
moriarty
mortensen
motivation.
movie."
movie.i
movies).
much?
murray,
mythic
nary
negative,
neglect
neighbours
nene
nest
noise,
oblivion
on;
one-sided
operative
ordering
ordinary.
originated
orville
out;
outrageous,
outset
overcoming
pandering
pantomime
pants,
pants.
parole
pearce
pendleton
penultimate
pieced
pill
plot's
pm
portal
portrayal,
pow
predecessor.
presley
previously,
pride,
problematic
prototype
provincial
puerile
quantity
rail
rang
rating.<br
re-released
re-watching
really.<br
recognised
recounts
recruits
redeems
regional
remastered
replay
reply
retrospect
revelation.
richie
rider,
rivers
roan
rohit
rude,
saawariya
schtick
secretary,
senses.
serum
shear
shelly
shine.
shops
shrek
silents
skull,
slashed
snail's
society.<br
something's
soprano
speakers
spears
specifically,
sphere
spoiled,
spun
squeaky
stand.
star's
startled
starved
stereotyping
stock,
strategic
stressed
strips
stupid!
succumb
suckered
sullivan,
sun.
surrogate
suspects,
sword.
synonymous
tai
tailor
talkies
tapping
te
team's
techno
teeth,
telepathic
terrorize
texas,
thing"
third-rate
thrilling,
thrive
thundercats
title:
to<br
toes
tracks,
trashed
tree.
trophy
ulterior
unavailable
unbalanced
uncertainty
understanding.
uneven.
unexciting
universal.
unlimited
unnamed
unprofessional
unspeakable
unsubtle
upon,
upper-class
valjean
vampire.
verdict
vicki
view.<br
vito
voices.
vote.
vulgar,
werewolves
whim
whodunit
wilder,
wiser
witch.
women"
wonderful.<br
wood.
xtro
ya,
yaphet
yawn
zen
zinta
"can
"dawn
"make
"once
"worst
##!!!"
##)to
##-5
##-average
##-colored
##-communist
##-d
##-door
##-famous
##-fest.
##-human
##-induced
##-lane
##-mentioned
##-only
##-ra
##-right
##-to-dvd
##-video
##...you
##..which
##0,
##:)
##ailed
##ale
##ally.
##ary,
##ation"
##ators
##aver
##bach
##bird
##blowing
##bodies
##borne
##brain
##british
##bruce
##burton
##cause
##ceptive
##chester
##chi,
##cise
##cist
##cky
##clusion
##cological
##compared
##cream
##early
##ease
##er?
##eric
##etc.
##eye
##famous
##feeling
##ffing
##god
##harry
##hibited
##i'
##icial
##icle
##ilation
##im,
##imation
##itated
##j,
##jerry
##joseph
##lade
##lan,
##land"
##laze
##le)
##lina
##litz
##ller
##lose
##lowing
##luke
##m...
##mable
##maid
##ng.
##note
##nsible
##ntment
##o).
##o.<br
##ogue
##ore's
##ot,
##ot.
##pation
##paul
##peace
##per"
##pert
##pi
##powered
##private
##produced
##quiem
##raine
##rained
##rance
##raph
##rchy
##reach
##reliable
##represented
##robe
##rome
##rot
##rs'
##ru
##runner
##sad
##seen
##sie
##sp
##ssie
##sters
##stick
##supposedly
##sure
##suspense
##teau
##tier
##tiness
##truction
##ttes
##uation
##ully
##um's
##uma
##urt
##volved
##walker
##wallace
##wash
##western
##works
##wreck
##zaki
##’t
$100
'30s
'70's
'no
'you
(according
(best
(big
(billy
(can
(here
(i'd
(its
(laura
(many
(read
/>--
/>--polarisdib
/>check
/>furthermore,
/>ok
/>three
/>ultimately,
1.5
10%
101
10<br
1957
1980's.
1990
2004,
91
:d
aaja
abject
abusing
accuracy,
accuse
adams,
admitting
adoptive
adrienne
advancing
advent
advice.
aired.
airplane,
airplanes
akshaye
alabama
album,
anais
anarchy
anticipate
antics,
antithesis
anton
apathetic
appropriate.
arm.
artifacts
artist's
arts.
attends
atwill
autobiography
avant-garde
avenue
avoided.
babylon
badness
baked
bandits
bathroom,
beatrice
beck
bedroom,
bells
benevolent
best)
birth.
blackmailed
blanche
bloom,
bondi
bookie
bores
bosnian
boss's
brain-dead
breakout
brotherhood
bs
bums
busted
busting
but.
byron
calmly
cam
cannibalism
carved
castellari
categorized
cautionary
characters)
cheapest
checks
chuckle.
cinemax
circus.
citizens.
clarence
clayburgh
closeup
clown,
coarse
colony
comedians,
comedy"
compositions
conquered
contention
contradictions
corbucci's
costello,
cough
couldn't.
countries.
courtship
covert
cozy
cranky
crawls
crisp,
crying.
cunningham
dandy
davies
davis's
debts
decadence
decaying
defeating
delilah
deluded
dental
descended
descending
dev
developers
did)
dignity.
disappears.
discomfort
dishes
distribute
downer
downstairs
due,
east.
ebert's
egotistical
elicits
embracing
enigma
ensues,
escapades
evan
excelled
exception.<br
expressions.
eyre
fairness,
fanatical
farm.
feats
fencing
film).<br
finnish
firstly
flooded
flooding
flopped
floyd
fly,
foremost,
forgivable
françois
funeral,
funny;
galore
garbo,
gas,
generating
geniuses
gibson's
giddy
goodfellas
gordon's
gordon.
gosh,
governments
grade.
grammar
grandfather,
grant.
grey,
guarded
guinea
guinness
hall.
harmon
harshly
hat.
hatred,
hawks
heart"
heel
heyday
highlight.
him...
himself)
histrionics
hitch's
holden's
hopelessness
hopper,
hordes
horrid.
hostage.
how.
how?
hug
hungary
hunt,
identifies
idiosyncratic
ifc
included.
indeed!
individuals.
indoor
ineptitude
infernal
infidelity
inglorious
innovative,
insect
is<br
it.)
j.t.
jacob
jeanette
joan,
johnson's
julie,
jungles
kennedy's
kid.<br
kidnappers
kirby
know)
labute
lancaster's
landlord
launching
leaping
learnt
lending
leone's
letdown.
library,
lifestyle,
loathe
loser.
lotr
loves,
lumbering
macross
master's
maya
mcdowall
me?"
medium,
meet.
million,
minds,
minions
miriam
miscast.
misunderstandings
mitchell's
mix,
moan
more)
movie'
movie-
naming
narrating
neck.
needle
neighbourhood
nightly
no-name
nodding
nominee
norma's
nubile
numb
o'hara,
obligated
obsession,
ocean.
off-the-wall
offs
old-school
ole
open-minded
opinion)
opinions,
opium
out:
outlet
outweigh
panther"
papa
passionately
passions
pastiche
peeping
perfect!
perfection,
perlman
persecution
perversion
picky
planting
plunge
plunges
portraits
positive.
powerless
predecessors
pregnant,
priority
prohibition
pronounced
proud,
psycho.
punch.
radically
ranbir
ray,
reduces
references.
reflections
regard.
reinforce
relish
repeat,
reporter,
reproduce
resonate
respecting
restaurant,
retread
reused
ridiculous!
rifles
robards
rosanna
rose's
round.
russel
sad.<br
saints
sci-fi/horror
scientists,
scruffy
se,
secrets.
seem.
seller
separation
sequences.<br
sergei
service.
shand
shapes
shave
she?
sheds
shells
singh
situated
skulls
slaughterhouse
sloppy,
slot
smiled
snatch
sociological
soderbergh's
sorcery
spaces
spear
special.<br
spectator
spiderman
spilling
spoof.
sr.
stanton
stark,
starr
stem
stems
stronger,
suburbs
succeeding
success.<br
suffering,
suitor
supporters
suppressed
swallowed
sword,
tailored
template
theatrically
thereafter
therein
though).
tightrope
todd,
too;
toolbox
tossing
touches,
touchy
tours
townsfolk
traditionally
transformers
ugh.
unhinged
unintended
universal's
unknowingly
unnoticed
unorthodox
unsatisfying.
unwitting
up'
vets
villain's
vinyl
wait!
wanna-be
wasp
waste,
weisz
welfare
went.
wigs
williams)
wilson.
women.<br
working-class
world:
yelled
yet.<br
yul
"boys
"bring
"crazy
"funny"
"mean
"more
"phantasm"
"reality"
"she's
"these
"twin
"with
"yes,
##!!!!<br
##(he
##,it
##--if
##--there
##-<br
##-air
##-americans
##-edited
##-grade
##-it's
##-out,
##-rock
##-splitting
##-up.
##-view
##-western
##-witted
##17
##8.
##??)
##`t
##a).
##about
##acting
##acular
##ak,
##al'
##ala
##alian
##aling
##arde
##autiful
##b)
##bal
##band
##berman
##bility.
##bine
##birth
##bra
##buddy
##burg,
##cco
##cinema
##cised
##clude
##cracy
##craig
##ct.
##cular
##cuts
##db
##definitely
##dence
##don,
##dracula
##drive
##dry
##e!
##e:
##eak
##ember
##en),
##eri
##eta
##f"
##fection
##gee,
##gish
##giving
##hip,
##hood.
##i.<br
##ica,
##idge
##inating
##isa
##ist'
##istically
##itating
##itors
##iver
##iz
##japanese
##jeremy
##jerker
##jim
##keep
##kirk
##kung
##l'
##lished
##llian
##losing
##lty
##lynn
##mi,
##na"
##ns.
##olate
##omi
##oscar
##osis
##overs
##owski
##pected
##pop
##putable
##q.
##quent
##quisition
##raise
##rical
##ril
##runt
##rush
##san
##ster,
##stop
##suited
##tastic
##th.
##ti,
##tles
##top
##tters
##tu
##tz,
##u)
##uchi
##uously
##ur,
##utter
##uy
##valier
##ve.
##versity
##vp
##wang
##watching
##wes
##wild
##wits
##writers
##ène
##ès
#2
$20
'em.
'hero'
(actually,
(brian
(complete
(e.g.,
(get
(literally)
(robin
(stephen
,and
/>-the
/>certainly
/>get
/>keep
/>note:
/>quite
/>sometimes
/>whatever
1943
1956
1960s,
1994,
2003.
35mm
60s.
9/11,
96
?<br
acknowledges
actress)
admiring
admission.
adores
airline
airs
alive.<br
angelic
anger.
anna,
apostle
aquatic
architecture
artie
aslan
aspire
asylum.
athlete
atmosphere.<br
audience)
aunt,
automobile
autumn
away?
ayesha
ayres
backdrop.
backstage
bandit
barbarian
battered
bay,
began.
beggar
beliefs.
benjamin's
bereft
blame,
bogey
boggles
bottom,
branded
brandy
brats
bravura
bull,
buy,
ca
cagney.
camaraderie
came,
caught,
centering
ceremonies
charmingly
choked
cinemascope
co-written
collins,
coloring
comforting
communities
coneheads
conform
connection.
contacted
conversations,
conviction.
corps
cosby
cosmic
county,
court.
cult,
custom
d-
darjeeling
davis.
dead'
defense,
demille's
den
deserves,
desired,
development.<br
diagnosed
dialogues.
differ
dimension.
dina
disinterested
disturbs
ditch
doesnt
don`t
doomsday
dorff
dorky
douglas's
drago
dramas.
dude,
dummies
duty.
effects"
ego.
electrifying
eliot
eloquently
embassy
emily's
emperor's
emphasizes
endeavor
energetic,
enthusiast
erik
escapism
eternity
eve,
exemplary
expanding
expertise
eyeball
fairness
fancies
fangs
fastest
favors
featurette
ffolkes
fields,
files
filmmaker's
final,
firm,
fish.
fixing
flare
flashback.
flawed.
flops
fluff,
following,
forbid
foreshadowing
forgives
former,
forwarding
frank's
freshly
friend.<br
fundamentalist
funny)
gadget
gas.
gasp
ghost.
giallo,
giamatti
gino
godzilla,
gory.
got,
grandmother.
gratuitous,
gratuitously
gravitas
hackett
hallway
happens.<br
harmful
hawaiian
headlines
hearse
hell.<br
heroines
hers.
hill.
hindsight,
hogan's
holliday
hook.
horrors,
hostel
hots
hugging
hustler
identifying
il
imax
immensely.
immune
impatient
imperfect
impoverished
impression,
inbred
incident,
incongruous
indicating
indigenous
ineptness
infatuation
inflict
inimitable
inmate
innovation
inserting
intended,
investigate.
investigations
investigative
irritate
italian,
italy.
jealousy,
jima
jones)
joss
judge.
junk,
karaoke
khan's
killings.
kiss,
knotts
korea,
kramer
lacking,
ladies'
lamas
lancaster,
lapse
lifestyle.
lifetime,
likely,
list.<br
lived.
locking
long-lost
looming
love!
lowered
mackenzie
mani
mantan
manufactured
mata
matter)
mchugh
mckenzie
mcphee
melodies
melted
menu
mess!
mi
minimal,
minor,
misadventures
miscast,
mistake.<br
mistress,
mo
models,
monogram
morgan,
morley
moulin
mountains,
movie....
much).
mug
must,
naina
nation,
niro,
nostalgia.
notes,
novak
obliged
offer.<br
offices
opposites
oppressed
oppression
ops
out)
overnight
ownership
pact
painting,
panel
parting
peckinpah
penetrating
peppard
peppermint
picard
pillar
pitcher
pitifully
pitt,
plates
pleasant,
portuguese
potboiler
prep
pretext
productive
professor.
project"
prostitute.
prostitutes,
proven
purported
purposefully
quartet
rack
rahul
ranting
raped,
realized,
reckoned
reconcile
record.
reel.
rehearsals
rejection
renoir
reprises
requests
reservations
rickman
rip-off.
risking
ritter
riveting.
romano
roswell
routinely
rowdy
ruler
sacrifice,
sadistic,
safety.
said.<br
sandler,
scene"
scheme.
self-important
settings.
shaving
shortcomings.
shove
show;
showers
signals
sigourney
silk
sing.
size.
smashes
smuggle
smuggling
snakes,
sobieski
spans
speaker
spraying
starsky
sting
stitches
stooge
stories.<br
subtitle
subtle.
succeeds.
such.<br
sullen
suzanne
swiftly
sympathies
t-shirt
tackling
tangible
tattoos
telling,
terms.
thanks,
thanks.
that"
that;
there"
there)
therefor
thieves,
this?"
throat.
tommy,
too).
too...
tougher
tradition.
travel,
trench
triggered
trite.
trying,
tuesday
uk.
uncovered
underbelly
undercurrent
undergoing
underwritten
unfolds,
unfolds.
unity
up-and-coming
variety.
vault
vega
versa.
views.
vinci
walker,
walking,
ward,
we?
welles,
whipping
wholeheartedly
wind.
worlds.
write,
wrought
wtf?
yeoh
yoda
yr
yrs
zombie,
zorro
"1"
"art
"as
"based
"close
"hot
"like
"mad
"over
"saturday
"star"
"wow,
##)"
##,which
##-4
##-actors
##-crossed
##-fi
##-flick
##-hungry
##-laced
##-looking,
##-mo
##-room
##-spirited
##-to
##-together
##-white
##-with
##-years
##.")
##....i
##..at
##..there
##.there
##/dvd
##4).
##5.
##7),
##aco
##ads
##alk
##anned
##basically
##bass
##boring
##bringing
##buck
##cade
##carry
##cas
##ce"
##comic
##contains
##cusable
##dant
##dated
##duct
##eley
##eline
##ema
##english
##epy
##fat
##ff's
##find
##fox
##fried
##gart
##gast
##gates
##german
##gility
##happy
##held
##i'd
##ias
##inary
##ing's
##ira
##isha
##it"
##ivated
##iving
##jected
##jeff
##jennifer
##jesse
##julia
##ke"
##kiness
##king,
##kurt
##lab
##later
##ldon
##lga
##lide
##lin's
##lint
##lio
##litude
##lock,
##logy.
##lows
##luster
##manship
##marc
##mented
##mer.
##mits
##mple
##musical
##n.<br
##named
##ni,
##nit
##nna
##nto
##nts,
##nude
##number
##oker
##ood
##oons
##oop
##ores
##passing
##pay
##plane
##podge
##porn
##print
##proof
##pted
##quire
##rab
##razier
##rea
##rgy
##riated
##ries,
##rini
##rne
##robert
##ron,
##se"
##second
##selling
##simon
##sory
##st"
##strip
##su
##superman
##t),
##talk
##thanks
##these
##through
##topian
##true,
##tw
##uddle
##ugly
##unless
##usly
##ussy
##utical
##ville.
##vio
##violence
##visual
##work.
##xon
##yeah,
##ything
##zia
##zily
##a
##´t
'old
(1987)
(2
(edward
(great
(made
(possibly
(still
(until
(vincent
(whether
*is*
/>7.
/>can
/>had
/>honestly,
/>imagine
/>instead,
/>last
/>you'll
007
15-20
1932,
1950's.
1960s.
1990s.
1992,
75%
84
acknowledging
activities.
additionally
adoring
advocate
age"
agency,
alley.
aniston
announcing
any)
anything!
apples
appreciate.
armand
armless
arrive,
arthur,
astounded
atrociously
avant
bacall
baggage
band's
barber
baring
be;
bedtime
belial
betraying
betsy
bible,
billionaire
bin.
bitterness
blessing
blood.<br
bob's
bob,
bollywood.
boomer
bordering
bra
bravely
bray
britney
bronson's
browsing
buildup
bullets,
button,
buy.
buñuel
c'mon,
c-
calculating
capra
captain's
captain.
captured.
card.
cards,
careers,
carlson
carradine,
casablanca
cash,
cats,
caveman
cement
character:
characterization.
charismatic,
chico
choking
choppy,
choreography,
christian,
chuckles,
chuckling
civilisation
civilization,
clans
class.<br
clean.
cleared
cloying
club"
clumsy,
coincidence,
collapsed
colors.
colour,
combat,
comic-book
commented,
computer.
confessed
congratulate
convoluted,
cool.<br
coronation
costner's
courts
cramped
credible,
crew's
dance"
days?
dead",
dealings
declining
deco
defying
delon
deluise
depressed,
deserve.
dialog.<br
dictionary
digress.
dining
disaster.<br
disrespect
disrespectful
distinguishes
distracts
diversion
dork
dour
dp
dragonball
dried
driller
duke,
dvds.
eat,
education,
effective.<br
effectively.
elena
elsie
embittered
empire,
employing
encolpio
endings,
enjoyably
enlightening
environments
erased
evidenced
evolving
examples:
exceptional.
exemplified
extends
eyebrow
faulty
fbi,
fetus
fifties,
figures,
fire"
flawless,
fled
flick!
for:
formation
forster
fox's
fox.
fragments
francisco,
freakish
freaks,
friggin'
frighten
fx,
gangster.
gaze
genevieve
get.<br
getaway
ghraib
gidget
gielgud
giggles
gilda
gimmicky
glasses.
glue
go!
godawful
goings-on
gorillas
gown
gracie
grapes
gratuitous.
greatness,
grendel's
guide,
half.<br
halloween.
hamilton,
handled.
hardship
headline
headquarters
heady
heavier
heavyweight
heed
hellman
herself.<br
him),
hoax
hobby
hoffman's
holden,
horizon
hsm
hugo
humming
hype.
hysterical,
icky
idealism
illicit
illiterate
imo
independent,
indicative
indulging
infantile
informing
infuriating
ingenuity
ins
inspiring,
instead!
intensity,
interlude
ironic,
irony.
jaws,
jayne
jerk,
jews,
juggling
juhi
karloff,
keri
kerr
khan.
ki-duk
killed.<br
kin
kinetic
know!
korvo
ladies.
lair
landscapes,
lawn
lee)
leering
lesbianism
lethargic
lew
lex
life...
limbo
limo
lingo
live"
louder
loyalty,
lp
lumet
magazine,
magnitude
magrew
manu
marriages
me,"
meaningless,
meeting,
melodramatic,
menace.
message.<br
metaphysical
might,
mil
military.
mist
mitchum's
modicum
morals,
moreland
moses
mother-in-law
mountain,
movie",
movie?<br
mystery.<br
nc-17
neglecting
neo
network,
nicola
noirish
nypd
oberoi
obese
occurs,
offends
olen
omen
on:
operas
orange,
original)
originally,
ott
outbursts
outings
overdo
overworked
painting.
panning
park"
pass,
pathetic.<br
paved
peace,
peel
penetrate
performance;
performer.
peril
perils
pesky
phillips,
picture's
piled
pinnacle
pistols
plague,
plucky
pockets
poetry.
policeman,
poor.<br
position.
potion
preference
pressure,
priestly
professional.
professor's
project.<br
promiscuous
proprietor
protagonists,
rafi
redhead
regretted
reprehensible
reserve
resolution,
revels
revenge.<br
review.<br
review:
reynolds,
right-wing
robert,
robots.
role).
romans
romasanta
rv
ryan's
saddam
savior
scandalous
scene;
scholarship
science.
scientist.
screenwriter,
seem,
shamefully
shemp
shines.
shitty
shoot-out
shoving
side.<br
simple.<br
sincere,
sleuth
sloan
slowly.
smartly
smug,
software
soldier's
sonatine
soo
sooooo
sophia
soulful
sounds.
source,
spade
spanish,
spawn
spilled
spin-off
spinster
spot-on
statham
stepfather
stereotype,
stops.
store.<br
storyline.<br
strangling
strippers
subconscious
subjects.
subtleties
surprised,
takes.
tamblyn
telekinetic
term,
terrorism,
that?<br
theodore
there;
thespian
this).
thwarted
toshiro
trades
transplant
treasures
treatment,
trey
tv-series
twinkle
tyne
unbelievable.<br
understatement
undertaker
unemotional
unimportant
unleashes
unoriginal.
unravels
unsettling,
up;
value.<br
varies
vent
verbally
versions,
veteran,
viewings,
visionary
vittorio
volcanic
vomiting
warhol
watching!
waters'
weirdly
whitaker
whomever
widespread
widmark
wilde
will's
with?
woo,
wool
words.<br
worker,
wreck,
youngster
"battle
"beverly
"der
"dumb
"film
"he's
"hollywood
"land
"lost"
"master
"second
"south
"top
"true"
"under
"who's
##$$
##))
##,a
##-30
##-8
##-bit
##-child
##-movie.
##-not
##-person
##-talented
##-to-be
##-wise.
##.....<br
##...if
##.so
##.you
##/sci-fi
##03
##6).
##65
##actor
##ad"
##adian
##age.
##anna
##aped
##ard.
##arding
##ards
##arity
##as.
##ased
##ate,
##ati
##av
##bers
##bly,
##bomb
##bonnie
##bourne
##bove
##cary
##chio
##civil
##closed
##considering
##cue
##curing
##diane
##dile
##divine
##drawn
##erm
##errol
##ezing
##f)
##ficient
##fighter
##fore
##fred
##gard
##ge"
##gone
##gus
##gy,
##harold
##hate
##hin
##hino
##hog
##ic'
##ige
##ilities
##ishly
##itz
##joy
##judy
##julie
##ke.
##know
##ko,
##lding
##led,
##leigh
##lets
##lewis
##lin.
##linda
##line.
##link
##lises
##mart
##matched
##ments.
##missive
##mme
##nel
##nes,
##nished
##nked
##nother
##nson
##nus
##o!
##omic
##ota
##ough
##p)
##park
##phy
##plus,
##pose
##professional
##racking
##red,
##ressed
##riate
##rica
##rific
##rill
##rism
##romance
##rupted
##sand
##science
##similar
##sochistic
##starring
##super
##surprisingly,
##tary
##terrible
##tinent
##tivity
##trix
##uay
##ucci
##uda
##ude,
##unction
##uster
##vated
##vince
##vs
##wait,
##wal
##wald
##want
##way.
##wee
##wen
##wide
##worked
##yone
##zero
##zies
##zzi
##é,
'la
'little
'love
(alan
(barry
(being
(danny
(frank
(harry
(ian
(ie
(jim
(obviously
(ron
(you'll
/>considering
/>movies
/>right
/>written
11th
120
1920's
1948
1950's,
1980s.
1993,
1996
2001.
50s,
72
87
90's,
;-)
???
abby
accusing
achievement,
addiction.
addictive
adequate,
admirers
adulterous
aesthetics
afghanistan
ageing
aids.
alaska
alcoholism
alluded
aman
amazingly,
analogy
angels"
angels,
antidote
appearances.
appreciative
ark
ashamed.
asinine
astronaut
attained
autobiography,
autopsy
avoid!
backgrounds.
balkan
banal,
barrels
barren
bartholomew
base,
batch
battery
baumbach
bearable.
beast.
beasts
beforehand
beforehand,
beginning.<br
begins.<br
behind-the-scenes
benchmark
benign
black"
blackmails
blame.
blanks
blind.
bogie
boorish
bounces
boxed
breathes
bridgette
businessmen
buxom
call,
campfire
captivate
caretaker
carolina
carolyn
case)
cash.
century.<br
challenger
champagne
champions
chaos,
cheapness
cheery
chuck's
clause
clear.<br
cloris
co-produced
coin
collette
comatose
comical,
commandos
commercial.
commercials.
commissioner
concoction
considered,
constantly,
consultant
controversial,
conversion
correctly.
coy
crafts
crichton
crushes
d.a.
daphne
davis)
dead".
debating
deceptively
defended
desire.
desires,
develop,
diaz
dichotomy
die?
dien
dingy
dink
dinosaurs,
diplomatic
display,
display.
ditsy
doing.<br
doll,
dot
drain
drawn,
drenched
dreyfuss
dull.<br
dullest
dung
duris
early.
eat.
echoed
eclipse
elegantly
elmo
embarrassing,
embodied
end)
england's
englishman
engulfed
entangled
entranced
epilogue
etc),
evoking
ex-cop
examples.
exec
exiting
expecting.
experiment.
fabulous,
factions
farm,
feds
fiction.<br
fictionalized
fighter,
first:
follows:
frankenstein,
funnier,
funniest,
fury"
gallons
game"
gaming
gavin
ged
geena
gel
general's
genre's
gerry
gertrude
gift.
glance,
glory,
godzilla.
golgo
gotham
gracious
graham,
grates
guillotine
gunman
gutter
h.p.
ha,
hamill
hard-hitting
hardy,
hastily
hatton
heavy,
hellgate
hijack
hillary
hindu
hinges
hopes,
horrific,
hussein
iago
ice.
identification
imagination.<br
imitated
imitations
impact.<br
impaled
imperial
implying
imposing
inc.
indelible
indirectly
infantry
inhabits
installments
intercut
inventing
invincible
irritates
it).<br
jack.
jackhammer
jacobi
jayston
jonathon
jordan,
julia's
just...
khan)
ki
kisna
kitsch
knew,
kristel
kruger
laboured
labyrinth
landmarks
lane.
later)
laughing.<br
lecherous
left-wing
leroy
letterman
lies.
lilli
logical,
lombardi
longed
lookalike
lottery
lowell
loy,
lucas'
luna
machete
magical,
maintenance
maligned
marv
mayhem.
mcdormand
mcgraw
mcgregor
merlin
mesh
metal.
metropolitan
mimics
mindless,
mischief
miserable.
mocks
month,
morality,
moranis
morse
mumbling
museum.
myth.
narrowly
nasty.
nazi's
needs,
neill
nephew,
never-ending
no?
nomination.
non-linear
now)
objectionable
offensively
officers,
offset
one-of-a-kind
ones)
oozing
operates
oprah
opus
orchestrated
orientation
original's
out...
outback
paces
packard
page.
pancake
parable
park's
parked
part:
partying
patrick,
pawn
perfectly.<br
peripheral
photographer,
pipes
pitiful.
pitt's
pleasure,
poitier
political,
polly
poorly,
popcorn,
popularity.
position,
postwar
practice,
precinct
premise:
prequels
privy
proceeded
profitable
promo
proposal
pyun
rage.
rancid
raptors
razzie
re-runs
recognisable
reconsider
recordings
recovers
red.
reels
reginald
regions
regrets
reliance
remake.<br
renamed
rendezvous
rent.
rental,
requested
resent
revolt
ridiculed
ridiculousness
robson
robust
rocked
rode
rollin
roped
round,
sadder
saga.
sasha
satan,
savings
say...
scenes)
schoolteacher
seagal's
self-respecting
seven,
shadows,
sharks.
shin
simplest
sinatra's
singularly
sisko
skies
skinned
sleazy,
sloppily
slow-moving
slug
slumming
small.
smokes
soames
sock
solution.
soon.<br
spades.
spellbinding
sperm
splits
sponsored
stars)
start.<br
steeped
steinbeck
stinkers
subplot,
subtlety,
succumbs
survival,
survivors.
swear,
sympathetic.
takes,
tbs
teasing
tequila
terrifically
theater.<br
theorists
thief.
think?
thirsty
this?<br
thought.<br
threadbare
tibet
tigers
tires
tivo
to:
toast
toilet.
tonight.
trainer
trashy,
travelogue
tremors
tricks.
trusts
truth"
tudor
two-hour
una
unavoidable
unconditional
unease
unfocused
unimpressive
unite
universal,
unlikable,
unmarried
unused
ur
utilizes
variety,
victimized
vidhu
violet
virus,
vogue
vortex
voyager
vu
waiter
wallow
wants,
wasnt
watchers
watermelon
wayne.
weaver
weight,
whips
whisper
wife"
wildlife
william's
wonderland
worthy,
wynorski
yorkers
zucco
"air
"be
"blair
"body
"curse
"day
"every
"everything
"free
"give
"hell
"john
"men
"revenge
"serious"
"will
##!?!
##'"
##'mon
##'s.<br
##).the
##)but
##--his
##-character
##-date
##-documentary
##-dog
##-fight
##-mannered
##-nazi
##-round
##-shaped
##-styled
##-two
##..how
##..well
##60
##70
##70's
##?!?!
##?.
##`re
##ably,
##ah.
##aire
##aks
##aled
##alo
##aning
##atch
##athing
##bambi
##barbara
##bbie
##bic
##bis
##ble"
##board.
##bre
##by's
##cap
##castle
##chez
##claimed
##claude
##cling
##cracker
##dal
##ddy
##dey
##dible
##dine
##doing
##eastern
##entially
##er).
##erse
##etta
##fest.
##ffy
##friends
##ful.
##gh,
##gory
##guard
##hapsody
##harrison
##hart,
##hearsed
##hel
##her.
##hered
##hrine
##husband
##ice.
##ide.
##igh
##ilt
##ima
##ings,
##ipe
##ird
##isc
##ishment
##issue
##itt
##ivate
##j's
##je
##job
##ki.
##lars
##lift
##logged
##logy,
##lops
##lter
##lucky
##malcolm
##market
##memorable
##mposing
##mystery
##nary
##nded
##ndon
##ngo
##nian
##nings
##nnie
##ny"
##olo
##ologies
##olved
##on.<br
##once
##ooo
##os'
##out.
##owen
##pity
##plement
##plenty
##producer
##pto
##punk
##quite
##rence
##riloquist
##rim
##ring,
##rington
##rised
##ritz
##rra
##rton
##sandra
##saw
##sense
##sh.
##sil
##sley
##som
##spoken
##stead
##struck
##stupid
##sty
##tag
##tant
##taxi
##td
##terest
##thinking
##tional
##tish
##told
##town,
##treet
##truct
##twilight
##uce
##uffs
##ukh
##ule
##uled
##ulent
##unding
##ups
##urance
##vable
##ve,
##warren
##wonderful
##wood"
##work,
##worst
##ylor
##ypical
##zle
##zzled
'good'
'oh
(brad
(do
(gene
(ie.
(johnny
(ok,
(okay,
(presumably
(ray
(save
(these
(tim
(using
*not*
,the
/>except
/>here,
/>read
/>story
/>their
/>whilst
1949
1980.
2/3
3.5
3000.
42
5/10
50's.
86
a&e
aborted
accuses
acrobatic
actor)
added.
advantage.
adventures.
adversary
again;
ain't.
airport.
all-american
amateur.
ames
ancestors
anderson.
angel.
angelopoulos
appropriate,
arm,
astin
asylum,
attain
aunt's
awaited
awakened
aykroyd
b.s.
b/c
b/w
badass
ballroom
bana
bang,
basis,
beds
believe)
bench
bigger,
bison
bitch,
blob
blueprint
boasting
bohemian
bother,
boyish
breathtaking,
breathtakingly
bret
bridge,
broken.
brooding,
brook
buckets
budgets,
burger
burns,
busty
butts
cage's
californian
camel
camouflage
cane
capitalism
carandiru
carving
cates
caviezel
censor
channels,
character).
charge,
che's
chelsea
chick,
chiefly
child-like
childlike
chiller
chips
choreography.
circus,
cited
cities,
clarify
cloak
co-starring
cobbled
collects
colleen
comes.
commentaries
communicating
competent,
compose
conclusions.
confidential
conjoined
conjured
connection,
conquest
constable
constitutional
contradictory
convincingly.
corner,
costello's
course),
crafty
crimson
cruelly
cultures,
curve
cuteness
danes
day)
dear,
dearly
deathstalker
decisions,
defiance
defiant
degradation
democrats
descend
descendants
designated
destination.
detracted
develop.
devised
devito
diminish
dire.
disgraced
disservice
dissolves
distraction.
diverting
dizzying
doctors,
documentaries.
documentary.<br
domination
dum
duo,
e.g.,
eliminating
eloquent
emerald
enables
encompasses
end"
end).
end:
endearing.
endearingly
enemy"
ensue.
entertainer
entertainingly
entry,
entry.
er
erich
ernesto
errors.
exceeds
excite
excursion
execrable
execs
exemplifies
experienced.
exposition,
facade
facet
fact.<br
failed,
fared
farmers
farting
fiancé,
fiddle
filler.
film!<br
fold
follows.
fool.
francis,
freddy's
friar
frustrating,
functional
gag.
general.<br
generic,
girl)
gladys
glorify
godfather,
greatness.
greetings
gross.
guard.
gulf
gulliver
guys'
ha.
hand.<br
harry.
haunting.
headstrong
hearts.
heaven's
help.<br
henri
her"
hideout
hills,
hilton
homely
hoodlums
hooking
horrifically
host,
household.
hyper
ideas.<br
identifiable
idiots,
idle
iii,
iii:
imagined.
immortality
impregnated
impromptu
improv
in-jokes
in-your-face
incidentally
individually
individuals,
indulges
industry.<br
innocents
insisting
installment,
instructed
integrity.
intercourse
intervals
inventive,
investigated
iota
janie
jazzy
jersey,
jezebel
juxtaposed
keira
kilmer
klein
knowles
kotto
labored
landscape.
lawyer.
lea
leg,
lemmon's
levi
lil
lingerie
lookout
loved,
loves.
low-grade
lows
lucky,
lucy,
lugosi,
lukewarm
lures
lynch.
machina
madam
mannerisms,
manuel
marie,
mark.<br
matheson
maze
mcqueen's
meaty
memoirs
mercury
merge
merrick
messenger
metaphorical
miki
mini-series.
minnie
minorities
miserable,
mitchum,
mk
montana
moscow
motives,
mst
much)
music?
musicians,
name),
neighbors.
nile
niro's
noise.
nostalgia,
novello
nuts.
oates
object,
observes
occasion.
occur,
oddest
offended,
ogden
once.<br
onset
opens,
organize
organs
orgasm
other?
outpost
overacting.
overlooking
p.i.
pacino,
packaging
pairs
palatable
paraphrase
parker's
partner's
patient,
patiently
paxton
peoples'
personification
pervert
pessimistic
phenomenon.
physique
piercing
pinpoint
pioneers
pitfalls
planets
plot!
plotting,
poe's
poignantly
poked
polanski's
preachy,
prelude
premature
prices
priestess
primo
proclaims
product,
promos
prompting
property.
protector
provokes
pseudo-intellectual
public.<br
purest
qualms
quebec
quick.
ra
raf
rag
ratings,
rats.
reading,
realms
recommendation.
reconstruction
relieve
removal
renee
repertoire
requirements
residence
respectively
restrictions
results,
revered
richards,
right?<br
rip-off,
roast
robin,
rocking
romain
romp.
roots,
rot
saga,
satisfied.
scandinavian
scant
schizophrenia
schlocky
scorsese,
scott)
screamed
screaming.
seated
secrets,
see?
selma
senseless,
sensuous
seriously!
shoot.
shortest
shots.<br
showing.
sim
simple-minded
simpsons,
skewed
slasher,
slaughtering
sleepless
slices
slob
smoldering
snobbish
solutions
solves
sony
sorcerer
speaking.
species.
[...]
