<unk>
<cls>
<sep>
!
"
#
$
%
&
'
(
)
+
,
-
.
0
1
2
3
4
5
6
7
8
9
:
;
<
=
?
@
`
a
b
c
d
e
f
g
h
i
j
k
l
m
n
o
p
q
r
s
t
u
v
w
x
y
z
in
the
and
on
is
man
of
with
woman
two
are
to
wearing
at
an
people
white
young
while
black
shirt
his
blue
red
sitting
standing
girl
boy
men
playing
dog
front
group
holding
down
her
one
walking
three
by
green
as
looking
up
for
women
little
yellow
large
child
brown
person
from
street
through
their
next
children
other
into
small
dressed
over
hat
some
another
outside
street.
out
stands
riding
orange
behind
running
jacket
around
near
water
pink
that
water.
looks
sits
background.
jumping
has
top
ball
asian
##.
girls
gray
four
older
crowd
several
stand
working
player
shorts
walks
off
dogs
hair
along
dress
table
lady
holds
bike
plays
pants
building.
soccer
boys
jeans
talking
there
carrying
##,
play
walk
city
something
sit
blond
who
building
old
taking
he
smiling
being
side
beach.
each
doing
sidewalk
air
guy
male
picture
field.
him.
look
glasses
dark
striped
field
baby
couple
back
female
baseball
be
t-shirt
construction
many
hand
beach
watching
ball.
grass.
long
snow
jumps
across
or
guitar
food
on.
purple
sidewalk.
performing
rock
dirt
wall
under
hands
camera
all
coat
face
head
shirt,
suit
car
camera.
wooden
grass
its
using
sunglasses
runs
bench
bicycle
snow.
it.
kids
against
together
them.
workers
football
wall.
reading
it
rides
during
elderly
eating
they
this
tennis
about
uniform
##s
players
outside.
busy
outdoor
park.
boat
waiting
having
band
game
middle
colorful
sign
getting
climbing
helmet
past
tan
trying
park
making
beside
tree
she
team
stage
very
horse
cap
covered
posing
inside
towards
swimming
shirts
five
day.
clothing
road
area.
light
surrounded
work
brick
road.
basketball
big
bright
ground
chair
them
laying
dancing
piece
toy
colored
sweater
high
grassy
sand
tank
body
table.
room
him
air.
pool.
race
her.
others
bag
background
arms
someone
like
vest
game.
which
hats
mouth.
open
hard
singing
people.
stone
onto
line
both
hanging
crowd.
watch
hand.
window
train
worker
takes
what
full
guitar.
shopping
ice
snowy
mountain
toddler
ready
skateboard
american
ground.
ride
leaning
pool
area
metal
guys
floor
enjoying
above
stage.
city.
tree.
appears
outfit
together.
jump
going
shirt.
african
clothes
drinking
trees
between
crowded
right
after
man,
shirtless
adults
bench.
have
store.
microphone
gathered
sleeping
cowboy
kid
catch
run
mouth
motorcycle
ocean.
watches
left
men,
sunny
number
uniforms
family
painting
microphone.
away
picture.
something.
car.
trick
preparing
face.
head.
cart
plaid
seated
backpack
store
room.
hockey
skirt
smiles
other.
pose
plastic
stick
restaurant.
bike.
toward
fishing
hat,
tall
watch.
dog.
racing
beautiful
shoes
path
race.
truck
where
set
book
watches.
arm
fence.
public
dance
music
trees.
adult
police
putting
selling
does
sweatshirt
people,
short
bus
pushing
paper
night.
glass
concrete
photo
lake.
get
painted
take
swing
just
food.
market.
day
gear
ladies
lot
rope
costume
hands.
skateboarder
edge
event.
window.
gentleman
pulling
cooking
poses
track.
ocean
board
by.
rocky
martial
safety
beard
driving
floor.
filled
throwing
sand.
view
subway
kitchen
rocks
sign.
few
crossing
performs
restaurant
smiling.
steps
scarf
hill.
jersey
lying
six
facing
umbrella
works
mountain.
no
boots
boat.
middle-aged
cleaning
cutting
giving
train.
wood
fence
pole
parked
fire
cellphone.
various
cellphone
apron
different
chairs
rider
woman,
eyes
river
outdoors
bicycle.
flag
volleyball
hold
outdoors.
parking
drink
bowling
showing
winter
hit
bathing
carries
leans
smoking
talks
##s.
object
street,
blond-hair
phone
sun
flowers
pictures
white,
make
kitchen.
practicing
pants,
younger
laughing
river.
market
cross
listening
pointing
reads
corner
lake
bunch
bridge
leather
prepares
gold
makes
truck.
up.
biker
bikes
mother
snowboarder
jackets
red,
dark-haired
hill
arts
before
man.
sports
bald
empty
same
staring
distance.
vests
##ing
surfer
friends
horses
attempting
gloves
couch
fish
school
sort
pile
wears
wet
down.
spectators
indian
midair
house.
lined
students
woods.
computer
military
path.
kicking
bag.
suits
speaking
track
jeans,
shorts,
skateboarding
back.
tries
women,
setting
swinging
silver
fountain.
fruit
swim
shop
horse.
overlooking
art
cars
bearded
frisbee
graffiti
machine.
new
bags
hat.
umbrella.
side.
life
gather
house
wave
bird
jacket,
lawn
instruments
bikini
beer
cigarette
cream
brunette
sky
woman.
climbs
smile
cement
shop.
book.
skier
wedding
musical
feet
goggles
man's
onlookers
says
talk
chinese
leaps
perform
flying
bridge.
toy.
jacket.
machine
flower
urban
out.
##ed
blowing
held
nearby.
ladder
scene
teams
among
gets
legs
lit
tie
bucket
electric
mountains
dresses
stairs.
bar.
paint
swing.
coffee
bus.
costumes
trunks
uses
##"
brightly
can
display
bottle
writing
coming
forest.
kneeling
talking.
cup
huge
traditional
wave.
equipment
resting
vehicle
door
event
helping
waving
hot
black,
buildings
wooded
bed
chasing
chair.
made
blue,
roof
stairs
type
bride
sandy
mask
wait
basket
statue
attire
musicians
business
drinks
items
sliding
karate
opposing
video
purse
teenage
do
seen
alone
slide.
attached
males
way
hiking
stand.
stop
rock.
instrument
motorcycle.
sings
vendor
desk
fixing
flowers.
these
father
trail
diving
throw
upside
setting.
giant
khaki
multicolored
newspaper
foot
leaves
bull
golf
bar
hair.
helmets
ramp.
audience
ski
christmas
competing
equipment.
home
pole.
waits
kick
passing
bicycles
waves
##'s
counter
shoulder
audience.
members
outfits
door.
leaping
animal
children.
go
children,
clear
close
shows
balloon
playground.
steps.
parade.
box
fountain
also
swings
fighting
paper.
signs
collar
kissing
nearby
net
dirty
happy
lots
sky.
artist
including
skateboard.
walking.
atop
night
not
phone.
tables
yard.
forest
attempts
headphones
shallow
beige
leg
rodeo
barefoot
block
coats
instruments.
musician
ramp
rocks.
sandals
shot
singer
station.
dancers
shore
court.
dock
girl,
plate
stick.
decorated
pass
slide
watching.
flags
gathering
picking
blanket
clown
lays
officer
rope.
straw
around.
buildings.
ledge
party.
surfing
third
throws
cart.
concert
seems
##d
digging
jean
playground
catching
pulled
asleep
drums
foreground.
hugging
matching
structure.
trail.
grocery
meat
boy,
reaching
enjoy
jogging
oriental
denim
railing
wrapped
pair
rain
see
cliff
foreground
moving
performer
washing
individuals
long-sleeved
opposite
underneath
work.
heavy
woman's
cyclist
son
stuffed
points
tent
break
concert.
frisbee.
runners
dress.
instrument.
stroller
wear
board.
but
catches
couch.
muddy
top,
appear
blond-haired
lot.
mountains.
grill.
hooded
child.
covering
kicks
makeup
part
pouring
pushes
shore.
sweeping
traffic
bicyclist
fallen
party
vehicle.
hoodie
how
living
show
skiing
whilst
another.
cake
golden
hair,
parade
professional
ride.
station
bowl
camouflage
camera,
climb
drawing
either
fire.
flip
only
corner.
fun
leaves.
navy
tattoo
yard
checking
indoor
lone
pedestrians
picnic
cat
checkered
conversation
skating
row
shoulder.
surfboard
bed.
dancing.
sunset.
trash
bottom
drum
females
flag.
runner
subway.
cloudy
cut
goes
graffiti.
himself
nose
bags.
deep
dirt.
hole
low
skate
drives
help
laptop
shown
touching
kind
line.
tire
railroad
reaches
roller
dark-skinned
laughing.
marching
put
baby.
bending
cap,
sleeps
slides
t-shirt,
base
platform
violin
dances
lights
officers
rolling
time
vegetables
leash
multiple
music.
place
red-hair
teenagers
water,
falling
floating
seven
splashing
competition.
match.
nice
protective
site.
soccer.
structure
well
paved
streets
bubbles
canoe
grill
photographer
polo
wheel
alley.
lab
meal
net.
balancing
climber
prepare
puts
scooter
seat
taken
floral
circle
end
here
local
rail
wetsuit
tricks
heads
relaxing
screen
speaks
beach,
cane
daughter
eat
eats
friend
garbage
gives
image
office
wide
cigarette.
distance
opening
tongue
computer.
inflatable
neck
sticks
cheerleaders
crying
groom
overalls
sewing
statue.
##er
chairs.
hula
windows
army
bandanna
box.
passes
sidewalk,
behind.
clothing.
flies
palm
chef
classroom
produce
dancer
drums.
faces
lies
sunglasses,
foreign
glasses.
reflective
caucasian
glasses,
marathon
round
tracks.
rest
blouse
enjoys
gym.
lap.
roof.
sunglasses.
thrown
flags.
girl.
helmet.
shooting
cold
colors
course.
drink.
field,
hitting
home.
bat
juggling
pulls
raised
balloons
building,
eating.
green,
gymnast
rain.
set.
stares
tent.
##y
hangs
possibly
sheet
singing.
top.
band.
coat,
maroon
redheaded
robe
shovel
amusement
dress,
guard
surrounding
bent
bmx
caught
closed
closeup
sled
swims
beer.
center
class
country
knee
shoulders
brown-haired
court
curly
garden
running.
scuba
turn
been
girls,
laundry
table,
wood.
##;
##ly
dry
formal
half
object.
pier
screen.
squatting
arms.
ice.
yellow,
belt
football.
goalie
left.
move
railing.
shoveling
soldier
stunt
airplane
dinner
neon
paints
photo.
photograph
rugby
serving
shaving
site
teal
helmet,
lap
midair.
native
style
umbrellas
deck
rodeo.
square
walkway
white.
accordion
away.
cafe.
individual
mirror
newspaper.
shirts,
below.
crew
cup.
examining
moves
spray
suspended
try
acoustic
bowl.
counter.
guitarist
harness
participating
riders
show.
skis
telescope
time.
basketball.
carnival
conversation.
funny
grilling
open.
town
arm.
booth
device
dogs.
guitars
hiker
kayak
long-sleeve
outside,
shaking
so
clean
japanese
room,
stadium.
doorway
fight
gun
if
right.
was
jump.
referee
stool
summer
visible
without
wrestling
cafe
fans
first
flowered
mirror.
sleeveless
athletic
boats
handing
microscope.
rubber
smiles.
stadium
tourists
balding
boy.
bucking
button
cake.
fur
homeless
pitcher
sells
sticking
string
use
church.
displaying
it,
motorcyclist
mustache
observing
pictures.
platform.
print
security
teeth
bicyclists
bikes.
chases
conversing
cyclists
performance.
ring
soldiers
sporting
steep
tool
backpacks
dance.
jumpsuit
large,
long-haired
member
place.
pot
raising
red-haired
young,
biking
cloth
good
helps
rainbow
stream.
swimsuit
walkway.
balls
baseball.
bottle.
direction.
heels
hikers
infant
match
pull
backwards
balcony
fenced
german
goods
paddling
student
swimmer
balance
blue.
kneels
pants.
t-shirts
toys
york
athlete
display.
driver
hats.
smaller
celebrating
chain
faces.
festival.
fish.
flight
him,
patterned
rail.
suit.
toys.
alley
bubble
cobblestone
gentlemen
kiss
leading
policeman
puppy
sculpture
smoke
teenager
volleyball.
below
blanket.
classroom.
curb
garden.
hats,
narrow
pond.
repairing
sculpture.
streets.
sun.
tattoos
themselves
backyard.
child,
desert
figure
goal
items.
polka
softball
tied
tractor
onlookers.
operating
peace
ponytail
practice
shoes.
blocks
color
headband
lay
mural
pajamas
rests
step
bikers
hang
light.
on,
shorts.
tops
trampoline
ball,
brushing
cliff.
competition
desert.
finger
motorcycles
performers
shoulders.
sport
stripes
##".
fair.
hood
lead
off.
pick
spinning
trampoline.
van
women.
woods
birds
buying
cuts
guitar,
log
mostly
similar
socks
teacher
town.
welding
balances
ears
garb
mud
obstacle
presentation
road,
benches
crouches
goal.
hospital
pieces
scooter.
tennis.
vegetables.
carry
church
crosses
gas
handstand
lift
player.
shaped
towel
vest,
warm
african-american
backs
cardboard
costume.
gravel
great
hay
lawn.
mat.
men.
person.
plants
robes
skirt,
uniform.
wine
you
air,
college
drummer
santa
sharing
wall,
balls.
bottles
compete
desk.
dock.
drinks.
firefighters
jerseys
pavement
racetrack.
stream
tattooed
beneath
clothes.
cook
happily
ladder.
poles
racer
sea
skirts
splashes
stroller.
tropical
tunnel.
turned
upon
waterfall.
boxes
dining
raises
strange
books
cars.
country.
luggage
team.
wheelchair
##e
applying
barbecue
baskets
biting
boys,
eight
fast
folding
hits
lifting
meal.
project.
sneakers
surfboard.
##'
##t
ahead
background,
catcher
chest
fresh
heart
motocross
partially
poster
second
smokes
snowboard
waist
advertisement
amongst
birthday
bucket.
caps
choir
fall
marathon.
papers
sale.
ship
underwater
wire
attending
ground,
jeans.
mohawk
mom
naked
plane
saxophone
sets
slightly
trick.
balloons.
banner
blows
course
eye
flipping
money
piano
tracks
backpack.
boxing
bread
checks
climbing.
collared
grass,
gym
hammer
leaving
medical
puddle
shoes,
stops
surface
sweater,
traveling
crosswalk.
ear
fancy
fisherman
fix
laptop.
microscope
other,
outfit.
pavement.
reach
shade
shot.
steel
van.
vegetable
violin.
waves.
animals
eastern
feeding
haircut
hose
lines
loading
model
mound
performance
play.
pretty
rowing
skater
smile.
written
##r
balloon.
day,
downtown
eyes.
feet.
herself
motorbike
scaffolding
seem
share
shepherd
shoe
snow-covered
sword
traffic.
attention
cow
discussing
down,
electronic
folded
following
glass.
inside.
intently
laugh
painting.
photographs
rough
slope.
snowboarding
tray
variety
windows.
animal.
class.
firemen
float
fly
gathers
horses.
it's
pedestrian
photographed
plants.
post
rural
scene.
spread
square.
tag
tube
uniformed
watched
attempt
called
carving
creating
lights.
newborn
ornate
puck
racket.
read
shovel.
telephone
tiled
training
turning
wagon
will
youth
broom
bubbles.
bull.
dimly
fingers
fruit.
game,
hand,
things
tourist
candy
child's
dog,
fabric
fair
knit
mixing
paddles
park,
placed
placing
sell
staircase.
star
stretching
teaching
though
word
bouquet
customers
doorway.
excited
flip-flops
fluffy
gear.
modern
name
patio
racket
ring.
sing
spectators.
stopped
sunset
swimmers
tackle
view.
advertising
backyard
balcony.
bank
card
center.
conference
dogs,
dreadlocks
entrance
headscarf
jockey
lunch
order
overweight
raft
reading.
signs.
suit,
walls.
ballet
basket.
carriage
casual
converse
falls
filling
keyboard
podium
shaved
single
skateboards
skinny
stack
we
booth.
casually
cheering
coat.
cone
control
cricket
crosswalk
device.
laughs
paddle
section
shirts.
teen
tile
working.
backdrop.
candles
clad
grinding
hose.
mobile
more
necklace
orchestra
passengers
plant
playing.
shadow
surface.
that's
vendors
airborne
coloring
engine
ethnic
festival
greyhound
hoop
hoop.
industrial
item
leads
nap
opponent
parents
pipe
relax
straight
them,
thumbs
wading
black.
books.
brown,
bushes.
cooks
examines
flat
groups
mat
mud.
nose.
petting
plaza.
races
religious
shovels
sized
stop.
teammate
uniforms,
walls
ages
base.
bass
beanie
beverage
cleans
crouching
drive
engaged
fake
gray-haired
knees
landscape.
liquid
most
speed
spraying
stage,
whom
come
construction.
costumes.
had
information
mask.
pier.
pizza
too
tub
wheels
apartment
calm
knife
live
pack
players,
poles.
project
ribbon
start
tables.
tight
tools
trumpet
tv
us
approaching
athletes
barber
buckets
chocolate
couples
direction
fruits
furry
gate
intersection
landscape
n't
pine
porch.
red.
waters
accordion.
closed.
club.
elephant
exercise
gown
lane
leash.
long,
pale
photos
push
rainy
tossing
bicycles.
children's
cone.
cute
displays
floor,
jumped
machinery.
messy
passenger
pink,
protesters
sale
scenic
women's
arena.
art.
bare
bear
clothing,
concrete.
directions
firetruck.
gate.
jumping.
leotard
licking
makeshift
neighborhood.
pond
printed
rolled
sofa
telescope.
together,
tower
viewing
approaches
case
coach
consisting
container
cover
doctor
garage
hallway
leap
numerous
pit
rows
slacks
small,
taxi
uniform,
wind
winter.
wrestle
##es
amidst
beard,
blow
boots,
covers
curb.
fan
form
forward
marketplace.
practices
shoot
thin
unicycle
uniforms.
##-
broken
container.
far
head,
inspecting
jet
located
mall.
married
outstretched
participate
porch
skates
standing.
still
weather
##!
##)
##-like
##a
airplane.
atv
back,
begins
boardwalk
brush
cargo
corn
crouched
customers.
front.
kayaking
kisses
learning
ledge.
museum
peers
power
protest
ropes
scarf,
sheep
someone's
standing,
stare
umbrellas.
weaving
apple
beam.
black-haired
check
downhill
examine
fishing.
hispanic
hurdle.
jungle
lifts
observe
photograph.
school.
smiling,
tiny
touches
action
bench,
comes
cones.
crossed
design
fireman
iron
kite
lamp
larger
lean
mid
sitting,
teammates
teens
wheel.
wings
world
adjusting
artists
bends
bike,
bow
chest.
craft
demonstrating
dish
finish
firefighter
gloves,
kitchen,
midst
museum.
puddle.
scaffolding.
silly
sleeping.
splash
area,
bat.
billboard
bite
brass
dishes
give
guns
hallway.
jewelry
legs.
magazine
past.
patch
pretending
saying
scrubs
seat.
surf
tents
batter
buy
carefully
castle
chase
closely
clouds
dead
escalator.
frame
frozen
gun.
indoors.
performing.
pigtails
pumpkin
space.
starting
turns
vendor.
walk.
whose
##n
above.
animals.
carpet
clothes,
derby
digital
evening
frame.
hiding
human
lime
office.
opens
own
piano.
plates
routine
sea.
sitting.
stepping
stove
almost
beam
bottles.
chicken
coffee.
crying.
facial
free
gestures
heads.
hugs
listens
microphone,
overhead
paint.
roll
saw
staircase
suspenders
t-shirt.
turn.
types
airport
boards
branch
burning
camping
chewing
cloth.
computers.
containing
crane
cream.
creek.
deck.
drum.
flips
girl's
gymnastics
headed
hockey.
keyboard.
masks
obstacle.
olympic
others.
pipe.
plate.
purse.
reflection
skiers
studio.
up,
vehicles
admiring
artwork
business.
club
computers
customer
face,
grabbing
interacting
meeting
moment
mural.
played
pours
shining
space
sticks.
stroll
swimming.
talk.
wig
words
bouncing
cards
crosscountry
done
drilling
fight.
friends.
hind
pan
perched
player,
pose.
position
public.
rink.
someone.
surf.
tie,
airport.
blurred
costumed
descent
drag
drawn
horseback
in.
intersection.
library.
marketplace
medium
motor
objects
orange,
planting
poor
present
sides
silhouette
skirt.
stringed
trailer
transportation
wedding.
wife
##s,
attractive
bars
bleachers
boardwalk.
ceiling.
circular
decorative
diver
dot
entertaining
featuring
fence,
fencing
gathering.
kilt
packed
person,
playfully
presentation.
racers
shades
shaggy
shakes
shawl
shiny
within
arena
barbecue.
cast
chair,
chefs
clay
cool
donkey
drinking.
duck
framed
furniture
gazes
job
log.
map
meat.
observes
odd
pitch.
point
pottery
quickly
range.
shopping.
speech
stripe
ten
turban
underwater.
waters.
way.
##ers
##o
aged
asians
banner.
boat,
cheek.
dives
doors
dusk.
fabric.
female,
illuminated
interesting
logo
lower
machinery
mexican
miniature
motorized
neck.
numbers
over.
repair
rollerblading
short-haired
short-sleeved
story
teeth.
turquoise
umpire
village
weather.
ballerina
blood
chatting
clapping
cones
cowboys
dig
displayed
drill
dusty
embracing
followed
hall.
hammer.
headphones.
homemade
lighted
nine
pot.
protesting
rolls
snowboard.
song
tour
trunk
tube.
umbrella,
wine.
bagpipes
bathroom
car,
carpet.
chess
digs
discussion
follows
gear,
hole.
jogs
labeled
lounging
love
luggage.
mall
nike
objects.
pillow
rollerblades
short,
snow,
speech.
tea
underwear
unusual
used
attire.
cameraman
cellphone,
ceremony.
cotton
courtyard.
cups
dust
eat.
employees
farm
fun.
he's
lane.
metro
microphones.
rear
relaxes
sink.
sled.
speak
sprinkler
stretches
sweeps
tools.
tug-of-war
tunnel
well.
wheeled
when
bath
belly
beret
branches
camel
cheer
electrical
factory
fishes
flute
london
mouse
pigeons
stilts
support
terrain.
washes
wrestler
yoga
aerial
blankets
brushes
cameras
carts
climbers
dinner.
elaborate
figures
firetruck
glove
juice
male,
moped
old,
pads
post.
produce.
serve
serves
shoppers
skull
sleeves
storefront
stretched
stuck
tiger
touch
bars.
bottoms
break.
burgundy
draped
fat
follow
formation.
hawaiian
lacrosse
landing
lifted
link
listen
logs
lush
nail
newly
notes
open,
papers.
pay
pictured
pins
plant.
reddish
run.
series
ship.
soda
stove.
topless
transportation.
wagon.
were
writes
bamboo
barrel
barrel.
cap.
cooking.
cow.
department
doors.
dough
gesturing
hike
hurdle
lounge
mop
pilot
pitch
plaza
portable
radio
restaurant,
rice
sailing
sandwich
shops
snowshoes
tee
wheelie
##al
aprons
arts.
backpack,
barefooted
blurry
boots.
brother
calf
candy.
casting
doll
enter
farmers
fellow
flannel
goggles,
grinds
groceries
handbag
handle
hay.
heading
jumper
keep
marked
mini
motorcycles.
picks
plane.
podium.
presenting
products
punch
really
routine.
scaling
science
short-sleeve
spoon
strapped
stretch
travel
trumpet.
tuxedo
wares
##le
act
blocking
city,
dad
double
dune
dune.
emergency
fall.
flowing
formation
hotdog
hotel
loaded
milk
movie
much
owner
picture,
policemen
portrait
quarterback
sad
studying
such
surfs
surprised
suv
toddlers
underground
##on
blocks.
boxer
boy's
briefcase
butterfly
cane.
chopping
crafts
dive
edge.
french
gazing
grab
guards
haircut.
hug
includes
involving
land
letters
march
meeting.
muslim
places
poster.
pots
propped
scarf.
sledding
spotted
stopping
sweatshirt,
trees,
vending
wires
##l
ahead.
amid
autumn
boxes.
build
buried
can.
care
ceiling
coaster
colorfully
demonstration
directly
dj
ear.
fill
goggles.
goods.
handling
headdress
hotdogs
jersey.
last
leg.
loom.
mountainous
other's
pauses
perform.
pool,
rollerskates
rollerskating
scottish
slope
spots
taken.
trench
trim
##i
boarding
bread.
businessman
complete
costume,
dragging
finger.
ingredients
kicked
lighting
operates
opponent.
passed
perhaps
photographer.
position.
punching
race,
retriever
river,
scaffold
score
similarly
sort.
staff
stands.
stone.
suitcase
surfers
tree,
unfinished
upper
##&
avoid
banjo
branch.
browsing
bystanders
cage.
chalk
clearing
cloud
contraption
crowds
employee
entering
environment.
evening.
fingers.
foreground,
forehead
girls.
hall
identical
intense
lab.
material.
mechanical
missing
nun
overlooks
persons
poodle
puppies
sash
saxophone.
scouts
sleep
smoking.
squats
strip
surgical
tackled
tackling
terrier
than
walking,
wild
##er.
adjusts
asking
band,
beginning
boats.
bowls
bricks
bulldozer
chalkboard
else
festive
games
grabs
group.
gymnasium
gymnasium.
her,
laid
leggings
library
monkey
numbered
pen
pottery.
rapids.
seats
shadows
spot
stacked
tower.
advertisement.
barrier
beverage.
bikinis
built
caution
completing
creek
crown
expression
extended
fatigues
fedora
focused
games.
gloves.
golfer
heavily
heavyset
hillside.
length
lining
looked
main
medieval
opened
pan.
pattern
pigeons.
rally
recording
rod
shoreline
skateboarding.
sorting
sunlight
teams,
tents.
tribal
british
cans
cello
chat
debris
designs
feather
fixes
handed
hands,
inspects
late
map.
marble
named
pin
pointed
raft.
separate
shines
sprays
stair
stomach
talking,
target
visiting
waiter
2012
barrier.
beads
belt.
canvas
cat.
colors.
crashing
crates
crowd,
cycling
directions.
egg
european
factory.
forward.
garment
got
hardwood
horizon.
hunched
motorcyclists
nurse
overcast
peering
photographers
raincoat
shoe.
sink
skies
skiing.
snowsuit
splashed
sprayed
stirs
striking
sunlight.
tights
tired
trashcan.
unique
vest.
vintage
##ic
bartender
battle
bites
canadian
cape
checked
companion
could
crossed.
embrace
entertains
escalator
floats
garage.
grand
graphic
guys,
himself.
hotel.
icy
kayaker
load
men's
metal.
natural
outfits.
parachute
patio.
pen.
pillar
pins.
pirate
praying
prepared
pushed
say
seagulls
senior
shoots
signing
stall.
tail
thick
tosses
tractor.
unknown
usa
wash
wheels.
whole
yarn
ad
age
arcade
bag,
baggy
bend
bicycle,
blond-hair,
braids
canyon.
cards.
chainsaw
chef's
dark.
decorations
freshly
frying
fuzzy
gesture
green.
job.
jockeys
makeup.
mannequin
mounted
move.
nets
nighttime
off-camera.
puck.
sack
sheep.
smoke.
stairway
sweater.
tires
tool.
trucks
utility
worn
wrap
##rs
adults,
aiming
amount
awaiting
backdrop
beverages
bib
bicycling
block.
branches.
bricks.
bundled
camels
castle.
cheerleader
circle.
courtyard
downtown.
extremely
fans.
feathered
flaming
friend.
graduation
gray,
helicopter
helmets.
hung
laptops.
lecture
material
merchandise
milling
mountainside.
nicely
pathway
pet
raise
rug.
scenery.
seats.
sniffing
socializing
sofa.
spiderman
sport.
sprinkler.
stirring
suburban
surround
swimsuits
television
television.
texas
times
torn
tying
vehicles.
waitress
weird
aisle
bank.
because
blazer
bowler
bra
breakdancing
breaking
cellphones.
circuit
competitive
curly-haired
disc
dog's
dried
driven
driveway.
early
fashioned
flock
gallery.
gift
heels.
horn
leaf
loom
magazine.
nature
necklaces
olive
oranges
purple,
raised.
receiving
rug
shade.
snack
sparring
suits.
tape
torch
venue.
waterfall
wrestlers
##e.
acting
apart
applies
bathroom.
binoculars
bronco
butcher
cage
chairs,
chalkboard.
classic
dragon
fireworks
herself.
highway
hillside
horse,
injured
jackets,
jeep
john
kissing.
land.
laptops
lion
mime
murky
olympics.
puppet
rack
rails
renaissance
rocking
sideways
silhouetted
speeds
sweaters
sweatpants
tags
tank.
team,
university
vacuum
village.
woven
##."
accompanied
adults.
apples
around,
bags,
bird.
birds.
bundle
carnival.
cherry
company
conductor
crawling
cultural
descending
doctors
dresses.
dressing
eggs
except
eyeglasses
finished
focusing
indoors
jewish
lake,
lamp.
lasso
necklace.
neighborhood
nighttime.
notebook.
paying
pickup
pointing.
pole,
raking
runs.
sail
sailboat
sandals,
shoreline.
simultaneously
sound
strollers
tape.
things.
trunk.
valley
water's
wheeler
youths
##-style
##ting
ancient
antique
aqua
babies
blocked
boxers
bunny
bushes
camp
cheek
completely
designed
dozen
draws
dumpster.
family.
filming
find
finishing
flag,
foggy
goatee
greyhounds
hoops
hut.
involved
jenga
joy
kayaks
kids.
mixed
mouths
muscular
newspapers.
outdoors,
pairs
passersby
poking
potato
process
rescue
retrieving
rifle
rings
roof,
sailor
sandals.
serious
service
silk
south
spanish
stall
trashcan
travels
trolley
twirling
war
white-haired
wiping
years
yelling
asia.
braided
broom.
bus,
celebrate
celebration.
china.
clothed
collar.
collie
community
conference.
containers
couch,
coveralls
cruise
distant
dryer.
drying
earrings
even
exhibit.
extreme
families
fighting.
fist
flames
foot.
juggles
knitting
lady.
laptop,
machines.
menu
money.
monument
motion
note
official
party,
photographing
quiet
rink
riot
rooftop
scales
scratching
shape
sharp
shirted
sings.
soccer,
socks,
somewhat
stacks
storefront.
strike
tending
there's
ties
vacuuming
visor
warmly
wrapping
##c
##h
##p
activity
adult.
arranged
arrow
artificial
baked
bears
bin
booths
button-down
cab
cluttered
collection
commercial
curved
directing
exiting
flame
given
headset
highway.
huddled
kayak.
kick.
leader
least
microphones
mouth,
night,
obscured
older,
outfit,
oversized
pancake
personnel
pit.
posters
present.
scattered
scoop
scout
skin
soap
sparks
stones
studio
supplies.
surfing.
teddy
tee-shirt
terminal.
tournament.
towel.
transit
tuba
wades
wheelchair.
workers,
zone.
##-looking
##k
##man
adorned
americans
angel
angry
atm
baby,
billboard.
button-up
candle
cash
casino
collecting
crate
curve
darkened
deere
dilapidated
farmer's
grills
helmeted
helped
holding.
jersey,
jumpsuits
lands
level
lunch.
machines
match,
may
meet
mill
ocean,
parka
patiently
pinata
plain
presents
projector
record
red-hair,
redhead
scientist
sheets
sides.
sign,
slam
solo
stainless
state
those
threw
ticket
tub.
upside-down
visible.
waiting.
waterskiing
win
##in
##ing.
##m
alleyway
balanced
bay
belongings
belt,
benches.
body.
bounce
bungee
canoe.
cello.
clouds.
clowns
conducting
confetti
contains
couple,
crafts.
deer
discussion.
elevated
excitedly
exotic
explaining
feathers
films
forested
forms
graffiti-covered
handrail
hills
hills.
hut
images
inspect
keeps
khakis
leafy
lift.
liquid.
marker.
metallic
monks
muzzle
nature.
oncoming
one.
pacifier
peeking
period
picket
piggyback
piles
political
presses
punk
range
ropes.
saw.
shelves
smooth
soaking
social
soft
son,
song.
spatula
split
suite
synchronized
tall,
task
themselves.
tire.
tutu
victory
watering
##g
##r.
array
artwork.
asphalt
assembly
ballerinas
bar,
barren
boogie
carriage.
cartoon
cattle
cellphones
chalk.
darker
dental
doll.
done.
dots
drop
ducks
ears.
elder
event,
fell
fishermen
flower.
guitars.
harness.
historical
infant.
italian
kids,
laundromat.
mickey
monk
mound.
mowing
operate
oven.
painter
patient.
person's
pie
polka-dot
preparation
protection
purchase
reflecting
sat
scarves
screaming
sculpting
shops.
shower
sleeve
sooners
spins
statues.
steam
stunts
supermarket.
surgery.
sweatshirts
sweep
terrain
tightly
tree-lined
visitors
walked
##d.
addresses
advertisements.
apparently
attire,
await
axe
beat
binoculars.
bowling.
boys.
brush.
canoes
carts.
clutching
contents
contest.
divers
donkey.
dotted
downhill.
dropping
drums,
dump
earphones
enclosed
everyone
feeds
flea
foam
fruits.
fully
goat
guns.
halter
hides
houses.
huddle
hydrant.
inflated
interact
jog
lavender
location.
maintenance
married.
massive
measuring
monitor
morning
motorbike.
mug
muzzled
nearly
nurses
oven
pathway.
paws
pencil
plank
pressure
princess
purses
quad
scantily
sheet.
sidelines
singing,
siting
snack.
snacks
sneakers,
snowball
speeding
steering
stick,
stoop
supplies
throw.
trailer.
trip
trip.
tripod
unseen
wheelbarrow
who's
window,
wire.
##ies
##ted
10
acrobatic
adolescent
approach
arm,
attention.
blouse,
calf.
candles.
carved
case.
ceremony
checkout
cheering.
chopsticks.
citizens
coaster.
coats.
columns
costumes,
crops
cross-legged
delivering
dinosaur
dish.
dry.
dumpster
elementary
elmo
engage
features
flooded
flying.
golf.
guide
guy,
hammering
inline
instructor
jackets.
jewelry.
knife.
ladders
league
leopard
olympics
ordering
patient
pets
pillow.
racetrack
relay
ribbon.
ridden
sandwich.
somebody
somewhere.
sponsored
spoon.
spring
stump
superman
supported
tattoo.
texting
trimming
typing
viewed
warehouse
waring
whistle
wicker
workout
yarn.
##-colored
##-up
##ion
13
aboard
alleyway.
another,
backpacks.
besides
big,
bubble.
buckets.
cans.
champagne
clapping.
columns.
congregate
connected
controls
cooked
cows
crazy
curtain.
dangerous
dribbles
drill.
earth
fetch
flowers,
furniture.
grins
hairnet
helmets,
holiday
horizontal
knitting.
landed
laugh.
laughs.
liberty
licks
likely
lines.
mascot
miami
mix
notebook
organized
overhead.
peer
personal
possession
probably
product
rather
scenery
scooters
seeds
segway
shaded
shaves
shit
slicing
snowcapped
spiked
spin
squad
strikes
string.
strolls
subway,
tends
themed
trash.
unloading
valley.
vertical
##ts
alone.
appearing
artistic
auditorium.
beating
bedroom
beverages.
cameramen
captured
cashier
cement.
character
chews
chin
closing
clothesline
converses
cookie
crayons.
cross.
cycle
deli
demonstrates
easter
eleven
ensemble
equestrian
expressions
fleece
floppy
focus
foliage.
football,
grasping
holes
item.
jerseys.
karate.
korean
laden
lawn,
leashed
lie
lips.
monitors
monster
mountaintop.
my
off,
parasailing
picnic.
piled
pinata.
players.
protect
receive
receives
repairs
residential
rock,
rodeo,
shack
shave
shielding
shovels.
singers
somewhere
stockings
students.
suitcase.
sweat
sword.
telling
tent,
theater.
toddler.
took
tray.
tug-of-war.
wilderness.
winding
winds
writing.
##ling
##t.
ambulance
aquarium
baskets.
bathtub
bathtub.
beams
beard.
beers
best
bleachers.
boston
call.
cameras.
carried
characters
chased
cheerleading
closes
confused
constructing
countryside.
cover.
crates.
crawls
curious
depicting
dishes.
draw
everywhere.
farm.
fashion
favorite
fit
gaze
grin
grinning
hamburger
harnesses
hello
hood.
hoodie,
hospital.
houses
image.
jazz
jesus
knees.
laboratory
legged
lip
lips
market,
meadow
meadow.
merry-go-round
mower.
mule
newspapers
offering
oil
orange.
paintings
patrol
patrons
peach
pinned
poised
posed
pretend
profile
puffy
rod.
rounds
sand,
should
side,
something,
speaker
special
spike
stars
stores.
strolling
stuff
stunt.
substance
target.
teaches
text
tires.
toe
tricycle
turkey
unhappy
uphill
varying
vibrant
volkswagen
wakeboarder
watch,
wet,
wetsuits
wide.
yard,
##ed.
##ry
abandoned
apron.
assisting
awning
batman
battling
beyond
board,
boulder
bouncy
bright,
bush
carpeted
cart,
casts
clear.
contest
cop
court,
cups.
demonstration.
directs
distance,
drivers
east
engine.
entertain
fetching
fields
flour
flowery
foods.
goofy
greeting
groceries.
grown
handicapped
handrail.
height
hikes
hill,
hoops.
hundreds
kiss.
knives
lady,
leashes
line,
maybe
middle.
newlywed
offers
old-fashioned
our
over-sized
overturned
pass.
peaceful
photo,
random
razor
reclines
records
referee.
removing
retail
rush
sawing
scissors
self
served
sets.
shelf.
sipping
skateboarders
skaters
skating.
smock
snaps
soil
stained
statues
store,
sucking
sunbathing
sundress
swan
system.
tanned
terminal
tiles
tongue.
trio
tripod.
tv.
upward
vests,
watermelon
workshop.
yellow.
##us
(one
11
aid
aims
alcoholic
armed
auditorium
badminton
banjo.
banners
bear.
belts
border
bored
bounds
bridal
buddhist
buggy
bush.
call
campfire
captures
cars,
cartwheel
checkers
cheese
chicken.
cigar
cigarettes
coats,
concentrating
cracked
creates
deserted
donning
downward
driveway
dunk
equipment,
exit
exploring
farmer
flip.
foods
forming
gardening
gentleman,
harbor.
headscarves
highchair
hips
irish
jack
kitty
laughing,
littered
mainly
marker
megaphone.
mess
message
motorcycle,
music,
mustached
need
news
pig
plates.
proud
purse,
rapids
reception
register
rocker
rollerblader
sausages
says,
sidelines.
sisters
slender
slowly
soup
southeast
spotlight
squirting
strumming
stump.
styled
tank-top
temple.
theater
topped
tri-colored
trophy.
truck,
waving.
weight
wheelbarrow.
whiteboard
workmen
##an
##ter
action.
activities
advertisements
afternoon
amish
anvil.
arch.
away,
awning.
bale
barbecuing
bass.
bearing
better
bracelet
bride's
bringing
capri
capture
chain.
chaps
charcoal
cheeks
competes
concert,
convention
cord
cries
crystal
daytime
de
defensive
desks
disney
dock,
door,
dumps
engaging
english
exercising
exhibit
exhibition
fifth
food,
gliding
goers
grandmother
guitars,
halloween
handheld
handmade
harvesting
high.
incoming
keeping
kimono
kiosk.
laboratory.
lecture.
lipstick
major
mask,
mass
mechanic
mixer
moped.
mother,
napping
nude
onlooker
out,
outstretched.
padded
pads,
parachute.
participants
photos.
polish
posing.
prevent
pride
priest
products.
recently
revealing
rickshaw
rose
roses
running,
sacks
saddle
saris
scaffold.
seagull
seemingly
shoulders,
shower.
skills
slot
snowmobile
speedo
stand,
stay
storage
storm.
suits,
sunhat
sure
sweatshirt.
tea.
theme
they're
tip
transporting
umbrellas,
unicycle.
upset
venue
washer
waterway.
well-dressed
whistle.
wielding
wires.
##a.
##less
##ment
along.
amazing
america
apparel
apron,
archway.
asleep.
bananas
barefoot.
beauty
bed,
bedroom.
bigger
blond,
books,
bows
canned
cardigan
cheers
classical
cleaner
clerk
clock
clothesline.
concentrates
corn.
corner,
crane.
crash
dancing,
debris.
defender
determined
diaper
doing.
dolls
dribbling
dropped
dye
dyed
eating,
exits
expression.
extends
fluorescent
footprints
garb.
go-cart
grain
horizontally
hurdles
index
kinds
kneel
lanterns
led
magnifying
males,
messenger
midair,
monument.
mopping
mosaic
must
observed
orchestra.
overcoat
pans
participates
paw
pillars.
positioned
professionals
reclining
ribbons
roadway.
rubs
rusty
sari
scratches
seating
shadows.
shake
shouting
sister
skyline.
stairway.
step.
steps,
stocking
stools
stripes.
sumo
surgery
swinging.
tablecloth.
tackles
tarp.
then
tilted
toilet
trays
treks
tulips.
u.s.
upright
vests.
violins
warming
weapon
weaves
would
wrist
york.
zip
"i
"the
##-shaped
##ar
##en
##ging
##ist
##or
##th
afternoon.
aisle.
assembled
attendant
attired
audio
backhoe
backseat
bad
bagpipes.
bandanna.
barricade
bath.
beagle
begin
bikes,
bodysuit
bottle,
breathing
bridesmaids
businessmen
camper
canal
chains
chubby
cityscape
clarinet
coca-cola
competition,
convention.
conveyor
course,
create
crouch
cylinder
dangling
dark,
daytime.
desk,
dirt,
diverse
drenched
dresses,
eagerly
facility.
fills
finishes
fog
follows.
forehead.
formally
forward,
found
gay
gift.
gloved
hammock.
handlebars.
happy.
hilly
hip
hooked
incline
ironing
judges
kimonos
knock
ladder,
laundry.
leaned
lens
life.
lighting.
lounges
me
meet.
merchandise.
merry-go-round.
monopoly
motion.
mountainside
mp3
notes.
opponents
overall
pad
participant
passionately
path,
pedals
photographs.
pillars
plowing
pony
possible
presents.
pretends
professor
rack.
railings
reads,
retrieve
ridding
rises
rounding
rowboat
searching
semi
situated
snake
snowboards
soars
sold
squinting
stroller,
struggling
swords
technician
thumb
tips
tomato
tomatoes
toothbrush.
tricycles
tugging
upwards.
vegetation.
waterway
windbreaker
your
"free
##?
##b
##red
adjacent
adorable
alcohol
alligator.
am
arched
ascending
assortment
autumn.
baseman
bongo
bookstore
candle.
claus
clown.
company.
competitor
crab
cup,
decide
desktop
desperately
discuss
ducks.
emerging
establishment.
excitement
eye.
file
fireplace
firing
fourth
gallery
glides
glowing
graffitied
graying
grips
guests
guiding
hear
hips.
horn.
houston
instructor.
intensely
interior
intricate
kiddie
kitchenaid
knitted
lighter
listen.
mcdonald's
medals
menu.
mixes
mother.
mower
mug.
national
nightclub.
oddly
one,
overalls,
parallel
partner
passengers.
pastel
peeks
pizza.
platter
plush
pokemon
portion
purchasing
rally.
relaxing.
rifle.
rooster
round,
sailboats
satchel
search
sheer
shelf
shields
shirtless,
sight
snowboarding.
spandex
spongebob
st
stool.
straps
strewn
surgeons
swim.
swings.
taped
tarp
taxi.
trains
tricks.
trimmed
truck's
ultimate
vase
waits.
walks.
zebra
###
##ated
##ation
##ful
##land
##ve
##y.
a'
accepting
actors
adding
airborne.
arabic
arrangement
assembling
at.
attaching
attack
backward
baker
baking
bales
ballet.
banana
barking
basketball,
beaded
beads.
bin.
bottled
bowls.
bowtie
bucked
buffet
cable
cakes
carrier
celebration
changing
clears
climbed
coca
coke
column
complex.
constructed
convenience
crayons
daily
damaged
devices.
diner.
diners
directions,
disk
district.
docked
drink,
drummer,
enclosure.
entertainer
entrance.
famous
first.
flipped
floaties
fly.
giraffe
girlfriend
grassy,
hamburgers
home,
hopping
horse's
india.
instruments,
jug
juggler
jumps.
kite.
ladies,
latin
left,
leg,
legos.
leotards
limo
mallet.
maneuver
middle-age
moment.
mouths.
nap.
navigates
organ
pajamas.
pant
paperwork.
partly
patriotic
pedal
pedestrians.
piece.
pierced
pipes
practice.
progress
puppy.
racing.
rafting
rafts
rag
real
rimmed
rising
robe.
robot
rocks,
rugby.
rugs
selling.
skills.
skis.
slice
slung
sniffs
softball.
soldering
someones
speaker.
sponge
stadium,
stands,
starring
strap
struggle
strums
studies
submerged
suitcase,
sushi
swimwear
takeout
tanks
tasks
temple
temporary
toilets.
tossed
tote
tow
towed
track,
treat
tricycle.
trots
turtle.
twin
union
ups
vaulting
vocalist
watery
wigs
wind.
workman
workshop
write
"we
##'.
##able
##ch
##id
##led
##les
##nt
##ping
##u
##ure
accident.
act.
adjust
admires
amused
apartment.
approached
baby's
bagpipe
bandanna,
beer,
beers.
bell
blank
blown
bluish
boating
bookstore.
braiding
brand
breakfast
brownish
burgers
canal.
cats
celebrates
chicago
chips.
circus
color.
containers.
conversing.
crest
cross,
cubicle
customer.
decorating
delivery
descent,
destination.
downward.
drags
elbow
elephants
emerges
end.
ends
exercise.
eyed
eyes,
featured
feet,
ferry
filmed
flowering
flute.
goat.
growing
haired
hammock
handles
harp.
hauling
headfirst
heart.
hike.
hug.
husky
in,
india
jogger
joggers
keyboards
kid.
kind.
launch
loaf
lobby
locked
magazines.
markings
megaphone
meter
metropolitan
mic
mitt
monitor.
mother's
multicolor
nightclub
observes.
officer.
order.
outfits,
paperwork
pavilion
percussion
phones
photographed.
physical
pink.
pipes.
pitching
pokes
pop
popping
projected
pub.
pyramid
quite
reflected
reflector
remote
resting.
right,
ring,
robot.
roping
sails
salon.
same.
screen,
seafood
secured
sexy
shady
shoot.
shoulder,
shovel,
sips
skimpy
skyline
snacks.
snowboarders
softball,
son.
speaking.
spell
stones.
straw.
streaks
strips
structures
surgeon
taste
three-wheeled
tie.
tile.
torch.
toss
unidentified
united
vast
wait.
warehouse.
waterskier
winning
wipes
wrong
yet
younger,
youngsters
##ble
##f
##ie
##king
##men
##ous
##te
##w
accident
addressing
adorn
africans
angle
aquarium.
arch
aside
assist
automobile
awaits
bakery
barbie
baton
belly.
belongings.
bottom.
bring
buffet.
builds
buses
buttons
ca
campus
canoeing
canopy.
canvas.
caps.
caricature
central
ceremonial
chainsaw.
change
characters.
chats
chew
chickens
cinder
clay.
cleaner.
cobbled
cockpit
coconut
cola
competitors
concession
congregating
contestant
cooler
country,
coverings
crib.
cutoff
derby.
donkeys
driving.
dunking
dust.
embraces
experiment
experiment.
faded
fan.
fields.
fighter
floors.
flotation
folk
ford
fountains
fountains.
friendly
glove.
glow
gowns
guides
gymnastic
hearts
hedges
hoses
hugging.
husband
identically
instructing
ipod
itself
jackhammer
janitor
jar
jets
kiosk
knee-high
lamps
lettering.
lock
los
magic
masked
merchant
mid-jump
might
mirrored
moon
mop.
motorbikes
occupied
oklahoma
pain
paper,
partying
pause
peoples
peppers
pillar.
pillows
pitchers
plow
pocket
pockets
potential
protest.
protester
pulley
purple.
railroad.
railway
relaxed
rider,
rollerskating.
rubbing
rustic
sales
salmon
samples
scale
scissors.
score.
shells
shelter
skateboards.
skipping
smelling
smoothing
soda.
squat
squirted
stationary
stomach.
streamers
strings
stripes,
struggles
suv.
sweet
system
teacher.
tend
testing
thin,
tips.
tissue
tournament
toy,
tracksuit
turtle
turtleneck
tuxedos
uncut
views
villagers
vivid
wakeboarding
washington
wheelchairs
wool
workers.
##:
##et
##ge
##ia
##ian
##ine
##ps
##se
activity.
advertises
agility
already
arcade.
armor
axe.
backs,
backstroke
barn.
bases
batting
beans
billiards
bird's
blacksmith
blade
blindfolded
block,
bookbag
booths.
bridge,
brightly-colored
cabinet.
camel.
casino.
cause.
cave
cave.
cellular
checkers.
chess.
citizen
coaches
colorful,
curling
curtain
dances.
dark-colored
defending
defense.
descend
desks.
device,
dim
dreads
duffel
dunks
earmuffs
easel
easel.
faces,
father.
females,
figure.
film
fireplace.
fitness
focuses
folks
fork
fountain,
frisbee,
front,
gazebo
glass,
goats
guitarist,
guy.
hairy
handlebars
harbor
harmonica
headbands
historic
horse-drawn
individuals,
innertube
intently.
interested
interviewing
island
join
juggling.
juice.
kit
kites
kitten
labrador
landscape,
lanterns.
latex
lettering
level.
liquor
litter
look.
loose
lost
lovely
mane
materials
materials.
mattress
middle-eastern
mimes
mingle
mops
motorbikes.
moves.
muzzles
nails
obama
ollie
overlook
package
pages
parachuting
parent
patch.
peacock
peak
performed
pieces.
pitbull
planter
pots.
potted
powerpoint
product.
punches
rabbits
rag.
raining.
reception.
recipe
released
remove
rider.
ringing
roadside
roman
ruins
ruins.
rushing
scarves.
scooter,
screens
seen.
shots
simple
sing.
skirts.
slacks,
slanted
sleds
solitary
spending
spiral
splash.
st.
states
steep,
steer
strong
surveying
suspenders,
symbols
tablecloth
tagged
test
thomas
tide
toes
tourists.
trails
transport
treadmill
tribe
trophy
vehicle,
vendor,
violinist
volunteers
wallet
waterfront.
watermelon.
watermelons
welding.
wet.
worker,
xylophone.
yo-yo
"no
##-clad
##-filled
##at
##ce
##el
##ers.
##ish
##ive
##ks
##l.
##le.
##ly.
##out
##re
accordion,
arches
architecture.
arms,
ash
asia
assistance
attached.
attends
backlit
backs.
balance.
bangs
barely
barrels
base,
basin
beetle.
belts,
bicyclers
bit
blanket,
blocking.
boa
both.
bowing
braces
breakdancer
briefcase.
bronze
brunette,
bust
cab.
cafeteria.
calling
camouflaged
cannon
canopy
carve
catch.
china
chiseling
cigarette,
cleared
clearly
clinging
coast
comprised
cricket.
cubs
curled
cutout
dance,
decides
decorations.
descends
dolphin
donations
doorway,
dough.
eagle
elegant
elephant.
entertainment
europe.
fairy
fencing.
formed
frog
gain
goose
greenery.
group,
guarding
hamburgers.
handle.
harnessed
hate
headdress.
helicopter.
hidden
hide
high-fives
highchair.
highly
hippie
horns.
horses,
huddle.
include
innertube.
interacts
intersection,
iron.
kettle
kickboxing
kilts
load.
lobby.
location
magazines
masks.
mature
memorial
microscopes
mohawk.
morning.
mossy
mothers
mustache,
mustard
necks
net,
nets.
off-camera
overpass.
owners
packages
pail
peak.
phone,
picked
pile.
pitches
playing,
poodles
positions
postal
powder
prayer
projector.
pullover
pump
railings.
ran
raw
razor.
releasing
retrieves
reviewing
rickshaw.
rings.
ripped
rollerskates.
scoops
scooters.
scruffy
seasoning
selection
shaping
shed.
sight.
sits,
sky,
sleigh
snap
snowman
snowman.
snowy,
soaked
solders
spar
spreading
sprinklers.
stars.
stir
stoop.
stoplight
symbol
symphony
t-shirts,
tackle.
tattoos,
toothbrush
train,
trainer
travelers
trolley.
trotting
twelve
vegetation
wakeboard.
waling
walker
walmart
warrior
welds
xylophone
yo-yo.
##'s.
##ding
##est
##ion.
##n.
##ped
##st
14
active
adidas
afro
airline
alike
another's
any
assorted
attend
backflip
backpacker
backpackers
balloons,
banquet
baseball,
basement
baton.
bay.
bicycles,
blackboard
blond-hair.
blower
blur
boot
brothers
brownies.
calvin
caps,
carousel.
carpenter
cereal
chained
chilly
chin.
chisel
choppy
chops
classroom,
cleaned
clock.
cluster
concrete,
contemplating
controlled
copper
coral
craft.
crafting
crutches
custom
dancers,
devil
disc.
drops
eggs.
entry
establishment
expensive
fed
feed
fists
flight.
fog.
folders
force
forefront.
garbage.
glittery
go.
handful
headgear
headscarf,
herd
high-five
hook.
horns
hugged
hurdles.
incline.
jelly
jumping,
jungle.
kissed
klein
knee.
la
lap,
ledge,
letter
lid
limb
lonely
lowered
lunges
mail
mailbox
marks
matches
mats
memorial.
mingling
minivan
motioning
motions
musicians,
near.
needs
newsstand
not.
nothing
of,
off-white
opening.
ornately
package.
packing
paddle.
paintings.
parade,
passersby.
peaks
peeling
phones.
photography
pigeon
pillows.
place,
platform,
pocket.
popcorn
poses.
posters.
pressing
pro
proudly
quietly
rabbit
rafting.
refreshing
release
resembles
responding
returns
roasting
rollerblades.
rooftop.
safe
scary
schoolgirls
sculptures
selecting
semicircle
sewing.
shadow.
sharpening
she's
shin
shingles
shipping
shrubbery
skates.
sketch
snowball.
snowshoes,
snowstorm.
sorts
sparkling
sparkly
squirrel
stairs,
stance
start.
station,
stool,
storm
strawberries
strawberry
students,
sun,
surrounds
swimsuit.
t-ball
tattered
taxis
thinking
tiara,
toast
torches
trousers
trunks.
tug
undershirt
viewer
visit
wade
wakeboard
walkie
wander
wants
wares.
washed
welders
western
windy
woodland
woods,
woodworking
worked
wraps
zone
##-covered
##-striped
##-type
##1
##6
##ally
##as
##ball
##dy
##ent
##ity
##land.
##ll
##ment.
##tes
##tion
##up
12
activities.
admire
angeles
arena,
award
awkwardly
backed
bands
bathed
beaker
beater
bikini.
bins
blue-green
brazilian
breast
broad
brochure
bud
bug
bull,
bumpy
bundles
buys
by,
cafe,
california.
campfire.
carousel
celebrating.
center,
ceramic
cheese.
chipping
chips
choir.
civilian
claw
clear,
clustered
coconuts
colourful
comforting
commuters
commuting
complected
cookies.
cooler.
corridor.
counter,
cowgirl
creme
crop
crops.
croquet
crowns
cue
currently
cushion.
darts
dentist
designer
direct
director
ditch.
diving.
dressed,
droplets
elevator
elevator.
embedded
enclosure
era
escape
exchange
exercises
exterior
fabrics
fast.
fenced-in
fiddling
fighters
fires
float.
forest,
frowning
galloping
gifts
giraffe's
glancing
gown.
grill,
happening
here.
highlights
hipster
hoisting
hook
hurrying
important
injured.
installing
international
israeli
jamming
jeep.
jousting
judge
kayakers
launches
laundromat
layered
lead.
legos
lifeguard
list
logs.
machete.
mannequins
mardi
mariachi
mark
mascara
master
mcdonald's.
meditating
menus
mike
mirror,
misty
mixer.
monopoly.
mows
nearby,
object,
of.
onlooking
open-air
operation.
pabst
pajama
panel
parts
pastries.
peddles
penguin
performers.
ping-pong
plain.
play,
played.
pointy
poorly
pour
pregnant
professionally
prominently
pumpkin.
puzzle
racquet
racquet.
rakes
range,
rash
ref
rehearsing
removes
repairs.
return
reviews
ridge.
riverbank.
roadway
roses.
roughly
rubble.
rushes
sad.
sailboat.
sanitation
sauce
saucer
scared
schoolgirl
screams
sea,
seated,
sees
separated
shield
shined
shop,
sip
sits.
skydiving
sling
socializing.
spaghetti
sparkler
specific
specimen
sprinting
squeezing
steal
steaming
stewardess
strip.
styrofoam
surroundings.
surveys
sweets
swimsuit,
talent
tan,
teammate.
tell
thatched
thread.
tiara
toned
tops,
toys,
trailing
treat.
tutus
underground.
underneath.
veil
vendors.
victory.
viewer.
waist.
waking
walkers
walls,
walmart.
washers
waterfront
weaving.
weeds.
wheat
wide,
workbench.
wristband
yankees
year
##-dressed
##7
##ak
##ds
##es.
##gle
##ily
##is
##it
##med
##ning
##que
##ring
##ving
##x
abstract
acrobat
adobe
adult's
angel.
angels
apple.
arab
architectural
article
ascends
attraction.
backwards.
bagged
bakery.
ballroom
bamboo.
bananas.
barks
barred
bassist
beautifully
bee
bicycler
binder
blowtorch
book,
boom
bounces
bow.
breath
breed
bronco.
buck
buildings,
bun
cabinet
cable.
campers
campsite.
campus.
cape,
capris
cheer.
chevy
chief
choir,
chopped
civilians
clap
climb.
closest
combat
compact
constructions
countryside
cows.
crowding
cry.
curve.
daughter.
dealing
deliver
designs.
dessert
diligently
diner
disinterested
doberman
dominoes
donations.
drawing.
driver.
drummers
duck.
earphones.
earth.
electronics
embellished
embrace.
emptying
enters
enthusiastic
every
exciting
extending
faced
female.
fencers
fine
fireworks.
fixture.
flags,
fliers
florescent
footballer
for$
forklift
frames
frolic
gap
garments
gesture.
gestures.
gondola
gorilla
gras
grasps
growling
guarded
gum
hairstyle
hammers
handkerchief
handsome
handstand.
happy,
harmonica.
hawk
heated
hoisted
holder
horizon
horseback.
house,
hovering
hunting
iced
insect
intimate
isle
japan.
javelin.
jewelery
lacrosse.
language.
law
layer
leafless
leave
lemon
lens.
lets
letters.
lively
lobster
locking
loop
mailbox.
mailman
majority
manipulating
manual
marches
marching.
marina.
meter.
mic.
minnie
mud,
necklace,
ninja
noodles
oar
oblivious
off-road
orders
pad.
patrick's
patrolling
people's
pigs
playful
pockets.
pony.
portly
pretzels
prize
project,
purchases
purses.
pursued
putt
queen
ramps
reading,
recreational
rectangular
region.
removed
rest.
review
ridge
rocky,
route.
san
scarves,
scene,
scooping
sculptures.
searches
second,
seeds.
separating
sews
shed
shoeless
shore,
shortly
shrubs
shrubs.
skateboard,
ski.
skillet
slopes.
smile,
spatula.
spectacles
splits
sprints
squirt
stacking
starts
stock
stony
stood
stripe.
supporters
sweaty
swords.
tables,
tasting
technique
texts
thing
thought.
time,
trendy
tuning
twins
twisted
unison.
upwards
vacuum.
vertically
veteran
videotapes
volleyball,
wanting
wars
weighing
weights
welder
wheelchair,
wii
win.
wings.
wit
won
work,
wrestling.
zombie
zoo.
##0
##ate
##bed
##bing
##bs
##ches
##ies.
##il
##nce
##ne
##ng
##ot
##ow
##per
##ut
(with
3rd
63
about.
accents
africa
alcohol.
amateur
arid
arranging
artist's
assistant
assists
astride
aviation
backside
barn
barricades.
bat,
beats
beds
bespectacled
bill
blankets.
blow-up
blueish
boards.
boiling
bowl,
braid
bridesmaids.
brown.
bucket,
bulldog
bulldozer.
bulls
buses.
butter
cabin.
cafeteria
california
candid
cape.
catcher.
causing
cells
cemetery.
cheered
chested
christian
christmas.
chunk
circle,
circles
circuit.
clings
closed,
cob.
cold,
collide
column.
completes
complex
computer,
conditions
conga
conical
consists
contraption.
couple.
cracks
crisp
crocodile
crossed,
cuddling
cuffs
culture.
cure
cure.
cushion
dandelion.
dandelions
darkly
dart
daughters
defend
design.
desolate
details
dice
dine
dishwasher.
dollhouse.
dolls.
drainage
dramatic
drinks,
drumsticks
empty.
enforcement
enthusiastically
equipped
evergreen
excitement.
expanse
exposed
family,
firefighters,
fishes.
fishing,
flashlight
flip-flop
floatation
flow
fluid
foamy
fold
foliage
funky
fur.
further
futuristic
gated
geese
gender
goalie.
graduates
granite
grilling.
gripping
grounds
guitarists
gymnastics.
half.
halfway
happily.
hard.
health
heeled
high,
hoists
hooping
hoping
hound
hurry
hurt
huts.
interview
inverted
itself.
jerseys,
jogging.
jump,
know
ladders.
laps
leashes.
leaves,
lego
letting
lizard
looking,
losing
mane.
mats.
meats
members.
naps
newlyweds
observe.
onesie
operator
organizing
origin
overgrown
paintbrush
painted.
pajamas,
passes.
pastries
pastry
peddling
pepper
perches
performs.
picker
piercings
pinstriped
plants,
playground,
playhouse.
playpen.
plays.
pompoms
poncho
populated
portraits
presumably
proper
puddles
pug
purchase.
quick
rags
rails.
raincoats
rat
reclined
reflect
replacing
roadside.
romantic
rope,
roped
rounded
rubble
run-down
runners,
salad
salon
sample
sculptor
seashore.
season.
seat,
seeing
sell.
seniors
setting,
sheets.
shirt)
shirtless.
sidewalks
signaling
sippy
sizes
sketching
skips
slab
sledgehammer
sleepy
slips
slumped
snorkel
soapy
sowing
spider-man
spot.
spray.
spreads
sprinkled
square,
stages
stare.
started
sundown.
sunshine.
supporting
swaddled
swampy
swirling
tap
task.
teeing
telephone.
tennis,
thai
theatrical
tightrope.
tiles.
tin
trampoline,
trapeze
turned.
twenty
unbuttoned
upward.
vacation
vendor's
vine
violet
violin,
walk,
wand
warning
watermelons.
web
wheelie.
why
wide-eyed
windsurfer
works.
wrangling
yamaha
yawning
yong
"do
##-blue
##-lined
##-themed
##2
##3
##5
##age
##am
##de
##ial
##ke
##ky
##line
##ls
##m.
##ns
##o.
##ons
##ors
##rt
##ue
##um
##uring
##ver
##z
2008
25
acrobatics
album.
ally
answer
apparent
aprons.
articles
auto
automobile.
ax
ax.
backdropped
balconies
bald,
bandage
barriers
barriers.
bats
batter.
beautiful,
begging
blues
bored.
boulder.
bound
breaks
brimmed
brings
britain
brought
came
camo
campaign
canes
cannot
car's
carcass
carves
cathedral.
caught.
cause
cemented
charging
cheeks.
chemistry
chinese.
chip
chop
cigarettes.
cityscape.
clause
clean.
clips
close.
colored,
comic
common
communicating
congregation
contact
contemplates
continue
cook.
couches
courtyard,
crashes
crocheted
crocs
curtains.
decked
deeply
deli.
dessert.
dimly-lit
dirt-bike
dishwasher
dive.
dolphins
donut
dozens
dramatically
drifting
drilled
drummer.
drunk
dusted
eager
earring.
earrings,
environment
executing
exhausted
exhibition.
exit.
exposed.
eyeglasses,
fair-skinned
fanny
fashionable
ferris
fish,
fisherman's
fishnet
fitting
flamboyant
flip-flops.
focus.
foil
folded.
footbridge
fort
france.
freight
frolics
giants
gigantic
glacier.
gold,
government
graffited
gravel.
greenery
groom,
grouped
guests.
gymnasts
gypsy
gyro
hatch
hi
hockey,
hoe
hooping.
hops
hotdog.
hula-hooping
id
ikea
indians
indicating
indigenous
instructions
islamic
jars
jars.
joe's
joining
joking
keys
lanes.
language
lantern
latino
launching
learn
legs,
lemonade
license
lighting,
lion.
listens.
listing
locker
long-haired,
looms
lovers
loves
mac
maker
makeup,
members,
microscopes.
mom.
mountaineer
mountains,
mouse,
muscle
musicians.
nails.
napkin.
newsstand.
now
nursing
often
ones
oranges,
otherwise
over,
pageant
parachutes
passerby
pattern.
pausing
petals
playpen
pleasant
plugging
plywood
poker.
police.
polka-dotted
ponchos
ponies
ponytail,
popular
portrait.
posted
potatoes
potatoes.
pounces
powered
prehistoric
preschool
preteen
price
primitive
protected
providing
pumpkins.
quartet
questions
quilt
rain,
read.
ready.
reporter
returning
revolutionary
ribbons.
rice.
riders,
riders.
riding.
robes,
role
roller.
rowboat.
russian
rust-colored
sands
says'
scored
scrubbing
seal
see.
serene
sewer
sex
shades.
shallow,
shape.
shave.
shelter.
shoeshine
shotgun
shrubbery.
shuttered
side-by-side
signal
sites
skiiers
skirts,
slices
slight
snake.
snowbank.
sofa,
solution
sombrero
somersault
sparks.
speak.
spelling
spikes
spiky
spotlight.
sprawled
starbucks
stating
stays
steaks
sticker
sticks,
stores
straining
streaked
streaming
strides
strokes
study
suitcases
sunhats
sunlit
sunshine
supermarket
surfboarder
surprise
swans
sweats
tag,
tag.
tee.
test.
thinking.
tilting
times.
tinted
toasting
toboggan
tongs
tongs.
tongues
towels
towing
toyota
trade
trains.
traverse
trims
troupe
tuba.
tubas.
tubes
tucked
typical
unpacking
uphill.
us,
v-neck
varied
velvet
victorian
videotaping
violinists
vista
vw
walkway,
watches,
wavy
weights.
welcome
wine,
wizard
wok
worker.
working,
yawning.
yoga.
"teaching
##!"
##-brown
##-haired
##4
##ary
##c.
##ck
##ded
##ged
##ied
##ile
##ma
##nd
##ness
##pe
##ty
(wearing
30
able
accident,
aim
aluminum
always
amounts
ankle
anticipation
apples,
aprons,
arrows
art,
atm.
attendees
attentively
audience,
axes
backpacks,
baggage
ballgame.
banners.
barber's
barista
basement.
beachfront
beams.
blind
bloody
blurry.
boarder
bought
boulders
bowed
bracelets
brazil
breakdances
brick.
bride.
browse
busily
butt
buttoned
buy.
cables
caged
cake,
camera's
cancer.
canister
canon
challenge
chat.
chevrolet
chimney.
clasps
cleats
climber,
clipboard.
closely.
cloths
coach.
cold.
collars
colored.
comfort
compete.
composed
concerned
cookies
cooling
counting
crack
craftsman
crashed
cries.
cycles
daredevil
daylight
decorate
deflated
demonstrate
descent.
die
docking
dollar
dominated
donuts
dorm
double-decker
drawer
drive.
driver's
drumming
due
dumping
easy
eats.
edited
embroidered
entire
erected
ethnicities
explores
extravagant
eyeshadow
fabrics.
falcon
fatigue
fiddles
filtering
flashing
floors
flung
fort.
fuchsia
gates
gently
gi
glances
glider
goofing
goth
grandma
greek
greenhouse
greet
hailing
hairnet,
handles.
handstands
hanging.
headdresses
headscarf.
healthy
heels,
herding
higher
holing
hopes
hopscotch
housing
huddles
hula-hoops
improvised
infants
instructs
interviews
ipod.
island.
italy.
javelin
joke
journey
kart
keg
keyboard,
lady's
las
leash,
let
levels
light,
lighthouse
limbs
logos
lot,
louisiana
machete
magenta
maneuvering
maneuvers
manhole.
manor
marking
mascara.
mauve
meals
medium-sized
men-
misses
mist
mortar
napkin
narrow,
navigate
neatly
necklaces.
nerf
nervous
newspaper,
noses
nozzle
obstacles.
occupied.
offer
office,
one's
opponents.
ornamental
oscar
others,
outcropping
outer
outskirts
overflowing
paint,
panda
park-like
parked.
parrot
parts.
passing.
paul
peers.
pensive
pharmacy
pictures,
pillow,
pinkie
plan
plank.
planks
plaque
plate,
playfully.
plum-colored
pooh
porch,
position,
poverty
processing
progress.
projection
propane
puddle,
pyramid.
raft,
rafters
rail,
rake
reads.
rearing
received
reenactment
referees
refrigerator
reindeer
remains
repairman
repelling
replaced
requires
resembling
resort
ribs
rickety
riverbank
roadwork
robes.
rodgers
rollerskate
rollerskaters
rug,
rugs.
saluting
sausage
save
saxophones
saying,
scared.
scientists
scores
screens.
seaside
seattle
sedan
seesaw
sequined
setter
shapes
shares
shish
shot,
shouts
showing.
signals
size
skate.
skin.
sleeping,
sliced
slip
smoking,
smoky
sneakers.
snorkeling
soaring
soil.
solar
solid
solider
speckled
spider
spiking
spotlight,
sprinkles
stance.
states,
staying
storefronts.
streams
suited
sunbathers
sunlight,
surfboards
table;
taller
tasty
teach
tech
teenagers,
tells
tethered
thatch
thinner
thread
thumb.
tickets
tights,
tights.
tilling
tomatoes.
torso
tram
trap
traversing
trips
troops
trouble
trousers,
tunic
turban,
tussle
twirls
uk
unhappy.
unicycles
vacuums
van,
vegas
versus
visor,
wakeboards
wandering
washington.
wave,
weeds
well-lit
wells
wheeling
wineglass
winner
winnie
wore
world.
wrangle
writing,
##",
##-down
##-lit
##ack
##ball.
##be
##cks
##day
##des
##er,
##h.
##ise
##ities
##ized
##k.
##me
##ming
##one
##os
##res
##sed
##woman
##work
20
access
accompanies
adjoining
adolescents
airways
aisles
america.
ankle-deep
apparatus
applied
approaches.
approximately
asks
assisted
attach
author
awards
badge
bagel
banjo,
banks
barbed
bare-chested
barricade.
bases.
bats.
begin.
belts.
bikini,
blonde
blue-eyed
blue-tinted
bmw
boats,
bookshelf.
bordering
bottoms,
bounding
box,
boxing.
breakfast.
brick-paved
bride,
bridesmaid
brilliant
briskly
brown-skinned
browses
building's
bungalow
burrito.
burying
butchered
cabs
camels.
cameraman.
campsite
caravan
careful
case,
celebratory
championship
change.
charges
chatting.
cheeseburger
chickens.
chilling
clarinet.
clarinets
class,
cloths,
coals
collect
comfortable
connects
controlling
converse.
corrugated
county
crossing.
crosswalk,
crotch
cut-out
dandelions.
daughter's
deciding
defended
dentist.
desert,
dipping
disheveled
do,
doll,
drawings
drayton
dressy
dries
driving,
drum,
dug
dumpster,
dunes.
duty
dwarfed
earring
eatery
eiffel
electrician
europe
everybody
examined
explains
exposes
expresses
eyebrow
eyebrows
falling.
father,
fathers
faucet.
fender
fights
filing
finds
fingernails
fire,
fixture
florida
footbridge.
forefront
forge
foundation.
four-wheeler
freeway
frightened
fry
funny.
gambling
garden,
gather.
gentle
geometric
gingerbread
glaring
glue
gold.
golfers
golfing
grandson
gray.
grimacing
grouch
guitarists,
gym,
handle,
handwritten
harp
haul
healthcare
heavier
herbs
hes
hijab
hiking.
hip.
hoodies
hosted
hydrant
idea
ignoring
inclined
indoors,
instead
is.
isle.
jagged
japan
joyous
kazoo
keeper
kept
knight
knocked
kurt
lack
ladies.
lathered
latte.
latter
lemons
lesson.
lettuce
lewis,
lightly
lingerie
listening.
loads
locomotive.
loom,
lottery
loud
loudspeaker
lounge.
lumber
made.
mallet
manner.
marathon,
markers.
marriage
martini
melting
microphones,
mid-flight
mike,
mist.
mittens
models
moms
monitors.
mormon
mount
movement
museums.
navigating
nfl
nintendo
observation
one-piece
ongoing
onion
onward
operated
operation
outdoor,
overpass
owner.
oxen
oxford
oxygen
pack.
pain.
painters
palestinian
paneled
panels.
parents.
pasture.
peace".
pencil.
performer,
petals.
physically
pipe,
pirates
planks.
player#
polish.
pops
posts
poured
powdered
prairie
praying.
prepared.
prepping
present,
prices.
programmes
prominent
promoting
protecting
puma
pumpkins
pumps
rabbits.
racket,
railing,
rainbow.
ramp,
rapid
readies
recent
reeds.
reflection.
reflections
refreshment
refrigerator,
representative
responders
ride,
rim
risers.
ritual
ritual.
robed
rollerblades,
row.
royal
salvation
sbarro
scarfs,
scientific
scope
seaweed.
secluded
secures
seeming
seesaw.
serve.
shading
sidewalk-
signal.
sit.
skeleton
skill
skilled
skillet.
skyscrapers
sleigh.
slide,
smocks
snapping
snowbank
snowsuit,
sold.
sons
soup.
spaniel
sparklers.
spear.
speedboat
steers
stooping
stoops
stop,
storefronts
stormy
straddling
strapless
streetlight
streets,
stretching.
strings.
studded
super
support.
supports
surfboard,
suspension
sweatshirts,
sweatsuit
swing,
tackled.
tangled
tap.
taught
teachers
team's
technology.
teeter
terrace
terriers
tether
textile
there.
thought
tiara.
tickets.
tiger.
tightrope
toddler's
toilet.
topic
tops.
tractor,
trained
transparent
traveler
treadmill.
treats
treetops.
trekking
triangular
trophies.
trough
tumbling
tunnel,
tux
twirl
two-wheeled
typewriter
underpants
underwear.
unicef
unison
unload
unwrapping
up"
upcoming
upset.
upturned
vacant
verizon
veterans
vines
voice
watercraft
weed
went
wetsuit,
wheel,
whispering
whist
whitewater
wilderness
windowsill.
windsurfing
wineglass.
wineglasses.
wintry
wonder
wonderful
wonders
worship.
youngster
zoo
"rock
"stop
"thumbs
##-rimmed
##a"
##ace
##al.
##ant
##ating
##ator
##b.
##board
##cent
##ct
##ction
##cy
##den
##een
##ering
##gles
##gy
##icing
##ide
##ier
##ined
##ious
##ists
##ize
##ka
##ner
##od
##om
##or.
##rd
##ro
##s"
##sion
##ton
##ze
(in
50%
aaron
accessories.
actively
acts
address
advance
again
alley,
alleyway,
amber
angels.
apparatus.
applauding
architecture
arrange
arrive.
arts,
assemble
athletes,
attended
attentive
atv's
atv.
avenue
award.
bagpipe.
banging
barbecues
based
bath,
bathrobe
bazaar.
beak.
become
becomes
beijing
belted
bibs
billboards
blond-headed
blower.
bluff
boaters
bolt
booth,
bordered
brave
bricked
briefs
brooms
bucks
bumper
bunk
burger
bushy
bustling
butcher's
butterfly.
buzz
bystander
bystanders.
cabin
calmly
camp.
cancer
canyon
capes
captain
capturing
cardboard.
carrier.
carton
catcher's
champagne.
chili
china,
choreographed
claps.
classmates
clearing.
cliff,
climbs.
co-ed
coal
collected
columned
combing
comical
community.
companions
conductor.
congregated
considers
consult
contemporary
contortionist
countertop.
cradles
crayon.
creepy
cyclists,
dachshund
dad's
dame
darth
darts.
days
deaths
deck,
delivers
demolished
dense
devices
diet
distorted
divided
documents
dojo.
dome
dreadlocks.
drunken
dryer
dunes
dunk.
dusk
earbuds.
effort
elders
emblazoned
emblem
emergency.
energy
entertained
entertainers
everything
exchanging
executive
exposing
fairly
farming
feather.
feature.
fedex
feels
flaps
flash
flexing
flip-flops,
folder
foosball.
forth
fortune
frame,
france
frantically
fries
fringe
frosting.
gallery,
george
gifts.
giggling
globe
gnawing
gone
gorgeous
government.
graduate
graveled
grayish
greenish
grilled
grimaces
guest
guided
gum.
guns,
hand-in-hand
harlequin
harvest.
heat
held.
help.
henna
hero
hikers,
hit.
holy
homes.
hour.
household
hula-hoop
ice,
igloo.
illuminating
in-ground
incense.
infant,
informal
information.
inner
inside,
inspired
instruction
instructions.
instruments;
interviewed
investigating
jetty
jim
joined
jumps,
kayak,
kayaking.
kelp
key
kicker
kissing,
kneeling.
knife,
labor
laborers
layers
leader.
leafs
learns
lei
leis
light-colored
lights,
limb.
loaves
lockers.
loitering
lollipop
loving
macbook
machinery,
maintains
maneuver.
marine
markings.
marsh.
marshal
matador
measures
meats.
member.
mercedes
mermaid
mesh
metal,
michigan
midriff
milk.
mills
missed
mixture
mma
mock
mountaintop
mugs
mustache.
nearing
neck,
necked
nuts
nyc
obese
obscuring
observers
observing.
occupy
officers.
ohio
oranges.
organize
overseeing
packages.
paintball
paintbrush.
paisley
panting
papers,
passerby.
paving
peanut
pebbles
pedaling
pelican
pep
perfect
photograph,
photographers.
piano,
pier,
pig.
pigeon.
pinata,
ping-pong.
pitched
pitcher's
pitchfork
pizzeria
placid
plugs
pointer
points.
polar
pop.
popsicle
popsicle.
portfolio.
prayer.
precariously
presence
press
pressed
procedure.
procession
props.
punch.
puppies.
puzzled
quilted
racks
rains.
rainstorm.
rappelling
rapper
ravine
rays
reacting
receiver
recreation
reef.
reflects
remodeling
rental
repair.
restaurant's
restaurants
restroom.
rickshaws
ripples
rise
robe,
rocket
ron
routines.
rowers
rummaging
rusted
samsung
sanding
sashes
saws
saxaphone.
school,
scoring
scrabble
scrambling
screaming.
semi-circle
service.
session
shades,
shadowy
shaving.
shocked
shoppers.
shores
shrine
signs,
silhouettes
silky
sinks
sit,
skewers
skiing,
skydivers
slalom
sleek
sleeps.
slid
slopes
slow
smart
smartphone.
smokey
someone,
sparklers
spectators,
sponge.
spool
sports.
spread.
sprinklers
squirts
stairwell.
states.
stem
stilts.
stoplight.
stories
strand
streetlights.
stricken
stripe,
studio,
stuff.
stunning
stunt,
stunts.
stylish
substance.
sucker
superhero
swallowing
swims.
swung
tablet
tail.
tambourine
tango
tape,
tasks.
tattooing
tattoos.
teams.
tents,
text.
texting.
theme.
think
through.
tie-dyed
toast.
trainer.
transit.
trapped
triangle
tricycle,
trombone.
tunic,
turbans
turf
twister.
twisting
tye-dyed
uncle
undergoing
uneven
unit
unpaved
unwraps
ups.
upscale
vans
vat
vaulting.
vietnamese
viewfinder
vinyl
waders
walker.
wand.
waterskiing.
waves,
weathered
weld
while,
whisk
white-bearded
wide-brimmed
widely
wields
wigs.
wild.
wineglasses
wipe
with.
wood,
worried
wrecked
wrists
ymca
##-out
##-print
##8
##ad
##ade
##aging
##ary.
##ation.
##ber
##cer
##ching
##cker
##cting
##gs
##hing
##ical
##ig
##ight
##ine.
##ire
##kers
##la
##ld
##ley
##lish
##ma.
##ny
##op.
##ore
##ows
##pled
##r,
##ra
##rian
##rry
##ry.
##s."
##sing
##ta
##tte
##ute
##ve.
(and
(or
added
adjustments
aftermath
aids
aircraft
airport,
amazed
amazement
america's
angle.
animal,
ans
answers
arching
arrival
artist.
artists.
ascend
ask
atlanta
attacked
attacking
automobiles.
available
avoiding
awe.
awesome
awnings
backseat.
badges
bakery,
bale.
balloon,
banana.
banks.
beach's
beachgoers
bead
beanbag
beans.
bearer
beat.
beautiful.
beret,
billowing
bingo
black-and-white
blacked
blazer,
blindfold
blossoming
blurred.
bmxer
bodies
bolts
bone
boss
boulders.
bouquet.
bows.
brace
braves
break,
breath.
bridges
brief
broom,
brunette-haired
bump
buns
businesses
busy,
camels,
cannon.
card.
carpentry
cases
casserole
casually-dressed
cathedral
catholic
chains.
challenge.
challenging
chasers
cheerleaders.
chest,
chihuahua
chip.
chisels
claps
cleaning.
climbing,
cloth,
clubs
clutch
coast.
cobble
cocktail
coke.
cold-weather
college-aged
colonial
comforts
communications
competitively
computers,
contain
controllers
convertible
copies
cops
cords
cot
cots
coworkers
cracking
crayon
created
creature
crowded,
crushed
culture
curvy
dad.
daring
daytime,
decided
decorates
decoration
defenders
defense
delicious
demolishing
demonstrators
depot
diamond
diamond.
did
digging.
dips
directed
disabled
disaster.
disposable
distracted
dodgers
dominoes.
donuts.
downwards
dozes
dragged
drinking,
ducking
duct
dustpan.
earbuds
eaten
eatery.
edges
elaborately
elbow,
electronics.
embankment.
emerge
ended
engraving
excited.
explore
expression,
extended.
extra
eyelashes.
fare
farmland.
fashion.
festival,
fetch.
fetches
fierce
figurines
fins
fireman's
fitted
flatbed
fliers.
floaties.
flyer
footballers
forces
forearm
forms.
forrest.
frisbees
fruits,
fun,
function
function.
fur,
gap.
gate,
gesticulates
geyser.
ggauged
gig.
gladiator
globe.
glossy
go-cart.
go-kart
golfing.
gotten
gourmet
grasses
grating
graveyard
grind
grinder
grip
groomed
halloween.
handbag.
handlebar
harvested
hazard
headband.
headlights
headphones,
heating
helium
heritage
hi-viz
hollywood
homework.
hoods
hooking
hopscotch.
horseback,
hotdogs.
hours
hue
illinois
immigration.
indicates
item,
ivory
jacketed
jenga.
jobs
joy.
joyfully
jugs.
junk
karate,
khakis,
knits
kwon
landing.
landscaped
landscaping
lanes
lattice
ledges
librarian
lighthouse.
linen
lipstick.
liquids
livestock
logo.
long-sleeve,
longer
lush,
lynyrd
mad
magazine,
magazines,
makers
manager
manicured
mansion
masquerade
mate
mcdonalds
mcdonalds.
meal,
mean
measure
medal
meets
men;
menorah
mesh.
messing
minimal
minnesota
mirrors.
mitt.
mohawk,
mongolian
mounting
movements
mown
mr.
multi
mushroom
muzzle.
naval
neckties,
need.
needed
neighborhood,
netted
netting.
nibbling
normal
north
northern
notebooks.
notre
numbers.
nuns
ny
nypd
oboe
occasion
once.
oppose
ornament
ornament.
overcoat,
pacifier.
packers
padding
paddles.
pads.
pails.
paintball.
painting,
paired
pamphlets
pan,
panel.
parading
parasail
parasails
parlor.
part.
particular
passenger.
patches
patrons.
paused
pavement,
peek
performer.
perusing
pews.
picturesque
pillars,
pineapple
pistol
pit,
places.
plaster
plastic,
pocket,
point,
point.
poker
polished
polishing
pond,
posing,
post-it
potter's
powdery
practice,
practicing.
prays
predominantly
presented
prince
prints
prop
prosthetic
protection.
protector
protesters.
protesting.
provides
provocative
pruning
pumping
purses,
pursing
quad,
quarter
quarterback,
quickly.
rake.
ravine.
recorder.
red-hair.
refreshments
refreshments.
refrigerated
related
releases
response
restrained
restroom
reunion.
rifles.
rig
right-hand
rim.
ringed
roadwork.
rode
rollerblading.
roofed
ruler
runway.
sack.
saddled
safe.
sailors
salt
samurai
santa.
sauna
sausages.
scrap
scrubs.
seaweed
shampoo
shell
shelter,
shepherds
shift
shown,
shut
sideline
sideline.
sideways.
sifting
signage
singer,
skydiving.
skynyrd
skyscraper.
slabs
slim
sling.
sloping
smeared
smoked
snare
snarling
snoopy
socialize
sock
socks.
speakers
spectator
speed.
spend
spilling
spills
splitting
spotting
sprawling
sprint
squatted
staff.
stalls
staring.
stationed
steadying
street;
stucco
stuffing
sucks
suds
summer.
sunflowers.
sunrise.
surf,
surprise.
sweeping.
swimsuits.
symbols.
synthesizer
tae
tambourine.
tandem
tanks.
tar
tattoo,
technique.
teeth,
tests
thailand.
thinks
thousands
threatening
throat.
ticket.
tinkering
toppings
towels.
tradition
treads
treated
trials
tripod,
tubes.
tucks
tugs
tunes
twilight.
uniquely
unusually
us.
vader
video.
videotaped
vie
violins,
vying
wagon,
waiters
wake
want
warped
wash.
waterside.
waterski
way,
ways
wear,
wearing.
weathered,
what's
wheat.
whisper
whiteboard.
wile
windmill
windows,
wool.
woolen
workbench
wrestlers,
wrestles
wristbands
yankee
yells
zip-up
zooms
"i'm
"maritime
"money
##$
##-drawn
##-sized
##-skinned
##-way
##0's
##0s
##`
##act
##ams
##aring
##ates
##book
##box
##by
##cing
##cious
##ck.
##cking
##ed,
##end
##er's
##front
##ft
##ger.
##her
##house.
##hy
##i.
##ice
##ike
##in.
##ino
##ins
##ished
##iting
##ition
##line.
##ling.
##ments
##ms
##na
##nce.
##nded
##nds
##ned
##o"
##ol
##ong
##op
##ored
##oring
##out.
##rank
##rating
##re.
##ress
##se.
##ses
##sh
##ter.
##the
##ti
##time
##tle
##top
##ual
##uit
##ulating
##va
##water
##wear
##y's
(asian)
(including
16
18th
25.
3.
35
3d
53
about,
above,
abseiling
accepts
acrobatically
acrobats
actor
actually
add
additional
adds
adopted
adoring
aerosol
ages,
aggressively
aligned
alligator
allows
also.
amp.
anchor
animatedly
apart.
apples.
aquatic
archer
ashore
asia,
asphalt.
assembles
astronaut
athletic,
au
australian
backup
bagging
bake
banners,
barbecue,
bareback
bark
barrels.
basketballs.
batons
batsman
beam,
beards
beetle
behind,
belays
bemused
bend.
bernard
bib,
big.
biker,
billboards.
blades
blinds
blood.
blossoms.
blue&
blue-painted
boarding.
boiled
bonfire
bonfire.
boogieboard
bot
bowling,
bowties
breads
breasts.
broadly
broadway
broken.
brooms.
bubbling
bulky
bum
burn
buses,
busy.
butchering
butterflies
cables.
camouflage.
canada
candy,
canoe,
captain's
caramel
care.
cargo.
carnival,
carpets
carrying.
cartwheel.
cases.
caterpillar
cattle.
cauldron
chase.
check-out
cheerfully
chemical
cher.
cherry-picker
chin-length
chinatown
choosing
chopsticks
chopsticks,
chorus
church,
cigar.
circles.
cities
clams.
clap.
cliffs.
clipboard
cloak
clue
coastal
cob
coffee,
collects
colliding
color,
colors,
comcast
comforted
communicate
completed.
concentrate
concentric
conductor,
confederate
confer
consults
contained
convertible.
conveyor.
cookie.
cool,
cords.
corgi
corporate
corral
corridor
corsage
covering.
cow,
crab.
crabs
crackers
cradling
cramped
crate.
crawl
cream,
crime
cropped
crosses.
cubicle.
culinary
cupcake
cupcake.
cupcakes
curves
cutting.
cylinders.
dalmatians
dam
dandelion
dashboard
dawn.
daylight.
decals
deeper
defend.
defenders.
defends
demanding".
despite
desserts
detail
detector.
dhl
difficult
dinosaur.
dip
diplomas.
display,
distract
district
ditch
dolly
domed
doorstep
doritos
dots,
downwards.
drain
drifts
drills
dummy.
eccentric
eerie
eggs,
election.
else.
embracing.
embroidery.
employee.
encircling
entryway
escalators.
escaping
especially
espresso
excavation.
exercises.
exercising.
existing
explorer
express"
expressing
exterior.
facade
face-paint
facility
fails
fair,
familiar
fanning
fargo
fashionably
father's
feast
field;
fighting,
figure,
figures.
figurine
final
firetrucks
five,
flapping
flashlight.
flippers.
floats.
flood
flour.
folder.
folds
fore
forklift.
framing
friend's
frilly
fro
gains
games,
gang
gardener
gardening.
garter
gas.
gateway
gathered,
gathered.
gathering,
gaze.
geese.
general
germany
gig
giggles
glacier
glider.
goal,
goats.
goggled
gown,
graham
grains
granddaughter
grandfather
greens
gritty
grows
gutting
hairs
handbags
handbags,
handgun.
handled
handler
handlers
handrails
happiness
harvest
headbutting
headgear,
headlamp
heads,
headscarves.
hearing
hebrew.
here,
hero.
hers.
home's
hood,
hoop,
horned
humorous
hungry
hunting.
huts
igloo
impromptu
improvement
incredible
informally
ingredients.
injury
ink
install
intense.
interior.
internet
invites
involves
iowa
irons
items,
jar.
jaw
jewelry,
jobs.
john's
karaoke
kickboxer
kickboxing,
kickboxing.
kicks.
killing
kilt,
king
kit.
knapsack
kneading
knives.
laboratory,
lace
lantern.
late.
laughs,
lava
leaders
leggings,
leisurely
lemons.
less
levi's
limo.
lincoln
lite
loader.
locals
locks
lollipop.
london.
lumber.
lunches.
lunging
machine,
madly
maker.
mall,
mama
mambo
mannequin.
maple
marina
marketplace,
married,
marsh
mascot.
matt
me".
mega
mets
mexico
michael
microscope,
mirrors
modeling
mom's
monarch
monitoring
monkey.
moss-covered
motorboat.
mottled
mountain,
mounts
movie.
mulch
multi-color
multicultural
muscles.
museum,
necklaces,
necktie
nest
netting
news.
noodle
noodles.
noses.
novelty
nuts,
nylon
oars
oblong
obscure
obstacle,
occurring
octopus
ollies
one-man
onions.
organic
ornate,
orthodox
outfielder
outing
outstretched,
overhang
overlook.
overstuffed
owl
packs
paddy.
pagoda.
pallets
parachutes.
paragliding
paramedic
paramedics
paraplegic
parasailer
partition
partner.
passionate
patron
peacefully.
pearl
peddle
pedestrians,
performance,
perspective
pew.
photographer,
picker.
piercings,
pin.
pineapples
pink-haired
pitcher,
plenty
plow,
pogo
pompoms.
ponders
ponytail.
port.
possess
possessions
posting
posts.
pouch
pounding
powerful
preserve
preservers
prey
problem.
problems.
procession.
projects
protects
psychic
puppet.
puppets
quaint
question.
questions.
radio.
railway.
ramps.
readying
receding
recital.
recorder
recumbent
red-and-white
referees.
region
regional
rehearse
relative
renovating
representing
research.
resemble
resort.
respective
retaining
retrievers
rides.
rifles
rival
rivals
roaming
rollerblade
rolls.
romp
roofs,
rooster.
root
rover
rubbish
rules
safely
said
salesman
sam
santa's
sari's
sauna.
saving
saxophones.
scowling
sealed
seats,
secure
securely
series.
seriously
seriously.
served.
server
sew
shack.
shadowed
shark
sharpie
shears
sheepdog
sheet,
shepherd.
shield.
shined.
shiner
shouting.
showcasing
showering
shredded
shrine.
signage.
silver,
sink,
sinking
sister.
situation.
sizes.
ski's
skinning
slats.
sled,
slinging
slipper.
smokes.
snowing.
snowmobiles.
snowshoes.
snuggling
soap.
soldier.
soldiers,
sole
songs.
sorts,
sox
sparse
speakers.
specialized
spill
spindle
spool.
spoon,
spotters
spread,
squares
squares.
squeeze
stains
stair.
stairwell
starfish
statute
statute.
steadies
stethoscope
stocky
stored
stout
stove,
straitjacket
strangely
strawberry.
streetlights
stride
striped,
stroking
stroll.
sub
summit
sunbathes
sunhat,
supervises.
surfboards.
surfs.
suspends
swan.
swiss
sword,
t-shirts.
tags,
tailgate
talent.
talkie
targets
tastes
tavern.
teammates.
tearing
telescopes
telescopes.
textile.
theater,
thing.
third-world
thirty
thrill
tightly.
toes.
tooth
totem
totter.
touchdown
tour.
tourists,
towers
trail,
traveling.
traverses
treading
tricky
tried
trim.
trinkets
trucks.
tub,
tubing
tulips
tummy
tune
turban.
turkeys
tutu.
twenties
twister
two-toned
typewriter.
uk.
ukulele
undershirt,
unfolding
unicef.
unshaven
upward,
vacation.
varieties
vaulter
vehicles,
verdant
version
vessel
vial
view,
vineyard.
waffle
waist-deep
waistband
wake.
walkers.
walkie-talkie.
walled
warm.
warmers
waste
ways.
website
wedded
wedged
well-kept
wig.
wildflowers.
wired
wiring.
wisconsin
wood-paneled
worker's
workout.
wrinkled
wwii
yelling.
yorkie
zip-line
"canada"
"groom"
"just
"know
"oh
"save
"since
"tell
"texas
"welcome
"you
##).
##,"
##-age
##-headed
##-in
##-laden
##-man
##-orange
##-painted
##-patterned
##-piece
##11
##ac
##ain
##ard
##ase
##bag
##boarder
##ces
##ch.
##cked
##da
##der
##ee
##ened
##ered
##ets
##ey
##f.
##ff
##field
##gling
##house
##ht
##il.
##ils
##ind
##io
##ipping
##ism.
##ison
##ition.
##ity.
##ium
##ively
##keeper
##ken
##land,
##load
##lor
##ness.
##nts
##ound
##our
##p.
##per.
##piece
##ple
##port
##post
##ream
##ree
##rey
##ries
##rolling
##rows
##rs.
##ss
##tan
##te.
##tic
##ties
##time.
##tor
##ude
##ul
##use
##used
##vation
##ves
##y,
##ys
##zing
1,
15
17
1800's
20s
22
23
2nd
3.5
33
43
93
abandoned.
abdomen
abundance
accent
adjustment
adult,
advantage
adventure
advice,
age.
agent
aggressive
aging
airborne,
all-female
allowed
amplifier
animated
answering
anticipation.
apex.
appeared
apply
appropriate
arctic
are,
area;
areas
arizona.
arrangements.
artifacts.
ascends.
assignment.
athletes.
attendants
attractions
atvs
autumn,
avoids
awaits.
awe
awkward
babies.
back-up
backpacking
backstroke.
bagpipers
baking.
balconies,
bales.
balled
ballet,
ballgame
bandana
barbecuing,
baring
barricaded
basemen
bathes
battle.
bbq
bean
beanie.
beast
beg
begs
bell.
benefit
berlin.
bets
bicycling.
bikers.
bikinis.
bin,
binder.
birthday.
bitten
black-colored
blockbuster
blonds
blooming
blouse.
blowtorch.
boa.
bolted
bones
bongos
bookbags
bookbags.
bookcase
boss."
bouncer
boundary
bout.
bowel.
brandishes
bras
bratwurst
breaded
breakdancing.
brigada
brindle
broadly,
broadly.
brow
buckets,
buff
built.
bunches
bundles.
burkas
burlap
burners.
burnt
burqa
burrito
busts
buttocks.
cages
camcorder
campers.
camping.
candle,
canisters.
canoes.
capitol
carefully.
carolina
castles
catamaran
cattle,
catwalk
ceilings,
celery,
cell
cemetery
centipede
century
ceremonies
certain
chartreuse
cheers.
chefs,
chessboard.
chests.
chinatown.
chins.
chipper.
chisel.
choose
chores
christ.
circled
citizens,
civil
clasped
clenched
clever
cliffs
close-cropped
closer
closet
cloud.
clowns.
club,
clutches
cocktails
coconut.
collide.
comb
comb.
combatants
communication
commuter
compass
completed
complicated
compound
comprising
concentration
condiment
conditioner
cone-shaped
coney
congested
consoled
construct
control,
controller
conversation,
conversations.
cookout.
copy
cornfield
correctly.
cosmic
counters
countries
countries.
covered,
cowboy.
coworker
coyote
cracker
cradle.
cram
crampons
crevice
crib
crossbones
crumbling
crustacean
cultivated
cups,
curb,
curiously
curled.
curls
current
custodian
customer's
cylinders
dalmatian
dalmation
damp
dangerous.
dart.
dealer
dealer.
dear
deer.
delighted
depicted
depicts
descended
describing
desserts.
destination
dew
differing
digging,
dior
disappear
disco
dishes,
disinterestedly
disposes
dj.
dodge
does.
doghouse
dogs;
domino's
donkeys.
donned
doorbell.
dose
doubles
dove
dove.
downing
draft
dragon.
drama
drape
drapes.
drop.
dueling
dump.
dun
dungarees
duster
dye.
earrings.
eddie's
edge,
egyptian
election
elephant's
elongated
emo
emotion
empties
encouraging
engagement.
engine,
engineer
enough
entails
enter"
entirely
entrance,
equally
escorted
estranged
ethnically
ethnicity
events.
excavator
exposition.
extinguish
eyepiece
facade.
faint
fairground
faith
fallen.
fancily
fangs.
faraway
fascinated
fatigues,
fauna
feel
feeling
felled
fiery
fighters.
film.
filmed.
fingerpaints
firefighting
firemen's
firetruck,
first,
fist.
fixtures
fixtures.
flamed
flanked
flashy
flats.
flexible
floored
flue
flute-like
flutes
flutter
fold-able
following.
footrace
forest;
form.
forty
found.
foundation
fourteen
fridge
friend,
friends,
frosting
frustration.
future
gal
galoshes.
garbed
garment.
gasps
gates.
gave
georgia
giant,
girder.
girls'
gleaming
glistening
glove,
goalkeeper
good.
goodbye
goods,
gorge.
grandchild.
grandpa
grapple
gravelly
gravely
gray-colored
gray-haired,
greets
grills.
groin.
groom's
groomsman
groups,
grownup
guard,
guard.
guards.
guide.
guitar-playing
gutters
guy's
guys.
gymnast,
hairdo
hammer,
happening.
hatted
hayride
headstand
headwraps
healthy.
heard
hebrew
hedge
hedge.
heel
heights
herbs.
here"
hers
hibachi
high-flying
hilltop.
hissing
hits.
hitter
hoe.
homeless,
homework
honda.
honor
horizon,
hoses.
hostess
hugs"
hugs.
hummingbird.
hung.
hunter
icing
illustration.
imitate
immediate
injuries.
inspected
installs
instrument,
interrupt
interrupted
iran."
is'
italy,
jack,
jockeys,
jokey
journal
judging
jugglers
jumper,
jumpsuit.
junk.
k-9
kabobs.
karaoke.
keyboardist
khaki-colored
kickflip
killed
kind,
kiosk,
knob
knocking
korea
l-shaped
ladle
lagoon.
lamb
lambs.
landmark
lanyard
large-brimmed
largest
lassoing
lassos
lay,
leaf-covered
leafs.
legal
leotard,
lesson
life-size
lifeguards
light-haired
lightyear
links
living.
locations.
loiter
longsleeve
loses
lowering
ma
madagascar
magician
maid
male.
mallets
manhole
manning
manually
map,
march.
maroon.
marshy
mast
masters
math
measurement.
med-evil
melons.
messages
meters
mid-play
mid-sized
mid-swing
middle,
middles
midst.
mini-race
miscellaneous
mismatched
missionary
misspelled
mob
moose
mopeds
morgan
motorboat
motorcycles,
motorists
mountaineers
mouse.
mowed
mower,
mrs.
much.
muffling
mug,
mulch.
mules.
mulling
mustachioed
nationals
nature,
nautical
nears
necktie,
necktie.
nets,
never
nightly
nipple
notepads
nun,
nyc.
oars,
obscene
obstructing
obtain
occupying
ocean's
off-screen.
offense.
officer's
official.
officials
olive-green
once
one-armed
onions,
onlookers,
open-toed
opposition
organ.
out"
outcropping.
outfield.
overalls.
ox
packaged
paddled
page
pail.
pallet
palying
pancakes.
pantyhose
parasol.
parlor
partial
particular,
pasta
patient's
patties
pc
peacefully
peaking
pear
pebbled
pedaled
pedestal.
penn
pens
performing,
personnel.
peruses
photo's
pianist
pic
pick.
picture;
piercing
pies
piglet
piles.
pinkish
pinstripe
piping
pirates.
plains
planked
plastic.
plated
plates,
player's
pleased
plucking
plugs.
pockets,
policewoman
poling
polishes
ponytails
poodles.
postcards
pre-teen
presenter
preserver.
pretzels.
prices
prizes.
problem
procedure
produce,
production
programs
projects.
promote
proof
property
property.
props
protectors
protest,
ps3
public,
puddled
puller
pulpit
pump.
punching.
puppeteer
puppy,
purplish
pushers
pvc
pylons
question
quickly,
raining
raised,
ranger
rastafarian
rattan
rattle
readings
rearranging
rebound.
receipt
recreate
red-sleeved
reeling
reels
region,
reins
relationship.
repels
representatives
request
research
respirator
rested
return.
reunion
revolving
rinsing
risers
rite
riverbed.
riverside
roast
rolled-up
rollerskates,
rottweiler
route
ruffled
rugged
ruin
rust
rv
sail.
sailboat,
salad.
sandal,
sanded
sandwiches
sandwiches.
saxophone,
scale.
scarlet
scent
scope.
scrape
scraping
scraps.
scribbled
script
sculpt
seafood.
seal.
seasons
securing
seek
selects
sellers
sending
sergeant
sesame
set,
shaft.
shared
shaved.
shawls
shear
shine
shiney
shingled
shingles.
shinning
shiny.
shirt;
shoeing
shoeshine.
shop"
shorter
shoveled
show,
showing,
shuttle.
sibling
sifter.
singers.
sings,
situation
sixteen
sizable
skateboarding,
skies.
skin,
skinned
skyscraper
slab.
slacks.
slatted
sledge
sleeve.
slippers,
slowing
slowly.
smiles,
smock.
snapshot.
snarls
sneeze
snorkels
snowmobiles
sock.
solder
soldier,
soldiers.
soon.
source.
souvenir
souvenirs.
spacious
spain.
spanish-language
spanish.
spare
sparring.
speaks.
specialty
speech,
spelled
sphere
sphere.
spheres
spilled
splayed
sprayed.
sprinkling
spruced
spurting
squarepants.
squeezes
squinting.
staking
starbucks.
stating,
steadily
steak
steeple
stepped
stethoscope.
stickers
stitch
stopped.
story.
stray
streamers.
streetcar
stride.
stroke
structure,
strung
studying.
style.
styling
subject
sucks".
suede
suitable
sun-lit
sunbathe
sundress.
sunflower
sunny,
sunscreen.
supper.
surfing,
surrounding.
survivors
sushi.
sway
sweat.
swing's
swirl
switch.
swooshes
tailgating.
tailor
taker.
talk,
tambourines.
taping
taupe
tech"
techniques.
tee-shirts
tenderly
texans
the'
thousands.
throne.
throughout
tibetan
tiered
timber
tinker
tired-looking
today.
toddlers,
toe,
toe.
tombstone.
torch,
torches.
toting
towel,
traditional-style
training,
training.
trampolines
transvestite
travelator.
travelers.
treadmills
treadmills.
treating
troop
trophies
trough.
trumpets.
trunks,
tuque,
turbans.
turf.
turntable.
twine
two-person
twp
ufc
uh
umpire.
uncrowded
underwear,
unhappy,
unhappy-looking
unisex
universal
university.
upper-class
upraised
upset,
urinal
utensils.
utilizes
utilizing
vault
vaults
vegetable.
vegetables,
veils.
via
visited
vista.
viz
volunteer
volvo
vulture
waist,
waited
wallet.
wand,
war.
watched.
water;
watercraft.
waterfalls.
waterside
waterskis
weapon.
weapons.
wear.
wearing,
weave
weedy
weighs
west
wheelbarrows,
wheelchairs.
wheeler,
wheelie"
whipped
white)
wicket
wield
wig,
wii.
window-washers
windsurfs
withdraw
withe
wolf-like
woodland.
words'
workers."
wrap.
wrench
wrestle.
wrestling,
wristbands.
yacht
yawns
yellow-and-black
yellow-colored
yoga,
yoked
you.
youth.
zipping
zips
zone,
"5028"
"52",
"85"
"active."
"and"
"axe
"babys"
"batiment
"blackberry."
"bread-butter-cheese-victory".
"building"
"c-u-b-s."
"cheer".
"clearance."
"cubs."
"dance
"david"
"dreams,"
"entrada"
"farmers
"fishmonger"
"free"
"frog!"
"from
"gidday"
"glory
"hartman
"invisible
"jane"
"kiss".
"krunch".
"le
"linea
"lovely,"
"mama
"metropolitan
"mongolian
"new
"o"
"ok"
"p.i.n.k."
"park
"pop!
"popping
"programmes
"radio"
"ramp
"red
"roller
"sale"
"sarah"
"secure
"shoeshine".
"sovereign".
"spongebob"
"step"
"stheart"
"stomp"
"stomp".
"store
"superman"
"telephone
"terrible's"
"thefaceshop"
"to-go"
"toodles".
"tool"
"touchdown!"
"traffic"
"tulowitzki"
"two-thumbs-up".
"u.s.a."
"ukraine".
"vespa".
"washington
"white
##'n'
##-deep
##-goers
##-green
##-legged
##-length
##-off
##-powered
##-side
##-story
##-top
##-view
##-wearing
##-yellow
##0.
##ace.
##ance
##ane
##ants
##ar.
##are
##arm
##ash
##ave
##away
##ax
##ba
##ble.
##bly
##body
##book.
##box.
##boy
##bs.
##burn
##ched
##come
##e"
##e,
##ent.
##ents
##eous
##eping
##ern
##es,
##et.
##ever
##eye
##fy
##ge.
##get
##gie
##hire
##hole
##hot
##how
##ia.
##ians
##iate
##ica
##ich
##ick
##ident
##ific
##ile.
##iling
##ip
##ips
##ist.
##ister
##istic
##ital
##its
##izes
##izing
##ked
##ker
##kes
##ki
##lane
##lded
##let.
##liers
##lit
##lo
##ls.
##lves
##ly,
##mo
##nc
##nna
##nt.
##ods
##og
##old
##ole
##on.
##oo
##oon
##oos
##orm
##orn
##oss
##pe.
##pent
##pers
##ples
##r"
##ren
##ressed
##ressing
##ret
##rs,
##sel
##t"
##t's
##tage
##ters.
##tive
##ts.
##u.
##uck
##ug
##uing
##ulate
##ump
##un
##unches
##ure.
##ured
##vity
##ware
##way
##wn
##working
##ws
##ying
##zes
#12
#15,
#16
#2
#5
#71
&ms
(perhaps
(sic).
(such
0'
09-09-2007.
10.00
108
13406.
1889."
2010
21
29
4'
4,
4-wheeler
43rd
44
442
49.
49ers
55,
5k
625
66197,
7200
9'
9,
90-year-old
91
a&m
aaa
aaa.
abercrombie
accelerating
access.
accessories
accuracy.
ace
adeleide
adirondack
administering
adventures.
adventurously
advocacy.
affair
affection
affectionately
afican
afl
aged,
aggressive.
aikido
air!
aircraft.
akimbo
ale.
alert
allow
alone,
aloof
alpha
amazement.
amazon
american'
american's
amorous
amphitheater.
amplifier.
anchored
and'
angeles,
angles
announcement
anouther
antarctica.
anticipated
anticipating
antique-style
anxiously
applauding,
apprentice
arabian
arc
archaeologists
archery
archway
ares,
arguing.
arlington
arm-in-arm,
armenian
army's
arriving
article.
arts;
asking.
aspirin
assembles.
assistance.
astronomer
athlete,
atmosphere.
attaches
attacking.
attacks
attempted
attic
attracted
attractively
attracts
auditorium,
authority-figure
autographs
automobile,
avail.
ave".
awnings,
ax,
b..."
backdoor
background-
backgrounds
backing
backseat)
backwards,
bagels
bagpipes,
bakersfield,
balloons)
banana,
band-aid
bandaged
bandannas
bandidos
bandstand.
banner,
barber.
barred.
barriers,
bassinet
battles
bazaar
bbq"
beading
beak
beaker.
beaming
beanies,
bear's
beds.
bells
bellybutton.
belongings,
bending,
benefactor,
beret.
bib.
biblical
bicycler.
bigger,
bike's
bikers,
bikina
biking.
billed
billowy
binocular
birth
biscuits
bistro.
black-bound
blackberry
blackboard.
blacktop.
blading
blanked
blazing
bleachers,
bleeding,
blends
blonds,
bloom.
blossoms
blousy
blow-dried.
blue-plaid
blue-roofed
blue-shirted
blue-shirts
boarded
boas.
bodysuit,
bohemian
bomb
bonnet
bonnets
book-
booklets.
booth",
borders,
bounced
bound"
bounded
bouquets
boutique,
bow,
bra.
branded
brandishing
breads,
breakdance.
breakdancers
breast,
breeze
breeze,
bricklayer
briefcases
brighly
brink
broom;
brother,
brother.
brownies
brush,
brutality.
bryant
bubble-blowing
buffalo
buggies
bugs
building;
bulbs.
bullhorn.
bullpen,
buns,
buns.
buoy
buoys,
burbur
burns
bus),
busking
busted
butchers
button.
buzzes
cabanas
cabinets,
cabrera
cactus
cactus,
cage",
cages.
cakes.
calle
calm.
camera-like
campground.
canapes
canes,
canning
canvasses
carelessly
caring
carpeted.
carpeting
carrots
carrots,
carry-along
carting
cartwheels
carving.
cashews.
castle,
castle-like
casually,
cauliflower
cavernous,
ceiling;
celebrate.
cellar.
cellist
cellos.
cells.
celtics
certified
changes
chapping
charity.
chart
chart.
cheap
checkerboard.
checkers,
cheerful
cherries
cherries.
cherry-picker,
chevron.
chidl
choices
choke
chokes
christ,
chrome.
ciff
cigars.
circuit,
classic,
claus.
clay-tiled
cleats.
cleavage.
clerk"
clifftop
clinton"
clogs
close-up
closed."
closeup,
clothesline,
clothing)
clothing;
clove.
clubs.
clue.
clutched
co
coach,
coastline.
cobs
coca-cola.
cock-pit
coded
coelho.
coexist
coffee-colored
coiling
coin
coke-a-cola
collided.
colorless
combination
combining
comfortably
commemorating
commerce,
companion.
competing.
compute.
concocted
concrete-block
condemned
conditions.
condolence
condoms
conduct
conducts
confronting
conifer
connect
consisted
conspicuous
contact.
container,
contestants
continuing.
contrail
controls.
cooked.
cooks.
coolers.
cooperative
coordinate.
cop's
corduroy
cork
corners
corona
corp
corset
costco
cotta
couches,
coupling.
coveralls,
covered.
crab,
cracker.
cranberries
crane,
crayola
crayon,
cream."
creation.
creative
creek,
crests
crews,
crochets
cross-bone
cross-cut
crouching.
crushing
crutches.
cruz
cube.
cubed
cubs.
cuddle
culturally
culvert,
cupcakes.
curiosity
curiously.
curly,
custody"
cylinder's
d'antan
dalmation.
dancers.
decker
decoration.
decorations,
defender.
deflect
delayed
delicate
dell
demanding."
demeanor
democrat
demon,
demonstration,
denomination.
department.
deployment.
deposited
described
description
description,
deserted.
detailed
detect
detector
detector,
detergent
devotion
diagram
dialect
diameter,
diapers
died.
different-colored
difficulties,
dines
directory
dirt-still
dirty,
diry
disbelieving
discusses
dish-shaped
dishwashing
dispenser
dispenser.
dispensing
displayed.
displeased
distressed
diveboard
do.
dolly.
dolphin.
domes
donation
dons
doorstep.
double-barreled
dour
downed
drab
dragster.
drainpipe
drake
drawings.
drenches
dress-shoes
dressed.
dripping
dripping.
driver,
drumsticks.
drying,
dude
dummy
dustpan
duties.
dwarves.
dx.
earlobes
earmuffs.
earpiece
ears,
earth,
east.
echo
eclectic
ecstatically.
edits
edwards
eerie,
effect,
effigy
electrified
elementary-aged
elephants.
elf
elite
emotion.
employee,
en
ends.
engineers
engines,
enjoyed
entertained.
enthusiast
entices
entrant.
entree.
escalator,
escalators
establishment,
euro
event-
evergreens.
evilly
excavating
excavation
expansive
experiments
exposure
expressway
extinguisher
eyelid
eyeliner
face-height.
fact
fancy,
fans,
farms".
fastening
father-figure
fatherhood
faux
fayre.
females-
fencing,
ferrett
fiber-like
fiddle
filming.
finch.
findersport.
fingerless
fired
firetrucks,
firewood
firework
fish-eye
fixed
fixed.
fixtures,
flailing
flame-themed
flashes
flinging
flippers
flooring.
flora
flutes)
flux
fly,
foam.
foldaway
follow.
footbridge,
footing
footrest
fork,and
formation,
formations.
forms:while
forrest
forty-eight
foul
four-lane
four-wheel
four-wheeler,
fowl
frames.
francisco
fred
freestyle
freezer
fringed
frisked
frolicking
from.
frothy
frowns
ft.
furnished.
futon-style
gallons
gaming
garage,
garage-type
garb,
garcia,
garden".
garish
gases
gator
gauge
gazebo.
gazed
gears
gee
geisha
gentleman's
gentleman.
gesturing.
ghostlike
girders
girls"
given.
glacial
glassses
glimpse
globe,
go-carts
goat,
goatee,
goes.
gold'
goldfish.
golf,
gowns.
graced
gracefully
graded
graduated
graduation.
grandchild
grandmas
grandmother.
grapes,
grasp
grate,
grate.
grave,
gray-tiled
greed
green-shirted
green-shirts
greenhouse.
grey
grey.
grid
grievances
grill-out,
grilling,
grim
gripe
groomed.
grownup,
guest.
guitar-like
gumdrops
gummy
gurney
gymnasium,
gymnast's
hacks
had,
hair-
half-pipe
halloween,
hammers.
hammock,
hand-crafting
hand;
handgun
handicap
handkerchief,
handprints
hands"
handshake.
handstnad
hangars.
hard-wood
hat)
hatch.
hatless
hauling.
hayfield
head;
heading'
headress.
headwear.
height.
heineken
helpers
herring.
hewn
hexagonal
high-heeled
higher.
highlighting
hijab,
hijabs
hiking,
hillary'
him;
hindu
hippies
hippy
hollister
homemade'
homemade-looking
homes
homestead.
homework;
homey
hoolahoops
hop
horn,
horror
horse-shaped
horsies
hosing
host
hotdogs,
hotels
hounds
house-like
houses,
hovel
hovers
hubcap
huckabee
humans
hunt
hurriedly
huskies
hustle
hutch
i'll
i-pod
ice-hockey
ice-hockey.
icey
identify
identifying
idly
ikea.
ill-fitting
illuminate
imagery
immense
immigration."
implement.
impressive
improvises
inches
including,
index,
indian-style
individuals-
individuals.
inexpensive
infirmity
inground
inhabitable."
injection
injects
inked
innertube,
inspection
inspector
intangible
interfere?
interlaced.
internally
intervene.
invade
investigates
investigating.
involve
iphone
is?"
israel
it.aa.
ito
iv
j.p.
jam
jane.
javelin,
jerry
jests.
jetty.
jewelers
jewelery,
jig.
jimmy
johannesburg
joins
joule'.
joyous.
judges.
july
jump-rope
jumpsuit,
kabab
keyboarding
kid's
kid-friendly
kilt.
kilts.
kimmel.
kiosks
kiosks,
kneeing
kneeling,
knees,
knitters.
known
knows
kuthhoop
label
labor.
laces
ladie
lakes
lamps.
lampshade
lances
land-mass
landfill
landmark.
languages.
laps.
lasso.
latte
lav
lavendar
layup
leaf-lined
leaf-strewn
league,
leaguer
leaped
leave-like
leave.
leg-warmers
lei,
lettering,
levain
librarian.
licked
lifter,
light'
light-wood
light."
lightly-colored
lightning
limbs.
limes,
limousine
limousines
linear
lintel.
list.
lists
lit.
litters
lives
living,
lizard's
lizard,
llama
loaded.
logo,
long-lensed
looking.
looming
loudly
louis
loved
lowly
lubricates
lumps
lunged
lungi,
magizine
maintaining
maintenance,
maintenance.
malfunctions.
manipulates
manner,
marble-looking
markers
market".
marley"
marshmallow
martins
martins'
mass-transit
massage
masts.
matchup
mates.
matte
mattresses
maxi
maya
maybe.
mechanics
melky
mending
menus.
merchants
mess.
mexico.
mia
mia!"
microscopes,
microwave
microwave,
mid-afternoon
mid-jump.
mid-leap
mid-length
mid-throw.
middle-school
midriff.
midsentence.
military-type
mill.
miller
millimeter
mimes,
mine
minivan,
minivan.
minute
mirrored.
mirthlessly.
miss.
mistake.
modifications
modified
moments
mondesi
monotone
month.
monumental
moored
morton
motor.
motorbike,
motorcyle.
mounds
mountaintops
mouthed
mouthed,
movements.
mover.
moving.
mow
mud's
mud;
mugs,
multistory
munching
mural,
music(using
names,
native-looking
neckless
necks.
needle
negotiates
negros
neutral
next.
nfc
nikes.
nissan
north-worst
notebooks
notepad
november
nubby
numbers,
nurse,
oars.
obliverate
obstacles
odd-looking
offerings
officer,
oklahoma,
old-looking
older.
olympian
olympics,
ombre
onesie,
onions
opportunity
oppression
orange-brown
orange-striped
orbs
orchard,
ordinary
origins
ornaments.
ostentatiously
outboard
outline
overgrown.
overhang.
overlap.
overviews
ox.
oxfords,
oxidation.
packaging
packers.
paddlers
paddy's
painter's
palace
pamphlet
pamphlet.
pancake:
pancakes
pancakes!".
panels
pans.
pantaloons
paper-mache
parachutist
paraphernalia,
parasol
parent.
paris.
parking."
parks
partially-drunk
pasta.
pastry.
paths
pathway,
patients
patio,
patted
pavilion.
pawed
payer,
pc.
peach.
peak,
pealing
pedestals
pending
pennsylvania
penske
penzance
people;
perspiring,
peruse
pews
pf
pharmacist
phone-booths
picure
pie.
piggy
pigs.
pigtails.
pink-and-black
pinning
pipe-fitters
pipes,
pisa
pitcher.
piza,
placards
placed;
plaid,
planes
plantation,
planted,
planting.
plateau,
platforms
play-action
played,
playhouse
plaza,
pleasing
plots
plums,
plus
plushie
policemen.
polling
polo.
ponder
poops.
popcorn.
porta
pose,
postcard
potrait
poultry
pouting
poverty'.
poverty,
practitioner.
prave
prediction.
premier
premiership
prescription
pressured
presumably,
pretzel
prevents
priests
prisoner,
private
problem,
procession,
producing
project;
propeller-driven
properly
properly.
propped.
provide
prowess
proximity
pseudo
pudding.
pull-overs
pulley,
pursuing
pursuit
push-ups
puzzle.
puzzles
pylons.
pyrex
q-tip
quality
questioningly.
queue
quintet
quits
racetrack,
rachofsky
racing,
racquets
radishes,
ragged
raging
railed
raking.
rally-car
rap
rapels
rappels
rave
rays.
re-inactors
reacts
realtors'
rears
reasons
recliner,
red-cheeked,
reeds
reefs.
refection
reference
refueling
regalia
regalia-
regarding
register.
regular
rejects
relatives
relevance.
reminder
remote-controlled
repeating
replica
reporters
reptilian
resaurant
resaurant.
reservoir
restricting
rests.
result
resulting
retriving
retro
retro-styled
reversible
rhythm
rhythmic
rican
rid
rider's
ripped,
ripped.
rive,
river-rapids
rock-climbing
rods
roll-open
rollerbladers
rollerskaters.
roof's
roofing
rooftop,
room"
roomful
rose-colored
rotating
rottweiller
rottwieler
rough-houses)
roulette
roulette.
round.
roundabout;
row,
rowing.
rows.
ruffles
rundown
runners.
runway
rustic,
ruts
rv,
rvs
s.w.a.t.
sacked.
sacks.
saddle.
safari
safely,
saint
sale,
samaritan
samples.
sampling
samsung.
saroog
satellite
sauces.
sausage's
scaffolding,
scaled
scanner
scanning
scarf)
scarfs
scatteredly
scene;
schools."
scientific-looking
scoring.
scramble
screens,
screwdriver.
scrimmage
scrubber
sculpts
sculpture,
sculptures,
seagulls.
seam
seashore
seated-
seating.
seers
segments
seiko
seine.
semi-circle,
semi-circular
seminar
seminar.
send
sepia
services
servicing
settings.
shabby
shacks.
shaft
shakers
shallow.
sharpened
shaven
shawl,
sheath
sheltie
shelves.
shimmering
shimp
shines,
shirting
shop;
short.
shorts-
shotgun,
shotguns
shoulder-length
shoulder."
showcase.
shown.
shredder
shucking
shuffling
shute.
side!
side)
side-by-side;
sidecar
sided
signify
silhouette,
silk-screened
sillhouetted
silverware
singer.
sings,(presumably)
six-pack,
skate,
skateboarder,
skates-
skeletons
sketch.
skid
skillfully
skimpily
skinny,
skip
skis,
skit
skull-and-crossbones
skydiver
skying
slanted.
slays
sleepwear
sleeves.
slider
slides.
slightly-untidy
slingshot
slingshot.
sloped
slow,
sludge
smell
smocks,
smoked"
snacks,
snowed
snowman,
snowmobiles;
snows.
snowshoeing
snowshovel
snowsuits,
snowsuits.
snowy.
soaping
socket
solemn
sombreros,
sombreros.
son's
spaceship
sparsely
sparsely-populated
spaulding's
speedo,
spike.
spirit
spiritual
spits
splattered
sponges
sponges.
spoons
sporadically
spotlights.
spout.
spring.
square-dance
squarepants
squints
staff,
staircase,
stance;
stances,
standing:
stanford
star.
stares,
startled
starve
stately
statement
stationary.
steady
steams
steel,
steeply-angled
stencil
stepladders
stern
stethoscopes
still.
stirred
stitch.
stop;
storefront,
stores)
straddles
strait
stranger
strap,
street-side
stretcher
streteched
strollers.
struck
structure's
structures.
struts
student.
studs
style,
suave
suburbia.
sugar
summit.
sun's
sunbathes.
sungalsses
sunning
superimposed
superior
supermarkets,
supple
surprised.
surroundings
survey
swallower
swap
swiftly
swimmers.
swimsuits,
swoops
sword-like
syringe
sysco
system".
t-ball.
t-short
tabby
tableau
tagging
tailing
tails
talkie,
talks"
tanning
taped-off
tapered
tarp;
tarps.
taxi,
taxicabs
taxiing
te
teacher,
teaching.
teammates,
technical
technicians
technology
tedious
tee-shirt,
tee-shirt.
teen-agers
teens.
telecaster
teller
temporarily
ten,
tentacles
tentatively
teppanyaki
terra
terrible
terrible's
textiles,
texting,
thicker
thighs
third-baseman's
thought,
thrashes
three-years-old
throng
throw"
thrown.
thumbs-up
ticket,
ties.
tiled.
tilled
tilts
time-out.
tinkerbell
tipped
tipping
tipsy
tiptoes
tired.
today
toddler,
tons
toronto
tortoise
toss.
touched
tourist,
tow-truck.
tow.
towns.
tracked
trading
trailers
transport.
trap.
trash;
trashcan,
tree-tops.
treed
trench-coat
trestle
tricycles.
tripods
trojan
trombone
trunks-
tsa
tuba,
tubs
tudor
tudor-style
turkers
turkey.
turns.
turquoise,
tusks
two-piece
two.
types,
uggs
ugly
umbrella's.
umbrella-ed
unconcerned
underfoot,
underfoot.
underside
unfastened
unhooks
uniformly
unit.
unkempt
unknown,
unpleasant
unsheathes
untidy
up)
upright,
upstairs
uptop
urinating
urns.
valleys.
vandalized
vanishes
vase,
vases,
vast,
vault.
veil.
venice
ventriloquist
venue,
vertically-striped
vessel.
vestments
vibrantly
viciously
victim
viewer,
vigorously
vikings,
violence
violinist's
violoncelli
visitor
vitamin
volcano.
wagamama
wagons
waists,
waiting,
walgreen's
wallets.
wands.
warriors
wash'
washer.
wasp
water-proof
watered,
waterskiis.
wave-crashing
wax
we're
weapon,
wearubg
wed.
wedding,
weed-eater.
weight.
weird-looking
welders'
well-cut
well-populated
well-stocked
wendy's,
whereas
whimsically
whiskey
white-haired,
white-helmeted
white-rimmed
whites
wide-legged,
wiffle
wilson
wincing
windmill.
window-washer,
windowing
wing
wings,
winners'
winter,
within.
without,
wondering
woodworking.
workroom.
worn.
wound
wrapper.
wrapping.
wrists,
writer.
yams.
yarmulke
yell
yellow-belt
yellowish
york."
you?"
youthfully
zepra
zippered
"4"
"bienvenue
"who
##-aged
##-and-white
##-clothed
##-dancing
##-day
##-decorated
##-ed
##-eyed
##-handled
##-high
##-level
##-line.
##-person
##-riding
##-shirt
##-strewn
##-string
##-suited
##-truck
##-vested
##-wear
##-wheel
##-wrapped
##.com
##3"
##8"
##9
##99
##able.
##ack.
##ade.
##age.
##ague
##ah
##air
##aking
##all
##ally.
##am.
##ana
##ance.
##and
##ans
##ap
##arming
##art
##asian
##aver
##ay
##back
##bed.
##bird
##board.
##boarding
##boards
##c"
##cap
##car
##cases
##ced
##ces.
##cess
##chair
##chy
##cks.
##cle
##co
##crew
##crewing
##cross
##dding
##ddle
##dge
##di
##dic
##died
##ding.
##ear
##ecked
##el.
##ence
##ening
##er"
##ew
##facing
##ffin
##fighting
##formed
##frog
##fully
##gar
##ger
##gers
##girl
##glo
##go
##graph
##groud
##gular
##h,
##hand
##head
##hed
##here
##hi
##hile
##horse
##hose
##i"
##iance
##ible
##ics
##iding
##idly
##ier.
##iff
##ifier
##ign
##ik
##ility
##in's
##ina
##inct
##iner
##ines.
##ining
##ip.
##ire.
##ired
##iring
##ish.
##ism
##ite
##ite.
##k"
##ks.
##laim
##lands.
##lare
##late
##ler
##let
##li
##lide
##ll".
##ll.
##llon
##lls
##locked
##lon
##long
##m,
##made
##man.
##marked
##mate
##mates
##mber
##men.
##ments.
##mer
##mit
##n"
##ney
##ntly
##o".
##ock.
##oe
##oes
##oma
##ome
##on"
##one.
##ople
##ores
##ork
##orting
##ory
##ose
##pect
##pie
##piece.
##place
##pling
##pool
##posing
##pping
##pread
##rag
##ral
##rate
##ration
##reen
##rest
##ride
##ries.
##ris
##rom
##roof
##rook
##room
##ros
##rout
##row
##rowing
##run
##san
##scape.
##shed
##shes
##side
##side.
##sive
##sm
##son
##st,
##stage.
##stic
##stone
##stroke.
##sts
##sy
##teen
##ten
##tering
##ters
##th.
##ther
##ths
##tically
##ting.
##tion.
##tional
##tory
##tty
##tube
##ture
##uating
##ub.
##uding
##uge
##ugh
##ulated
##ulation.
##ull
##um.
##ume
##unt
##unt.
##unts
##ups
##ur
##urst
##us.
##ust
##ust.
##view
##vil
##viously
##vision
##walk
##wall
##weed
##wood
##work.
##za
##zed
##zer
##zily
##zy
##zzling
##zzy
(a
(both
19
24
24,
32
37
39
40
4th
55th
8.
94
a.
academy.
accented
accents.
accept
accompany
accompanying
acrobatics.
adventure.
aerodynamic
afar.
africa.
age,
agony.
airplanes
airplanes.
all.
aloud
ambulance.
anchors
angrily
anime
annual
anvil
anxious
approach.
archaeological
are.
arguing
armchair.
armored
arrangements
arrested
arresting
arrow.
artisan
ashtray
attentively.
attraction
automatic
available.
average
aviator
back-to-back
backhand
backyard,
bake.
balconies.
baltimore
bandages
banister
barbecued
barbecuing.
barbell
bares
barking.
barney
bars,
basket,
baskets,
basset
batch
batons.
batter,
battery
bay,
be.
beads,
beatles
beef
below,
berlin
berries
beverage,
bible
bicyclist.
bid
billy
binders
bins.
birds-eye
birmingham.
bite.
bits
blade.
blocks,
blond-haired,
blossom
blur.
boards,
bocce
bodyboard
bodysuits
bone.
bookshelf
boutique.
boxers,
boxes,
bra,
bracelet,
bracelet.
bracelets.
bread,
breastfeeding
breeds
brim
broccoli.
brochure.
brochures
bruins
brunet
buckled
bug.
buggy.
bull's
bulletin
bullhorn
bumping
bumps
bun.
bundling
bursting
bushel
businesswoman
buttons.
cadet
cadillac
calendar
calligraphy
candlelight
cane,
canvas,
captivated
caressing
caricatures
carvings
carying
cascading
castles.
cat,
catcher,
cedar
celebrated
celebration,
celtic
certificate.
chandelier.
charity
checkerboard
cheerleaders,
cheesecake
chemicals.
chestnut
chevron
chicago.
chin,
chocolate.
churning
chute.
cinder-block
circling
circus.
city's
clean,
cleaned.
cleaners
clicking
climate.
clipped
cloths.
clown,
clowns,
co-workers
coached
coasting
coastline
coasts
cobalt
cobblestones.
cocktail.
coeds
coins
collar,
collector
coloring.
combat.
comforter.
compartment
compartment.
competitors,
confronts
congregation.
connecting
console
console.
contested
contorts
contraption,
conversing,
coolers
copying
cord.
cornfield.
corp.
corral.
cosplay
costa
couches.
couples,
cow's
cowboys,
creation
creature.
crews
crimson
crocks
crooked
crop.
croquet.
crow
crown.
cruising
curling.
curtained
customers,
customs
cutouts
cyclists.
cyclone
cylindrical
daffodils.
dangerously
dangles
dappled
dark-haired,
darkness.
daycare
decrepit
degrees
delivery.
describe.
designing
didgeridoo
dingy
dinning
discovers
distributing
djing
docks.
doctor's
document
dodges
dodging
dollhouse
donates
dora
downhill,
dozing
dr.
drafting
drain.
dreads,
dresser
drift
driftwood
drill,
drunk.
du
duet
dugout
dumbbell
duo
dusk,
dying
ease.
ecstatic
egg.
ejected
el
elbows
elderly,
electricity
elegantly
emitting
empty,
emt
engages
engulfed
enjoy.
enormous
entangled
enthralled
entitled
escape.
espn
everyone.
evil,
exam.
exchange.
executes
exhibits.
experiences
explosion.
express
extend
eye,
fall,
families.
family's
feathers.
feathery
feats
feature
features.
fedora,
felt
fences
ferret
ferry.
fetal
fiercely
figurines.
file.
filed
finally
finger,
fingernail
fir
flame.
flattening
flee
flees
flights
flings
florist
fluffy,
flying,
fold-up
fooling
foosball
foot,
footpath
for.
forearm.
fork.
formally-dressed
formations
former
formula
francisco.
freckled
freckles
freedom
freeway.
frustrated
gallon
gamecube
garments.
gathers.
ghetto
ginger
gingham
glassware
gleefully
global
glows
golfer,
gothic
graceful
grandparents
grapes
grasses.
grate
graze
grazing
greens.
grins.
groom.
grooms
groomsmen
grounded
grownups
grumpy
guinness
ha
habit
hairdresser
half-pipe.
handcuffed
handcuffs
handkerchief.
handsaw
happen.
hard-hat
harley
harvesting.
harvests
has.
hatchet
hauls
hay,
hazy
headdress,
header.
headphone
headset.
heart-shaped
heat.
hedges.
herds
high-five.
high-fiving
high-visibility
hipsters
hitch
hitched
hoist
holder.
holes.
holidays.
hollow
hoodie.
hookah
horseshoe
horseshoes.
hose,
hospital,
huddling
hugs".
hula-hoop.
hurdle,
hurdlers
hydraulic
ignores
imac
impoverished
in-line
incense
incomplete
india,
individual.
inflating
informational
inn
innertubes
installation
instructed
insurance
inter
interactive
interest.
internet.
interracial
interviewed.
intrigued
ipad.
ivy
jack-o-lanterns.
jack.
jams
jaws
jeeps
jet.
jockey,
jog.
jogging,
johns
jokes
joust.
joyful
judo
jug.
jumpers
jumpsuits,
kangaroo
kayaking,
kerchief
keyboards.
keys.
kick-boxing
kill
kimono.
knelt
knocks
kung
lacy
lafayette
lakeside.
lambs
lane,
lapel.
laura
layup.
lecturing
leggings.
lenses
leotards.
lessons
let's
library,
lick
lifted.
liner
linking
lip.
lipstick,
literature
lives.
lizard.
llama.
llamas
locomotive
log,
lollipops.
long.
looks.
love.
lovingly
macbook.
mail.
mailboxes.
maintain
majestic
making.
male's
mallard
man-made
mantis
maps.
marines
markets
marriage.
marshmallows
mart
marx
masonry
masterpiece.
mat,
maze.
meals.
meandering
meat,
mechanism.
media
media.
meditating.
medium.
melted
mesmerized
message.
messages.
met
metro.
mid-stride
midday.
midway
milkshake.
minding
mini-golf
miniskirt
mint
model.
moderately
molding
money,
mosque.
mount.
mouthing
mules
multicolored,
murals
mutual
muzzles.
nancy
nations
natives
nba
newest
nips
noise
nun's
nurse.
ny.
o'clock
oak
oar.
obscured,
obstructed
off-screen
officials.
olives
one-handed
only"
opponent's
opponent,
orchestra,
organization
orient
orioles
others'
outfitted
outlines
outward
outward.
oval
overhanging
owners.
pack,
paddy
paints.
pakistani
pallet.
palms.
pamphlets.
papa
paperback
paraglider
partake
partners
passage
passage.
passageway.
passengers,
passer
paste
pastor
pasture
patiently.
pats
paws.
pea
peace.
peaks.
peasant
peculiar
pegs
pelicans
pelosi
penalty
pencils
penguins
penny
peppers.
perfectly
perpendicular
perplexed
phoenix
pictured.
pigeons,
piloting
pilots
pioneer
pizzas
pizzas.
placard
plains.
plane,
planted
platters
playboy
pleasure
plows
plywood.
podium,
poem
pole-vaulting
poles,
pondering
pontoon
poodle.
pools
pope
porcelain
post,
potter
pouncing
poverty.
prancing
pressure.
prey.
primarily
primary
prints.
pristine
process.
program.
projecting
promotional
prop.
propelled
propping
puck,
pugs
purchases.
quad.
quilt.
quiznos
raced
racers,
races.
rackets
racking
rad
rafts.
ramshackle
ranch.
reason.
rebound
recline
redbull
reed
referencing
rehearsing.
relatively
relay.
remember
repel
restaurants.
retreiver
revelers
rigging.
rights.
riverbank,
roads
roasted
rockers
rollerblade.
rollerskater
roots
roots.
rugby,
rural,
russell
salads.
salute
saluting.
sample.
sandal
sandbox.
sandpit.
save.
scantily-clad
scare
screwdriver
scroll
scrub
scrubs,
sculpting.
seaside.
seated.
seconds
seeking
segway.
select
selections
semi-formal
sends
sent
separately
servicemen
services.
settings
setup
shadow,
shallows
shanty
shapes.
ship,
shooting.
shopper
shopping,
shots.
shoving
showers
showroom.
shrimp.
shy
siblings
sideburns
siding
sights
sightseeing.
signed
simply
sin
site,
sites.
skateboarder.
skateboarders.
skateboards,
skaters.
skids
skiers,
skim
skyscrapers.
sledding.
sleepy.
slinky
slipping
slope,
smartly
smash
smiled
smiley
smith
snail.
snapped
sniff
snooze
snowboarding,
snowboards.
snowfall.
snowfalls
snowing
snowmobile.
snowstorm
sodas
soloist
somebody's
somebody.
sophisticated
sorts.
spa.
space,
sparing
spear
spectate
spinner.
spinning.
splashing.
splits.
spun
squatting.
stalks.
standard
stapling
starbuck's
starfish.
starts.
statue's
statue,
steel.
steer.
steve
stevie
stockings.
stoking
stone,
stonehurst
strands
strength
striding
strike.
stringing
stroke.
stuntman
styles
stylist
submerged.
suburbs.
successfully
suitcases.
suites
sunday
sunset,
supervised
supervising
supervision.
surfer,
suzuki
swat
sweatband
sweeper.
swings,
swooping
symbol.
sync.
tab
tablecloths.
tackler.
tactical
taekwondo
tags.
talkie.
tank-top,
tapestry.
tears
teepee
th
thank
the#
thermos
thigh
throw,
tickling
tie-dye
ties,
tobacco
toenails
tonka
touchdown.
tough
towering
trader
tranquil
transaction
transportation,
trashcans.
treatment
tree-covered
trench.
tress
triathlon.
trick,
trombonist
trudge
trudging
trumpet,
tumble
turbulent
turntable
tuxedo,
twist
two,
type.
ukulele.
uncompleted
underpass.
underway
unto
upside-down.
upwards,
use.
vases
venture
victorious
viewers
vigil.
viking
village,
vine.
visits
volcano
vows.
vuitton
waffles
waffles.
waists.
waitress.
wakeboarding.
walgreens.
walk"
wanders
wardrobe
washed.
watching,
watered
waterproof
weapons
whale
whales
whatever
whimsical
whips
white&
white-walled
wildly
windowsill
windshield.
windsurfing.
winning.
wintery
wish
witnessing
wok.
wolf
wonder.
word'
words.
wrapper
wrestler.
wringing
wristwatch
write.
wrought
yellowed
you"
zombie.
zombies
zoom
"12"
"aids
"experts
"gigolo"
"green
"impeach".
"jesus
"jobs
"la
"life
"little
"naked
"never
"next
"peace
"peace"
"prayer
"qualified"
"real
"to
"where
"your
##%
##,000
##-action
##-american
##-blonde
##-bodied
##-box
##-climb
##-climbing
##-cloudy
##-cross
##-crowded
##-dance
##-distance
##-draped
##-duty
##-empty
##-era
##-faced
##-field
##-fitting
##-full
##-ground
##-hat
##-hawk
##-hockey
##-hooded
##-ing
##-line
##-liter
##-mask
##-metal
##-off.
##-one
##-operated
##-packed
##-potties
##-potty.
##-race
##-rider
##-scooter
##-service
##-set
##-shirted
##-sign
##-size
##-speaking
##-spotted
##-stained
##-step
##-styled
##-surfing
##-tailed
##-tiered
##-up.
##-wheeled
##-white
##.c.
##.v.
##1.
##2.
##3.
##4.
##46
##60
##?)
##a's
##a,
##aced
##ach.
##acher
##acking
##aco
##af
##aging.
##ailing
##ainted
##ak,
##ake
##aki
##aks
##ald
##ale
##ales
##aling
##ama
##ange
##angle
##ank
##antly
##ao
##aping
##ara
##arded
##ared
##art.
##ashed
##at,
##at.
##atch
##ater
##ati
##ations
##ations.
##ats
##attered
##ature
##aving
##bar
##bar.
##bay
##bbed
##berg
##berry
##bled
##block
##blower
##blowing
##blown
##boat
##bor
##boys
##brick
##by.
##ca
##cal
##can
##cans
##car.
##casting
##cating
##cation
##ccupied
##cence
##cet
##ciation
##cified
##cings
##com
##cover
##ct.
##cted
##ctors
##cy.
##cycling
##d"
##d's
##da.
##day.
##dded
##der.
##des.
##dicated
##dies
##dle
##dled
##dling
##dly
##down
##e's
##eat.
##eating
##ects
##ef
##ek.
##ell
##els
##ence.
##ending
##ens
##ense
##eo
##eologist
##eon
##erated
##erer
##estooned
##ette
##ette.
##eve
##eved
##fall
##feed
##fight.
##fire
##floor
##fo
##fs
##fting.
##ga
##gear
##gest
##gets.
##gies
##glass
##gn
##gs.
##guitar
##h"
##hair
##haired
##haling
##ham
##he
##hed.
##hi.
##hia
##hip
##hip.
##hole.
##honist
##hop
##hound
##hs
##ian,
##iated
##iating
##ibbles
##ibly
##ican
##ice.
##icked
##icking
##icorn
##ics,
##iction
##icure
##icyclist
##iday
##ide,
##idering
##ie.
##ief
##ient
##iere
##ife
##ified
##ift
##ight.
##igns
##iguring
##ilant
##ild
##iled
##ilities.
##ill
##illa
##illed
##illing
##ilo
##ilt.
##im
##iment
##immed
##ination
##inding
##ing"
##ins.
##ion"
##ional
##ioned
##ior
##iously
##ira
##ires
##irt
##is.
##ising
##itated.
##itating
##ited
##itting
##ives
##iving
##izer
##kating
##ke.
##kick
##la.
##laiming
##lake
##lands
##lane.
##lare.
##lating
##lation.
##lats
##laying
##lding
##le"
##le,
##led.
##leeding
##lent
##les.
##less.
##lete
##lets
##life
##life.
##lifted
##light
##lin
##lining
##lishes
##lling
##lly
##log
##look
##lops
##lum
##lving
##mail
##mar
##marine
##mation.
##mbark
##me.
##mel
##mer.
##mies
##mith
##mits
##mmy
##mon
##most
##mployed
##my
##n,
##nail
##nate
##nating
##nced
##nces.
##nch
##ncy
##nda
##nder
##ndition
##nies
##nished
##nouncing
##nous
##nted
##number
##o's
##ocks
##oey
##off
##ogs
##ogue
##old.
##ome.
##ong.
##oni
##onist
##ont
##ook
##ool
##ooling
##oop
##oor
##oose
##or,
##oral
##orn.
##orship
##ort
##orts
##ost
##ot.
##oth
##ounds
##ousing
##ously
##ove
##owed
##p".
##page
##perate
##person
##phone.
##pics.
##pink
##pipe
##pipe.
##pit.
##ply
##po
##point
##post.
##pped
##pper
##py
##que.
##race
##racial
##rade
##rains
##raising
##rance
##rant
##ray
##rd.
##ream.
##rely
##ress.
##rest.
##rge
##ribute
##ridge
##rier
##rified
##ril
##rior
##risk
##rix
##rm
##roen
##roll
##rome
##ron
##room.
##ropes
##round
##row.
##rting
##rts
##rum
##rum.
##rush
##rust
##s'
##sault
##saw
##school
##see
##set
##shine
##ship
##sie
##sion.
##skin
##sse
##standing
##ster
##street
##sue
##sues
##tained
##tally
##tape
##tch
##than
##the.
##tick
##tingham
##tions
##titude
##tively
##to
##ton.
##tone
##town
##traffic
##tro
##tting
##ttle
##tto
##turn
##u,
##u."
##uated
##ub
##ucks
##ucky
##ues
##ugh.
##uit.
##uki
##ule
##ultural
##umed
##ument
##und
##und.
##unge
##unted
##uraged
##urly
##urry
##urs
##using
##uss
##utted
##uzy
##v
##ved
##vel
##veloped
##vert
##vert.
##vy
##w"
##ward
##ware.
##wel
##where
##wig
##wing
##wl
##wo
##wrap
##y"
##y."
##yan
##yard
##yard.
##yclist
##yed
##zzled
##zzles
(possibly
(two
1.
100
20's
20th
28
30's
5.
50
6.
70's
71
7th
9-11
90
a-frame
abandon
ability
according
accordions
acid
acorn
acting.
action,
actions
actions.
actress
actresses
ad.
adorning
ads
adventurous
advertise
aerobics
affixed
agile
aid.
air-
air-filled
airfield.
all-terrain
allen
allowing
ally.
aloft
alphabet
alpine
altar
alter
although
american,
american.
amp
amputee
amsterdam
amused.
amusement.
amusing.
analyzes
analyzing
and"
and,
andy
angeles.
annoyed.
antenna
anthem.
anticipates
antlers
anything
appearance
applaud.
applauding.
appliances
appreciate
approaching.
ar
arches.
archways
areas.
argentina
argyle
ariel
arizona
arm-in-arm
armor,
arrangement.
arranges
arrive
arsenal
artifacts
artist,
artwork,
ashtray.
asians,
asparagus
assembled.
assist.
associated
astonished
astroturf.
atrium.
attack.
atv,
auditioning
aurora
austere
australia
authority
automobiles
awards.
awnings.
backgammon
backhand.
backhoe.
backless
backward.
badge,
badminton.
bagels.
bail
balck
balcony,
balding,
ball;
ballplayer
ban
banquet.
barbell.
barcelona.
bared
barge
baritone
barker
barrette
barricades
barrier,
basketballs
bass,
bathe
batter's
be,
beachfront.
beakers
beakers.
beanbags
beanbags.
beaten
beater.
became
bedspread.
beech
begins.
beijing,
belonging
benches,
best.
better.
bewildered
bicyclist,
bikini-clad
bill.
billiard
billiards.
billows
biology
birmingham
biscuit.
blackberry.
blacktop
blankets,
bleached
blenders
blending
blinds.
blossom.
blowing.
blue-eyed,
blue-gray
blue-striped
bluegrass
boat's
boat;
bobbing
bobcat
bodies.
bollywood
bondage
bonding
bonnet.
bookbag,
bookbag.
booklet
bookshelves.
borders
born
bottles,
boulevard.
bounce.
bout
bowed.
bowled
boxed
boxing,
boyfriend
brace.
bracing
brake
bravely
brazil.
breeze.
breezeway.
brick,
bricks,
bridesmaids,
bridges.
briefcase,
brightly-lit
brightly-painted
britain.
broncos
brook.
brow.
browsing.
bruce
brunettes,
brushed.
brushes.
bucking.
buckle
buddha
budweiser
buffer
bulb.
bullet
bullfighter
bullfighting
bulls.
buoy.
buries
burned
bury
busch
bush,
bushes,
busk
busker
buss
buss.
bustle
butt.
butter.
buzzed
bye
byes.
cabana
cabinets.
cacti
caddy
cages,
calico
calls
camcorder.
camden
camouflage,
camper.
campground
camps
campsite,
canals
canes.
canine
canister.
cannonball
canoers
capped
carriage,
carriages
carrot.
carvings.
cashier.
castro
cat's
caucasians
cautiously
cavern
cds
cds.
celebrates.
celery
cell.
cello,
cellos
chain-link
chain-linked
chairlift
chan
chanel
chanting
character.
charter
checker
cheeks,
cheerios
cheeses
chef,
chemicals
chessboard
chests
chicken,
childhood
chips,
christmas,
chung
chunks
cigarettes,
circuits.
cirque
citrus
city"
clack
clam
clams
clapboard
classmates.
clause.
cleats,
clenches
cleveland
client's
cliffside
clinic.
clippers.
cloaks
closer.
closeup.
cloudless
clover
clover.
clump
coaching
coated
cobblestones
coconuts.
code
code.
coil
colander
collage
collage.
collapsed
colleague.
collection.
collision
combs
come.
comedian
comedy
comforter
coming.
command
commentators
companies
competitively.
competitor.
components
concealed
concentrated
concerned.
concessions
conclusion
concoction
condiments
conducted
conducting.
confrontation
congratulate
conquest
constructed.
consulting
consumer
contemplative
contently
contorted
control.
conversations
cook's
cookbook
cookout
cools
cooper
cordoned
corndogs.
corrals
correct
cosmetics
cosplayers
counts
cowboy"
cowboy,
cowgirls
cozy
crafts,
cranes
crash.
crayons,
creamer
crescent
cresting
crevasse.
crew.
crib,
cricket,
cricketer
crippled
crisp,
crochet
crocheting
crocheting.
crocodile.
crocs,
crossword
crucifix
crude
cruiser
cruises
crutches,
cub
cube
cubes
cucumbers.
cuddles
curbside
curl
curlers
curry
curtains
curve,
cushions.
cut.
cycle.
cyclist,
cyclist.
cylinder.
da
daddy
dads
damage
dancer.
dane
darkness
dash
data.
date.
daughters.
dave
david
day's
daycare.
deal
dealership.
deco
decor.
deep,
defends.
delight
delight.
demands
demolition
departing
depressed
depth
describe
desert-like
deserts
destroyed
detroit
diagonal
diagram.
digger
digger.
diligently.
diners.
dining.
dipped
direction,
dirty.
disaster
discount
discovering
discs
disguise
disgusted
disney's
displays.
divider
docked.
docks
doctor.
doctors.
document.
dogsled
dollars
dollies.
dome.
dominate
donald
donkey,
downstairs
dr
dragster
drapped
drawer.
drawn.
dreadlocks,
dreary
dressed-up
drew
dry,
ds.
duel
dugout.
duke
dunked
dusts
dutch
duty.
dwelling.
ear,
earn
earring,
eat,
ecstatically
effects.
egret
einstein
elbow.
electronic.
elevation.
elevators
elliptical
else's
emanating
embankment
embrace,
encounter
encourages
endurance
energetic
england
england.
enjoyment
enlarged
ensemble.
ensure
entertainment.
enthusiasm
enthusiastically.
entwined
envelope
envelope.
equations.
erase
erecting
escorting
espresso.
etching
euro.
evaluating
evenly
events
ever
everyday
everything.
exchanges
excitedly.
exhibit,
experience
experience.
experienced
experimenting
experiments.
explain
expose
express.
expressions.
expressively
eyeglasses.
eyeliner.
fairway
falls.
false
fame
fame.
fanned
farm,
fastens
fed.
feild
fences.
ferns.
festively
festivities.
fez
fiddle.
fiddler
fielding
fifa
fight,
fighters,
files
finals.
financial
fingernails.
fingertips.
finish.
finnish
fireball
fists.
fit,
flamboyantly
flames.
flannel,
flatbed.
flats
flautist
flexibility
flier
flip,
floaters
floats,
flown
flute,
flyers.
focused.
foil.
foldable
folded,
folic
foods,
fore-ground.
forehand
forehead,
forestry.
forwards
four,
four-way
four-wheeled
four-wheeler.
four.
fours
fox
frames,
framework
fried
frisbees.
frizzy
fronds.
frosty
frown
frowns.
frustrated.
fryer.
fu
fulton
fumbles
funnel
fur-lined
furiously
furnace.
furnished
furred
gaining
gambling.
gauges
gauges.
gaza.
geared
generator.
genie
genocide.
gentlemen,
geyser
gift,
gingerly
girder
girlfriend.
glamorous
glamour
glares
glassy
gloomy
gnarly
goaltender
god
god.
going.
goodbye.
goodies
goose.
gorillas
grains.
grandfather,
grandfather.
grape
grapes.
grass-covered
gray-green
greeted
grimacing.
grinder.
groucho
groups.
grove
grungy
guitarist.
gull
gun,
gutter
hacky
hail
hairstyles
haiti
haiti.
half-naked
hallway,
handbook.
happen
happiness.
harbor,
harmonica,
harness,
harnesses.
harpsichord
hat&
hatchback
hatchet.
hawaii.
hazmat
head-to-head
headband,
headdresses.
header
headgear.
headlight
headline
headscarfs
heal's
hear.
heron
hid
high-rise
highchairs
highland
highlighted
himself,
history
hitching
hobo
hoes
hold.
holders
honda
honest
hooks
hooks.
horseshoe.
hosts
hour
hours.
hsbc
huge,
hulk
humping
humvee
hurdling
hurling
hurries
i'm
ice-skating
icicle
ideas
idle
ii
ill
illustrated
imac.
imitating
impact
important.
impress
improvements
in-between
indonesian
industry
infield.
inflatable.
inflated.
ink.
inquisitively.
inscribed
inscription
instructors
instrumental
intent
intently,
interact.
interacting.
intercept
intercept.
interest
interesting.
interlocking
intricately
introducing
invention.
invisible
ipad
ipod,
isles
israel.
isuzu
itching
jack-o-lantern
jackie
jacks
jackson
jacuzzi.
jamaican
janitorial
jasmine
jaywalk
jet-ski
jewelery.
jewels
jimi
jogs.
joint
joust
juggle
jugs
jukebox
jumbo
jumper.
jumpsuits.
jungle-gym
junior
kabob
kabob.
kayaks.
kennel
kenya
keyboardist,
khakis.
khera
kickboxers
kid,
killer
kills
kiltie
kingdom.
kisses.
kites.
kittens
knee,
knee-deep
kneepads
knicks
knights
knit.
knoll
knoll.
knot
knotted
komodo
l.
lab,
laborer
laced
ladders,
ladling
lagging
lagoon
lakers
lanky
lapse
large.
later
latest
latina
latter.
launched
lay-up.
lcd
leaf.
leak
leap.
leaping,
leaping.
lease
lebron
lectures
left-handed
lessons.
lettuce.
lexmark
lid.
life-vest
lifesavers
light-blue
lime-green
linens
linked
lioness
liquor.
lit,
litter.
little,
live.
liverpool.
loader
loafers.
locals.
lock.
locomotives
lodge
lolly
long-necked
lose
lotus
low-cut
luggage,
lugging
lumberjack
lump
lunge
mache
madrid
mae
magnetic
mam
manage
manicure.
mannequins.
maps
maracas
marbled
marbles.
marquee
martini.
masks,
mason
massaging
master.
mates
mats,
matter
mattress.
maybe,
maze
meaning
measured
measurements
median
medicine
meditation
meeting,
melon.
menacingly
mends
merry-go-round,
messy,
metals.
meticulously
miami.
micky
microphone;
mid-stride.
mid-swing.
midday
migrant
milking
milkshake
mime.
mind
mind.
mine.
mingles
mini-skirt
mission.
mittens.
mo-hawk
mobile.
mode
mold
mood
mood.
moon.
mops.
mosquito
motorcyclists.
motorist
mound,
moustache
movement.
mule.
multitude
muscles
mushing
mushroom.
mushrooms.
musician,
musician.
muslims
mussels.
mustaches
mustang
mustang.
mylar
mystery
naked,
names
nanny
nascar
nation
nation.
navy,
nd
neat
needle.
negro
neighbors
neon-green
nescafe
nestled
neuroscience
new,
newborn.
newsboy
newscaster
nintendo.
non
nondescript
nordic
nose,
nostrils.
not,
notes,
nothing.
notice
novel
nuts.
nuzzling
ny"
oakland
oar,
obedience
obscures
observer
occurred.
od
off-camera,
offensive
offered
officers,
oh
oil.
ollie.
on-looking
only.
onward.
open-mouthed
opinions
orange-clad
orange-red
orangutan
orchestral
orders.
oregon.
organization.
organizes
original
ornaments
orphans
outing.
outlined
outstreached,
overflow
overloaded
overlooked
overshirt
overtake
own.
owned
paced
paces
pacific.
packet.
paddling.
palms
pane
paneling.
panties
para
para-glider
parachuter
parades
paraphernalia
parasurfer
parent's
park's
parka.
parked,
participants.
parties.
partner,
passageway
patient,
patronizing
patting
paw.
payment
payphones.
peanuts.
pearls
pebble
pedestal
peels
peer.
pepsi
pepsi.
per
perch
percussionists
performers,
perfume
permanent
petite
petri
pheasant
photo-op.
photographer's
pick-up
picker,
picketing
pictured,
piggyback.
piling
pill
pillowcase.
pineapple.
pinwheels
pitch,
planes.
plans
please
pledge
plethora
plume
plumes
pointing,
poke
pokemon.
polaris
polaroid
police,
policemen,
policy
politician
poll
pollution.
pommel
pompadour
pompom
poofy
poolside
poolside.
port
portraits.
posses
posters,
posture
potentially
pots,
potters
potty.
pout
powder.
pray
pray.
precision
prescriptions.
preserves
president
press.
preteens
pride.
priest.
print.
printer.
prison
prisoner
prizes
proceed
proclaiming
proffering
propeller
propelling
propels
prostrate
protesters,
protests
provider
pub
puddles.
puffs
pulley.
punched
punches.
puppies,
pure
purposes.
pursues
pursuit.
putt.
putts
puzzled.
pyrotechnics.
quarterbacks
questioning
rabbi
rabbit.
racer's
raceway.
rackets,
raids
raincoat,
raincoat.
rained
ram.
ranch
rangers
rapidly
re
reached
reaction.
realty
rear.
rebuilding
recliner
recliner.
recoils
record.
recorded.
recreates
recreating
red-uniformed
reduce
reel
refilling
reflectors
refuse.
regards
registered
rehearses
reindeer.
relationship
relaxed.
relaxing,
religion.
remain
remaining
renovations
rent.
repainting
required
res
rescuing
researcher
researchers
residents
respect
restrain
retirement
retriever.
reveals
rig.
rigging
right-handed
rink,
ripe
rise.
rises.
risk
river's
riverview
roasts
robbins
rock-climbing.
rocket.
rockstar
rod,
rodent
roofer
roosevelt
rosary
roses,
rotary
rotisserie
roughhousing
rowed
rows,
run,
runner's
runner.
rusting
saber
sac
sailboats.
sailor's
sallie
sandal.
sandpit
sapling
sarong
satchel.
satin
sausage.
sawed
saxophonists
says$
scares
school-aged
schoolwork
scowls
scrabble.
scratch
screened
scribbling
scrubby
scuffle
sculpted
seahorse.
season
section.
seductive
seductively
see-through
seek.
sees.
seesaws.
segment
segways
seller
seller.
separates
sequin
serious.
shade,
shaggy-haired
shampoo.
sharping
sharply
shaver
shepard
shielded
ship's
shirt's
shopkeeper
shoppe.
shotgun.
shove
shoveling.
showered
showroom
shredding
shrimp
shrouded
shrug
shrugs
shuffles
shuttlecock
sick
sickle
sides,
sideshow
sift
sigh
sightseeing
sightseers
significant
silently
silhouette.
silly.
simpsons
simultaneously.
singlet
skatepark.
sketches
skewer
ski,
skins
skull.
skunk
skydive.
skywalk.
skyward
slate
sledder
sleds.
slices.
slightly.
slippery
slouched
slush
smallest
smashed
smashing
smear
smirk
smirks
smooth,
snack,
sneaker.
snorkel.
snow;
snowboarders,
snowfalls.
snowflakes
snowmobiler
snowshoe
soaked.
soaks
sodas.
software
soiled
solo.
sombreros
sometimes
sooner
soprano
soundboard
sounds
sour
source
southwest
spa
spaces
spade.
spain
spare.
spattered
speakers,
spectacular
spectate.
spectating
speedos
spherical
sphinx
splashes.
split.
sponsors
spoonful
spoons.
sportswear
spout
spouts
spouts.
sprayer.
sprinters
sprite
spurs
squash
squid
stabs
stack.
staged
stain
stairway,
stake.
stalks
star-shaped
steaks.
stealing
steamed
steampunk
steered
steins
stems
stew.
stitching
stocked
stomach,
stomachs
strainer
strap.
strapping
strappy
strawberries.
stream,
stretches.
stripper
stripy
strobe
stubble
stumbling
stylist.
subject.
submerges
subways
suds.
sunburned
suns
sunshade
sunshade.
superior.
supervise
supplies,
surface,
surfboarding
surfer.
suspiciously
sveral
swamp.
sweating
sweating.
sweeping,
swept
swerves
swimmer,
swims,
swirls
syrup
t-rex
tabacchi.
tabloid
tailcoat
talks.
tampering
tantrum.
tapping
tartan
tassel.
tassels.
tattoo's
tattooed,
tear
tee,
teens,
telescope,
tented
terrace.
terrorist"
texas.
texts.
thong
thorugh
thoughtfully
threads
three.
thrower
thrust
thumbnail
tidal
tigers
tigger
tight,
tiling
till
tiny,
titled
to.
toddler-aged
toenails.
together;
toil
tomato.
tomatoes,
tone
tongues.
tool,
tools,
toothpick
topic.
tote,
totter
tourist.
tows
tracking
tracks,
tracksuit,
tracksuit.
tractors
traffic,
trailed
tram.
trampled
transaction.
transformer
transformers
travel.
traveled
travelling
trays.
tread
trek
trek.
tricks,
trike
trinkets.
triumph
triumphantly
trivial
troops.
trot
trouser
trowel.
trucker
true
trumpets
tubular
tucking
tugboat
tumbles
turbaned
turn,
tussling
tutu,
tutus.
tuxes
tvs
twenty-something
twigs
twine.
twins,
tye
tye-dye
ukrainian
underpass
unfolds
unicycle,
unidentifiable
unitard
unloads
uno
unopened
unseen.
unsure
untangles
unwrapped
uphill,
upholstered
upright.
upstairs.
urn
usain
used.
usual
utensils
utilize
vancouver
vanilla
vanity
vaulted
veggies.
veil,
velodrome.
vendors,
verbal
vespa
vested
victims
victoria
videographer
vietnam.
viewers.
viewpoint
vikings
violently
violinist,
virginia
visual
vividly
vocal
volley
vuvuzela
waffle.
waitresses
walgreens
walks,
walkways
warmers.
warms
wasteland.
water-filled
waterfalls
waters,
waterskis.
welcome".
welcoming
wharf.
whats
wheelbarrows
wheeler.
wheelers.
whether
whip
whipping
white-skinned
whizzes
wiener
wildflowers
windowed
windowless
winged
winking
winks
wires,
wishing
with,
woman)
woodwork
woody
workshop,
worshipers
wow
wreath
wresting
wrist.
writings
xylophones
yachts
yawns.
year.
yellow-green
york's
youn
youngest
youthful
zigzag
zooming
zune
##(
##+
##<
##=
##@
##j
##q
