<unk>
<cls>
<sep>
!
"
#
$
%
&
'
(
)
*
+
,
-
.
/
0
1
2
3
4
5
6
7
8
9
:
;
=
?
@
[
\
]
^
_
`
a
b
c
d
e
f
g
h
i
j
k
l
m
n
o
p
q
r
s
t
u
v
w
x
y
z
{
|
}
~
the
and
to
was
of
for
it
is
in
that
my
but
we
with
this
they
on
you
not
have
had
at
were
so
##.
are
be
##,
as
just
if
like
place
there
food
our
very
get
me
all
good
out
one
when
or
would
from
their
about
an
up
it's
really
here
go
some
what
no
great
time
which
he
your
been
only
will
she
service
because
back
can
more
don't
by
got
even
other
##!
after
us
didn't
do
##s
also
than
i'm
has
ordered
them
could
came
little
went
never
did
pretty
much
over
then
too
nice
i've
people
first
##)
going
how
##\"
order
come
it.
who
make
know
always
her
two
think
love
try
any
best
said
better
want
restaurant
off
made
still
chicken
way
am
few
wasn't
take
give
see
told
before
staff
asked
took
another
since
say
definitely
while
room
being
around
new
well
down
next
most
minutes
into
good.
bar
eat
where
sure
wait
right
bit
menu
his
something
##?
many
find
ever
bad
last
should
its
every
night
nothing
wanted
lot
can't
##'s
table
##..
everything
small
experience
you're
thing
long
\n\nthe
big
vegas
pizza
tried
worth
looking
times
both
cheese
now
##).
same
day
need
friendly
food.
that's
\n\ni
lunch
probably
##:
actually
feel
thought
place.
check
hot
sauce
here.
different
##\n\nthe
server
why
enough
salad
good,
price
decided
again
customer
maybe
these
recommend
happy
drinks
things
left
side
looked
drink
location
found
fresh
put
though
look
hotel
hour
##\n\ni
quite
called
getting
dinner
taste
burger
kind
ask
work
used
meal
old
quality
him
anything
once
those
half
front
pay
free
i'd
##ing
me.
area
super
prices
least
through
friend
time.
gave
couple
almost
seemed
let
each
waitress
tasted
service.
sushi
without
places
having
full
friends
meat
##ed
fried
food,
store
back.
top
use
large
i'll
someone
stars
tell
finally
stay
couldn't
call
away
hard
line
trying
home
fries
favorite
three
waiting
coming
##;
there.
it,
whole
during
##-
usually
huge
beer
served
again.
walked
until
sweet
steak
manager
breakfast
won't
sandwich
however,
felt
open
high
far
isn't
selection
husband
doesn't
car
decent
bread
everyone
10
coffee
out.
such
money
##),
show
review
walk
brought
visit
beef
part
eating
else
less
wouldn't
may
special
several
great.
done
water
does
years
amazing
star
might
waiter
delicious
guy
rice
end
must
care
inside
extra
close
dish
clean
enjoy
saw
fish
second
started
there's
enjoyed
especially
bring
buffet
keep
flavor
outside
cooked
##e
##y
able
tables
comes
guess
needed
well.
dining
business
ice
items
person
loved
sat
makes
wine
##d
seems
waited
fun
pork
##!!
family
reviews
worst
sit
expect
soup
red
wife
las
own
busy
instead
rather
shrimp
atmosphere
extremely
reason
##ly
restaurants
stop
##s.
group
hours
them.
awesome
real
cream
house
liked
parking
seem
cool
ended
party
strip
music
dishes
already
ate
later
here,
help
absolutely
chocolate
although
paid
perfect
##...
spicy
wish
live
lots
##s,
given
arrived
sitting
me,
too.
point
experience.
quick
ok
making
excellent
seated
time,
buy
they're
leave
cut
mexican
cold
20
cheap
fact
offer
kids
wrong
all.
plate
shop
service,
local
looks
door
start
tasty
regular
spot
##'
amount
fast
disappointed
us.
year
pick
##t
drive
deal
late
working
restaurant.
entire
completely
overall
name
days
vegas.
place,
between
phone
fan
under
pool
anyone
weren't
plus
green
rooms
well,
up.
past
doing
thai
again,
main
##i
in.
##a
heard
15
that.
course
kept
week
chips
night.
owner
town
believe
charge
return
seen
great,
either
dessert
taking
white
de
yelp
delicious.
stayed
highly
gets
##er
size
club
problem
guys
behind
there,
##\n\nwe
run
myself
yet
across
crab
set
30
near
expensive
(i
girl
rest
stopped
bbq
rude
dry
menu.
walking
serve
hair
four
french
however
understand
\n\nwe
floor
chinese
customers
short
##n
oh
lady
options
offered
plenty
stuff
totally
job
##r
hit
received
knew
better.
you'll
decor
ok.
tea
remember
trip
all,
street
gone
bill
mind
##o
poor
saturday
type
due
day.
employees
average
--
casino
slow
order.
card
la
potato
that,
counter
easy
giving
kitchen
spend
add
dog
horrible
paying
style
portions
change
light
ready
meal.
saying
ok,
glass
needs
noticed
rolls
fine
said,
roll
egg
italian
itself
tacos
price.
nice.
watch
along
bacon
area.
early
unless
ordering
table.
you.
grilled
cost
read
today
in,
##\".
hope
(and
portion
located
(which
out,
desk
friendly.
black
also,
variety
man
bar.
view
seating
wonderful
twice
nice,
haven't
checked
beautiful
turned
burgers
taken
five
mean
per
garlic
bad.
excited
cake
choose
amazing.
##\nthe
servers
based
though.
impressed
pasta
boyfriend
bartender
spent
talk
sauce.
warm
wings
salsa
##!!!
aren't
sign
bought
eaten
literally
sometimes
friday
hear
empty
others
terrible
within
sunday
glad
room.
talking
so,
exactly
number
expected
head
girls
moved
company
often
disappointed.
charged
morning
months
had.
one.
feeling
surprised
choice
list
says
patio
eggs
piece
lobster
staying
middle
simply
quickly
flavor.
pieces
flavors
idea
total
chef
supposed
bowl
somewhere
upon
taco
bite
takes
minute
thank
##\ni
vegas,
bottle
ago
appetizer
hate
simple
it!
longer
lack
friendly,
perfectly
office
except
orders
hostess
added
sort
potatoes
hand
##\n\nmy
write
asking
basically
yes,
kinda
helpful
stars.
mac
on.
:)
menu,
credit
bland
seafood
including
frozen
minutes.
weekend
low
\nthe
priced
tip
please
dinner.
fairly
filled
play
location.
away.
dirty
back,
ones
certainly
prepared
onion
mention
go.
reasonable
shopping
night,
weeks
stand
available
typical
recently
showed
bathroom
loud
barely
cup
opened
seat
etc.
##\n-
standard
asian
crispy
\ni
for.
goes
soon
sandwiches
save
slightly
waste
immediately
space
salmon
okay
either.
expecting
birthday
considering
packed
beans
##es
mixed
though,
cannot
above
single
tasty.
yourself
grab
forward
down.
sent
mediocre
more.
oil
picked
running
greeted
phoenix
lost
thinking
\n\nmy
off.
avoid
restaurant,
bar,
medium
worked
game
else.
serving
say,
move
tiny
dance
butter
finish
pho
up,
fantastic
drinks.
to.
happened
mostly
dont
home.
cheese,
truly
interesting
us,
clearly
attentive
bed
awesome.
seeing
plates
reservation
times.
crowd
but,
cafe
tuna
management
park
comfortable
soft
apparently
le
forgot
##\n
fix
turn
lunch.
day,
people.
gotten
issue
beers
we're
##\n\nthis
cute
##l
pulled
chance
finished
young
pizza.
overpriced
we've
changed
woman
strip.
corn
evening
using
playing
noodles
chose
city
salad,
hands
obviously
anywhere
appointment
baked
sorry
salad.
cook
way.
closed
bad,
dark
staff.
...
best.
tastes
special.
die
blue
rib
perhaps
thin
ingredients
burrito
seriously
unfortunately
unique
room,
nearly
month
chicken,
mix
you,
curry
crust
hungry
attention
level
##m
(the
speak
now,
authentic
ambiance
despite
tomato
compared
brunch
watching
downtown
et
crazy
prime
tasting
option
order,
choices
mom
area,
checking
center
whatever
pricey
excellent.
bunch
plan
normally
stick
okay.
split
was.
explained
recommended
meals
fries.
hold
honestly
chili
easily
clean,
pleasant
town.
miss
mentioned
seats
standing
prefer
hotel.
eye
weird
thanks
leaving
visited
crowded
drinks,
reading
item
them,
45
sour
mall
means
##h
sad
yes
tv
covered
actual
life
none
visiting
case
together
sides
store.
okay,
sauce,
included
pass
smell
date
off,
money.
forget
wait.
cash
cheese.
(not
specials
sell
employee
box
salt
mine
not.
$10
overall,
sausage
complete
this.
delivery
wall
place!
dollars
now.
much.
yummy
previous
helped
original
try.
work.
matter
online
smaller
share
side.
appetizers
right.
double
suggest
air
shared
figured
table,
section
craving
min
somewhat
treated
hoping
school
spring
outdoor
veggie
good!
attitude
meal,
delicious,
\n\nthis
multiple
bucks
daughter
tender
incredibly
orange
fair
bag
you've
placed
scottsdale
face
beyond
personal
chain
didnt
salty
normal
ahead
ribs
son
great!
solid
is.
massage
telling
plain
rating
drink.
higher
thick
fill
deep
sandwich.
sports
about.
years.
groupon
similar
living
1/2
corner
known
airport
cause
pizza,
security
##k
worse
you'd
treat
usual
greasy
limited
american
stuffed
nails
nail
rock
complaint
nor
clear
knows
$5
slice
times,
basic
eat.
around.
world
dressing
this,
book
visit.
dogs
owners
fresh,
be.
window
is,
##the
straight
paper
particular
send
vegetarian
flat
hang
hadn't
entrees
$20
damn
##on
forever
lived
indian
##g
returned
fruit
done.
prices.
unfortunately,
overly
bottom
movie
willing
stuck
value
station
iced
ran
lettuce
lamb
missing
cocktail
burger.
informed
atmosphere.
glasses
rate
terrible.
booked
true
pour
realized
fresh.
appreciate
entree
fat
inside.
difficult
chicken.
toppings
roasted
mins
##en
experience,
notice
##p
stood
turkey
dr.
veggies
met
business.
resort
coupon
works
clean.
location,
negative
bother
taste.
did.
additional
imagine
pad
sales
traditional
building
desserts
gift
dollar
meet
dish.
toast
salads
##in
nights
major
what's
shows
cheaper
stores
likely
pepper
positive
fine.
mouth
##f
im
\n\nif
word
issues
slices
duck
realize
lovely
older
cashier
grill
chairs
hour.
throughout
salon
rare
sound
drop
fries,
mashed
pie
combo
##re
course,
general
third
tons
lines
wash
topped
cover
was,
joint
purchased
##ers
way,
price,
horrible.
guests
spoke
certain
tasty,
we'll
break
bland.
noodle
\n\nthey
later,
let's
##\n\nso
##al
ever.
fancy
##0
wrong.
experienced
bean
flavorful
un
figure
purchase
neighborhood
south
they've
japanese
he's
filet
dropped
know,
consider
thing.
(or
finding
professional
modern
awful
nicely
tickets
do.
delivered
staff,
step
lounge
w/
reservations
touch
recent
left.
before.
market
bartenders
generally
fit
small,
side,
afternoon
complain
delicious!
ten
hotels
mini
brown
class
girlfriend
baby
anything.
show.
minutes,
burger,
spa
lemon
cleaning
moving
ton
driving
and,
back!
ladies
shot
week.
shops
amazing!
shower
wanting
healthy
water.
disappointing
too,
offers
returning
wedding
average.
alone
separate
decent.
40
people,
customers.
helpful.
kid
drinking
whether
dip
event
questions
filling
##\n\nif
grand
heat
round
feels
12
apple
establishment
grocery
pictures
spending
fee
reasonably
one,
sister
seasoned
interior
decide
biggest
busy.
wonder
smoke
note
mess
review.
rice,
dinner,
buffet.
door.
onions
gives
particularly
become
impressed.
spot.
shouldn't
spinach
explain
hell
quality.
agree
on,
various
sauces
rice.
sugar
otherwise
convenient
##*
hash
homemade
bigger
color
opted
experiences
gym
folks
fine,
we'd
ago.
return.
beat
strong
korean
plate.
cold.
king
24
disappointing.
opening
bun
##and
buying
meat.
heavy
##\",
##le
bars
continue
down,
games
generous
receive
expectations
guest
bread.
\u00e0
discount
feet
flight
line.
summer
mood
plastic
ride
olive
giant
provide
creamy
house.
odd
here!
website
talked
larger
friends.
##it
deal.
strip,
machine
go,
desert
pancakes
spice
drunk
foot
tough
fell
story
bf
##.\n\nthe
skip
fantastic.
lucky
prior
first,
soda
valley
raw
suggested
conversation
foods
sense
happen
job.
long.
north
east
system
lacking
sized
mushroom
calling
before,
soggy
drove
smoked
dress
texture
soup,
flavor,
addition
no,
boy
fact,
against
casual
dishes.
below
throw
soup.
pot
doubt
trust
with.
answer
stars,
then,
quiet
heart
putting
sick
problems
##??
decent,
carne
lacked
services
reviews.
\n
bellagio
milk
broth
funny
surprise
dim
##\n\nfor
request
##u
starbucks
hours.
reminded
towards
gonna
##c
25
cool.
zero
pleased
##\n\nas
greek
loves
oh,
hardly
slow.
monday
sandwich,
vibe
lunch,
passed
classic
buffets
##ness
fun.
atmosphere,
carry
beer.
\n\nso
hotel,
dessert.
les
onto
possibly
tonight
##but
west
ramen
juice
like.
par
hubby
brand
dry.
items.
amazing,
\n\nit
closer
wants
again!
products
stated
tofu
2nd
catch
requested
food!
types
pita
picture
rich
her.
tables.
options.
wide
##\n\nthey
vegetables
allowed
rude.
complimentary
needless
elsewhere.
presentation
awful.
six
rush
hanging
something.
popular
drink,
so.
sea
dine
san
banana
important
eyes
strawberry
vegan
##\n\nwhen
tells
cleaned
\"i
juicy
reviews,
personally
thru
would've
bringing
perfect.
process
enough.
better,
smelled
range
sold
meat,
meats
provided
##ment
bites
honey
she's
problem.
##ie
ticket
mistake
him.
bill.
cocktails
thats
awesome!
miles
broken
patrons
busy,
locations
breakfast.
places.
played
interested
writing
road
version
life.
pm
instead.
cooking
neither
missed
ordered.
york
wait,
combination
pizzas
women
sounds
watched
refill
walls
whenever
##an
store,
bus
art
host
yogurt
contact
helping
selection.
(a
really,
pull
mushrooms
no.
pub
yeah,
key
state
##.\n\ni
buffalo
lights
situation
outside.
theater
lobby
california
peanut
gas
lower
agreed
ass
floor.
too!
##te
sub
nobody
wrapped
waitresses
calamari
##....
spots
coffee.
threw
\n\nwhen
truck
##nt
frequent
##!)
du
fixed
possible
attentive.
coconut
upset
ridiculous
valet
years,
cant
visit,
soon.
product
hidden
legs
booth
excuse
moment
everything.
##\n\noverall,
college
correct
kick
bell
charlotte
crappy
crap
fall
sample
und
##able
comment
home,
sounded
##..i
##\nwe
country
(we
anyway,
email
earlier
top.
bread,
relatively
besides
opinion
serious
allow
knowing
steaks
register
sliced
today.
serves
days.
admit
dj
honest
stuff.
surprisingly
proceeded
tired
refused
nearby
arrive
over.
typically
sum
till
vanilla
line,
beer,
doors
difference
stomach
avocado
ranch
themselves
inside,
##rs
ago,
parts
random
tortilla
pop
doctor
arizona
strange
bottles
lot.
venue
nachos
clothes
##\n\nservice
mile
star.
suite
wrap
cab
asada
suppose
entrance
##x
##\n\n
turns
workers
concept
smile
que
machines
overcooked
screen
appeared
expensive.
later.
sure.
tuesday
##!!!!
knowledgeable
enjoying
hopefully
waffle
bright
meant
starting
##b
member
handle
include
margarita
thing,
menus
\"the
question
bacon,
driver
things.
following
daily
right?
band
restaurants.
waiters
friend's
truffle
quickly.
post
roast
small.
check.
guacamole
shop.
service!
50
skin
body
managed
dozen
parents
alcohol
ground
car.
##\n\nit
complaints
became
had,
$50
##'s.
cars
future
##z
here's
wear
support
mango
chicago
town,
enough,
insurance
pricing
luck
des
melted
thursday
english
dead
fire
consistently
tomatoes
mean,
private
points
prices,
like,
water,
gravy
tend
gotta
pleasantly
health
non
headed
response
promptly
cakes
offering
##\n\nour
wynn
satisfied
annoying
sweet.
areas
ny
wow
owned
est
pain
##?\"
absolute
eventually
hole
famous
shoes
dipping
pink
##5
around,
pas
apologized
$15
chipotle
get.
self
hot.
vip
constantly
internet
dried
specialty
diner
burnt
shrimp,
crisp
god
brisket
follow
team
deli
evening.
cream.
scallops
:(
stage
vietnamese
(they
dressed
cheesecake
soy
##ion
handed
yesterday
##\n\nall
hip
they'll
seriously,
steak,
wearing
\n\nas
free.
sushi.
bathrooms
\"
myself.
##ce
en
##\n\nbut
fast.
to,
$30
visits
smoking
##/
belly
update
ignored
tour
pointed
\nwe
refund
upscale
hot,
act
dry,
##--
children
au
nasty
dish,
shame
dancing
mgm
coffee,
outside,
rental
goat
together.
work,
rings
calls
point,
point.
tables,
weekend.
beds
leaves
garden
keeping
laid
right,
\n\nfor
excellent,
fabulous
not,
fault
peppers
information
$25
beef,
compare
(it
morning.
##+
year.
sweet,
further
special,
bloody
\n\nthere
music,
ruined
pittsburgh
caesar
cheap,
available.
street.
tower
signature
sun
awesome,
travel
steak.
somehow
rent
sushi,
crunchy
$100
overpriced.
##.\"
deliver
dessert,
cold,
##or
az
know.
setting
safe
##?!
hummus
cupcakes
mother
bagel
christmas
learned
unlike
##..and
plus,
annoyed
rave
selections
##ies
nicer
access
bland,
fully
##\n\nafter
members
hour,
attempt
impression
##ting
kinds
elsewhere
trip.
away,
nothing.
creme
men
tap
training
incredible
long,
\n\noverall,
music.
noise
wrong,
began
arrived,
manager,
bone
upstairs
polite
caught
everywhere
disappointment.
disappointment
steamed
rarely
eggs,
time!
deals
choice.
patient
corporate
do,
from.
fun,
happens
replaced
they'd
vegetable
person.
tad
closing
welcome
final
luckily
priced.
buffet,
##\n\nand
leave.
bakery
slow,
expected.
cirque
poorly
confused
chopped
list.
mandalay
gyro
affordable
miso
begin
##w
for,
followed
listen
dishes,
discovered
pair
pet
clubs
complained
property
##ne
furniture
learn
polish
review,
likes
wont
bay
server,
of.
specifically
tempura
tea.
roll.
lazy
##ry
club.
replace
square
une
empty.
bags
shredded
anymore.
advantage
donuts
numerous
planning
signs
effort
refills
describe
chunks
outstanding
$2
##ted
favor
shuttle
ridiculously
happy.
honestly,
eat,
je
grabbed
##2
relaxing
starts
anytime
continued
cards
windows
wine.
shocked
gluten
package
common
moist
rolled
apart
freshly
repair
lighting
cookie
full.
really?
wasnt
chewy
casino.
locals
platter
oysters
roll,
gelato
words
##ish
listed
manager.
sadly
uncomfortable
money,
tacos.
terms
sashimi
aside
meeting
cream,
wonderful.
chair
hearing
rushed
dad
golden
includes
##pm
obvious
kitchen.
video
wifi
(as
cookies
receipt
showing
##\n\na
margaritas
exact
picky
wine,
##00
##ic
ham
cool,
mediocre.
tempe
design
cozy
environment
sale
gel
have.
hopes
cheap.
directly
layout
specific
lose
breakfast,
saved
aware
##1
1st
search
\n\nour
weather
board
favorites
costs
wet
picking
same.
awhile
onions,
shake
elevator
$1
originally
##ch
##\n\non
help.
via
much,
answered
basil
montreal
yellow
gross.
##?)
(with
gross
anyway.
cups
$3
pedicure
restaurants,
salty.
charging
tacos,
tire
##less
show,
flavorful.
teriyaki
while.
chile
pan
cupcake
express
sleep
rude,
distance
named
rolls,
items,
parmesan
(but
..
posted
party.
seated.
tvs
tip.
stupid
card.
seasoning
\n\nit's
disgusting
tech
ayce
greens
(for
sure,
fountain
\n\ni'm
out!
##\n\nthere
selection,
dive
meh.
shit
closest
foie
changes
impressive
11
door,
upgrade
bike
reasonable.
wild
(no
goodness
beginning
enter
fellow
trouble
week,
candy
assume
first.
sliders
groups
omelet
##y,
##..but
cuisine
\n\nall
wednesday
##e.
done,
carpet
fake
##no
gold
ridiculous.
charges
waffles
fry
best,
quality,
tapas
dined
boring
brings
\n-
at.
mouth.
yet.
game.
failed
hype
toilet
phoenix.
messed
opportunity
wood
forced
##to
3rd
house,
today,
burgers,
comfy
sucks
chefs
opinion.
##'s,
friends,
der
open.
stock
(in
##\u00e9
brother
depending
beans,
smells
properly
##ve
reminds
favorite.
##is
impossible
fast,
parties
schedule
cheesy
heading
presented
alot
broke
customer.
lime
held
bank
loaded
shell
##st
account
department
won
(my
female
mainly
rolls.
spaghetti
##se
3.5
(like
among
blow
bothered
\n\nservice
boba
island
crepe
produce
\n\nafter
vodka
comfortable.
expensive,
highlight
spacious
##3
##ity
basket
##us
##th
massive
practically
match
written
speaking
##y.
repeat
southern
yummy.
##ng
$40
arrived.
ball
more,
jack
potatoes,
caramel
selling
hung
planet
different.
##so
##e,
lol.
keeps
flavored
chip
sticky
adding
toasted
hawaiian
##\n\nit's
decor,
##we
orders.
##ia
chill
computer
mayo
100
coupons
vegas!
me!
advice
##ble
ourselves
server.
(if
garage
recommendation
scene
care.
regret
central
court
appetizer,
booths
block
##ter
awkward
lets
pudding
tub
trendy
creative
eggplant
scheduled
floor,
##ling
floors
appreciated
cinnamon
potential
stay.
name.
towels
family.
organic
trash
lettuce,
did,
end,
saving
joint.
by.
sizes
hours,
blown
chips.
taste,
appetizer.
mozzarella
finally,
sorry,
form
downstairs
holiday
options,
ive
(even
patty
biscuits
rooms.
##$
hasn't
plate,
wings.
patio.
potatoes.
extensive
thrown
else,
claim
tasteless
velvet
disgusting.
yeah
stale
phone.
chips,
signed
bite.
equally
meatballs
classes
old.
once.
broccoli
coke
accept
##as
wrote
##???
deserve
lol
dough
comfort
football
photos
deal,
pineapple
traffic
flag
##ing.
decor.
pure
accommodate
car,
screw
kids.
remembered
ordered,
child
gentleman
gourmet
treatment
attentive,
crowd.
hungry.
world.
theme
removed
ginger
reviewers
valley.
facility
gorgeous
freaking
##ra
social
shut
blood
future.
cooked.
spread
counter.
proper
mustard
##\n\n-
##8
anything,
pack
irish
shots
\n\nbut
sandwiches,
closed.
consistent
packed.
kobe
yet,
wings,
pool.
company.
##not
check-in
ambience
control
hey,
##ful
often.
average,
option.
rip
balance
wanted.
wow,
tea,
enjoyable
refreshing
decorated
gras
prepare
##am
mad
vacation
ring
test
pork,
##4
aria
display
flavors.
yelpers
afraid
tortillas
##..the
\n\nin
person,
##ed.
public
paint
greet
st.
##est
wasted
bit.
huge,
two.
martini
##\n\ni'm
majority
anyone.
hint
size.
bet
sooo
crowded.
seated,
concerned
diet
snack
el
fashion
big,
wanna
remove
sake
wondering
darn
views
$8
prompt
asks
mr.
cuts
whipped
madison
reserved
anyway
craft
spoon
apartment
detail
quick,
##'ve
complaining
places,
city.
course.
mais
power
quick.
natural
seating.
helpful,
outstanding.
steakhouse
cutting
letting
beef.
nowhere
age
##\n\none
id
cheddar
fingers
##el
thoroughly
##ir
##my
notch
count
fish.
##ly,
##la
$12
establishment.
pissed
venetian
##na
stone
current
cuz
switch
seconds
##d.
handful
champagne
welcoming
al
shot.
site
das
\n\non
otherwise,
other.
worry
policy
pepperoni
feed
others.
runs
salads,
##os
fans
end.
deserves
pressure
sesame
efficient
initial
##ty
familiar
grease
morning,
shrimp.
benedict
there!
##6
hand,
relax
##ation
boys
cell
what?
attitude.
year,
birthday.
male
style.
fish,
##ive
alright.
preferred
cake.
fan.
still,
tourist
ahi
changing
pesto
worse.
accommodating
mild
gem
soooo
described
ready.
fare
tax
app
instead,
name,
adult
qui
syrup
##at
$6
##\nmy
appears
yelp.
considered
things,
minimum
could've
kill
philly
\n\n
and/or
acted
note,
old,
according
high.
message
mint
photo
fly
vehicle
balls
create
slot
circus
rooms,
wing
fitness
inch
bagels
los
\"we
space.
texas
cajun
planned
reasons
melt
##\n\nin
secret
##man
wife's
draft
approached
salsa.
temperature
tips
you!
sucks.
her,
large,
##\n\nwhat
\"you
assured
cherry
dirty.
oven
equipment
him,
train
twice.
chop
rated
(at
promised
##ian
choices.
entered
joke.
golf
wines
yes.
animal
possible.
romantic
pretzel
falling
watered
##\n\nyou
also.
inexpensive
paris
push
spectacular
def
ich
returning.
##et
(who
budget
left,
maintenance
want.
previously
entertainment
with,
ever!
mark
palace
##'d
##ta
\n\na
eating.
yum
pool,
queen
cancel
savory
anymore
$4
gf
decision
casino,
consisted
partner
sandwiches.
spicy,
change.
expectations.
tomatoes,
blame
pricey,
consistency
names
slaw
issue.
beans.
liquor
mall.
crew
portions.
myself,
scoop
warm,
housekeeping
cucumber
##s\"
courses
huge.
friend.
seared
address
bass
terribly
case,
poured
enchiladas
stopping
tires
##\n\noverall
chow
##a,
go-to
shop,
##...i
holding
built
hey
$7
afford
classy
ingredients.
wow.
studio
unprofessional
offer.
##-up
settled
mushrooms,
airport.
apologize
ceiling
pastries
to-go
ac
row
sadly,
corned
sausage,
100%
\n\nand
entirely
it?
individual
tom
##'.
\n\ni've
initially
hamburger
fridge
batter
once,
topping
##-like
##they
celebrate
spicy.
kidding
##ine
hire
ways
##a.
ripped
##\n*
ravioli
##o's
dude
ill
short,
cooks
pastry
etc
lot,
bill,
burgers.
careful
appetizers,
hurry
memorable
##r.
fatty
macaroni
minus
##\n\nfirst
be,
club,
popcorn
center.
pumpkin
mind.
honest,
cart
over,
business,
##led
c'est
comped
husband's
specials.
can.
days,
loud,
through.
dumplings
loud.
clothing
il
starving
##ck
events
grew
heck
ribeye
##\n\nnow
dressing.
owner,
say.
##one
casinos
##7
fight
screaming
part.
##er.
##ier
breast
contacted
##.00
(although
base
months.
asparagus
jalapeno
mussels
season
##!\n\ni
(i'm
history
pile
pricey.
50%
build
try,
spanish
relaxed
sharing
##-style
gambling
##'ll
canned
student
##ized
bits
seen.
spectacular.
stylist
##\n\nnot
easier
currently
wished
##!\"
\n\noverall
mill
##ge
culinary
neat
##ts
weekends
diners
unable
weekend,
books
complex
itself.
sticks
beach
charge.
##\n\ni've
pound
dealing
downside
hair.
factor
##t's
would.
intimate
holy
opinion,
wow!
afternoon.
are.
alright
boxes
insisted
terrible,
yelling
flying
##ll
crepes
free,
meals.
china
veal
knock
manicure
smooth
upgraded
mistake.
focus
honor
own.
cat
espresso
entering
##er,
indoor
mountain
yum!
##t.
slight
##de
problem,
container
convenience
crowded,
reason,
that!
angry
##s!
something,
stuff,
factory
horrible,
fiance
occasions
vet
tucked
fluffy
membership
sucked
##up
bc
buns
it'll
soups
bottled
managers
quoted
##ro
20%
hop
everytime
pancake
passing
##ping
waitstaff
bowl.
win
chance.
miss.
regarding
were.
beverage
stepped
hurt
##this
spoiled
ketchup
students
thumbs
yoga
smoothie
improve
group.
himself
perfectly.
throwing
trips
b/c
served.
dr
lv
shirt
bacon.
led
stands
alternative
required
fees
only.
##ant
view.
##%
chatting
##\nthey
elevators
weak
##ing,
about,
bowls
burritos
least.
needed.
energy
puts
refilled
chat
quesadilla
##out
strips
tight
fork
apology
ends
warm.
rating.
very,
enchilada
##\nthis
value.
assumed
(that
clue
ce
latte
salsa,
that?
unlimited
##o.
doing.
alright,
artichoke
cake,
meatball
exceptional
far.
it...
judge
less.
ribs,
walks
##ate
went,
hospital
buddy
finishing
comp
voice
;)
advance
flavorless
swear
waiting.
acknowledge
joke
dirty,
late.
tender,
bedroom
poker
##ally
bath
pushed
##9
brunch.
fantastic,
\nmy
dans
offerings
waited.
carrot
courteous
thus
pickles
wheat
##red
cooked,
recommend.
auto
knowledge
younger
street,
minor
month.
premium
beers.
track
respect
appear
donut
lacking.
##ke
joints
replied
mary
meaning
restroom
2.
salty,
shortly
subway
weird.
exception
greasy.
snow
toward
community
counter,
raised
chorizo
leg
bucks.
explaining
print
timely
walmart
everywhere.
standards
treats
appetizers.
cents
far,
flavorful,
came,
chandler
risotto
tasteless.
haircut
kitchen,
takeout
lives
reach
job,
##ur
businesses
sangria
\n\none
advertised
tv's
comparable
mon
pleasant.
kids,
worried
almond
pleasure
mignon
##\n\nto
needs.
industry
museum
cheapest
new,
clam
hungry,
should've
toppings.
new.
90
reservation.
spices
them!
2.5
ist
manage
plus.
pm.
##me
##'m
scottsdale.
office.
tomato,
##ous
fremont
lit
##!).
frequently
oz
undercooked
##ped
designed
rack
made.
start.
mushy
quickly,
mediterranean
seating,
tall
bathroom.
blocks
##um
overpriced,
shoe
why.
immediately.
(this
raspberry
families
open,
##r,
burrito.
said.
occasion
lake
peppers,
up!
practice
songs
##!\n\nthe
dog.
professional.
ne
everyone.
reason.
##\n\nfood
evening,
ones.
tossed
bistro
finger
jerk
cheeseburger
each.
man,
recommendations
regularly
size,
watery
steam
convention
parked
target
comments
interest
mesa
sprouts
tao
remind
##o,
arriving
experience!
former
part,
panda
handled
\n\nnow
card,
drank
twenty
leftovers
regardless
metal
surrounding
song
happily
medical
perfection.
benefit
fantastic!
feel.
hard.
waitress,
adults
conveniently
scrambled
accompanied
ambiance.
sampled
satisfy
burned
apps
##ated
##v
coast
report
case.
crunch
greasy,
cole
2-3
appointment.
book.
ignore
noodles.
details
\"oh
indeed
swimming
\n\nyou
16
concert
pastrami
seven
everybody
blah
butter.
frosting
beware
thrilled
tab
noodles,
quote
million
amazingly
full,
recall
sets
who's
root
salted
two,
while,
##ed,
entrees.
avec
balsamic
appropriate
poutine
situation.
spot,
##.i
colors
$9
blend
comparison
filling.
35
growing
omelette
popped
##n't
beautifully
customers,
jump
##you
stairs
attempted
love.
present
tr\u00e8s
vous
##ny
charlotte.
receptionist
##\n\nalso,
clients
custard
eats
waiter,
clerk
forgotten
marinated
went.
browns
beautiful.
pasta,
quantity
rio
wall.
close.
fan,
pools
winter
light,
es
heads
edge
opened.
suggestion
taxi
desserts.
drunken
lightly
simple,
weight
\"no
confirmed
##\n2.
##do
18
midnight
parking.
mongolian
german
result
came.
ya
nigiri
phoenix,
shape
yelp,
##he
fusion
entrees,
incredible.
impressive.
movies
nicht
earned
lemonade
eastern
wax
helps
venture
glass.
mine.
paradise
cross
news
twice,
degrees
searching
john
speed
call.
hall
salmon,
salt.
confusing
oily
stumbled
marinara
sink
tipped
face.
(you
all!
blueberry
##99
plates.
##es,
##line
chris
(see
traveling
!!
attached
pay.
hitting
assortment
exciting
expect.
issues.
joe's
tries
everything,
yard
attention.
omg
\n\nwhat
attended
greatest
late,
yourself.
guys.
washed
amenities
cilantro
empty,
mess.
supposedly
tray
check,
screwed
updated
advised
beautiful,
by,
organized
4th
lil
share.
gate
july
ours
trip,
vinegar
(especially
desired.
entree.
keys
\"what
ain't
caused
maple
noisy
are,
encountered
listening
vibe.
working.
section.
introduced
opposite
style,
generic
guy.
pickled
priced,
adds
hollywood
info
peak
teeth
weekday
edinburgh
patio,
phone,
worker
$200
ample
hated
love,
see.
custom
everyday
beers,
description
dig
layer
receiving
smart
stating
mail
politely
sides.
portions,
cares
waitress.
happened.
he'd
high,
park.
weekly
wicked
acknowledged
assuming
pants
seasonal
tart
conference
farm
naan
oil.
anniversary
touch.
##\n\nso,
entertaining
sampler
suck
professional,
raved
audience
goods
samples
unhappy
\nthey
dirt
napkins
perfect,
yummy!
##go
##in'
anywhere.
blew
friend,
suggestions
then.
cabbage
paired
bowling
shaved
staring
lead
party,
satisfied.
unit
rudely
cigarette
created
war
turning
##(
gordon
tag
bitter
iron
##ent
featured
essentially
peach
##ps
kicked
toast.
##es.
fair,
responded
comfortable,
orders,
rid
##ged
\n\nnot
monte
dropping
\n\nfirst
front.
plaza
gratuity
somebody
hits
example
luxor
sad.
(one
find.
arrival
lacks
tonight.
cramped
newer
cost.
forth
ambiance,
degree
karaoke
##...and
early.
go!
warned
text
soggy.
##..it
alone.
##ist
buttery
olives
bonus
interesting.
station.
pork.
either,
##d,
oyster
stocked
overwhelmed
14
annoying.
braised
##ma
michael
necessarily
star,
rough
space,
stations
warning
dentist
flamingo
loyal
##tion
construction
happen.
thinks
exchange
##h.
costco
min.
booking
mid
facing
fucking
guy,
quarter
employees.
lame
really.
southwest
top,
claimed
disappoint.
gamble
queso
fee.
##\nit
guessing
thankfully
##\n\nhowever,
tourists
hoped
questions.
bed.
bang
box.
hello
overcooked.
pie.
plans
##nd
mcdonald's
need.
##ging
wonton
me?
snacks
sucked.
garbage
necessary
warranty
nicest
##les
gone.
##\nand
coworkers
egg,
pasta.
til
couch
ruin
3-4
breaded
law
soaked
##'re
nyc
reception
lo
workout
edible
entree,
worst.
bruschetta
regulars
suit
am.
nights.
results
states
uses
from,
whoever
bag.
join
flour
##y's
##n,
efficient.
replacement
dancers
pig
got.
overwhelming
3.
addition,
palms
suites
veggies,
associate
buds
##just
##t,
animals
faster
of,
seat.
surrounded
justify
happening
locally
packed,
##king
60
....
##way
##ns
aged
arm
auch
cleared
event.
##\n\nat
a/c
denny's
##que
coleslaw
crave
sky
checkout
(it's
crispy,
dark,
date.
eggs.
going.
(including
checks
code
mall,
retail
screens
sending
st
tank
veggies.
payment
scared
##ned
(yes,
draw
:-)
refuse
damage
shirts
sont
understanding
\n\ntheir
noon
switched
yelled
funky
load
halfway
invited
pitcher
poor.
wasting
(though
contract
boiled
cared
argue
genuinely
take-out
whatever.
fail
confirm
dollars.
gal
research
risk
waters
falafel
grown
village
big.
it)
leather
amazed
convinced
crowd,
men's
##age
sur
tequila
cafe.
heated
##\n\nwhile
action
mike
tender.
encore
frustrated
##ton
companies
plates,
tip,
$60
example,
bouncers
neighborhood.
stays
ensure
laughed
10-15
beverages
burrito,
impress
luggage
tail
montreal.
games.
gladly
trained
cleanliness
environment.
ingredients,
wonderful,
hill
(maybe
lasagna
surely
##\n3.
1.5
\n\nto
vintage
rates
steep
anyways,
clientele
day!
hundred
guests.
mind,
recommended.
guys,
##rt
pushing
singing
squash
actually,
terminal
toast,
jam
flowers
towel
heaven
magic
saturday.
dealt
onions.
therefore
acts
protein
window.
features
notch.
life,
noted
players
rewards
slowly
theatre
reviewer
##co
acceptable
dresses
level.
balcony
butter,
crowds
##il
excellent!
guess.
perfection
##house
stores.
##]
boss
human
purchasing
liquid
note:
unusual
wraps
##\n\nthat
flavors,
list,
attendant
prix
concern
idea.
referred
sunday.
crap.
delightful
scallop
stellar
dinners
girlfriends
triple
occasionally
available,
building.
cousin
gnocchi
passes
sauteed
##da
entry
portion.
center,
often,
$35
bouncer
cuisine.
grill.
laughing
couples
loose
diamond
rose
seats.
##by
burn
hassle
sorts
volume
worthy
##ure
boring.
##h,
j'ai
onion,
par.
inform
palazzo
brew
chocolate,
cooler
flavorless.
falls
pit
##i,
debit
##ly.
carnitas
longer.
mahi
mein
pittsburgh.
reasonable,
##ring
desk.
hilton
companion
bisque
con
inviting
losing
nous
promise
variety.
game,
weeks.
eager
strawberries
brownie
disappointed!
unfortunate
barbecue
raving
fed
dog,
everyone's
sign.
terrific
together,
well!
!!!
stop.
strongly
guac
hallway
messy
beauty
##n.
caesars
direct
patron
chances
conversation.
couldnt
ever,
dipped
opposed
\nthis
concierge
select
seriously.
crust.
attend
bien
early,
fajitas
rare.
cleaner
understood
##ss
grace
hearty
reviewed
shitty
specials,
wooden
##iness
cup.
pride
surprised.
provides
sheets
worn
downhill
easy.
tan
inn
\n\nalso,
caramelized
combined
bbq.
smothered
wallet
opens
satisfying
blt
luxury
blonde
feta
beats
minimal
record
connected
providing
soo
doctors
says,
approach
pancakes,
##!!!!!
##a's
brick
didn't.
earth
sweetness
for!
guarantee
shakes
zu
back?
reservation,
better!
laugh
page
though!
desk,
##iest
bun.
mi
painted
piping
cracked
nuts
overall.
rep
1.
accommodating.
frustrating
soul
$14
allows
downtown.
thought,
filipino
knocked
least,
setup
irritated
collection
ratio
texture.
##ey
bands
jimmy
listened
luckily,
roof
waiter.
were,
sticking
wave
##ar
array
joe
favorite,
se
##ee
amongst
chowder
definite
group,
upper
wipe
da
i,
(so
deciding
silverware
client
eight
facial
plane
problems.
den
##per
13
punch
shady
sits
technician
badly
dream
forever.
herself
ideal
tone
bachelorette
carrots
come.
yum.
stains
coat
pulling
alfredo
amounts
cafeteria
station,
10%
foods.
hundreds
spit
##pm.
attending
bite,
grade
granted
mentioned,
printed
products.
swiss
why?
grits
caesar's
lesson
trade
filthy
marked
steps
brulee
knife
locked
appealing
croissant
tops
heaven.
sells
surprising
henderson
muffin
cut.
mixture
nervous
best!
city,
horrible!
salon.
woke
\"i'm
spare
whom
decently
eating,
advise
look.
mirage
someone's
sooooo
automatically
cheeses
fun!
tv.
##\n\ndon't
neck
slots
smile.
##\n\nanyway,
becoming
doesnt
itself,
warn
##\n\n1.
#1
chocolate.
father
latest
pedi
pre
cod
feature
##ls
appeal
assistant
lousy
quaint
clams
killer
sexy
uncomfortable.
choosing
different,
fair.
sans
wasabi
bed,
microwave
reached
ribs.
massage.
parking,
##\n\n*
admission
agent
attractive
challenge
changed.
enjoy.
fare.
online.
rented
skinny
story.
tout
waiting,
(very
dying
crack
##ay
expected,
had!
\n\nfood
(just
del
smokey
ugly
\n\nat
flip
mcdonalds
21
ability
coworker
horribly
kudos
nightclub
stadium
apologetic
hipster
selected
wise
constant
driven
motel
stir
hair,
pancakes.
sin
skills
skipped
charming
reserve
shown
##ft
$10.
buck
outlet
heat.
levels
native
needing
lay
thin,
##.\n\nwe
(there
faces
staple
embarrassed
unpleasant
##land
church
jeans
she'd
trio
whose
5.
appointments
bored
fool
inedible.
bucket
cosmopolitan
greeting
blast
pressed
##95
hard,
improved
rainbow
second,
services.
deposit
dogs.
drenched
##\nif
(on
choices,
dealership
dinning
pint
hostesses
memories
stops
hand.
pillows
stack
what,
awful,
involved
more!
smoky
biscuit
require
thanksgiving
competition
locations.
tasty!
advertise
blah.
legs,
##..not
pies
food...
mit
compliment
destination
##s)
reviewing
salads.
4.
ceviche
dental
have,
it.\n\nthe
language
personable
zucchini
juicy,
police
pretentious
personality
silver
sometime
##...but
mediocre,
strike
establishments
night!
panini
shoulder
monthly
superior
urban
##-sized
system.
another.
could.
rocks
cancelled
huge!
welcomed
##nce
crust,
desserts,
groupon.
##ut
##what
management.
lied
wheel
enjoyable.
instantly
nice!
steal
worse,
bomb
bon
extended
fear
cater
certificate
disappeared
seafood,
marquee
months,
oil,
voucher
teas
am,
on!
tasted.
##able.
dust
it'd
##-in
cash.
thai,
##ary
at,
bit,
breading
definately
lie
score
##which
facilities
joint,
thick,
discounted
sides,
exterior
poached
program
caf\u00e9
memorable.
##\n\ngreat
disappointed,
guard
prepared.
sleeping
correctly
purpose
unfriendly
holes
metro
calories
hat
killed
plays
spinach,
vs
world,
front,
head.
##ni
branch
commented
dates
ghetto
pear
taco.
bathroom,
direction
emergency
skeptical
western
field
rolling
view,
##\n\ntheir
adequate
communication
hookah
it).
last.
past.
tends
wee
foodie
shift
##if
##ley
heavily
\n\nhowever,
afternoon,
avocado,
desire
item.
paperwork
tots
chef's
file
isnt
silly
##ming
condition
see,
apparently,
fired
insanely
##-out
##ving
\"oh,
spilled
want,
##sh
arrive.
road.
sloppy
alcoholic
exit
overlooking
runny
cute,
bugs
half.
wake
crispy.
get,
manner
props
stay,
squeeze
##...the
cuban
curious
hooked
passion
product.
settle
ein
others,
penny
pho.
##s:
anyways
freezer
process.
##ize
bowl,
which,
explanation
rib,
vs.
desperate
nurse
drivers
kung
nose
think.
##.and
##ating
fabulous.
flatbread
machine.
owner.
royal
tree
##.....
yummy,
land
sing
sip
walls.
\nit
booze
neighbors
superb
large.
pro
bare
grass
meals,
use.
(after
family,
return,
trader
luke
button
pay,
rubbery
substitute
##-y
##ious
choice,
complaints.
fix.
moon
received.
treasure
eaten.
fishy
labor
chairs.
diverse
hence
kim
river
surprise.
theirs
catfish
cocktails.
meh
spray
ave
gun
themed
treat.
wouldnt
##be
##ide
admit,
food?
highlights
sight
xs
brie
flights
octopus
saturday,
starter
edible.
iphone
delivery.
weekends.
jewelry
pieces.
prosciutto
meats,
seemingly
background
jumped
pace
scottsdale,
soap
tv,
##ever
battery
chains
lasted
mins.
seriously?
##\nservice
accidentally
lock
someplace
##..so
\n\nwhile
chairs,
difference.
pickle
prescription
themselves.
been.
brazilian
redeeming
stew
torn
wanted,
seafood.
both.
locker
mechanic
sick.
tuna,
class.
directed
hunt
true.
airport,
liking
nearby.
university
catering
joined
matter.
touched
##e's
inches
nope.
other,
opt
scale
whiskey
15-20
##pe
middle.
##ten
closes
couches
discover
obnoxious
ordinary
phones
suspect
yell
ale
battered
beet
condiments
largest
chai
overcooked,
pleasant,
fry's
ham,
letter
co-workers
haha.
subs
creamed
same,
start,
butt
crab,
recipe
sauces.
##.the
##ca
spiced
##bar
\n\nso,
baseball
tried.
welcoming.
comedy
coupon.
surprise,
approximately
fruits
pie,
##ct
4-5
aber
bills
ca
nails.
nut
##time
kale
rare,
seasoning.
convenient.
appointment,
salt,
##ning
hands.
tenders
##30
##\n\noh
aspect
dogs,
##-ish
##ri
bleu
hesitant
phenomenal
##m,
colored
cosmo
juice.
pico
safety
sucker
##50
depends
food:
scary
fond
else's
##ance
chewy.
hype.
rules
##ard
##che
extreme
placing
anybody
carte
requests
so-so.
trek
limit
performance
toppings,
##der
##great
fountains
kind.
mushrooms.
bummed
fourth
shoot
bananas
company,
dealers
vegetables.
copy
ear
\"well
##fish
dear
menus.
$16
circle
mirror
$18
tangy
appetite
dated
here?
unprofessional.
wasn't.
crawfish
thanks.
yellowtail
it.\n\ni
##i.
backed
declined
##l.
whatsoever.
##ness.
2)
cent
chain.
fav
length
makeup
sorry.
tooth
##burger
games,
piled
##her
installed
lukewarm
parm
##p.
\"it's
chops
found.
occasional
solely
ultimate
ultimately
caring
market.
numbers
smoothies
##oz
1/4
chick
nutella
race
simple.
ending
ice.
walls,
hh
meatloaf
modern,
breath
david
icing
opened,
stories
##..they
alas,
gripe
houses
master
ordering.
ricotta
##\nso
4.5
curry,
garlic,
performers
ups
\"this
blended
dripping
hired
husbands
rushing
buzz
(about
loving
website.
lover
march
si
bug
caprese
endless
fuck
juices
memory
moments
\n\ni'll
downright
force
miracle
peu
poisoning
\nif
festival
fifteen
newly
park,
washing
##,\"
##all
##id
cranberry
did!
floating
pecan
short.
valley,
wedge
squeezed
tongue
balanced
celebrating
rule
section,
5th
please.
theres
acting
away!
moves
sausage.
scene.
soft,
suddenly
$13
brunch,
customer,
firm
curry.
issue,
wall,
wandering
##!),
##cing
bbq,
dumb
here...
knowledgable
##cy
dare
grow
appearance
arizona.
granted,
occupied
one!
pollo
sprinkled
##m.
hotels.
breaking
fianc\u00e9
funny.
school.
##py
tough.
cashiers
cornbread
frankly
license
stars?
supervisor
##',
$11
mash
office,
berry
completed
interesting,
married
pushy
rides
steer
sunday,
varieties
wondered
##).\n\nthe
##day
arcade
emailed
tasting.
dealer
gravy.
it!!
shops.
tiramisu
desert.
gyros
restaurant!
##ze
cable
seasoned.
##.)
\u00e9tait
foods,
paid.
ppl
(all
recommending
uptown
becomes
soon!
advertising
national
##\n\nwith
boutique
light.
##med
creepy
fixed.
mistakes
(because
elegant
gilbert
patrons.
so-so
try!
bars,
favorites.
kindly
standard.
walnut
scratch
$20.
calm
combo.
exceptional.
lackluster
liking.
related
rum
significant
guide
highest
leave,
period
radio
unacceptable.
##\nbut
already.
answering
d\u00e9cor
fox
good...
stress
1)
manner.
movie.
repeated
shows.
albeit
past,
pharmacy
pics
plentiful
soak
thorough
##sed
concerns
odd.
place?
taco,
breads
gay
ingredient
lighter
##\na
gaming
rain
##ers.
greatly
twist
vegetables,
(2
bear
carts
contained
goodness.
marks
why,
after.
dining.
library
p.m.
pass.
repairs
steve
visits.
##ers,
(he
covers
freshness
glazed
people's
##very
online,
perfect!
poke
severely
hangover
outlets
(to
cheesesteak
jazz
pleased.
smoke.
americanized
cut,
dump
f\u00fcr
thousand
continues
fruit,
hesitate
laptop
refills.
ur
again?
cheaper.
dairy
hooters
madison.
\n\nthen
salsas
shelf
tacky
##our
bargain
polite,
sirloin
##\n\ngood
(except
dressing,
inspired
cocktails,
exotic
katsu
##for
$150
bubble
does.
however.
birthday,
crazy.
limited.
tempted
##\n\nno
##ld
man.
me)
processed
##\nwhen
facebook
hut
lettuce.
standards.
carrying
help,
restaurant's
##good
change,
selections.
sure!
##when
\n\ngreat
camera
model
sense.
soleil
us!
dislike
enormous
fault.
friday.
harder
place...
##.but
goes,
jersey
phenomenal.
proximity
asked,
fits
iceberg
mocha
wonderfully
1/3
co-worker
mom's
soda.
grabbing
personally,
reputation
servings
tater
unique.
##ger
alone,
asu
buffets.
flow
renovated
luck.
milkshake
stars!
awhile.
corner.
discount.
women's
##000
##ial
exam
eyebrows
mother's
repeatedly
##\n\ni'll
drive-thru
genuine
lately
resort.
shall
van
ask.
funny,
handling
international
mass
##ball
airline
burning
creamy,
tikka
\n\ndon't
disgusted
##side
look,
price!
##she
duty
juice,
max
merchandise
pocket
rich,
smiling
stare
supporting
##ise
insult
causing
delish
good:
slide
##\n\nwill
blackjack
exceptionally
virtually
banh
claims
rear
supply
eclectic
properly.
pump
straw
glasses.
nights,
pho,
roller
trail
watermelon
##ka
##oh
cafe,
imperial
in!
install
##\n\njust
looking.
patients
some.
alcohol.
az.
charm
flight.
oddly
venue.
discuss
focused
preparation
quiet,
reservations.
wi-fi
film
web
##ds
##dy
##fully
aside,
blowing
district
june
naked
frites
rang
ratings
skewers
adjacent
pastor
wiped
##it's
america
##back
april
complain.
convince
edamame
i.
rush.
seaweed
surgery
drive.
event,
ou
petite
smallest
##c.
apart.
chic
line:
salmon.
skimpy
socks
turkey,
##was
adorable
fashioned
gym.
shade
stared
tap.
bento
learning
roughly
stores,
theater.
lease
massages
refried
refund.
servers.
watering
conditioning
gigantic
made,
n'
##li
\n\nthat
date,
pao
beside
carried
exhibit
=)
rosemary
thai.
##ba
masala
menu!
pricy
##well
everywhere,
fave
reality
##g.
##ga
remaining
sehr
vast
weird,
##\n\n2.
(she
grounds
recently,
tattoo
ugh.
wrong!
##that
favourite
flies
crusted
pickup
right!
squid
summer.
##ked
peas
thought.
infused
talented
underneath
wagyu
charred
courtesy
local,
through,
##\n\nonce
\"do
pepper,
streets
sunny
wash.
##io
areas.
brewery
death
encourage
hockey
oysters,
tenderloin
dedicated
european
false
fried,
loudly
portion,
pretzels
shaped
cotton
mexico
month,
option,
purse
soggy,
authentic.
boneless
canyon
kimchi
##bs
answers
assist
comparing
fitting
lying
oxtail
tomatoes.
##ha
(from
aioli
allowing
deck
forum
gooey
guacamole,
patties
term
camelback
chilled
dragon
frankly,
herb
outdated
##y\"
apparent
chosen
lively
pizzeria
billing
brands
estimate
fondue
glass,
conversations
lamp
status
timing
##food
$5.
bellagio,
building,
fried.
hike
stage.
toes
##ner
proud
arugula
hide
raise
sauces,
yesterday.
jar
puppy
sam
sunset
##ding
bites.
nachos,
staffed
starbucks.
consists
##\n\nalso
egg.
outrageous
phx
purchase.
immediate
ourselves.
refer
rub
incident
restrooms
saying,
junk
lean
um,
can,
closed,
don't.
hibachi
ventured
allergic
cowboy
most.
seats,
wind
(when
associates
delivered.
dime
extra.
hr
leftover
tartare
waited,
##ons
7pm
cute.
liked.
stale.
##let
##ue
accepted
fancy,
jalape\u00f1o
sharp
hook
nasty.
route
setting.
appt
holds
idiot
##ened
finish.
peppers.
pm,
pouring
##\nfor
chef.
citrus
overheard
tomorrow
##\n+
daughters
earn
questioned
vendors
##end
broth.
bulk
cakes,
knots
matters
##\n\nother
covering
delish.
diego
miserable
period.
skirt
##!?
##\n\nmaybe
$300
august
confident
confirmation
inconvenience
\"how
atm
little.
shock
thousands
##..we
##more
bartender.
experiences.
in-n-out
salons
sodas
tickets.
town!
##j
eve
flew
medium.
number.
pricing.
solid.
tiny,
##\n\n\n
behavior
equal
##\n4.
bartender,
charlotte,
drag
insane
sub-par
angel
designer
flagged
peanuts
curds
eater
gem.
jacuzzi
sweat
trick
##un
girl,
works.
$80
lobster,
nature
sourdough
swing
##water
barista
because,
bud
dip.
happier
paid,
preparing
sketchy
think,
variety,
apply
neon
presentation.
press
shower.
sporting
uni
vibe,
wandered
guilty
property.
asked.
improvement
tonight,
color.
picnic
##mi
box,
layers
mousse
ready,
register.
riding
stacked
##ff
##how
affordable.
chewy,
deluxe
discounts
epic
high-end
homeless
horseradish
husband,
inquired
sale.
##\n\nwould
containers
decorations
me...
medium,
subpar
10pm
bellagio.
corn,
earl
halibut
meh,
nine
patience
prove
assigned
bobby
cards.
delish!
friday,
ignoring
leads
whats
##ki
(of
chinatown
feelings
generous.
google
penne
play.
burnt.
character
chef,
chunk
experienced.
explore
frank
hell,
meal!
##\n\noh,
bourbon
care,
hospitality
olives,
polite.
##\n\nnext
heels
kind,
manger
meaty
anyways.
happy,
remodeled
response.
##q
bird
comme
died
meets
quit
respond
apples
arguing
belt
bones
grey
now!
retro
sand
shops,
downhill.
mojito
visitors
##\n1.
##bly
although,
flaky
recognize
smelling
carlo
jungle
next.
ounce
pizza!
spot!
diced
don
each,
powder
##\n\nnow,
##rd
calamari,
colorful
contemporary
deserts
entrance.
frame
lamb,
lined
m\u00eame
people!
situated
word.
\n\ni'd
greens,
only,
pretend
reply
sampling
statement
lounge.
nacho
stole
styles
tartar
##75
(only
2,
ghost
good.\n\nthe
money's
piano
yelper
##?).
bothering
remember.
$45
boyfriend's
cave
ease
request.
smell.
veg
warmed
##com
##even
##get
8pm
9pm
\"just
juicy.
knowledgeable.
loss
##tes
6pm
\"it
children's
fills
ownership
children.
girls.
inconsistent
instructor
loads
pf
rest.
adventurous
delicate
instant
narrow
thanked
artist
bad!
basketball
escape
eyes.
lap
mix.
varied
move.
rail
whatever,
thicker
this?
\n\nonce
basically,
napkin
spin
5-star
7th
expert
fixing
george
mimosas
purple
significantly
son's
##\nour
\nso
\nwhen
avoided
boarding
seek
sheet
shelves
subtle
blackened
correctly.
mission
moist,
##ably
##lo
creating
pregnant
bun,
chain,
dense
department.
hollandaise
quiet.
servers,
slower
surf
ages
break.
cabana
chatted
crying
establishment,
general,
nevada
slip
spots.
##ky
##ok
afterwards
job!
sage
superb.
those.
##)\n\nthe
##ite
accompanying
goodies
papa
summerlin
working,
mattress
please,
reminiscent
wtf?
##.99
nerve
spotted
##ction
flower
mine,
non-smoking
primarily
terrible!
witnessed
##\n\nthen
combinations
consistent.
included.
italian,
ranging
winning
bottle.
complimented
dead.
excalibur
feedback
pathetic
terrace
##like
laundry
limo
loaf
nightmare
salesman
undercooked.
##min
called.
closet
cracker
creek
delayed
employees,
fortune
grain
lovers
spice.
##l,
##lt
military
soaking
$$
campus
sections
truth
##25
##oo
bump
eel
winner
##\n\nanother
##can
baja
chase
ihop
independent
legs.
shout
##\n\neverything
##zed
countless
drizzled
maid
notes
trees
verde
##\nthere
bars.
nachos.
sundays
vinaigrette
worth.
##ber
arms
brews
downtown,
stretch
##ery
##tic
rounds
toys
visits,
window,
afterwards.
argued
condescending
horse
own,
reliable
soon,
##ions
ad
auf
brisket,
edges
eye.
herbs
soups,
thirty
##\n\ni'd
##light
##of
(don't
attempting
dragged
grub
##ux
call,
friendly!
scallops,
spaces
trucks
unacceptable
attempts
char
culture
lines.
perfectly,
utterly
website,
##\n\nsince
##lly
\n\nanyway,
lastly,
relaxing.
rings.
born
cast
healthier
lame.
merely
nicely.
occasion.
requires
sahara
tho
tough,
##tte
browse
machines.
many,
products,
ship
connection
displayed
recently.
annual
appreciated.
catching
compliments
crushed
cuisine,
dozens
honest.
incompetent
spacious,
unnecessary
versus
wound
franchise
jumbo
regards
celebrity
grateful
signage
unique,
##k.
$17
90%
barber
channel
december
judging
utensils
##.\n\nmy
##over
dave
joy
money!
painful
signing
---
commercial
fillet
massage,
17
cox
lovely.
network
panang
wtf
boy,
off!
rye
serve.
di
directions
efficient,
filling,
fruit.
handing
bag,
bull
hrs
laying
pepper.
unbelievably
2013
5-10
carpets
cigar
leading
owns
##ung
disappointing,
marketing
montreal,
remote
separated
visible
$75
\n\noh
costs.
easy,
fail.
halloween
vegetarian,
##lich
##wood
##ya
freezing
grape
grill,
gross,
starters
taken.
any.
dumped
engine
hawaii
increase
james
leaf
smiles
indicated
supplies
##use
authentic,
chew
dan
pittsburgh,
stained
tropical
upside
brain
fighting
player
additionally,
aisle
booth.
reservations,
wander
zoo
excitement
interaction
means,
pistachio
batch
called,
girl.
it..
pizzas,
refilling
since.
tamale
tofu,
##2.
##its
##r's
strictly
suite.
##:)
(since
\n\nwith
leaving.
shooting
strange.
whip
##maybe
aisles
basis
crusty
inviting.
partially
$500
baguette
competitive
gut
legit
orleans
refreshing.
beat.
content
executed
fee,
inspection
menus,
smiled
sofa
sorbet
strong.
vacation.
welcome.
##.\nthe
fortunately
minute.
thankful
wynn,
crown
service:
shame.
year's
crammed
delay
etc.)
item,
remained
shoes,
sit.
well...
remain
##zing
fuel
pizzas.
used.
again...
correct.
microwaved
physical
randomly
sensitive
session
appetizing
applied
brakes
moderately
neighborhood,
usual,
wynn.
daughter's
drawn
margherita
reduced
shipping
skimp
slept
##ual
attitude,
lane
oatmeal
##)!
automatic
enjoy!
##..you
##\nfood
artists
down!
jalapenos
##er's
cases
grandma
jokes
question.
receipt.
refrigerator
shopping.
##tor
10.
back...
confusion
groupon,
incorrect
range.
standard,
underwhelmed
##ms
bulgogi
dudes
fruity
pei
promoter
rock.
watch.
##sion
##ville
dark.
francisco
lighting,
ma
october
ol'
speaks
sweets
(i.e.
cookies,
detailed
else!
issues,
scam
##room
admitted
bake
carrots,
none.
responsible
uncle
$70
fault,
glasses,
occasions.
packages
pain.
partying
wonderful!
feet.
path
primary
spectacular,
trop
##bed
close,
moment.
newest
ride.
aka
answer.
capital
depot
eatery
freakin
marriott
palate
spirit
touching
##--the
##rs.
denied
dryer
explains
martinis
muffins
pounds
rows
sheer
splurge
suis
##...it
##ol
pre-made
tile
um
value,
guacamole.
mani
offered.
shoes.
struck
2014
\n\nno
breaks
corrected
dingy
disappoint
instructors
refunded
memorial
missing.
shot,
situation,
soda,
time)
tip:
ate.
cooking.
crisp,
guaranteed
##--i
##ice
5pm
error
hummus,
packaged
patiently
searched
##-the
##\nnot
18%
bachelor
##.\ni
a.m.
bottomless
crab.
harrah's
lobster.
naturally
pointing
skillet
steakhouses
sundae
##service
\n\n-
delivering
fat.
general.
johnny
painting
this!
yuck.
##15
##hing
assistance
buildings
importantly,
jelly
maintained
mayo,
melts
(that's
99
arrive,
bucks,
gluten-free
lobby.
tiny.
hi
industrial
toss
what.
##ita
80
air.
dip,
etc)
santa
stuffing
##)\n\ni
##\n\nshe
##hed
meats.
redeem
string
##\n\n3.
4,
accident
brake
pasty
results.
##\n\ndefinitely
carefully
reported
thinly
##0.
##table
a-ok
feel,
jobs
paste
pinot
stolen
##ors
emails
girls,
gravy,
he'll
ordering,
playing.
questions,
ramen.
##~
brussel
buffets,
delight
effect
hell.
lux
rib.
(probably
broken.
presence
sad,
shells
slider
staff!
usual.
wife,
##ot
attack
aunt
reaction
spa.
theaters
there...
(more
happened,
lanes
locations,
therapist
##ily
marrow
seat,
stock.
california.
cleaned.
overpowering
realizing
remotely
styrofoam
thin.
##ded
chance,
coated
execution
hers
ipad
perform
pets
pricier
reheated
splitting
tasteless,
unsure
chunky
exposed
gin
intended
oz.
started.
successful
sugar.
expectation
low.
preface
senior
spoken
syrup.
##with
\"no,
eh.
mouth,
overlook
palm
prep
##).\n\ni
##men
january
resist
rings,
80's
brewed
routine
timeshare
today's
##off
boston
country.
hunger
mistake,
petit
semi
##\n\nbottom
##hi
(both
brief
courteous.
dang
pieces,
tony
##\n-the
##rry
accurate
cleaning.
grease.
management,
mere
proved
waffles,
##\nyou
##ered
alley
equivalent
never,
will.
15%
assorted
exceeded
ideas
inedible
kinks
maker
mystery
true,
anymore,
boat
mexican,
nope,
proof
shorter
ultra
##on,
\nand
dance.
gone,
popping
##\ngreat
##ient
##tive
21st
bench
diner.
folks.
hubs
lights,
name)
one's
served,
smile,
##ible
##izing
bummer
charge,
drain
feast
idea,
knowledgeable,
loco
sliders,
time...
avenue
borderline
budget.
nom
rating,
understaffed
##\n2)
##i's
cap
ears
oreo
potato,
remains
representative
slammed
sorely
suits
unexpected
wore
##thing
\"well,
basis.
bikes
bumped
cardio
chinese,
clock
disaster.
haha
mozzarella,
offerings.
reuben
shorts
waits
\n\ngood
accessible
brothers
going,
overrated.
cup,
enjoyed.
hefty
link
ones,
piece.
swim
yourself,
##bread
bs
damaged
excuses
fois
gear
maintain
mayo.
mole
port
stamp
##ical
desperately
lines,
summer,
\n\nother
cone
entr\u00e9e
monkey
texture,
underwhelming.
##\n\nfood:
aggressive
clothes,
etc,
hallways
regardless,
restaurant.com
solution
calzone
##head
22
drug
elsewhere,
overlooked
place!!
stingy
6.
buddies
dining,
ice,
pastas
wisconsin
you\"
7:30
cobb
escorted
face,
intense
sole
sprouts,
\n\njust
cocktail.
distinct
economy
electric
elvis
no!
remember,
study
##don't
##ster
co
fare,
filed
reads
relationship
responsibility
shower,
wait!
##\u00e9e
alarm
butcher
find,
lovely,
udon
200
attention,
hills
kabob
lowest
mixing
##--and
adjust
eine
fait
jumping
offer,
organization
(3
cook.
ka
officially
pedicure.
renting
weak.
wendy's
##\nno
##ening
accessories
come,
demand
mal
scattered
site.
##ler
devoured
frozen.
run.
wifi.
##\n\ndo
##\nall
##ks
acceptable.
hangout
techs
tempe.
weeks,
'n
credit,
curly
prevent
transferred
$2.50
outback
shows,
##steak
gentlemen
limp
not!
outta
scramble
shit.
thrift
treating
##den
##rate
awkward.
bar!
bone-in
folks,
forgetting
gifts
transfer
\n\nmaybe
concept,
live.
lotus
been,
curtains
electronic
ethnic
heat,
overpowered
##\n\nhe
mildly
reflect
sucks,
asleep
concept.
fooled
temp
$1.50
3,
bold
cats
harris
healthy,
milk,
milk.
wedding.
deserved
desired
er
filter
good;
location!
promptly.
##-looking
##za
\n\nanother
arrives
deals.
fridays
steakhouse.
tropicana
##en.
##gs
2012
into.
measure
properties
server's
##..this
##\n\nsome
cali
companions
dumpling
encounter
lunchtime
navigate
novelty
scream
stomach.
\"all
angus
clinic
cocktail,
grande
paella
raw.
##\n\nservice:
##ig
##ron
candle
chair.
for?
possible,
proceeds
supermarket
videos
amazing!!
bummer.
fuss
procedure
tavern
wherever
##\n\neven
mellow
ramsay
##.\n\nthis
##long
##re's
$22
4pm
broccoli,
project
thomas
##ment.
amount.
arrogant
blows
coming.
garlic.
humble
ok...
platter.
ringing
transaction
wrap.
expect,
nightmare.
posting
##g,
##where
grooming
hosts
means.
rude!
\"if
avoiding
dug
expressed
gym,
monorail
otherwise.
\"best
hostess,
indulge
overrated
television
trays
weekends,
wontons
brioche
decision.
position
suck.
\u00e7a
bouchon
flavour
mold
rooftop
whilst
\nthere
adventure
bday
btw,
frustration
rounded
say?
structure
treatment.
venues
##\n\nlike
##part
everyone,
partial
promotion
sleep.
to!
landed
strong,
sudden
##\nafter
##place
awful!
casual,
dunkin
enthusiastic
northern
rate.
tandoori
thanks,
traveled
urge
##b.
##sing
##there
corner,
expecting.
featuring
god,
pairs
refill.
rustic
##-type
court.
decadent
entertaining.
fails
med
outstanding,
rubber
runner
starters,
wir
words,
##ware
\n\nalso
connect
glance
ipa
kid's
margarita.
priority
quest
recommend!
sparkling
teach
trivia
environment,
fallen
hotels,
hyped
importantly
sugary
##ins
elderly
faux
messages
notified
plethora
sf
tube
##????
##gy
\n\nnext
\n\nsince
canadian
faced
kick.
next,
##..no
##rs,
##zy
ashamed
carries
owner's
##ble.
##ess
(yes
fixe
informative
sometimes,
sooner
three.
torta
##ed\"
##s?
##try
(also
25%
boxed
caters
concrete
cow
defiantly
returns
sausages
shake.
waffles.
wilted
##va
boring,
cans
cover.
gloves
guessed
home!
performed
potato.
slab
underwhelming
##ies.
(some
cash,
dos
fortunate
free!
freshest
mention,
professionalism
trim
urgent
wise,
catered
centre
demanded
introduce
nickel
relleno
set.
vraiment
##am.
##ties
blvd
canceled
told,
windshield
##..\n\ni
##ion.
##ti
area!
aux
buy.
cardboard
impeccable
make.
##-friendly
##mp
##nice
complaint.
oven.
scottish
shampoo
sons
tap,
toffee
##had
6:30
belgian
deal!
experiencing
powdered
smoke,
tear
theater,
wishing
##res
5,
\"are
delivery,
fancy.
head,
hier
lobby,
wife.
##**
boots
chewing
cupcakes.
determined
inner
leak
november
offended
papaya
paper.
warmer
zone
##\n\nfirst,
exercise
mentioning
refills,
replacing
roommate
shabu
sore
venetian.
##?!?
##\n\nonly
apologies
aroma
flat.
half,
handy
or,
yr
##\n\nvery
##field
11am
75
arranged
board.
mochi
reasons.
snob
sorta
sport
sticker
storage
store!
ti
##mo
##p,
coupon,
excessive
machine,
recommendations.
sam's
thankfully,
##-off
##ities
##will
\n\nwill
alcohol,
husband.
mussels,
poor,
shy
tee
valentine's
wifi,
##..it's
activities
drops
machines,
map
pale
venue,
##-i
3/4
coke.
gm
paul
pub.
resolve
sipping
talent
\n\nhe
adore
apology.
disaster
ha
hush
life!
peel
saut\u00e9ed
thoughts
unimpressed
waxing
##'t
\n\nnow,
california,
crumbs
facility.
jacket
limited,
over-priced
piss
smack
spam
tag.
ticket.
\"a
\n\nshe
browsing
foam
groups.
hill.
information.
mandarin
school,
tastes.
basil,
book,
butternut
county
doughy
gracious
nothing,
spinning
training.
tummy
vacuum
yesterday,
##ina
3pm
flash
madison,
##3.
##right
(where
bitch
freakin'
jean
nearest
organized.
prawns
seasoned,
spiciness
warrant
##ino
##k,
#2
\"not
basics
beds,
cider
class,
complicated
turf
##!!!!!!
##.95
##\nit's
clueless
corners
desert,
immediately,
payed
pays
scotch
series
square.
##10
##ad
##ome
border
british
cactus
cleaners
frequented
kicking
ocean
plants
recognized
tram
united
##s...
drinks!
fajita
good.\n\ni
preference
ranch.
records
satisfying.
skills.
##ries
candied
dem
elements
expired
jus
luxurious
shiny
shopping,
\nbut
color,
finished.
labeled
serving.
underwhelmed.
##):
impressed,
shave
showers
slice.
stepping
tamales
useless
you?
young,
##..\n\nthe
(what
angeles
boiling
delivers
level,
policy.
pomegranate
pros
tricks
chili's
cities
concoction
harsh
pastries,
starbucks,
von
##en,
aforementioned
clothes.
jasmine
la.
sit,
spacious.
union
wireless
##\")
##ness,
arizona,
ass.
compete
english.
quiche
scoops
11:30
24/7
account.
bumping
clearance
movie,
recipes
slices.
taro
20-30
advance.
chuck
farmers
hometown
intention
season.
stand.
apartments
breeze
combo,
eh,
steaks,
tools
##ez
birds
chocolates
domestic
must.
mustard,
service?
system,
##book
ami
btw
crisp.
hates
penny.
pickles,
polished
prompt,
shopped
way!
word,
##uring
9:30
baggage
beaten
clearing
counting
margaritas.
plug
republic
starving.
wowed
##)...
\n\neverything
always.
bo
cravings
matched
sex
shipped
steel
##lla
beatles
bizarre
carving
feeling.
gallo
guitar
instructions
stiff
tofu.
##pm,
##ters
(think
5:30
:/
credit.
healthy.
jason
obviously,
replaced.
solid,
windows.
##h!
$30.
allergy
b.
bites,
celery
earlier.
furniture,
horrendous
prompt.
requesting
trusted
york,
\n\nwould
bottom.
casa
communicate
italy
sich
watching.
10:30
actually.
cilantro,
distracted
enjoys
groceries
headache
##ies,
##old
##ow
##ward
bright,
cards,
changes.
coffees
counted
deliciously
everything!
pin
questionable
##-free
##\n\ngo
\n\ndefinitely
greater
hella
soft.
tipping
$$$
attract
carpaccio
courtyard
detail.
doing,
floors,
gelato.
guys!
number,
rocks.
seeking
service...
show!
understand.
walk.
##\n\nhad
##\nas
always,
atop
beds.
donuts.
etc...
lee's
severe
was!
##ute
artificial
craps
doors.
grossed
peace
reverse
unbelievable
##-day
##:\n-
##\n\nalthough
##work
bay.
gumbo
stunning
yes!
##?\n\ni
##ile
arts
compelled
drinking.
fudge
lifetime
liver
market,
pea
pictures.
racks
upset.
warehouse
attraction
award
babies
chicago,
cozy,
ramen,
ridiculous!
rubbed
sat.
temperature.
there?
##gen
##w.
cakes.
carolina
contrast
cubes
dangerous
horror
mr
occasion,
re
trend
a-ok.
ask,
attendants
confused.
deliver.
gorgonzola
repaired
venetian,
##!\n\nwe
##..just
##ys
connecting
glaze
hostess.
mood.
proceed
suited
talks
toe
##coming
##ire
##who
ave.
baristas
gets.
hurry.
killing
lee
mushy.
package.
soccer
\nit's
appetite.
entertained
interior.
lift
toddler
##\n\ncons:
##ration
$10,
addicted
casinos.
ceilings
crazy,
leftovers.
longest
physically
solo
yuck!
##al.
##fried
##las
(i've
airways
asparagus,
bakery.
bob
celebration
coolest
hilarious
latter
mimosa
monster
sashimi,
sober
stickers
##board
##chicken
\n\neven
breakfasts
displays
horchata
hour!
inquire
norm
patronize
aussi
costing
presentation,
ray
smash
tower.
chilly
collect
gates
lady,
noise.
pic
register,
splash
##-based
##.50
##ul
arrival,
books,
finds
lemongrass
penn
pleasing
rush,
success
$15.
all-you-can-eat
delectable
improvement.
kevin
laser
lunches
total.
##ana
##berry
##pizza
##sa
awkwardly
cheap!
competent
courteous,
eateries
glowing
is!
mama
odd,
prepared,
russian
therefore,
##nie
heavenly
hong
nugget
pepperoni,
pitchers
road,
sliders.
##..which
##.it
$400
fortunately,
humor
lamps
production
thier
tried,
where's
##ments
filet,
fresh!
jose
me).
prices!
##=
##love
cookies.
kalbi
romaine
someone.
strict
theme.
##green
##son
aquarium
blamed
bomb.
busier
cappuccino
cauliflower
cvs
jeff
lb
pedicures
pudding.
s.
speedy
viewing
##cent
ben
chili,
colleagues
disorganized
episode
matt
modern.
peaks
ra
remodel
satay
sounding
stressed
yep,
##ney
'em
\"that's
associated
inventory
louis
magical
melting
neighbor
rotating
scheduling
source
##);
##7.
##bo
11pm
\"why
bad:
discussed
extras
fat,
shaking
sind
sisters
vision
white,
work!
appalled
but...
excited.
hiring
locate
mornings
percent
verify
##bing
brush
lentil
nearby,
operation
panera
requested.
tune
walgreens
##...not
##ied
##ini
8:30
\nfor
abundance
apologizing
bridal
figuring
filthy.
finest
latin
overdone
##\n\nyes,
affordable,
climbing
flan
freak
heater
image
it\"
lava
seconds.
snap
tub,
vary
##\n\nwell,
##made
(4
accompany
assure
drawback
nails,
neglected
stage,
tuna.
upbeat
##\u00e8re
calamari.
combos
guess,
lab
oily.
suffer
##.com
##s'
billed
converted
delighted
edible,
etc).
leaving,
pairing
ambience.
tasting,
##ie's
after,
bamboo
benches
cheeses,
crossed
disgusting,
forgive
heart.
mai
picks
repair.
sign,
yea
amazon
attitudes
blank
carnival
em
hamachi
himself.
meatballs,
seeds
sometimes.
thirsty
tickets,
wash,
##45
##\n\nhere's
##eat
2pm
brian
cool!
dash
divine.
rushed.
smelly
sums
tuesdays
##\ngood
addressed
beg
future,
it!!!
overwhelming.
serviced
slap
stain
##4.
brussels
chalk
consistency.
events.
frozen,
huh?
knocking
toy
yay!
##ative
##llo
conversation,
garden.
got,
rate,
struggling
tres
verizon
beloved
expand
eyes,
hottest
lies
mobile
plumbing
quirky
still.
stools
truck.
##most
appealing.
doctor.
grumpy
here.\n\nthe
miss,
neighboring
out...
overcharged
parties.
plain.
safeway
second.
waterfall
##never
##nts
##town
berries
duck,
goes.
greens.
outdoors
puff
puppies
red,
sparse
##\n\nupon
32
:d
anniversary.
compensate
gentle
ignored.
scare
ask?
gorgeous.
grille
nurses
services,
slices,
##?\n\nthe
(unless
blast.
computers
downfall
easily.
food\"
la,
largely
needed,
picture.
potential.
resulted
scott
sight.
sucks!
worked.
yogurt.
##ced
1-2
5-6
ala
appetizing.
condiment
jet
place!!!
think)
##....i
bathtub
dimly
expense
garbage.
lip
sizzling
visually
ways.
##urs
belong
benedict.
blaring
dull
essen
helped.
owners,
paper,
sandwhich
shoulders
visited.
##/night
##from
##on.
##why
\"go
costumes
exception.
expanded
fettuccine
india
monday.
points.
puffs
scene,
##\n\nfrom
\n\nthere's
cry
hazelnut
interrupted
looking,
mirrors
quicker
rock,
vegas?
yo
##-it
##dle
##mer
##s).
(by
buttermilk
heavy.
roach
thick.
tie
youre
carb
coach
cups.
glendale
habit
lounge,
owners.
pains
ph
pots
skin.
slaw,
technically
teenage
thru.
##tly
##vo
airlines
artwork
blah,
broth,
dollars,
done!
gallery
good)
impressive,
notice.
raising
staples
vdara
##er\"
##especially
##ique
##op
\nservice
bachi
brag
coating
crunchy,
douche
little,
seen,
terrific.
us)
##\n\np.s.
\nafter
discussing
flavorless,
hustle
label
mandatory
packs
scallops.
tax.
##\n3)
##\n\nlast
##ral
confit
formal
linguine
quail
quand
raves
salon,
shack
##\n\nunfortunately,
##cool
##top
\"don't
bathrooms.
challenging
it),
omelets
patient.
sliding
uneven
##\ni'm
##gle
accommodated
bacchanal
chicago.
drowned
expectations,
heck,
moderate
such.
taught
cheerful
design.
increased
snotty
some,
son.
strawberries,
tastier
weather.
2011
\u00e9t\u00e9
convenient,
inattentive
kid.
loyalty
maybe,
personnel
wrap,
##\non
dire
forever,
hassle.
pubs
upsell
##lle
##super
\nour
along.
einen
equipped
internet.
less,
polenta
relax.
resto
spinach.
stylists
##bad
clubbing
cups,
enchiladas,
sugar,
tape
this:
tuesday.
8.
back!!
consumed
jim
lychee
niece
nonetheless,
pong
robert
rotten
september
tortillas.
avocado.
bianco
disappointment,
fees.
journey
satisfaction
##ade
\n\noh,
areas,
characters
cheesecake.
relative
sister's
steaks.
stellar.
treatments
##ets
##pa
allergies
another,
cars.
contain
exciting.
friendliest
goal
necessary.
##..a
##\nme:
##wn
\"that
accustomed
baking
bank.
brewing
changed,
elite
furniture.
geared
hertz
invest
magazine
musical
question,
room!
shark
spotty
steaming
vehicles
walkway
##00.
##ish.
above.
clams,
kiosk
residents
sriracha
tour.
accent
booth,
calorie
designated
huevos
noch
pretty,
puree
rich.
rudest
shrimps
teacher
tub.
upstairs.
##\n\nwhy
activity
dinner!
fridge,
lisa
low,
performing
removing
towels,
understandable
volcano
##)\n-
##.\n\nif
##\n5.
##in.
\n\nbottom
art.
comic
cure
faire
guinness
hot!
hotel's
official
please!
registers
robin
that...
blocked
brilliant
dancing.
drunk,
guards
occasions,
overhead
palace.
platter,
pros:
stroll
tears
##?),
##\n\nwent
##everything
(aka
customize
doughnuts
fig
gyoza
imitation
milkshakes
pops
rd
resorts
texting
tin
##n's
##sy
$8.
arrangement
cabbage,
craving.
depth
exist
moist.
sizes.
specially
##after
channels
complementary
mario
painfully
prob
springs
utter
##fries
\nas
active
airy
aloha
anxious
benedict,
canal
cozy.
joke,
rely
shoved
unbelievable.
##hip
beets
critical
entertainment.
ethiopian
ikea
maze
much!
owe
shape.
tvs,
##cheap
amazing!!!
biased
booths,
bother.
drinking,
eat!
executive
farmer's
foreign
hotter
insurance.
spice,
##mal
##now
30%
\n\ndo
\n\nfirst,
blvd.
bride
chipped
clubs.
conditioner
leaking
lighting.
lotion
lv.
marsala
surface
##ai
##rated
awhile,
belly,
confusing.
exhibits
joking
omg!
sit-down
snack.
strip!
stuffy
teenagers
trout
versions
wal-mart
##ing\"
##z.
apology,
basement
croissants
dessert!
happen,
night's
regular.
rowdy
slaw.
that)
aspects
bridge
corn.
friendliness
homey
hood
kiss
lump
minutes!
onion.
outer
purchases
return!
there)
units
##\n\nfinally,
##only
$3.50
300
70
bison
complain,
correctly,
crawling
handmade
me.\n\ni
personable.
purely
rotation
sommelier
tiger
uber
visit!
##...they
arena
blanket
digging
hamburgers
liberty
ordinary.
safe.
thinking,
visual
1,
3)
bally's
busser
buyer
cost,
eyebrow
freeway
most,
resident
sweeter
tanning
##ence
##ering
eric
fillings
gross!
holidays
midnight.
potentially
rick
stated,
these.
##\u00e9s
##lb
##tal
bottles.
combine
filled.
fresher
hearts
noticing
passionate
praise
shrugged
speakers
surprisingly,
vehicle.
##\n\nordered
bags.
customer's
earlier,
farther
feeding
financial
good!!
lol!
michelin
personality.
po
rabbit
sun.
##\n\nprices
chimichanga
delicious!!
encouraged
factory.
ruining
slapped
slowest
##clean
##mon
(our
arcadia
concession
contains
impeccable.
joints.
seasons
tomorrow.
tvs.
updating
well.\n\nthe
yogurt,
##low
business!
descriptions
dumplings,
entrance,
highway
messing
mustard.
pawn
recommendation.
southwestern
##box
##people
bartenders.
blind
burritos,
capacity
rd.
spa,
suggestions.
##see
aria,
equipment.
incredible,
mask
need,
normally,
omelet.
pepsi
suite,
yeah.
##\n\nthere's
crystal
dass
inconsistent.
overnight
paneer
portobello
booths.
fabric
imported
lashes
lost.
odor
tow
80%
app,
asian,
ate,
bonne
flavor!
float
frat
froyo
msg
plain,
time).
##\n\ntwo
als
crabs
estate
moms
so...
stale,
##1.
##ver
bei
claiming
collard
delightful.
lbs
marble
miller
referring
saturdays
sees
sneak
spices.
wolfgang
##hop
##ll,
##ular
##yes
anyone,
baklava
classes.
legal
lining
scan
vegetarians
##ism
##really
##uff
##wing
(two
\n\nsome
crap,
haircut.
intrigued
john's
kong
peruvian
posters
trap
##ah
architecture
dc
fifth
food.\n\ni
nuts,
smashed
washer
##20
##\n\nby
20+
\"so
\n2.
above,
frames
happens.
hungover
inappropriate
lunch!
not?
pick-up
provolone
regularly.
towers
vegas...
wei
##le.
##still
\"is
c.
echo
gelato,
hotdog
scent
survive
taxes
yelpers,
##in,
##late
(good
barrel
bin
children,
cucumber,
direction.
genius
guns
here:
ketchup.
oysters.
selections,
slimy
tradition
upcoming
##...so
aria.
bell.
conclusion
guest.
guests,
lady.
trash.
unlv
##\n\nmost
a+
chilli
control.
creativity
dill
here!!
intend
malt
mechanical
ours.
ridiculous,
setting,
ventilation
was...
##(i
##.\n
believe.
bound
etc.,
friendlier
frustrating.
generously
indication
joke!
microwave.
pillow
pinch
sweaty
##&
##/10
##because
##cted
##garlic
##ple
\nall
acrylic
baba
clients.
community.
continually
could,
dancing,
excess
harbor
material
meatballs.
outstanding!
pa
rainy
tzatziki
##\"...
##e\"
##ity.
$250
\"they
baskets
determine
hands,
honda
teachers
towels.
tryst
##ment,
anywhere,
barbeque
clubs,
folded
goods.
hiking
japan
league
pitch
seed
steady
whim
##-hour
##\"?
10,
capable
costume
dump.
grimaldi's
oasis
operated
paris,
perfection,
produced
shawarma
slipped
windows,
1000
\n\nfood:
alongside
burro
cupcakes,
mex
queue
registration
remake
resolved
useful
werent
##..)
##l's
##mm
##night
##om
2am
500
chilean
gain
interact
nonetheless.
product,
resembled
rotisserie
shabby
touches
##probably
##wait
##yes,
\n\nservice:
curries
forgettable.
obsessed
quesadillas
recommended!
serendipity
tempura,
##......
##.\n\nthey
##body
##iled
##ress
##some
bathrooms,
discount,
hairs
hello,
peeve
tint
viva
##.\n\nso
##\n\nok,
##can't
##ugh
admittedly
bags,
beverages.
complex.
consideration
groomer
noon.
nur
parts.
quesadilla.
roberto's
sprinkles
tortilla.
vegan,
york.
##ations
6,
cheaper,
enchiladas.
hiding
i.e.
idiots
it.\"
leaning
pine
shook
tissue
##able,
bagels,
bottle,
chipotle.
coin
dance,
depressing
designs
impatient
impression.
normal.
stumble
##\n\n1)
##\none
##f.
\na
boot.
daughter.
fabulous!
lawn
locals.
omg,
practice.
suffered
##ement
action.
croutons
donuts,
medication
quinoa
screen.
sophisticated
though...
vermicelli
##\nvery
##best
##point
atleast
atmosphere!
insist
one)
playing,
pyramid
rim
souvenir
substantial
yrs
##\n\nthank
##cheese
1pm
cheesecake,
dreams
drowning
fewer
frequently.
installation
privacy
reaching
scrub
tips.
whereas
##-time
##have
\"i'll
adobo
advice,
ahead.
backs
chicks
do?
eaters
gummy
margaritas,
snobby
soooooo
yay
##-made
##two
(most
10am
bat
category
cupcake.
heavy,
hummus.
ladies,
lox
occurred
plant
speaker
succulent
tab.
traffic.
trump
##lin
biltmore
chili.
edinburgh.
flight,
gray
it;
sang
sauce)
state.
##tter
101
already,
antipasto
difficult.
drip
fast!
gallon
gathering
mean.
misters
oldest
opening.
packing
partake
promising
story,
stratosphere
touristy
century
cesar
confidence
denny's.
nuggets
struggle
##ais
##dd
##lots
##man's
\"can
apartment.
cr\u00e8me
crepes,
disrespectful
extraordinary
flavoring
menu)
napkins,
reward
scored
##8.
##lon
(how
a)
boyfriends
copper
deli.
fabulous,
favorite!
margarita,
regard
tempe,
title
trainer
##!\ni
##coffee
##gi
\nnot
caffeine
closing.
monday,
nc
secure
tomato.
$5.00
app.
artisan
bartenders,
cucumbers
inexpensive.
me.\n\nthe
oj
pages
##\n\nanyways,
##roll
##tip
airports
do!
fries!
garnish
lights.
observed
peter
t-shirt
trouble.
##6.
##his
##plus
blocking
bolognese
climb
cook,
crunchy.
hashbrowns
jerky
pretty.
quarters
time?
world!
##?!?!
(around
buck.
castle
childhood
getting.
lengthy
mix,
resturant
schedule.
share,
snooty
sweating
tortillas,
women.
##i'm
brisket.
combination.
mark.
permanent
replied,
sw
swanky
wok
##crab
##take
##that's
##tle
balls.
dann
evil
interactive
okra
plentiful.
substance
surly
tests
understaffed.
##ria
bait
cashew
crackers
curtain
happy!
positives
stupid.
##did
##happy
##less.
\n\nalthough
buds.
busboy
bustling
few.
havent
ipod
jammed
reluctantly
snapped
switching
##ada
##ass
$40.
(2)
(can't
bay,
cantina
ceiling.
comfy.
danced
fridge.
here.\n\ni
historic
inconvenient
malls
maybe.
noticeable
pole
round.
she'll
wenn
##boy
##ie,
$12.
arrival.
art,
broken,
ca.
distance.
electronics
fiesta
heirloom
middle,
operating
pictures,
pudding,
ravioli,
saying.
stop,
way)
winner.
##\n\nupdate:
##x.
$25.
$50.
avid
b)
doors,
evenings
hats
pricing,
sauce!
tower,
whatsoever
whopping
##ert
anticipated
antique
cheesy,
definition
differently
poisoning.
potential,
process,
redo
secondly,
skins
them)
##--but
##big
$7.
bagel.
brushed
colleague
djs
drunk.
effects
employee.
feet,
nope
understand,
wheels
##bi
\n\n2.
accommodating,
again!!
brave
continental
courses.
easiest
eats.
electrical
entertain
fans.
fork.
gum
lion
ryan
team.
##.so
##5.
##ie.
##pretty
##restaurant
##tta
##ves
between.
board,
chandelier
decides
embarrassing
flakes
house!
joel
pastries.
pub,
unorganized
watery.
##art
##rice
##vy
\n\n1.
\ni'm
amber
candles
child.
chinese.
cops
hd
lemonade.
restroom.
stall
truffles
welcoming,
##egg
beginning.
begins
caliber
creamy.
difficulty
doused
fraction
garage.
good?
honesty
returned.
shame,
shine
there.\n\nthe
trendy,
whites
yelp!
$24
$28
(?)
be!
behind.
contacting
exploring
filet.
inexpensive,
motor
spite
##\n\nof
##cal
##u,
(too
3d
audio
food.\n\nthe
four.
interior,
is...
medicine
run,
smith
stylish
talk.
underground
##small
##z,
blues
cured
hotel!
leur
mug
order!
photographer
pizza's
regional
thinner
time.\n\nthe
tolerate
twin
up?
##except
##o!
##pt
##ris
##would
\n\nlike
\n\nupon
breadsticks
certified
country,
coupons.
goose
hip,
lick
nobu
produce,
row.
seattle
strangely
trying.
warmly
##-esque
##lli
$90
\"to
caribbean
factor.
good-
harkins
matter,
peaceful
relief
ross
savings
seasoning,
sidewalk
stuff!
w.
##(s)
##-minute
##ek
alas
begging
belly.
budget,
doubt,
dvd
elevator.
hosting
jewish
layered
lesser
nephew
noisy,
posh
ruins
snacks,
throughout.
undercooked,
unfortunately.
wines,
##\nwhat
##guess
##u.
balls,
basic,
byob
decoration
drive,
everyday.
flown
foster
great...
habanero
hosted
hurting
kfc
manhattan
nach
oriented
tostada
week!
##ac
##then
##ved
\"good
\n\nonly
hopping
italian.
nestled
nuts.
suitable
that).
tso's
apps,
buttered
cobbler
consume
effort.
flank
given.
hispanic
jade
micro
noisy.
out\"
provided.
receipt,
science
touch,
walmart.
woman,
##ain
folk
foul
fryer
good..
infamous
mexican.
n'est
patient,
practices
properly,
separately
shop!
should.
##.they
##those
##ud
\n\nvery
annoying,
appropriately
buffet!
device
gabi
her!
martini.
mechanics
minded
rocky
salesperson
valentines
valid
vendor
##:\n\n1.
##down
75%
cultural
drew
fyi
gorgeous,
pickles.
precious
saves
skill
souffle
sticks.
!!!!
##\noverall,
##am,
##ran
##unless
(without
cameras
captain
charm.
crepe.
destination.
developed
easter
faith
love!
mgm.
minute,
owner)
pints
play,
technology
use,
where.
##..if
##\ni've
##e!
##oke
amuse
bonus.
bust
diner,
method
moment,
mushroom,
regretted
##\n\nthanks
##make
##new
acoustics
dissatisfied
in...
ketchup,
lamb.
lone
lukewarm.
remainder
rescue
saigon
screams
subway.
such,
tim
yelped
##\nto
##chocolate
##ell
19
bomb!
core
declined.
digital
dose
filing
finished,
floors.
heating
hit.
latte.
nfl
problems,
smaller,
strikes
$5,
arrangements
condition.
daily.
impressions
snag
suggesting
transportation
tuesday,
yours
##/5
##cs
##grilled
calls.
classes,
croque
eiffel
empanadas
has.
negatives
odds
resort,
tennis
teppanyaki
##other
##worth
ambience,
coke,
continuing
elbow
ends.
express.
father's
instance,
krispy
oriental
smokers
stripper
throat
vending
##\n\nhere
\"meh\"
\n\ngo
adequate.
agreed.
baby.
charges.
chez
eater,
escargot
meetings
passenger
plush
present.
ranch,
spoon.
sprinkle
stink
tilapia
vodka,
wallet.
##crispy
applebee's
az,
deliciousness
downstairs.
educated
eh
great!!
incredible!
ins
markets
profile
reschedule
thanks!
##\n\n4.
##al,
$100.
alive
beer!
cloth
disappear
dusty
e-mail
english,
eye,
fireplace
granola
gratin
here)
horrid
indifferent
is:
loved.
queens
sake,
substituted
temps
westin
##\n\ncame
##a!
##ting.
##zer
alex
burnt,
court,
crepes.
debating
failure
goods,
greets
guy's
ho
important.
nick
notre
pinball
rank
reluctant
trainers
walk,
##9.
##\nnow
##blue
##let's
\n3.
around!
bakery,
crawl
february
layout.
lie.
meds
peeling
popular.
smooth,
turnover
##\n\n2)
##bling
##came
##ces
##ette
##le,
##round
\n\nfrom
burger!
comfy,
cons
coupled
disgusting!
frills
indoors
innovative
live,
macarons
platinum
poblano
poop
spider
themselves,
##\n\nneedless
##\nservice:
##breakfast
##check
##hot
48
80s
\nyou
automated
bumper
comfortably
cover,
creates
exhausted
experiences,
gals
individuals
instructed
justin
kicker
mom,
rudeness
sake.
sealed
smell,
sonic
##c,
aaa
awesome!!
chill.
decline
fence
forms
fort
insane.
memorabilia
notch,
sauna
sour.
strange,
w/o
##pool
##while
:p
age.
completely.
dissapointed
goodness,
grind
hankering
happening.
manicure.
mega
security.
stealing
stressful
syrup,
##please
##stay
##tos
diners,
fennel
packed!
profit
scenery
sick,
spices,
sweet!
there).
vegetarian.
zip
##-cut
##hh
##ign
##market
##tre
(an
added.
band.
bone.
books.
describing
food)
generous,
hipsters
laden
membership.
nicer.
screamed
starving,
weights
wines.
wiping
##ful.
##ly)
##ray
acrobatics
ah
bok
camp
details.
form.
grandmother
inconvenience.
mason
mob
peeps
pen
place.\n\nthe
plan.
result,
sale,
supreme
uh,
appreciation
chair,
firefly
ils
offices
parks
regulars.
shots.
slice,
steakhouse,
tokyo
##.not
##card
##cha
##mac
##ole
##rie
\"sorry
annoyed.
assez
bodies
break,
broccoli.
brows
celebrated
charcuterie
decorated.
flowing
glorified
good).
links
relaxing,
season,
sincerely
stinky
strength
suffering
boot
bothers
complement
either!
gras,
jamaican
met.
table!
tricky
upgrade.
you.\"
##.\n\n\n
##\nin
6th
:-(
\n*
cabanas
ceremony
clever
fingers.
opinions
pathetic.
remembers
renovations
ruth's
wins
##/day
##/person
##\n\nlet
##sushi
(5
bingo
classy,
comps
design,
equipment,
kid,
man's
must've
puck
regular,
so-so,
weekdays
windy
##ator
##cold
##ht
##ia.
(well,
.....
african
blasting
burritos.
charged.
subpar.
voicemail
##..or
##.\n\nit
##seafood
##ulate
$3.
$6.
10+
browns,
chang's
cooking,
crafted
edinburgh,
elevated
longer,
mighty
mir
mound
singer
spas
televisions
transmission
##...we
##/14
##fire
##uous
\n\nlast
\n\nwell,
asap.
assisted
coaster
complaint,
hours!
mayonnaise
outrageous.
pbr
property,
struggled
unimpressed.
##!?!
##every
##ses
3am
anyhow,
background.
bagels.
beverage.
chipotle,
cleanest
drafts
drizzle
gps
higher.
kidding.
pee
pita.
ridge
shades
textures
tiki
usually,
virgin
##ja
##kin
1:30
2010
30+
all...
believed
can't.
cashier.
convenience.
furthermore,
impressed!
internet,
out?
ramsey
ranged
renovation
safe,
scrumptious
technicians
times!
vinaigrette.
waved
wraps,
##hs
##thai
a.
accordingly.
beware.
cigarettes
cockroach
contacts
deviled
disney
donc
fountains.
frequenting
gyms
josh
key.
listing
miniature
outfits
pain,
paintings
passable
signal
spicier
upfront
##em
##friendly
(chicken
bears
benefits
container.
display.
england
etc.).
inflated
napkins.
night)
ole
plated
sashimi.
stoked
sufficient
waiter's
yea,
##ens
(their
casual.
cheddar,
cookie.
counters
fit.
fix,
flavours
hospital.
lid
matching
pineapple,
square,
sum,
unhelpful
years!
##.we
##could
##first
##poor
##view
##ying
$5.99
alaskan
basil.
boba.
breakfast!
busiest
check-out
cramped.
divided
ew
garnished
gibt
imagined
local.
mess,
place..
porterhouse
stairs.
storm
teeny
three,
tires.
toyota
tsa
##..my
##\n\nnever
##ce.
##sweet
$55
battle
brooklyn
centrally
darker
fiancee
function
grapefruit
hollywood.
insulting
plantains
quieter
skipping
spell
spoons
temporary
##\n\npros:
##bout
##vin
cashier,
ceasar
day)
dumplings.
fatty.
liked,
members.
modest
overflowing
punk
restaurant?
service!!
tunes
ufc
waren
wrapping
##free
##w,
$120
closely
drives
homemade.
johns
on...
operate
red.
release
rocking
sat,
sundays.
taps
ugh!
uncooked
##im
##lier
amc
cabs
food's
food..
jaw
mains
match.
mich
olives.
review:
sinks
swap
##hy
animals.
clientele.
complemented
disappointment!
heaping
henderson.
newspaper
refilled.
swedish
waste.
##\"\n\ni
(1
buns,
classics
dad's
horrendous.
ink
magically
mccarran
shoestring
smashburger
tai
unknown
zum
##-1
##ches
##ia,
##may
##rian
##since
##te,
##tone
bigger.
body.
chapel
clean!
dancer
dietary
drown
osso
personable,
subject
vinegar.
##!!)
##order
$19
\n\nneedless
conscious
fatty,
gesture
haunted
hurts
lemon,
media
mountains
note.
patty.
piece,
tattoos
visited,
##-ass
##\n\nwell
##definitely
##hr
##wesome
(usually
adam
cannoli
forest
loin
reduction
respect.
sucked,
update:
vacation,
wedges
##49
##cks
##pped
30th
\"thank
american,
ball.
behold
buses
clothing,
confronted
duck.
l.a.
levels.
lists
messy.
mothers
ounces
policies
worries
##ham
##look
##star
8,
90's
\"ok\"
amenities.
beautiful!
carved
discussion
further.
garden,
inclined
lacking,
lackluster.
logo
meanwhile
mignon,
mushy,
night?
omelet,
palace,
rubbery.
slim
sonoran
stuffed.
topping.
unassuming
wie
##40
9am
accomodate
anthony
comparison.
conditions
crowds.
dated.
does,
drink!
element
gardens
girl's
hardware
identical
incorrectly
industry.
lite
pockets
reference
slam
someone,
uncomfortable,
##cake
argument
availability
divine
locals,
louder
more?
persons
prepaid
scampi
shining
##front
(thank
\"new
\n\nhere's
\n\nunfortunately,
batter.
breathing
calories.
classy.
food;
lit,
positive.
roulette
slathered
sub.
wedding,
##-15
##quality
##until
##wise
affect
appt.
cancellation
chaos
checks.
colors.
irritating
munch
oder
site,
skewer
stream
supper
vouchers
##-on
##d\"
##nothing
$65
(other
7.
actors
authenticity
bursting
cheat
consisting
drinker
fountain.
hubby's
many.
n.
nyc.
oversized
parties,
patrons,
paying.
plats
seasonings
stray
taken,
thing!
vets
visitor
##\n\nlet's
##ified
##te.
bubbles
chemical
condensed
cousins
cruise
ft
insulted
kona
similarly
sub-par.
trailer
treats.
unhealthy
valuable
##\n\nnice
##pas
:).
\"in
air,
chandler.
chit
ciabatta
cottage
dress.
favorites,
flush
herself.
identity
kann
leisurely
literally,
ont
professionals
relish
roman
sessions
sum.
takeout.
toilets
toro
trashy
##french
##ines
##r\"
##rk
##x,
accused
adjoining
bao
demanding
engaged
established
lessons
minced
mins,
sunglasses
tempting
threatened
time.\n\ni
##bacon
##ho
##os,
banging
browns.
candy,
disappeared.
log
managing
move,
oakland
peas,
peppercorn
pours
saffron
stronger
tied
tool
##--it
##ait
application
biting
condo
dude,
employee,
fact.
forty
girlfriend's
good),
improved.
inexperienced
joes
manages
overwhelmingly
peoples
prints
yolk
##!\n\nmy
##-size
##ans
##bbq
##fresh
##pork
beware!
chains.
comforting
frys
groupons
here..
horrific
informing
lover,
out.\n\nthe
paris.
patty,
portuguese
pot.
rat
tails
tubs
uninspired
##.00.
##\n\nreturn
##lar
##os.
##plenty
##quick
##walk
boyfriend.
committed
deli,
diners.
earth.
garlicky
glitter
imo.
lie,
marathon
partly
presented.
shouting
sicilian
sweetened
trails
unlikely
vibrant
##\n\nevery
##cked
##easy
\n\nhad
agreement
avoid.
basket.
candy.
choix
compensation
email.
offensive
palate.
ravioli.
standards,
szechuan
warned.
weak,
##.\n\nas
##chen
##di
##thank
(had
(still
;-)
ashley
boards
buttons
cab.
co.
delivered,
doughnut
drying
engaging
extend
gap
goodwill
hue
last,
outfit
requests.
ride,
specialize
styled
survey
unfriendly.
version.
whisky
yum,
##***
##\n\nstaff
##\n\nthat's
##ko
##ooo
##salad
##vegas
##zen
\n\nby
adjusted
consumer
dough.
fast-food
it-
loop
mc
message.
monta
older,
parlor
people)
pulls
qu'il
self-serve
thumb
thursday,
unprofessional,
##...this
##both
##cut
4/5
40%
\"my
\n\nthank
advance,
boasts
dead,
descent
doc
fist
gambling,
here!!!
hole.
hurry,
mary's
nap
nevertheless,
outrageously
recieved
savor
strangers
tell.
tex-mex
u.s.
up\"
white.
##..that
##rock
##save
##taste
##y!
clear.
doubt.
eggplant,
encountered.
enterprise
faster.
fin
foo
forks
lasts
located.
mani/pedi
me:
mojitos
ripe
task
tho.
tremendous
##ado
##tions
(plus
1am
alternatives
bend
bypass
criticism
dollar.
fax
green,
heaven!
inventive
jukebox
know?
math
muscle
promptly,
quesadilla,
ranges
snacks.
spilling
worry,
##..\"
##girl
asada,
bogo
bye
crime
crystals
disagree
flexible
glorious
hanger
squirrel
stand,
tags
##ast
##ation.
##ch.
##uble
\n\nyes,
\nin
again!!!
attracts
audacity
cheese!
considerably
indicating
junior
lowered
misses
nasty,
olds
overpowering.
poolside
read.
sangria.
shots,
smoothie.
sprayed
##-fried
##die
\"happy
\n1.
annoyance
caviar
cigars
gem!
misleading
muffin.
peking
ponzu
premade
range,
ribeye,
risotto.
salami
testing
those,
##\noverall
##ak
##customer
##wish
4-star
asking.
brat
cc
clerks
closing,
flair
lax
packets
panna
persian
quotes
relax,
songs.
steering
teller
vomit
\n\n3.
arent
asparagus.
costco.
existing
fluffy,
hectic
mgm,
neat.
purchase,
remedy
repeating
ripping
rob
spent.
thursday.
words:
##.\n\nfor
##\nhe
##bie
##corn
##rable
$20,
16th
2014.
\non
bf's
businesses.
courses,
craig
devoid
estimated
even.
evident
graciously
hollywood,
keen
king.
layout,
microwave,
oily,
owed
panel
pate
remodeling
rode
scraped
silverware.
sprouts.
washes
##are
##lmost
##tas
belle
blond
brand.
c'mon
cette
chest
dutch
fingers,
individually
inspect
joining
lips
performances
rocket
skin,
state,
them?
tours
wellington
words.
world's
##chips
##hole
##mixed
(thanks
\"get
apologized,
appointed
breast,
coast.
devil
enthusiasm
establishments.
indicate
marketplace
moins
platters
quad
specializes
standout
##'s!
##,000
##\n\nbest
##das
##key
##man,
##ne.
##oh,
##short
accommodations
cuticles
deny
flipped
gems
lush
martini,
maryland
ny,
place.\n\ni
pools,
remembering
skilled
smaller.
taiwanese
theirs.
tonkatsu
total,
update.
voted
##come
(sorry
\n\nwent
besides,
carmel
coats
delight.
fans,
ford
heaters
knows.
movies.
quelques
upstairs,
##-filled
##bit
##hold
##ion,
##ised
##well,
advanced
banquet
brown,
christmas.
deter
honey,
invite
joked
m.
meanwhile,
museum.
organized,
reps
scratched
shocked.
sticks,
t-shirts
walnuts
women,
worst,
##an,
##much
##rant
##run
##salmon
(again,
aid
beginning,
briefly
buns.
fluid
mango,
rant
revisit
sleek
solve
unfamiliar
works,
##-year
##.\n\nthere
##.\n\nwhen
##\n\ndespite
##ci
##huge
##is,
##keep
##kind
##lunch
##ry.
##trust
##uch
\"free\"
americans
bar\"
beforehand
boo
cafes
colors,
fancier
potstickers
son,
ticket,
toujours
wise.
##--a
##ich
##music
2013.
2:30
8am
\n\nmost
adults.
campus.
d'un
mondays
plus!
readily
refund,
rigatoni
sense,
straws
visibly
\u00eatre
alterations
anyone!
carbs
cars,
caution
dips
elephant
emphasis
entre
ex
fab
gather
noticeably
respectful
rotate
service!!!
tasteful
tier
tucson
##\n\n+
##\n\nbut,
##\ndon't
##aki
##een
##hard
##horrible
##lines
##rating
3:30
50's
blatantly
buy,
competition.
crunch.
daughter,
inviting,
it.\n\nwe
outdated.
rocks!
safely
spirits
suffice
valet.
vinyl
weigh
you...
##\nshe
##cher
##didn't
##has
##rn
##yaki
).
anyone's
clear,
components
costumer
deux
essence
expiration
identify
priceline
seperate
strings
vanity
##ished
##lake
##pad
##tt
##zo
2/3
bout
concerned.
departure
elevators.
faint
fixtures
nightclub.
performance.
preference.
produce.
sandwich!
schon
success.
tested
varying
##-go
##chi
##zz
\"big
\"we're
accurate.
atrocious.
bagged
concert.
crash
doggie
ever!!!
fixed,
guided
hole-in-the-wall
idk
kills
ladies.
late-night
nite
nothing!
omg.
oven,
passengers
refreshing,
sushi!
$9.
12:30
carpet,
deeply
diagnosed
etwas
flat,
improvements
j'y
kelly
maintained.
plaza.
spill
tastiest
todd
varies
walk-in
worthwhile
##bring
##ese
##ish,
##making
$9.99
bent
bet.
dent
drama
exclusive
fan!
fees,
mental
night...
pretending
qu'on
tonkotsu
too...
topless
##ace
##kes
##s),
##ven
(well
110
\n\nfinally,
\n\ntwo
assistance.
band,
cents.
disturbing
esp
grossly
hopeful
jamba
lattes
mein,
merry
michelle
receipts
scenes
shortage
so-called
sour,
spots,
students.
surroundings
talking.
this...
today!
water!
##--not
##-all
##\"!
##\ntheir
##ants
##called
##nt.
bikini
cooled
coverage
escalator
freaked
limits
occupied.
ranks
repairs.
sitting.
snob,
way).
##....and
##b,
##gain
##having
##too
23
3x
\n\nthanks
\n\nwell
america.
bleeding
bustle
casinos,
dam
dj.
icy
measly
purposely
reeked
role
shell.
stalls
stock,
stout
tent
trip!
##-down
##.95)
##\n1)
##\n\nparking
##fun
##ification
##ric
##unfortunately
blankets
boulder
brownies
effective
fashion.
foil
forgettable
ignorant
jackson
kabobs
kettle
pass,
pressured
reminder
scooped
(really
accepting
br\u00fbl\u00e9e
champaign
computer.
disappoint!
evidence
forcing
ground.
hub
noir
pop.
sangria,
staffs
swore
theory
there.\n\ni
used,
waaaay
watery,
##d's
##perfect
(1)
(almost
4:30
55
almonds
brown.
choose.
crumbled
dated,
frying
impossible.
injury
jobs.
keg
magazines
needs,
nyc,
promo
respectable
shake,
sincere
sports.
truck,
wrist
##\n\nfinally
##\nfirst
##ally,
##ity,
(now
ah,
apologize.
asia
awe
bahn
blueberries
cancer
dispenser
dispute
donate
filthy,
ham.
keller
manager's
midwest
pace.
residential
rubbing
said:
shove
smooth.
tired,
weary
workers.
##!!!!!!!
##ata
##beef
##close
##lated
##ted.
\"real\"
bass,
cabo
cd
character.
couple.
dog's
extra,
flyer
house-made
mia
rise
rocked
subway,
waffle.
##!\n\nthis
##---
##des
##ically
##tch
buzzing
green.
interrupting
isolated
kicks
nightlife
purpose.
sites
somewhere.
them).
waking
##\n\n\ni
##dinner
##k's
##ory
##pers
##vation
beverages,
both,
consuming
day?
fold
friends!
friends'
hall.
illegal
matches
missed.
nonetheless
possibility
sold.
specify
teeth.
tournament
##\n\nhaving
##half
##ken
##mazing
##unt
10pm.
2x
30-40
barley
chorizo,
flirting
mesa.
real.
scones
therapy
##cakes
##ella
(minus
amy
asians
bald
boy.
charleston
chinatown.
decade
demeanor
dente
distracting
energetic
food-
grub.
habe
mastro's
paying,
retrieve
sarah
silverware,
snapper
suppose.
unappetizing
##dge
##excellent
##ings
##load
##mont
##nk
##ture
7pm.
\"hey
\n\nof
cleaning,
cola
connoisseur
containing
disorganized.
honored
nailed
planes
pup
radish
strips,
them...
unaware
witness
##\n\ncheck
##au
##ne,
##nes
##od
##should
7,
boyfriend,
child's
competing
doctor's
endroit
expansive
groups,
in-house
leaves.
luxor.
meeting.
nicely,
out)
savory,
smoker
transported
trimmed
ugh,
values
##!\nthe
##.5
##\n\nlove
##lit
##lways
##sat
basic.
beaucoup
circular
conveyor
correct,
dates,
dave's
deals,
facility,
gang
lenses
loan
member.
miami
mush
parent
perk
ping
remarkable
sizes,
teaching
##ach
##ates
##decent
awfully
bar?
beignets
bowls.
carafe
concerts
continuously
decorated,
ding
finish,
foodies
grated
ha!
height
jambalaya
lord
moving.
prescriptions
promised.
rue
shape,
shuttles
stench
surprises
techno
##99.
##got
##je
albacore
bottles,
bubbly
dab
damn,
dd
decisions
describes
dj's
einem
families.
fez
food).
handles
linguini
marshmallow
materials
old-school
poster
princess
sends
staffing
temperature,
that.\n\nthe
ugh
zen
##care
##nda
##port
##su
$26
27
arugula,
assembly
back!!!
course)
drunks
eagle
fire.
focaccia
manner,
offered,
pacific
palazzo.
papers
payment.
peeled
person's
type.
waitresses.
##-cooked
##cial
##fu
##jack
##location
##open
##rds
##t\"
4am
afterwards,
announced
below.
black,
boxes.
coleslaw.
damned
def.
dmv
gambling.
gathered
haze
heavenly.
informative.
lasting
linens
maximum
mgr
outing
parfait
protect
rectify
robbed
rope
somehow,
sunrise
unpleasant.
vig
well.\n\ni
##nder
2012.
\ni've
blackberry
brow
causes
controlled
crepe,
department,
enclosed
entering,
included,
macy's
nostalgic
opposite.
rotation.
saturated
shocking
sodium
systems
these,
unwilling
viet
##-and
##3)
##an's
##ch,
##rent
(didn't
\"manager\"
\n\nprices
absurd
anticipating
backwards
creative,
denver
kids'
midnight,
overcrowded
portioned
rap
represent
returned,
sigh.
stocking
teens
timed
turkish
##-10
##baked
##lie
##times
code.
haircuts
men.
perks
plentiful,
pumped
read,
removal
split.
tastebuds
tax,
texted
throws
tous
twist.
void
washington
##-5
##...you
##..what
##\n\nduring
##dance
##highly
##kids
##list
##ok,
##re.
##same
believe,
blinds
buzzed
ceiling,
competitors
exquisite
glory
goodbye
laws
madness
noted,
playground
program.
resulting
roots
shirts,
theme,
toilet.
tonic
towed
truffled
upgrades
vodka.
yelping
youngest
##..very
##als
##int
##ix
##ker
##oli
$1.00
\"free
\n\nnever
approaching
apps.
base.
daniel
ease.
fest
noting
piles
printing
promises
sarcastic
stephanie
thus,
up...
vote
##-wise,
##\n\nsecond
##dled
##ight
##igned
##need
##pple
##price
##using
$27
\"too
agents
awesome!!!
cheese)
dodge
dressings
immer
knife.
lasagna,
layover
notify
o'clock
photos.
states.
would,
yelpers.
$2.00
(great
(read:
99%
\"yes,
\n\nhere
apt
failing
fritters
here).
here\"
integrity
japanese,
jessica
lately,
m&m
prosciutto,
society
target.
warming
##-not
##\n\ndrinks
##call
##car
##fruit
##ison
##pin
##prime
##roasted
$600
(pretty
28
30-45
anything!
behold,
birth
carpet.
charlie
cinema
cold!
cramped,
d'une
dishonest
draws
euro
fifty
food!!
infection
lastly
lately.
maria
nightly
nordstrom
real,
sa
surprise!
tenants
tire.
togo
too.\n\nthe
##-7
##\nchicken
##lessly
(mostly
apples,
bad...
chaotic
charity
cocoa
doubled
e.
energy.
hunting
it\".
jacked
letters
macaroons
melon
peut
pumps
ribeye.
sears
technique
tips,
views.
what?!
whole,
##-top
##11
##\n\nunfortunately
##four
##lthough
\"hey,
\nfood
\nnow
backyard
cadillac
cage
chopsticks
compare.
cosmopolitan.
detail,
ginormous
lime,
lounges
mixes
nigiri,
overlooks
qualify
roaches
samples.
summary,
##ards
##looking
##mas
##tate
##val
breads,
clothing.
essential
express,
filler
getaway
lemon.
pearl
periods
raw,
rehab
shares
sprint
taquitos
tots.
valet,
warranty.
weeknight
##\").
##dling
##era
##less,
##live
$1000
(something
\n\nits
bitter.
booked.
busy!
cheeseburger,
disliked
downstairs,
go-go
happier.
history.
it....
mentioned.
molten
pedicure,
pretentious.
questioning
racist
reccomend
result.
rib-eye
roomy
smog
technical
uh
variations
##6)
##fin
##on's
$6.99
artistic
c'\u00e9tait
cloud
d.
jr
marginal
me\"
nye
o\u00f9
particular,
teas,
turkey.
watch,
##els
$2.
\"resort
abandoned
alert
cabbage.
cereal
dinners.
expensive!
frosting.
fundido
grease,
indeed,
island.
jalapenos,
lot!
mcdonalds.
mills
mop
notable
personalized
pina
pirate
rancheros
relaxed.
response,
roaming
shank
shirt.
tanks
unfair
urine
vacant
##ulated
$4.50
\"special\"
apart,
cha
destroyed
fella
flooring
holder
licking
me..
men,
mrs.
petsmart
phenomenal!
pita,
poppers
set,
showroom
siam
treatment,
westgate
yards
##-priced
##\n\nwas
##\u00e9,
##ant.
##white
acceptable,
ads
america's
attractions
broad
burned.
calls,
dances
effing
find!
hovering
industry,
interacted
jewelry,
mild,
musicians
non-existent.
okay...
packet
slid
teeter
updates
usa
yup,
##....the
##\n\n2
##friend
##um,
bordering
champagne.
cheeseburger.
contents
day's
day...
definetly
didn't,
elaborate
fruits,
mail.
noises
pimento
poorly.
reflects
relieved
return?
rio.
shit,
take.
vent
zombie
##et.
##f,
##saturday
$4.
\n\nwhy
anticipation
ayce.
bottom,
ces
chatty
everyone!
formed
guac,
helpful!
lured
policy,
prompted
recommendation,
soothing
stranger
tourists.
trapped
travelers
visiting.
##\n\nboth
##\n\nlastly,
##\n\ntip:
##door
##gation
##inated
##lash
##though
##ury
\n\npros:
approved
casually
cough
creations
dusted
envy
fry.
here;
information,
kitschy
knee
meantime,
member,
muscles
out.\n\ni
pat
poutine.
reputable
responsive
runners
shakes.
shu
strawberries.
wary
wells
##\n\ngot
##\n\nnote:
##bble
##re,
##v.
##zu
$3.00
26
8:00
age,
amateur
bigger,
bow
choy
cranky
disinterested
enjoyment
fulfill
graduation
grits.
id.
indeed.
lingering
normal,
ny.
pads
palazzo,
plopped
replacement.
set-up
shortly.
sips
spoil
zucchini,
##-3
##pasta
##several
##t!
##teen
150
brightly
dine-in
director
loading
must!
now...
nursing
pissed.
prior.
quietly
raisin
saltiness
sticky.
students,
tart,
thursdays
uncomfortably
upscale,
us...
valued
##\n\neveryone
##club
##fter
##ick
##ition
##priced
##rch
##san
##tie
##und
##ures
(another
buttery,
collar
cracking
defensive
efforts
exceptional,
family's
hype,
impact
razor
relaxation
removed.
rundown
stations.
tuscan
##-a
##/bar
##95.
##:20
##chinese
##fast
##ji
##ont
##vant
(was
6pm.
\n\nanyways,
all)
awards
brother's
consistent,
endure
errands
facts
fleur
fur
halls
hell's
mainstream
maki
mode
original.
pedestrian
pleasure.
plum
quantity.
reduce
sell.
specialties
stringy
test.
thing:
unappetizing.
vouch
waxed
wears
will,
##\n\n3)
##\n\nbeing
##\nat
\"have
ahwatukee
blossom
burst
daddy
don't,
education
literally.
observation
place:
reminding
salad!
thoughtful
wednesday.
##.\n\n
##:\n\n-
##ce,
##co's
##decor
##might
##or,
##p.s.
##ros
11:00
3-star
attracted
chicken!
curb
edamame,
faces.
fedex
grand.
great;
gritty
hopefully,
improve.
jones
loses
macadamia
mmm
novel
offset
round,
seal
teams
tell,
##\njust
##cash
##is.
##little
(hence
akin
apache
apple,
carl's
chimi
company's
contact.
coors
cornish
d's
dough,
ever!!
exists
hopped
kitty
min,
opening,
patients.
pocket.
r.
seedy
service.\n\ni
soups.
straw.
suggests
understatement.
unreasonable
woman.
##..i'm
##large
##lk
##lso
##must
##rse
##tto
##tuna
7:00
\n\nevery
article
beneath
black.
cafeteria.
changs
coma
concerned,
engagement
insurance,
landing
munchies
ought
overwhelmed.
palette
reputation.
sierra
slightest
sports,
stove
strawberry,
tended
tommy
uniform
waist
##:\n1.
##\nalso,
##a)
##mb
##typical
$32
10th
appliances
cellar
coleslaw,
dollop
engage
era
fee\"
formerly
glanced
hints
holidays.
koi
leider
lifted
menu?
more...
pants.
selecting
sls
smith's
surrender
teppan
them.\n\nthe
top-notch
##\nthat
##found
##gie
##in's
banner
conclusion,
description.
entertaining,
favor.
friggin
involved.
machaca
oregano's
request,
satisfied,
serrano
##.\n\nbut
##\nthen
##e:
##everyone
##fy
##next
##sauce
70's
\n\np.s.
acknowledging
ages.
amenities,
amusing
avons
barbacoa
brulee,
canada
check-in.
chiles
deserving
fingerling
intentionally
jiffy
mirage.
similar.
tour,
unit.
vegas'
##..all
##60
##\n\nbe
##fe
##main
##ology
##ula
$7.99
(why
\nwhat
avait
buckets
butts
enough!
gamble,
greedy
hurt.
isn't.
jeans,
pastas,
valley!
##-less
##ided
##istic
##pick
##rge
adopted
apologized.
attire
baby,
badly.
cucumbers,
floral
hoagie
jars
jennifer
lavo
lieu
manning
mimi's
minutes)
noon,
outright
parents.
pipe
professionally
scrape
singapore
specialist
tgi
upwards
woo
##..she
##ru
##tail
##tan
$10.00
8pm.
\n\nordered
agree.
back..
bargain.
bleh.
bros
carlos
check-in,
chutney
cones
disappointing!
fajitas.
forgotten.
freeze
ginger,
legitimate
loud!
masseuse
place)
taco's
thrifty
timer
##...\n\ni
##\n\ntry
##ched
##or.
##thanks
##three
##used
ace
bananas,
breathe
burrata
contract.
events,
flops
gate.
hash.
him!
holly
hooked.
jesus
minimum.
mistake!
pot,
refused.
stinks
swipe
training,
transition
unimpressive
##\n\nagain,
##\n\nbefore
##ges
##hood
##lish
##pho
##uf
##une
##us.
\"your
\noverall,
atrocious
barrio
cardboard.
choke
cream!
creation
females
fights
further,
guestlist
names.
non-existent
peek
perspective
peruse
plating
promote
redeemed
stunned
tapas.
that'll
##give
##iness.
##pay
##read
##ry,
(nothing
5-7
\"new\"
\"one
bass.
buried
cattle
cookie,
deep-fried
duo
flipping
hardest
jr.
parts,
playboy
reflection
satisfaction.
smoothly
soba
tapas,
##-shaped
##...a
##\n4)
##ability
##frozen
##row
##si
##sunday
'the
(is
\"you're
beverly
careless
changes,
cheated
cleaner.
complaints,
hakkasan
herbal
homemade,
luck!
meat!
neatly
packaging
par,
plugs
promoters
reflected
refuses
shellfish
stocked.
tasted,
uninterested
vegas)
wet.
wrapper
##.\n\nit's
##\n\nhow
##ano
##ik
##lbs
##luckily
##na,
$23
$7.50
1-star
again..
approx
drawing
glow
homes
jalape\u00f1os
looked.
mcdonald's.
oils
premier
sleep,
sort.
stars...
style\"
swallow
there..
tiles
toiletries
treat,
unusually
waffle,
walking.
wannabe
wirklich
##\n1
##ang
##e)
##lian
##mins
##pot
'cause
\n\nlet
\nno
advertisement
buys
dish!
etc..
existed
extensive,
filled,
found,
harassed
indie
injury,
lube
me),
mirage,
mistakes.
night).
offerings,
peppered
pond
relatives
resembles
rien
saucy
scratches
tip)
worth,
##...it's
##..there
##\n6.
##\n\n\nthe
##\n\nplease
##nn
(same
\"old
bagel,
be?
boxing
deer
differences
factory,
four,
graham
grits,
latte,
looks.
lounging
mats
mounted
overs
procedures
shea
shoppers
shore
unfriendly,
waters.
wed
workout.
##/13
##bsolutely
##ere
\n\nlet's
answer,
cantonese
chalkboard
champagne,
clay
danny's
exorbitant
frog
good!!!
gyro.
heard.
know...
manicures
mat
menu).
obscure
organic,
rangoon
sauce\"
sauerkraut
studying
things:
tracking
##sse
##worst
2009
\none
advice.
alignment
alley.
category.
cleaned,
compares
edges.
eventually,
extensions
god.
kha
kit
legit.
mehr
mignon.
oscar
parmesan,
phoenix!
resemble
richard
smoking.
stairs,
starter.
stomachs
unsatisfied
warmth
wi-fi,
year!
##!!\n\ni
##..maybe
##\n\nbecause
##ben
##mate
##ques
##sk
##ts.
\n\nfinally
andy
applies
assisting
busted
chains,
cleanliness.
commercials
decidedly
driver.
happens,
hash,
mes
movers
oozing
ourselves,
parents,
presence.
referral
restroom,
review!
risotto,
scheme
schnitzel
scratch.
smallish
wallpaper
##\n2
##ble,
##mark
##sure
\ngreat
amusement
ann
batter,
broadway
bucks!
consist
custard.
dishwasher
ended.
far!
firehouse
garage,
gas.
imo
king,
lcd
luck,
matt's
rushed,
scone
skating
soupy
spends
stylist.
sweetness.
##\u00e9.
##cross
##hen
##nu
##rm
$21
(before
address.
apricot
asap
bakeries
bread!
carson
cheers
diet.
doctor,
drooling
extraordinary.
goodies.
hello.
himself,
hurried
liking,
long!
mexico.
motion
place;
really??
rex
sausages,
shellac
stones
tuned
va
wire
wood,
##-course
##12
##ale
##black
##lets
##prices
##put
$4.99
800
balloon
bus.
cheesy.
concerns.
couch.
crowds,
dancefloor
dive.
ed
execution.
expect?
menu...
miles.
miserable.
package,
pressure.
refill,
security,
since,
sis
sister,
stumbling
tortilla,
tubes
##\n\nchicken
##full
##ght
##holy
##tti
6-8
\nfirst
behavior.
belongings
blanco
bombs
boxes,
communal
company!
customers!
eaten,
entitled
farms
florida
hotdogs
lemonade,
lonely
maine
minds
mouse
mouths
mugs
phenomenal,
prefer.
sales.
settling
sometime.
steep.
treat!
utilize
##ther
##think
8th
affair
carte.
clad
clue.
crossing
delicious!!!
flaming
gruyere
halo
italy.
jan
knows,
lv,
qualified
say...
shadow
speciality
star!
t.
third,
turn.
twelve
understands
vaguely
warning:
win.
##bon
##casino
##cream
##ising
##ito
##ttes
##us,
##zzle
audience.
awaiting
cart.
commission
crossfit
decorating
divey
feta,
football.
foundation
jeep
ms.
noise,
original,
participate
patch
popcorn.
popular,
pushy.
rag
theatre.
##$.
##-but
##.this
##\n\n5.
##\n\nover
##\nwill
##basically
##ima
##last
##lies
(over
\n\nplease
accounts
adequate,
again.\n\nthe
beard
bedding
breasts
bullshit
cal
ceviche,
charcoal
clips
cob
delish,
entertainment,
exclusively
francisco,
london
pattern
pigs
pitas
player's
silk
soup!
studio.
upgrading
us).
##-year-old
##\n\nok
##dry
##ils
##sad
##shrimp
##sive
##yeah
400
\n4.
\nshe
advertised.
amount,
arrowhead
carrots.
casserole
checkout.
chill,
couches,
government
handle.
knives
messy,
movies,
reviewers,
showcase
song.
vape
waive
zipps
##-so
##-star
##\n--
##alian
##ation,
##japanese
##store
##tion.
11.
9pm.
alike.
bbb
bee
belongs
boulevard
chops,
contest
dreaming
enhance
instance
it:
measured
perusing
place's
richness
sub,
sun,
suspicious
yorker
##*.
##-something
##:\nthe
##cia
##d)
##ists
##ization
##oni
##r\u00e9
##rage
7am
accident.
account,
barrier
bedside
bikram
challenge.
cheeses.
dept
elevator,
grilled,
hungry!
island,
licked
mild.
musty
operator
pizza?
plump
porn
relaxed,
rethink
scam.
sexual
slides
stool
to\"
tomatillo
typing
waving
wtf.
ya,
yuzu
##ia's
##nal
##real
\nthen
burns
cabernet
corkage
dock
door!
fluke
funds
fuzzy
hilarious.
leaves,
lucked
mussels.
specified
suburban
tastes,
tex
too).
##.\n-
##a\"
##grown
##ive.
##s\".
\"excuse
\"hot
\"yeah,
\n\nparking
agave
andrew
any,
before!
burgr
clearly,
cupcake,
delux
diversity
experience...
explanation.
granite
hoisin
louisiana
mountain.
muffins,
obnoxious.
omelette.
screen,
sephora
skate
span
stacks
suns
tabasco
th
tops.
vanilla,
waters,
##2)
##aine
##elle
##itas
##uated
ache
acid
bj's
chickens
complex,
dick's
digress.
dives
eggrolls
faded
finance
follow-up
gras.
l'endroit
opportunities
pinto
really?!
record,
swordfish
wednesday,
well..
##\n\noverall:
##away
##bies
##dale
##hand
##ios
##len
##net
##perhaps
##ride
9:00
ahead,
avocados
bathing
bells
cabinet
cilantro.
decorative
exchanged
fantasy
flamingo.
fogo
historical
luxor,
monitor
naan.
overload
pairings
popcorn,
pumping
sentence
someones
villa
voodoo
waived
##ching
##ck,
##duck
##wife
(while
19th
5pm.
betting
chart
diablo
dick
expertly
favor,
flashing
gamble.
hangs
hyatt
informs
into,
kept.
labels
lure
mom.
noodle,
pedi.
pep
peppery
poutine,
refrigerated
refusing
restaurant...
scary.
shoyu
subsequent
therapists
waaay
##ps.
##ra,
##s.\n\nthe
12.
\nhe
act.
alternate
authority
celebration.
cheek
citizen
coins
experience.\n\nthe
hallway.
know!
names,
officer
partners
riviera
row,
running.
shaker
slamming
sound.
ulta
vinegar,
##(?)
##ter.
##vi
2011.
bins
chicken)
copies
daytime
decades
dress,
fishy.
girlfriend.
magnificent
midst
mistakenly
nope!
now?
plate!
puddle
redone
salad:
sir
stored
tix
tooth.
up)
watching,
weather,
yells
##ck.
##enough
##gers
##hope
##liness
##pan
##shi
3/5
40th
asshole
bistro.
bowls,
boys.
clogged
depend
discovering
eve.
eyed
go\"
h&m
household
hunk
jenny
kebab
marie
mozzarella.
nostalgia
orange,
perhaps,
rough.
samosas
shaded
slots.
smoothies,
someday
strips.
suites.
talk,
tires,
wifey
willy
##as,
##guy
##ians
\u00e9taient
better?
booze.
cares.
cooling
coz
creative.
doggy
fe
follows
ghetto.
intent
jam.
kilt
medium-rare
northwest
preparation.
room\"
sweater
tang
too.\n\ni
trendy.
##..even
##gging
##la,
##lia
##o)
##ren
##spicy
\n\nstaff
aioli.
alors
awake
coffee!
colorado
coloring
festive
insert
intoxicated
kalua
man!
mojo
o.k.
ok..
pepperoni.
pies,
polish.
rachel
refined
rio,
trips.
upset,
utensils,
##-level
##ew
##tick
(actually
10:00
20-25
and...
aus
ballantyne
carmelized
corral
disregard
groomed
images
landscaping
liquor.
maids
moral
payments
potatoe
qualit\u00e9
reasons,
rubbery,
shoddy
shopper
stomach,
taylor
upsetting
##(which
##-themed
##\n\nabout
##].
##drinks
##ently
##ic.
##los
##ore
##word
acknowledgement
apologize,
begin.
better...
blast!
claws
collecting
coming,
cravings.
daily,
extent
fatburger
france
freemont
genre
greeter
heavier
hobby
hose
influence
manager)
mina
napa
nonsense
o'
presumably
spoon,
starch
substance.
trial
unagi
unremarkable.
vegans
##\n\nhighly
##\u00e9es
##aging
##bag
##burgers
##here
##no,
##rts
##seriously
##upon
100+
altogether
angry.
bella
boca
celebrities
commitment
consultation
crazy!
deliciousness.
details,
dj,
food!!!
grandma's
handicap
harvest
host,
housed
intimate.
make,
melted.
moldy
noda
omelettes
other's
outdated,
overdone.
pecans
people?
racing
recommended,
ruby
sever
snarky
spread.
tacky.
user
wait...
wheelchair
with!
##-only
##..he
##80
##bone
##m\"
##ro,
##stone
##ter,
##warm
##yed
(albeit
\"sorry,
bibimbap
bookmarked
christian
confused,
coupons,
diet,
eatery.
edm
einer
excuse.
kings
locks
marinade
models
negative.
offense
order?
pancake.
perfection!
points,
qualities
representation
roy's
ruth
salted.
scanned
service.\n\nthe
something?
south.
staff's
stars)
straight.
threading
watches
##.50)
##\n\nnothing
##\n\nsorry
##erie
##et,
##ited
##lobster
##o\"
##rence
(never
36
\"for
\"on
basmati
buffett
cane
claustrophobic
coast,
exist.
factors
fajitas,
flay
furnishings
gosh
hero
milkshake.
nv
reheat
risk.
roof.
sauce).
started,
steep,
suv
tempura.
ticked
tight.
toys,
trick.
umm
welcome,
word:
##-class
##/2
##0,
##:30
##ef
##er)
##high
##ordered
##ously
##press
##ually
\"did
\n\nbe
\n\nbut,
advertises
artichokes
businesses,
capers
chandler,
chowder.
conducive
contrary
default
earl's
elle
errors
heather
hip-hop
inn.
midway
page.
polo
pop,
poppy
restaurant)
sanitary
sharing.
sink.
sticky,
surgery.
tending
turn,
unheard
vegan.
vowed
##-night
##....but
##girls
##ried
##server
##staff
##ts,
##ur,
##verage
24/7.
biscuits,
boa
boom
circles
costly
cracks
desired,
dissapointed.
disturb
in?
inability
kosher
mary.
overcharge
point!
population
prescribed
shepherd's
signs.
tipsy
unhappy.
##--they
##-wise
##it.
##stop
##tried
##unfortunately,
##watch
##y)
$15,
6am
again.\n\ni
ancient
bless
buddha
charming.
disappoints.
email,
error.
evidently
families,
finely
form,
heart,
maneuver
mic
out-of-town
pirates
posts
progress
provider
ramsay's
ritz
session.
sewer
shirt,
snob.
spoonful
understandable.
vin
votre
wednesdays
##bled
##drink
##hopefully
##ics
##nge
##pass
##ra.
##second
##terrible
(spicy
6:00
abundant
appreciate.
at&t
beau
bored.
ceilings,
churros
clarify
easier.
fame
fireworks
guilt
haven
humor.
joints,
lgo
mill.
neat,
niche
ordered:
robuchon
rung
situations
spaced
stretched
surprised,
teen
##..for
##\n\nme:
##al\"
##eur
##fied
##parking
\noverall
advice:
bouche
broiled
caffe
carbonara
choice!
clowns
covered.
crumb
dramatic
dye
ellis
flame
fyi,
goo
haha!
kierland
lasagna.
lazy.
maintaining
masala,
mouth!
out).
outs
peoria
picky.
pray
presents
pun
sauce?
saw.
serve,
subs,
teas.
that.\n\ni
threatening
who,
##??)
##\n\ncan't
##aring
##inal
##itive
##looks
##nother
##vision
##whether
(fried
9.
asada.
avoir
bank,
bounce
bs.
cher
concentrate
dentist.
directing
drum
dynamite
excessively
focusing
grapes
grilling
hawaii.
important,
interrupt
lowes
mood,
naan,
nascar
perused
pesto,
qdoba
returning,
rocks,
seconds,
shakes,
sweetest
tacos!
thee
time!!
wider
winter,
winter.
##ats
##delicious
##gent
##jo
##lemon
##mini
##vity
$99
(perhaps
3-5
\n\ncons:
\n\nok,
abc
accessories.
adults,
afterward.
apologetic.
appointments.
army
arrange
bar)
birthdays
brazil
browsed
canceling
eater.
explosion
gained
gratuity.
haired
hotel/casino
inside!
insisting
legendary
list!
music!
nigiri.
purses
received,
resting
shanghai
silent
spicy!
travels
weed
yet!
##+.
##...no
##7)
##game
##iate
##local
##losure
##mit
##ude
##veggie
95%
avail.
bangs
brews.
comforter
days!
disgustingly
french,
hardcore
inattentive.
leches
mile.
moscow
ordeal
philadelphia
pink's
pools.
porch
rather,
strolling
studios
traffic,
verbally
x-rays
yikes!
###
##'n
##.\n\nin
##\n\naside
##\n\nlong
##\n\nreally
##btw
##it\u00e9
##lock
##rib
##wine
##yy
5:00
accomodating
aftertaste
alternative.
circumstances
content.
earns
expedia
imagine.
in-room
jar.
manners
marys
motorcycle
nicole
popularity
princes
put,
roma
serving,
strippers
vegas\"
views,
wet,
wrong?
##.\n\noverall,
##act
##fed
##h\"
##logy
##pub
##such
$14.
(oh
crush
day\"
everywhere!
exciting,
forward.
ga
grandparents
grilled.
grills
idiot.
improving
intimate,
lodge
mesa,
mt.
net
prepackaged
primanti
reve
salami,
satisfactory
servicing
sh*t
tab,
techniques
tired.
tore
ways,
##ars
##fat
##finally
##les,
##living
##n'
##nne
##pm)
##smoked
##ty.
##ues
##ught
60%
\"regular\"
cab,
cosmo.
couch,
future!
go?
groom
henderson,
honey.
kee
merchandise.
nicer,
out..
shuffle
sucking
theyre
time..
tray.
truth.
unorganized.
verified
xs,
##atic
##friday
##hhh
##however
##mes
##omg
##sit
##t\u00e9
##yelp
(first
5/5
9,
\"fast
adorned
affected
awkward,
consistency,
cutest
district.
ditch
elsewhere!
executed.
fairness,
furious
great.\n\nthe
h.
history,
in)
keys.
melissa
one).
photos,
quaint,
ribbon
roti
sodas,
stares
start?
take-out.
that\"
treated.
tv's.
urgency
zero.
##0.00
##?\".
##\"i
##ante
##cate
##m!
##unds
(3)
(unlike
\ntheir
acquired
allowed.
appropriate.
beach.
britney
chemicals
cibo
coca
conference.
confirming
epitome
filets
flashy
haus
inspected
jello
lens
lucille's
melty
one?
operation.
passed.
platform
sinatra
slush
solved
store's
talking,
telephone
tenant
too)
tossing
vastly
you)
##.\n\nall
##.\n\nand
##honestly
##mates
##s.\n\ni
$29
$85
5+
\"no\"
\n\nthat's
absent
adventure.
aesthetically
bonus,
bookstore
condiments.
creole
experience:
expression
frequently,
fri
haircut,
hold.
in-laws
incorrect.
memory.
oh!
pb
picky,
rentals
rules.
scalp
so!
student,
trunk
twisted
vacuumed
##-tasting
##\n\nlocated
##brown
##ful,
$36
(always
3:00
\"where
\n\n*
acai
access.
admire
alice
brulee.
bww
coco
cosy
curiosity
drawer
faucet
for...
grinding
jealous
painless
photography
status.
tart.
thing...
variation
yearly
you?\"
##-order
##\n\nhonestly,
##\nwith
##fect
##iling
##lee
##ressed
bark
brasserie
bullet
buttercream
checkin
complaining.
complete.
counts
cycle
dijon
enchilada,
figures
films
forbid
great!!!
here-
institution
jalepeno
july.
kindness
linda
lost,
notice,
permanently
personality,
positive,
prawn
service\"
sink,
songs,
suggestions,
tortellini
tv's,
unpretentious
##-bar
##-cheese
##\n\nget
##bles
##cooked
##ford
##glad
##ive,
##s-
##special
##standing
2:
\"special
beach,
bisque,
biz
calzones
carnegie
chowder,
claw
dean
death.
delays
depressing.
dude.
dunno
fought
fu
gyro,
judgement
laugh.
lipstick
listens
nosh
offers.
parmesan.
promotional
rising
shabby.
shared.
sooner.
surround
tip!
waiters.
##--which
##\n\ndid
##\n\nits
##bottom
##bus
##ever.
##hin
##hine
##range
##uts
2008
\n\ntip:
anniversary,
banana,
blanc
bright.
cheer
crew.
curt
dealership.
disgruntled
dragging
eleven
example.
facilities.
filtered
gimmick
lavender
mens
moisture
moroccan
n'y
romantic.
scale.
states,
terminals
type,
wieder
##).\n\nwe
##8)
##\n\nprice
##\nalso
##\nhowever,
##as.
##buffet
##glass
##law
##llar
##mic
##mmm
##ntly
##potato
##sen
##tro
##uh
$11.
65
\"there
\n\ncheck
college.
croissant.
customized
data
disneyland
disposable
flavour.
framed
here.\"
hop,
kansas
kraft
later)
lineup
moo
naturally,
noodle.
options!
ox
pink.
planet.
ratings.
revolving
roses
separately.
softer
tao,
tivoli
tone.
uniforms
vegas!!
waitresses,
weekday.
woman's
wraps.
wtf!
##-side
##-way
##..like
##2,
##pin'
##pp
##s;
##slow
##ur.
11,
4pm.
6-7
\n\nboth
bisque.
bra
cleanliness,
component
comprised
diego,
edc
einstein
enjoy,
equals
ew.
field.
gai
hall,
lash
lechon
pies.
practices.
processing
recipe.
regularly,
remembered.
restrictions
spelled
submitted
subs.
superb,
thru,
told.
##-american
##-they
##...if
##gate
##ined
##ink
##lot
##park
##test
##tip:
$3.99
(despite
\"please
acrobatic
add,
americano
appeal.
avant
bb
bean,
bets
beware,
bills.
bitchy
bought.
browned
buca
career
clip
computer,
contact,
crap!
critique
devour
dine.
dort
dot
drugs
else?
forgot.
friday's
frosted
hamburger.
horrible!!!
instead!
lemons
mad.
me!!
mystere
nutty
pest
picture,
quantities
receive.
recommend,
recommendations,
residence
sauced
snagged
thrill
twitter
unremarkable
visa
##.\n\ni'm
##.\n\non
##dining
##ead
##ents
##gh
##ree
120
70%
8-10
about!
admittedly,
arrives.
bar...
bike.
brats
breakdown
burlesque
centennial
classic,
client.
cosmopolitan,
cram
delightfully
elevators,
fixings
handicapped
interested.
ironic
jerk.
knees
kreme
larry
luster
mint,
nod
off...
prendre
remade
sauce...
says.
shelter
siu
staffed.
terry
though).
volunteers
was)
xmas
##..in
##..well
##\n\nperhaps
##ely
##fest
##ien
##lled
##nic
achieve
alla
appliance
balance.
began.
begged
beyond.
breast.
butterscotch
diagnosis
earthy
elementary
glue
grand,
greeted.
headache.
hog
involves
key,
knowledgable.
me;
mush.
paperwork.
paste.
plastered
plut\u00f4t
rivals
slivers
smelt
sterile
taped
tar
tracks
traveler
venturing
whomever
wird
yourself!
##-long
##0)
##1)
##3,
##:(
##\noh
##ature
##inate
##overall
##pet
afterward
altered
asses
broke.
chandeliers
competitor
consignment
decatur
dice
encore,
encouraging
eu
fitted
fro
functional
honesty,
jets
lame,
mailing
maintenance.
one...
panko
parsley
pris
professionalism.
room?
screwing
slick
stadium.
weighed
yogurtland
##-end
##-ness
##\n\nhappy
##aking
##also
##balls
##heads
##needed
##nt,
##nted
##o's.
##ss.
$4.00
-1
3pm.
\"out
\n\neveryone
\nto
amanda
beforehand.
boobs
camping
cheese?
coney
couscous
debate
enhanced
guava
horses
info.
instruction
intimidating
kimchee
mein.
mud
multitude
news.
nightclubs
positively
powerful
proven
puzzled
researched
schedule,
skewers,
snack,
steered
thickness
warned,
##!\n\nthey
##,,
##ave
##cking
##ern
##ge.
##needless
##pe,
##uted
(try
\"good\"
aj's
ale.
ales
angeles,
apologetic,
apr\u00e8s
barbers
bicycle
brand,
bruschetta,
certificate.
cpk
debated
dreaded
driver's
employee's
hear.
imax
is)
juke
more)
order...
passable.
plasma
plusieurs
projects
promoting
raining
smoothly.
spotty.
sue
support.
thread
tunnel
unhelpful.
##-12
##-o
##case
##dirty
##due
##obviously
##yo
(did
24-hour
al's
all).
apprehensive
attest
bmw
cherries
classic.
creams
cried
dane
distance,
drastically
iffy
java
juste
lard
like...
make-up
menu:
obtain
paint,
place).
public.
ratio.
river.
savory.
script
shallow
sloppy.
spotless
superb!
supermarket.
tamarind
wi-fi.
wings!
wonders
##..then
##ey's
##home
##ncy
##self
##ua
##voir
##yr
(its
1:00
appreciative
artsy
biggie.
bond
capriotti's
copious
craziness
disease
distant
extension
good.\n\nwe
inferior
juan
ken
like?
lucky,
makers
mart
martin
omakase
pancetta
pillows.
proudly
saw,
successfully
teenager
though.\n\nthe
time:
ummm
vice
vicinity
waiters,
##\n\nback
##\nfood:
##ant,
##cle
##ever,
##fyi
##gling
##iation
##ku
##ps,
##yeah,
(mind
:)\n\nthe
actively
agency
bedroom.
calvin
chin
cosmo,
cue
damage.
day).
delta
festival.
goodness!
grabs
hen
hip.
it.\n\nmy
lifting
located,
marquee.
meal.\n\nthe
mistaken
nice...
of)
oranges
porter
price?
service..
settings
slop
stewed
substandard
transport
treats,
yep
##!\n\nso
##...just
##\n\n3
##city
##ibility
##ly\"
##r:
##rolls
##ton,
##w!
##wy
(best
(love
15th
\"wow\"
\n\nlove
as,
baffled
bleach
blends
bulbs
comped.
cotta
cuticle
dipping.
discovery
eagerly
friggin'
gambled
guest,
host.
incident.
kick,
lovers.
notch!
noticed.
oh.
pc
privilege
rancid
relocated
reset
rival
selection!
supplies.
tableside
tea!
thing?
tiffany
unseasoned
us?
v.
##-30
##90
##\"\n\nthe
##\n\nfast
##\ndo
##en's
##ium
##management
##moving
##taking
##tra
##traditional
##usually
=(
\"must
\n\n4.
\n\nbest
about?
attorney
bid
certificates
chi
cluttered
colder
comics
decked
degrees.
drained
drinks...
driver,
enjoyable,
five.
for)
maui
meager
mock
myriad
oblivious
ongoing
panic
panini.
premises
profusely
score!
shell,
shockingly
sized.
slow!
stick.
submit
tartare,
terminal.
tri
umami
uptown.
wi
##'y
##...which
##/food
##4)
##\n\ncome
##ache
##chef
##deep
##lol
##medium
\"what's
\n\nagain,
answered.
balcony.
beating
bedroom,
below,
candies
closed!
confusing,
cuisines
die.
examples
expanding
favorable
first!
fro-yo
gas,
gently
gods
grainy
greg
lives.
lol)
microwaved.
mmmm
moved.
navy
nutrition
plat
registered
rental.
serious.
sizable
wax.
well).
whisked
worked,
you\".
##'ed
##-50
##5)
##\neverything
##five
##pe.
##pulled
##seared
(right
4)
\n-the
\n\ndespite
\n\nunfortunately
additions
all.\n\nthe
anxiety
becuase
boarded
boo.
breeze.
capitol
careful.
charger
commit
dancers,
discourage
drinker,
driving.
eddie
edge.
enticing
housemade
issued
juices,
leg.
lowe's
memorable,
mount
pete's
pipes
ruined.
sapporo
simplicity
sofas
sponge
time),
tongue.
transaction.
worst!
##\nnice
##burg
##dies
##fully,
##however,
##ine,
##lf
##ls.
##mbiance
##rise
##tage
##tors
##wise,
$60.
(sometimes
\n\ndrinks
\n\nhowever
adequately
anthem
basis,
batteries
bueno.
bunch.
chilis
coconut,
condition,
corona
decaf
fashion,
faut
fry,
glance,
highlight.
imagination
importance
line!
lot's
michael's
montr\u00e9al
pancake,
pony
printer
sitting,
stayed.
stella
up:
utensils.
vw
##!\n\nif
##'s\"
##:50
##\n\ntoday
##better
##gt
##gun
##neck
##raw
##show
##stuffed
##ups
##wow
$30,
\"ok,
alles
altogether.
apathetic
baseline
bruschetta.
butterfly
child,
concessions
cop
course!
credited
develop
griddle
later!
mentions
overloaded
patronizing
perfume
phx.
rosati's
sigh
spouse
stations,
sundae.
target,
tastings
them.\n\ni
traditionally
ushered
##-up.
##@
##\n\ndessert
##i've
##ist,
##shame
##um.
$1.
95
accessories,
adobada
aller
are:
area...
blaming
cheery
colada
cute!
effect.
exited
fastest
flooded
gift.
gouda
gristle
happiness
irked
justified
lake.
mixed.
pants,
phrase
plastic.
promotions
seabass
starter,
styling
sucked!
tail,
team,
tourists,
trap.
vista
yikes.
##..\n\nwe
##.\n\nafter
##\nwould
##ag
##ato
##extremely
##gar
##icle
##land.
##stic
##vice
10$
\"let
\n\n\ni
\n\nbeing
\n\nnice
aback
actions
admission.
amidst
angeles.
attractive.
ballpark
banchan
brio
collections
comments.
crawfish,
domino's
experiment
french.
geek
hamburger,
heritage
honeymoon
lvac
mumbled
mysterious
powered
quick!
roast.
saloon
silence
sodas.
sooooooo
stunning.
summerlin.
sunflower
takeaway
ultrasound
volunteer
warning,
wow...
##...my
##\nmaybe
##ame
##m's
##mind
##once
##things
:)\n\ni
addictive
addition.
boost
chew.
commenting
construction.
diarrhea
disco
dream.
frame.
herbs,
ii
inconsiderate
jay
karaoke.
manicure,
offering.
ok!
pineapple.
radius
really???
runny.
sammy
sample.
senses
sir,
smoothies.
sorry!
sourced
storefront
terrific,
times)
##\n\nokay,
##mber
##ong
##print
##rte
##sadly
##taco
##to,
(big
20th
\n\ncame
\n\nduring
acknowledged.
applebees
aveda
biker
car!
conduct
coworkers.
cuts.
espresso.
experience.\n\ni
fade
fields
fishing
frustrated.
income
intriguing
l.
laughs
leash
leasing
my.
ol
overcome
plane.
prickly
rad
rc
renew
ring.
s'mores
socializing
sq
susan
swear,
te
tilted
too!!
typical,
wayyy
would!
zone.
##!.
##atory
##cious
##pping
##ro's
##ule
##ured
##utes
(ok,
215
\"fresh\"
\n\ntry
arnold
bell,
belonged
biscuits.
citizens
cleaner,
crunch,
displeased
foot.
gnocchi,
homework
jam,
mike's
moco
resolved.
room)
sauna,
singers
squares
strolled
supplies,
toasted,
toasty
turtle
unnecessarily
victim
warrants
whole.
woods
##\n\nwhere
##don
##ier,
##ingly
##ized.
##nation
##oon
##phone
##set
##st.
##tag
##wed
##wow,
$20.00
(besides
\"authentic\"
\n\nhow
\ngood
absurd.
ago)
baby!
booze,
brass
caps
circus.
clt
concern.
considerate
curd
downer
groomers
holders
hugely
masses
mentally
merlot
non-alcoholic
not)
pretended
shoving
thermostat
##$5
##-40
##-y.
##:00
##ase
##asted
##cht
##mmy
##nds
##ply
##rait
##review
##tini
##zzy
10x
\n\ntoday
apartment,
appealing,
boil
carrier
chewed
complains
considerable
dingy,
dresser
dresses,
europe
family!
great-
haben
holiday.
home-made
hoped.
hut.
inconveniencing
initially,
liter
mcdowell
mickey
mileage
museum,
night.\n\nthe
observe
opera
plague.
quote.
reconsider
remarkably
samba
shampoo,
south,
time\"
tortas
walkways
wired
worthless
##-quality
##.99)
##.\n\na
##.you
##\nhad
##b)
##funny
##house.
##pit
##void
11pm.
\n\ncan't
\n\nover
attacked
batali
chardonnay
clark
cordial
custard,
detailing
eats,
encore.
escort
exiting
imagine,
no?
octopus,
pupusas
requested,
resembling
rice!
room...
service;
sewage
shoots
smoky,
speed.
sprite
stainless
statue
steelers
surroundings.
tequila.
tj
velvet,
verge
yeah!
##-you
##:15
##bc
##cafe
##during
##fs
##gged
##ives
##ook
##spring
##stick
$125
(such
(yeah,
addiction
angle
asiago
breweries
c'mon,
cake!
caked
convenience,
delay.
delights
dh
distract
drain.
entice
evenly
folding
fries?
gary
intimidated
introduction
japan.
kidding,
landmark
mature
mushroom.
n'ai
nourriture
order)
pink,
postino
properties.
purchased.
raku
romantic,
scratching
socal
that.\"
toby
tots,
want?
##ara
##eating
##granted
##hey
##mers
##nies
##quite
##se.
##simply
##waitress
##ways
$1.99
animals,
biscuit.
bro
ca,
caramel,
checks,
click
converse
couple,
crumbles
difference,
displeasure
dresses.
efficiently
entr\u00e9es
expects
fired.
intentions
invoice
jason's
like:
littered
lover.
overbearing.
palms.
prize
promising.
proteins
sales,
screens.
slippery
suggestion,
switch.
there),
together!
waitstaff.
##--it's
##/12
##/early
##chy
##gain,
##husband
##ine.
##inted
##via
(along
(red
backup
bangers
bk
bliss
boba,
centers
chefs.
city!
cluster
disabled
disgust
fight.
flawless
forget.
g.
graveyard
invested
it?\"
kiddos
meaty,
movement
pillows,
polish,
pre-packaged
replaced,
shes
shirts.
sundays,
tarts
tendon
tops,
uns
vehicle,
##-60
##-good
##50.
##:40
##:\n\n1)
##\n\nthings
##\n\nyour
##b's
##cting
##eggs
##etta
##fer
##hit
##no's
##sco
##step
##to's
##uit
##update:
##ws
#3
???
\n\nhonestly,
acoustic
airplane
beets,
beverage,
cautious
clueless.
coal
conservative
contractor
crooked
curried
cuts,
dec
decide.
emphasize
enter.
exceed
exit.
expertise
flowers,
fries...
hawaii,
heels.
hoover
investment
justice.
m'a
much?
obligatory
open!
pasties
pharmacist
pounding
present,
retired
sheets.
spiked
suprised
swirl
ties
tight,
travelzoo
vomiting
walmart,
wear.
wristbands
##...\n\nthe
##1,
##\n\nlots
##an.
##center
##date
##ect
##ica
##many
##rth
$5.50
(e.g.
(free
\"hot\"
\"take
\n\nperhaps
atlantic
better.\n\ni
burger?
business?
cod,
cutter
falafel,
fire,
gauge
glimpse
great..
heinz
high-quality
jewel
leaked
maricopa
notices
parmigiana
prefers
pregnancy
represented
rescheduled
rounding
saddened
sanitation
seldom
separating
shortcake
side)
signs,
silky
smeared
southeast
squash,
tiramisu.
undoubtedly
west.
yama
##(not
##77
##nce.
##oe
##stead
##trip
(once
(sp?)
20$
2010.
\"make
ale,
anticipate
approve
breathtaking
clown
concoctions
craftsteak
doorman
empanada
etc),
faves
forever!
gilbert.
go...
guac.
judged
manchego
maybe?
mural
norm.
phones.
place-
ragu
remarkable.
rumor
rv
scallion
skimped
squished
tall,
verbal
vibes
xs.
##.......
##ggy
##gon
##lamb
##mie
##ou
##pie
##strike
##ting,
##tude
$12,
18th
\"let's
\n\nthese
america,
annoyed,
beads
beefy
blatant
bones.
bumps
clams.
co-workers.
devoted
failed.
fill.
flaky,
formula
googled
goto
great)
hair!
hesitation
involving
lassi
lecture
menu's
millions
morton's
oak
omelette,
pans
phones,
pinnacle
requiring
robust
rock!
scores
sized,
stopped.
swung
taste!
uk
understaffed,
unimpressive.
unsafe
##)\n\nwe
##-food
##.\n\nservice
##30pm
##\n\nstay
##\ngo
##age.
##craft
##hill
##ic,
##lied
##loved
##na.
##r!
##ribs
##tering
\n\naside
\n\nget
aging
asking,
australian
banks
bone,
brie,
cartel
church.
contracted
control,
cube
daycare
deduct
fluffy.
glitz
greatest.
hammered
have!
health.
inhaled
jalapenos.
joint!
learned.
madame
maison
marc
michigan
missing,
mother,
name).
nutritional
passport
performer
recovery
rest,
restrooms.
ruben
ses
southpark
stranded
then?
voir
wildly
youth
##-meat
##-one
##.\n\nour
##.no
##\n\nedit:
##aged
##aire
##ately
##being
##dr.
##hrs
##se,
##ssed
##tant
##tin
##tory
##uing
##unk
5%
appearance.
applying
capacity.
chris,
compact
complained,
curds,
dates.
decorate
dept.
diagnostic
differently.
difficult,
draft.
educate
excited,
finer
flamingo,
flavored.
flustered
format
forth.
greeted,
ha.
hmmm
impress.
incompetent.
inedible,
levels,
liar
location)
melt.
piercing
pointless
restaurant.\n\nthe
sampler.
shock.
slide.
smoothie,
spoiled.
sprinkling
swears
tastefully
tolerable
types.
welcomed.
##-9
##:\n\nthe
##\n\nbesides
##\neven
##bby
##dem
##ille
##kinda
##logist
##man.
##ois
##rier
##working
$6.50
5am
8oz
\n\nbecause
\nthat
acidic
anchovies
bite!
breakfast/brunch
cabinets
comfort.
creepy.
cubed
downed
else...
existent.
firstly,
giants
heads.
heaven,
input
internal
is?
lactose
language.
linq
mead
optional
penthouse
phantom
reality,
repair,
represents
sandwiched
shade.
sorted
sought
substitutions
surprised!
table...
tapioca
taxis
voice.
voucher.
##\n\nhowever
##\u00df
##buy
##ino's
##lap
##ling.
##mato
##mbling
##minus
##orange
##rging
##security
##uting
(apparently
90s
\"high
\n\nlastly,
a,
athletic
autre
ayce,
back.\n\ni
charming,
chop,
congealed
credits
damper
dense,
deserted
desirable
downgrade
emptied
finishes
hampton
happened?
hatch
his.
hmm
honestly.
humid
id,
introducing
involve
jon
loft
mailed
mussel
neither.
on-line
only)
restaraunt
salon!
service-
shuttle.
smoking,
sol
statues
steal.
stellar,
stew,
symptoms
tag,
tina
totaled
umbrellas
volleyball
weekday,
wellness
witch
without.
##!!!!!!!!
##$20
##\n\navoid
##_
##aving
##ero
##eye
##granted,
##hands
##ras
##rooms
$18.
$38
ass,
awesomeness
baker
carte,
ceramic
courts
customer!
debris
deducted
dismissed
in.\n\nthe
letdown.
liquor,
mist
mo
now)
owner/manager
paradise.
peanuts,
pennies
pitt
poulet
prior,
recover
secluded
secretly
slots,
sneaky
stew.
uni,
unsanitary
up.\n\nthe
voices
wich
##$30
##..don't
##born
##ctor
##ing!
##lous
##n\"
##oooo
##posed
##rude
##tress
$350
$8.99
(nice
\n\ngot
accompaniment
adjustment
avis
bitter,
bravo
chimichurri
compassion
crinkle
despise
diego.
distinguish
dread
espresso,
etc.),
everyday,
extravagant
font
frites.
girly
god's
has,
ice-cream
ihop.
indulged
islands
jerry
king's
limes
linger
mascarpone
medley
miscommunication
myself!
napkin.
nondescript
plan,
prepped
programs
promise.
saki
seriously!
stingray
unsatisfied.
vegas).
yard.
##\n\nsecond,
##c)
##de,
##er!
##fort
##hubby
##ishing
##lay
##lers
##pour
##rize
##rum
##s..
##tively
$200.
$6,
11am.
20.
\"o\"
\n\nsorry
address,
bellagio's
breaker
brighter
chipping
clientele,
comp'd
corridor
crumble
deeper
dinners,
driveway
ducks
fries)
gold's
ground,
guy!
haggis
hmm,
injured
kiwi
leaned
leche
luggage.
lukewarm,
margaritaville
memphis
menudo
nightclub,
notorious
old-fashioned
operations
patties,
pity
posted.
presented,
rates.
reassured
salespeople
salivating
sean
shadyside
sliver
spendy
stromboli
toasted.
track.
transformed
unexpectedly
village.
workouts
yuck
##-20
##cluding
##cost
##lic
##lights
##rest
##xx
(get
(go
1:
2-star
\n\nwas
\ndon't
back.\n\nthe
balanced.
ban
better.\n\nthe
chasing
chock
chop.
chops.
college,
consensus
dismal
economic
efficiency
five-star
fork,
gnocchi.
grows
gyros,
imo,
kiosks
lime.
lockers
lucky.
maps
meantime
mercedes
meter
minimal.
mouthful
nikki
peep
pickle,
pommes
reserved.
roped
shorts,
sirloin,
something!
stages
suit.
tank.
upscale.
vindaloo
zoo.
##/11
##6,
##\u00dfen
##each
##no.
##spinach
##tree
##uck
##uer
##won't
(note:
12,
\n\nnothing
affiliated
assembled
authorized
blessed
chic,
christmas,
collected
comping
condescending.
cushions
dating
drinkers
estimate.
federal
feeling,
fountain,
frosty
idea!
it!)
kai
karen
locale
loss.
masters
max.
muffin,
paint.
pick.
remarks
rink
scope
self.
spongy
stamps
star:
surtout
thehotel
updated.
validate
##!!!)
##-4
##35
##el,
##enjoy
##iating
##illa
##limited
##rc
##remember
##seating
##thin
##tv
##value
(lots
(which,
aftertaste.
angels
botanical
capture
celery,
cheaply
costa
crappy.
dart
dirt.
emeril's
enter,
fate
hazard
horrid.
interacting
know)
macayo's
masa
moi
name!
nw
painful.
pastrami,
proportions
purchases.
review...
scarf
screens,
setup.
sexy,
stereo
summed
swinging
to-go.
token
traded
uncommon
wad
wildflower
worlds
youtube
ziti
##(the
##-over
##\n\nstill
##cause
##cho
##cuz
##esn't
##gio
##ively
##ke,
##ous.
##p's
##say
##ta,
$35.
(check
(sorry,
(there's
absinthe
albertsons
autres
being.
believer
breading.
bucco
cabin
club!
comment.
composed
danny
development
dome
energy,
exam.
flowers.
full!
garnish.
generation
interest.
just...
lunch/dinner
must,
overdone,
part?
peppermint
pretentious,
pretzels,
proclaimed
region
reheated.
religious
robes
shady.
shaving
sister.
stars:
sunshine
sweeping
terrasse
that..
tongue,
unnecessary.
##.\n\ni've
##\n\nstill,
##dly
##isse
##ist.
##located
##ok.
##stand
##tling
##urt
##waited
$39
(small
\nvery
accurately
aioli,
book!
boys,
bum
bunny
bussers
campus,
cds
concourse
defective
emeril
fairness
figured,
flaw
frequent.
harrahs
in\"
intake
lookout
mary,
mecca
mj
nan
night\"
obnoxiously
over-priced.
parade
preferences
punch.
roadhouse
roam
robe
sandy
stormed
toilet,
ultimately,
vom
weekend!
woken
yourselves
##\n\ntoo
##hoo
##merican
##miss
##recently
##sters
##tation
$13.
$16.
$8,
2:00
9th
absence
appetite,
automotive
backing
believing
block.
boast
burger\"
calendar
container,
coughing
count.
delicious.\n\nthe
disrespect
extensive.
few,
goodyear
hangout.
impeccable,
jeans.
knocks
nonexistent.
over-the-top
periodically
revealed
review)
service)
smokey,
spaghetti.
stops.
suck,
suites,
tablet
tiniest
touted
##)..
##...)
##..when
##:\ni
##ather
##between
##com.
##el.
##honey
##rio
##spot
##strawberry
##tender
##vable
##vent
##ville,
##wear
??
\n\n2
\n\nhaving
accents
add.
approval
assistants
atomic
bar/restaurant
biggie
booty
bus,
cart,
chased
communicated
cooler.
course).
dallas
drink)
escalators
fraud
grad
harassing
housing
humongous
impromptu
iv
jackets
julie
lol,
matzo
mcdonalds,
obligated
out!!
pesto.
plantain
pressure,
salad)
salade
shift.
socialize
souvlaki
stretching
tao.
teaspoon
thorough,
towel.
upcharge
vague
vanilla.
vu
wallet,
workers,
##.\nwe
##?!!
##ail
##cat
##lined
##piece
##skip
##ye
$25,
$800
(less
2014,
4-6
\"wow,
anime
anymore!
applaud
banter
bouquet
brad
community,
condiments,
console
cork
cornbread.
countries
dennys
dust.
experienced,
firestone
gobbled
hippies
hubert
icky
italy,
kalamata
killer.
medallions
mule
openly
overbearing
physician
pronounced
rain.
really!
repas
requirement
rides.
runny,
scanning
scraping
sleepy
spaghetti,
squid,
table)
tack
temperatures
travelling
tribute
tripe
unreal.
useless.
vino
winding
wynn's
you!!
yucky
##-baked
##-flavored
##bb
##business
##cies
##magine
##nail
##nte
##odle
##po
##rolled
##sitting
##steamed
##waiting
##wl
##yet
##yyy
$7,
(again
(much
adorable.
ash
atrium
ball,
body,
ceviche.
compensated
existent
expert,
fritter
ganache
incentive
junk.
landscape
lemony
lentils
memories.
muddled
omelets,
patisserie
pause
percentage
produits
projector
recommends
repaired.
researching
restuarant
sammy's
sandals
scantily
silly.
snuck
soul.
spears
story:
suckered
suggestion.
to...
topping,
torture
uninspired.
victoria
well)
##70
##\n5)
##\n\ncustomer
##\nwhile
##filled
##k!
##sh.
##tier
##under
##want
4:00
\"would
\n\noverall:
\nhowever,
aaron
abuse
aluminum
banking
barking
bash
basket,
billy
chat.
cokes
confuse
contemplating
decorations,
decorations.
display,
donut.
doubles
drab
east.
expecting,
faulty
flare
frosting,
harry
heel
hostile
instruments
intersection
joe's.
kids!
maggiano's
magic.
meal...
membership,
only!
oregano
overwhelming,
perception
phase
priority.
prison
pronounce
rarity
specialized
sprout
stamped
swapped
to)
up).
vet.
well-done
y'all
##-owned
##.just
##:\n\ni
##\nso,
##\u00dfe
##ators
##est,
##ge,
##mission
##ub
##up.
##zza
(out
20's
30min
\n\nwe've
adjustments
armed
better)
billion
can!
cinco
criminal
defense
disturbed
download
favs
feb
gondola
gown
hangover.
hating
hatte
horrified
improv
jeremy
jerks
lazy,
luv
misleading.
never.
nissan
peaches
plaza,
rejected
slipping
stylist,
suffers
tequila,
texas,
tightly
time;
times...
tiramisu,
top!
trains
unlucky
##bell
##gave
##hire
##icht
##overall,
##pes
##rais
##rized
$700
(6
2013,
\n\n\nthe
\n\nbefore
anytime.
apparently.
casino's
chalked
comparison,
concepts
cone.
couldn't.
culture.
delectable.
demographic
drinks?
duration
fountains,
francis
generally,
help!
hopes.
incompetence
jamais
kitchenette
leg,
listen.
locked.
loved,
negative,
nice.\n\nthe
numbers.
outgoing
over-cooked
picasso
pits
placement
plumber
podium
pounded
pricy,
rage
regal
released
rellenos
reviews!
sensor
something...
sparkly
starters.
sundried
tendency
thawed
vegas.\n\nthe
version,
walker
won't.
worrying
##..at
##3rd
##\n\nthese
##dog
##ffy
##filet
##line.
##mine
##nen
##play
##pled
##que,
##rolling
##to.
##ution
##way,
##zi
$3,
(made
2-4
aint
arriving,
bartender's
biscuit,
bizarre.
brandon
brother,
cashed
central.
chefs,
closet.
dominos
ensured
facial.
facials
fall.
food....
forces
fussy
gringo
groove
judgment
kate
lions
mexico,
minestrone
mother-in-law
overshadowed
phoned
plugged
protection
remark
rendition
roaring
salsas,
sight,
snatched
stripped
table?
temp.
toaster
unappealing
upgrade,
##$12
##&b
##-up,
##-ups
##/server
##\n3
##duced
##j.
##mr.
##ram
##sea
##tered
##wa
aimlessly
anger
arguably
blazing
cheesesteaks
chix
confusion.
denny's,
drinks)
elegant,
exhaust
hill,
hound
multi
opportunity.
ownership.
personally.
pilot
radar
reeks
refilled,
regulars,
rinse
rule.
samples,
screws
shelves.
sheraton
shouldnt
slack
somewhere,
southside
spreading
stroller
supplied
that?!
tidy
touring
trouve
warning.
##\n\nps
##\n\nseriously,
##although
##conclusion:
##cy.
##dos
##mus
##p)
##ve.
$2.99
'n'
(can
(kind
\n\n2)
abruptly
all.\n\ni
along,
amex
at!
b&b
borders
burgers!
but.
celine
dentists
dreadful
galleria
get!
gossiping
groceries.
infested
manicurist
members,
peanuts.
price)
priced!
rehearsal
reports
run-of-the-mill
salad?
salvage
staircase
strategy
subsequently
there!!
trusting
visit:
vor
##-rated
##..that's
##.a
##0%
##\n\n1
##cast
##d!
##damn
##ee.
##eled
##ground
##h)
##kitchen
##les.
##sandwich
##van
##vious
$130
$140
\n\nsecond
aimed
background,
behaved
bff
bike,
bombarded
brew.
calming
chelsea's
chilling
choked
closer,
cord
daddy's
deep.
dive,
embassy
employed
enforce
glamorous
hmmm,
hug
hygiene
just,
lady's
lengua
louie
lousy.
low-key
meet.
meh...
mlife
motivated
news,
on?
overdue
proves
puke
raisins
reporting
rm
ron
ropes
sams
scolded
scottsdale!
serious?
song,
special!
tobacco
tonight's
weren't.
##!!\n\nthe
##/cheese
##\"),
##\ncons:
##despite
##erry
##expect
##felt
##fuck
##pose
##wer
##wich
$8.50
21,
\"meh.
\n\nabout
\n\ncustomer
amused
b-day
bellman
check!
chunks.
constantly.
delightful,
disconnected
drool
eggroll
eher
fam
florist
having.
herself,
highlighted
identified
inept
isle
justice
kinks.
land.
nathan's
network.
off-putting
off-strip
patrick's
pickle.
pizza...
pos
price...
pungent
rectangular
room.\n\nthe
rusty
seeds,
sheets,
simultaneously
tablespoon
terrified
tracked
tracy
trees,
twice!
way...
zumanity
##-asian
##..with
##\n\n5
##\n\nsave
##ational
##baby
##expensive
##ird
##ng.
##screen
##third
##tis
##ull
(half
(i.e.,
(read
12\"
\"ok\".
assumption
base,
busting
catfish,
conditioned
devices
disc
distinctive
duct
eff
enchilada.
eyeing
flavorful!
hrh
hybrid
increasingly
korean,
laughing.
lit.
lovers,
lvh
marquee,
mesquite
nike
ordinary,
provide.
ramp
sherry
star?
statement.
stocked,
sweets,
tailor
thorough.
timers
uncalled
##)-
##-2
##-person
##4,
##\n\nmake
##\u00e8me
##ance.
##ao
##banana
##cker
##nel
##ny's
##ted,
##tley
##turns
##ty,
##ult
##wash
##yum!
(i'd
(seriously,
2007
360
\nat
apologizes
biryani
borrow
carnitas,
chaos.
charlotte!
closer.
code,
combinations.
debbie
deemed
duper
ears.
ensuring
espn
firmly
freezer.
glued
hence,
info,
instances
leek
leurs
meal.\n\ni
mediocrity
navigate.
newbie
o.
peas.
practicing
preserve
rendered
report.
routinely
satisfactory.
screening
stinks.
straightened
sucky
varieties.
yucca
yukon
##)\n
##-no
##\n\nan
##\u00e8s
##bird
##nut
##paid
##rap
##rey
##slightly
\n\nbesides
\n\nreally
\n\nsave
adams
amazing...
beer?
boutiques
buff
buyers
charges,
cheeks
completing
cosmetic
day.\n\ni
declared
desserts!
disgusted.
dollar,
donation
entered,
feedback.
flagging
flautas
flimsy
flock
fools
germany
horrible!!
hotwire
inconsistency
ish
like!
mac's
mackerel
mama's
meatloaf,
modified
nyny
often!
one-star
opentable
order:
practical
problem!
program,
reimburse
responses
somethings
specifically,
spitting
things!
traditional,
tuck
underwear
uniquely
weirdest
##$3
##-average
##09
##oping
##so,
##standard
$15.00
(i'll
(medium
180
agree,
agreed,
area)
austin
baked,
before)
breath.
careful,
carryout
cases,
cheese).
comedians
cous
dominated
elbows
emily
fb
fo
heels,
illusion
increasing
irritated.
jumper
keith
linen
marriage
meringue
milling
noticed,
og
ohio
outcome
over!
pan.
panels
penguin
pressing
previously,
recording
renovation.
resolution
retirement
safer
sardine
stark
talkative
testament
unsweetened
wasted.
##..oh
##\n7.
##\n\nside
##\n\nwe've
##before
##brew
##cute
##grand
##ites
##phere
##regular
##s.\"
##salt
##ump
##valet
##vre
##zt
$50,
(sweet
2000
29
\"but
\"fresh
\n\nhighly
addressing
ai
balloons
choc
classier
consult
curds.
dripped
educational
fargo
figure.
freedom
frites,
fusion.
gallo,
greatness
haul
helicopter
holes.
ingredient.
insides
jams
macaron
mates
monterey
once!
pampered
raviolis
room:
snake
sous
starts.
taker
unethical
vegas!!!
veteran
view!
visitors.
vitamin
wayyyy
wishes
##-8
##bee
##bre
##dark
##giving
##ige
##m:
##nyways,
##oot
##per.
##vegan
##vised
\u00fcber
across.
attribute
barn
belief
bracelet
brands.
brandy
bugged
carpeting
cheese...
city's
crumbly
curse
darts
decency
detect
diagnose
dvds
elizabeth
exaggerating
exceedingly
fluids
hideous
isles
nba
ok?
plenty.
rainforest
replies
running,
saag
said...
shouted
squirt
survived
sweets.
##..as
##\n\nwalking
##\nwent
##ab
##carne
##cation
##iers
##ill
##mint
##mushroom
##ome.
##portions
##rates
##ste
##vous
\nalso
absorb
additionally
all..
ambient
big!
bits.
bomb,
bouncing
bruce
btw.
calories,
concluded
defense,
destroy
do)
faithful
foremost,
great.\n\ni
habitat
hills.
hospitality.
indecisive
interactions
interview
juices.
kitchens
knots.
lebanese
lola
mariachi
mill,
my,
people...
played.
privacy.
remodel.
sampler,
sardines
scotland
serene
sorbet.
straighten
summary
tale
there;
unwelcome
up.\n\ni
voice,
##$2
##(and
##-sweet
##\n\nhave
##bility
##eed
##ended
##ier.
##jas
##meat
##mouth
##tar
##unding
(next
accomplish
away)
bands,
bearing
biggie,
buzzer
carnivore
chronic
cigarettes.
convention.
corporation
eaters.
eating!
extraordinarily
figs
flatbread,
fragrant
francisco.
glaring
good.\nthe
hes
higher,
hut,
influenced
inquiring
invisible
it.\nthe
jackie
kimchi,
lease.
mcd's
menu\"
minutes...
obliged
paperwork,
patties.
portions!
practice,
purse.
recomend
rotated
rug
schools
seeming
sights
sipped
smiles.
steak!
strewn
succeed
table's
talented.
trace
unsuspecting
unwind
waited...and
wreck
wurde
zucchini.
##'s)
##-seasoned
##-we
##ane
##antly
##birds
##coconut
##ctually
##ids
##log
##seriously,
##sha
##tables
##world
10-12
21.
\nalso,
accomplished
aesthetic
albertson's
announce
artists.
atlanta
brim
bums
cardinals
codes
communication.
complaining,
containers.
controls
diving
doll
eternity
freeway.
hardy
harm
heartbeat.
hickory
hrs.
lids
massaging
munching
nam
no...
p.
pose
royale
sauvignon
say:
scenic
slabs
soit
special\"
stay!
stuffed,
swept
tactics
taqueria
trash,
travel.
types,
typical.
wine!
ya.
yeah...
##-inspired
##-ish.
##-town
##.,
##...that
##\n\nprobably
##ban
##kudos
##lation
##ose
##oze
##vis
##walking
##win
$.
$12.99
(10
(served
\"customer
acts.
avacado
benny
bugs.
cockroaches
comes.
commend
costs,
dad,
danish
dial
doesn't.
donated
drive-through
drive-thru.
emotional
esp.
exchange.
fries:
from!
indicator
julian
lumpy
maitre
makeover
meal?
meat)
megan
meticulous
non-stop
organize
outdoors.
particular.
philosophy
pod
punched
ranked
rent.
returning!
roosevelt
rubber.
saturdays.
scrumptious.
sie
synthetic
t-shirts,
unapologetic
unbearable.
unbelievable!
untouched
unwanted
visiting,
waited...
weight.
whatsoever,
where,
you.\n\ni
##8,
##\n\nthree
##\nonly
##bags
##cca
##ends
##ent.
##formed
##izer
##llo,
##mpt
##olis
##que.
##regardless,
##sale
1-10
25th
\"he
accordingly
action,
alerted
allergies.
antibiotics
back\"
bacon-wrapped
barnes
brunette
challenged
chocolat
chorizo.
circling
concerning
deposit.
dishes!
employ
exhibit.
fanatic
fluke.
gamblers
gifts.
handsome
ironically
ironing
kiddie
larger,
lb.
listed.
mile,
mingle
minimum,
moe's
opting
participating
petty
pinch.
pnc
presentations
principle
problem?
pu
pushes
refrigerator.
rei
rewarded
ripoff
sensation
sept
skewers.
stop!
tan.
thailand
toronto
walking,
wolf
you.\n\nthe
##$8
##-aged
##...what
##btw,
##cook
##dessert
##dish
##korean
##shop
##sugar
$25.00
(instead
2pm.
\"come
\nwill
angela
aromatic
blue,
cet
companies.
cousin's
dancers.
dramatically
dryers
earth,
establishments,
existence
fresco
frustration.
har
heap
hearty,
immaculate
impression,
informative,
installing
k.
knowledgable,
mint.
mornings.
nonexistent
north.
nuff
old)
parce
receives
samosa
short:
simplest
sloppy,
sound,
spicey
stake
sweetheart
thingy
this)
violently
waitress'
##....it
##?!)
##\nother
##ama
##at.
##bu
##bury
##either
##fall
##h's
##iting
##iving
##kins
##llion
##manager
##mix
##mobile
##rick
##saw
##sch
##sports
##talk
##uk
$$$$
$8.00
\n\nok
acrylics
advisor
bulb
cereal,
character,
clinic.
costco,
deuce
diane
direction,
drink?
ecstatic
elected
elegant.
facilities,
fever
floored
girlfriend,
grant
honoring
incident,
jane
knowledge.
limp,
looks,
milky
mojito.
nypd
object
on-site
p.f.
pilates
pint.
postal
previously.
river,
scrap
sear
separates
shed
smiths
tangy,
theft
thigh
usher
walnuts,
what??
yellowtail,
##)?
##--we
##5,
##\n\n4)
##clearly
##enter
##gn
##il.
##kept
##ma.
##name
##tasted
##true
##vegetarian
$48
10pm,
40+
51
\n\n1)
away...
better).
botched
brunch!
caring.
chip.
compote
cortez
damn.
day.\n\nthe
directions.
dumping
entrances
expectation.
favors
flair.
football,
funnel
given,
herbs.
hunger.
indicates
jamie
manufacturer
mark,
marshmallows
mate
meadows
might've
minutes).
motto
musubi
oreos
outside!
overpower
reasoning
required.
smokehouse
styles.
tail.
tattooed
two)
us.\n\nthe
vents
viel
volume.
waves
you).
zing
##-y,
##30.
##\n\nlooking
##\n\nupdate
##\nits
##any
##in'.
##neither
##odles
##pepper
##rp
##th,
##thy
##tine
##vel
##walked
$7.00
(beef
(pork
...and
\"family
access,
anti
assessment
attentiveness
baguette.
bands.
beautifully.
caesars.
caveat
chompie's
circa
claim.
clients,
crafts
delmonico
document
durango
eat\"
effectively
explain.
filiberto's
filibertos
flavors!
fluff
ginger.
included)
japan,
kidney
library.
lively,
location:
lumpia
mimosas.
minimalist
mm
nibble
ours,
pharmacy.
portabella
prince
quality!
questionable.
realistic
replicate
review).
roadside
shelf.
shooters
tinted
trashed
valve
##!\n
##$6
##-14
##.which
##29
##:\n
##\nwell
##\nwhy
##ba's
##backs
##bbing
##c's
##da,
##hours
##nger
##resort
##visit
$$.
$40,
(his
(meaning
15+
2am.
6:30pm
\n\nlong
annoy
apple.
behalf
bon,
carlo.
carry.
chilaquiles
cloths
connects
cornmeal
cushion
disclaimer:
distinctly
duty.
failure.
family-owned
fit,
flu
gazpacho
icecream
j'avais
kathy
korma
maker,
mardi
marinara.
massive,
muster
permission
pets.
pickup.
pricy.
protein.
quintessential
rack.
recognition
responds
revenue
ricotta,
right...
roast,
rosa
route.
sacrifice
saint
similar,
skills,
sleazy
swiped
trips,
trusty
umbrella
venison
weirdly
worse!
wristband
wth
##-like.
##\nanyway,
##eau
##es\"
##ip
##line,
##lis
##natural
##seems
##ser
##tasty
##yond
(grilled
15min
85
\"welcome
airy,
already!
ammo
badger
basics.
bombay
bounced
cancelling
centered
checkout,
chinatown,
chocolates,
cons:
craving,
crusts
detroit
discontinued
downgraded
downside,
drill
dumpy
early!
festival,
flagship
ganz
graduate
hospital,
in).
infant
karma
laps
left!
martinis.
massive.
model.
motel.
pal
pictured
poles
portabello
prevented
pups
pureed
recovering
scenario
showed.
smiles,
spanish.
spectrum
speech
stk
straightforward
thanksgiving.
thing)
toned
unfinished
what???
##-strip
##88
##\n\n-the
##\n\nkeep
##\nwas
##ami
##bathroom
##bbling
##brush
##ceived
##chili
##complimentary
##dded
##ddy
##dear
##etc.
##imated
##ishly
##ities.
##las,
##nna
##note:
##person
##rted
##tty
##ux.
##vate
(due
(they're
9pm,
ago!
alter
andouille
approx.
bias
breads.
brewery.
burger...
burn.
caramel.
cheers!
compromise
deceiving.
dinky
drawers
entry.
expire
flags
flourless
fryer.
goers
guts
hail
ichiza
jaleo
knowledge,
latter.
leave!
lucky's
matthews
neapolitan
obsession
overworked
page,
passes.
pastry.
placed.
post.
powder.
prawns,
price:
races
reliable.
remarked
responding
sandwich?
scallions
sharks
shavings
souvenirs
stuffy.
swamped
tenders,
toddlers
tri-tip
wars
waterfront
worthwhile.
##.it's
##\n\nnote
##asing
##dering
##dr
##hh,
##hl
##ional
##ions.
##kobe
##lan
##mage
##mination
##oring
##pricing
##rain
##rat
##rial
##sions
##ta.
##wide
$6.00
(no,
2+
ahold
alligator
applewood
attitudes.
attractive,
bananas.
bargains
bi\u00e8re
chances.
charbroiled
chicken?
critic
culver's
dismay
dismissive
dulce
entree's
expo
gate,
gooey,
henry
later).
misfortune
noble
owned,
palms,
paninis
passed,
path.
poses
quebec
reasons:
refunds
reliable,
saddle
scorching
shapes
special)
spectacular!
takeout,
tolerance
up-sell
##)\nthe
##.\n\nwhat
##.if
##\n\nwhat's
##\nnext
##ading
##died
##gest
##hate
##ility
##ious.
##ius
##ley's
##miso
##mm,
##ng,
##per,
##post
##rri
##rus
24hr
\"off\"
\"who
\"yeah
\n2)
advertising.
annoyingly
bath,
bavarian
begun
better.\"
communicating
complained.
dawn
daylight
dolce
evenings.
feeds
flaws
flood
fridays.
furry
game!
grouchy
hardwood
haunt
havana
holsteins
iconic
ignored,
ill.
ip
jerky.
l&l
leith
license.
meatless
mt
necklace
ono
operates
out.\"
quantity,
quicker.
rated.
recreate
shot!
simon
sketchy.
soap,
style)
sub-par,
surprising.
sweep
toes.
twilight
twists
unavailable
uneven.
waaaaay
wal
wasn't,
wood.
worthy.
zesty
##--you
##-it's
##:10
##\n\npretty
##age,
##american
##burgh
##far
##gies
##ian,
##ises
##lls
##lol.
##modern
##ns,
##ota
##personally,
##pro
##their
##waiter
(ie
70s
\"fine
activities.
belgium
bis
bland!
bloated
bouffe
charlotte's
chic.
delicately
easily,
edamame.
etiquette
florentine
forming
gag
gossip
greeting,
healthiest
hi,
houston
hygienist
if,
import
it!!!!
jewelry.
keine
laptop.
lighted
luna
maximize
merchant
midwestern
milkshake,
navigating
new!
nook
occur
ok-
period,
pete
pgh
plans.
political
positioned
precisely
reopened
residue
responded,
roasting
rod
secret.
solution.
stunts
tataki
that),
tolerable.
upside,
wtf?!
##$25
##\nfried
##\ni'll
##ae
##ap
##bottle
##crazy
##east
##ees
##fa
##fit
##grading
##ido
##ify
##ob
##rative
##uate
##ucing
##udge
(hot
\n\ndid
abysmal.
acrobats
alma
baguettes
benihana
bill!
blessing
coup
designers
each)
either.\n\nthe
eyelash
floor!
follow.
frisco's
fucked
gem,
generic,
hat.
hospitable
housekeeper
ideal.
lager
mac-n-cheese
marginally
mousse,
pit.
pointe
polar
president
puree,
quesadillas,
renaissance
requirements
reunion
roads
rudy's
salty!
scented
shreds
temple
theatre,
this).
trees.
ushers
warranted
wow!!
##..how
##.\n\nyou
##/service
##\n\nroom
##ated.
##complete
##hum
##iner
##la.
##lid
##mme
##nacks
##osed
##party
##paying
##rella
##tastic
##ush
...i
5)
\"normal\"
\"okay\"
alot.
believe)
cane's
care!
cat.
chive
circuit
completed.
coolers
costumes,
deliver,
depot.
dimsum
dispensers
doug
empire
everytime.
flemings
forward,
geisha
gogo
hat,
hers.
hop.
incorporated
investigate
known.
l'on
leftovers,
lollipop
made-to-order
melt-in-your-mouth
menu;
minutes?
mirror.
moon,
msg.
nail.
namesake
pens
petco
places!
pound.
preserved
rats
restaurant).
stars.\n\nthe
stunk
teriyaki,
usps
vegas.\n\ni
we,
wifes
##-great
##..).
##..its
##?\n\nwe
##\n\nnext,
##\n\nwe'll
##booked
##burn
##closed
##ctive
##gin
##gly
##honestly,
##lson
##mans
##max
##ndo
##o's,
##rish
##st,
##uter
$49
2-for-1
aim
ants
balcony,
beast
bikes,
blowout
bras
bureau
calmly
calzone.
coffees,
compassionate
competitors.
concert,
constructive
convincing
deep,
deserts.
dozen.
edinburgh's
eggplant.
ego
horn
jaded
keys,
lightning
looked,
monde
moneys
moon.
musician
neighbors.
on)
password
pt's
relevant
retain
rice)
salsas.
scarfed
score.
sedona
smattering
solutions
sparse.
spreads
standby
structure.
t.v.
tammy
topic
well-known
who'd
yardhouse
##****
##..?
##.my
##/month
##/wine
##\n\nprice:
##althy
##bar.
##bbed
##casual
##cover
##ente
##gue
##ived
##ling,
##ls,
##rez
##tain
##turkey
##ust
##vine
##wd
$$$.
1pm.
\n\nfast
\noh
absurdly
bahama
cancel.
cheeseburgers
cooks.
crescent
d\u00e9cor,
delicious.\n\ni
description,
doorway
explanation,
fake.
hallway,
hour)
karaoke,
kein
lug
main,
masked
middle-aged
mistakes,
moreover,
ninja
p.s.
prolly
reception.
renamed
repeat,
retrospect,
satisfies
shines
shorted
spend.
strawberry.
streets.
striking
them),
tho,
unit,
universal
##!!).
##-line
##...or
##..especially
##\n\nsadly,
##around
##autiful
##eer
##ency
##fusion
##ible.
##lice
##ma,
##owner
##rity
##sion.
##sque
##tiny
##uth
$4,
(please
(super
2012,
50th
\"mexican\"
\n\nhappy
\n\nmake
aisle.
apologies,
back....
bath.
bees
begrudgingly
classical
com
comedian
cornbread,
cumin
depressed
dosa
down...
embrace
f.
fires
five,
flatbread.
flavor.\n\nthe
free)
freshness.
ft.
grove
ignores
inevitably
insight
lauren
logical
lulu's
lunchtime.
me-
measuring
murphy's
muss
muy
only\"
panini,
patron.
pears
perfectly!
person)
preoccupied
projection
quote,
respected
rockets
salad...
should,
small!
snappy
sounds.
starwood
striped
sun-dried
supplement
tacky,
tatum
texts
tj's
too..
toys.
trying,
two!
under.
ups.
vienna
##!?!?
##-covered
##/bartender
##\n\ncons:\n-
##\nsince
##\nsome
##aux
##bra
##fare
##marinated
##mething
##ort
##oz.
##s!!
##seasoned
##tally
##zzling
$100,
$160
$2,
+1
25-30
5$
\n\n3
\n\ncome
accepted.
accomodating.
aggressively
alfredo,
almonds,
arena.
artichokes,
bistro,
bore
buttery.
cauliflower,
charles
checked,
coarse
comes,
creature
creek.
crostini
damp
effort,
enjoyed,
entertained.
fishy,
gig
gourmet,
guides
had...
heed
hole,
holidays,
hour\"
katie
laid-back
lane.
madison's
mod
morning!
nowadays
oatmeal,
pre-paid
progressively
recorded
refrigerator,
right?!
rural
soup)
soup:
souvent
stars).
street!
thing).
thinking.
towing
tray,
tremendously
unbearable
wobbly
yoga,
younger,
##-d
##-hole
##/14.
##\n\natmosphere
##about
##aling
##couldn't
##course
##heat
##hes
##hotel
##illo
##knowing
##pros:
##rid
##ro.
##served
##shirt
##spa
##yep,
$33
(according
10am.
7-8
all!!
anchor
anyway?
appeals
appetizing,
battery.
beef)
blows.
buying.
chilies
christina
cinnamon,
cities.
collection.
concord
cooper
disclaimer
displaying
dual
encrusted
entered.
envelope
freddy's
functioning
glob
gordo
graphic
guidance
heard,
hood.
inefficient
j.
liberal
midwood
mountain,
muffins.
orange.
oriented.
oxygen
paced
people).
person!
pills
poking
premi\u00e8re
pushy,
repeat.
reviewers.
rides,
rims
salons.
sassy
seeds.
shattered
skillet.
squeezing
timely.
tire,
top-notch.
underneath.
veggie,
wit
worries,
x-ray
##*,
##-full
##-ing
##-packed
##..\ni
##13
##7,
##bery
##completely
##dding
##eh
##friends
##iness,
##iyaki
##ket
##loss
##mom
##ns.
##ock
##ogue
##outs
##piring
##rf
##rin
##strip
##tea
##tion,
##uce
##ville.
(better
.50
11th
50s
\njust
accounting
alike
amaze
answers.
antipasti
appealed
articles
believes
caesars,
cages
car's
chunks,
couches.
crawled
croissant,
defeats
dehydrated
discomfort
discounts.
discouraged
diy
douchebag
earrings
einfach
engineer
factor,
focuses
forgiving
good\"
graduated
grounds.
ick.
indicative
jalapeno,
l'ambiance
needle
obscene
one.\n\nthe
palatable
piped
pleasing.
regardless.
regretting
restaurant:
sara
se,
shooter
smug
statements
stereotypical
sting
tabs
taj
think).
tougher
water?
yum!!
##-old
##85
##\n\n4
##\n\nand,
##\n\nfried
##\ndefinitely
##dable
##ening.
##loud
##mart
##plate
##r)
##sausage
##school
##street
(hey,
......
5:30pm
:(.
alive.
august.
awesomely
begin?
bridesmaids
bros.
bussing
carbon
chashu
china.
chip,
comical
corporate.
crank
dilworth
diver
drapes
dressed.
dumb.
elegance
everyones
flashlight
gouge
greyhound
his/her
horizon
indian,
items!
jack,
jen
legitimately
lively.
lloyd
matters.
meine
mojito,
mounds
none,
overboard
overwhelm
panoramic
passable,
reflexology
reply.
restaurant/bar
sauce),
seems.
showers,
skirts
smokes
staple.
starved
straight,
there\"
tostadas
uncaring
vinegary
vons
wow!!!
##/drink
##\nanother
##ch!
##form
##i!
##iac
##mango
##peanut
##portion
##rit
##road
##uss
(insert
31
\n\nchicken
\n\ndessert
ages,
american.
audi
beginner
beijing
cod.
comfortably.
creaminess
crispiness
crisps
dispatcher
district,
drier
edges,
embarrassment
everything's
fanciest
food.\n\nwe
frills,
fuego
go\u00fbt
harsh,
hooters.
installed.
it.\ni
jolly
lungs
neck,
nos
not...
obnoxious,
occupy
out;
overweight
pastry,
paths
perspective,
pizza)
prides
receptionists
reserving
respective
revamped
spelling
standouts
tacked
tamales,
towners
trail.
tu
vegetarians.
whichever
wontons,
wth?
yarn
##--this
##...\"
##00,
##\nthank
##hour
##kin'
##land,
##lity
##ona
##otic
##recommended
##ths
##tics
##uation
##update
##y'
$180
2006
\"as
\"gourmet\"
\"meh\".
\n\nnote:
accent.
allerdings
anticipated.
anyway)
are!
area.\n\nthe
bad?
barro's
be)
boo!
bundt
chino
comprehensive
diamonds
disgrace
disrespected
dunno,
feature.
fiance's
following:
funky,
gorgeous!
grace.
grip
he/she
highland
hookers
houses.
idiots.
ids
is).
larger.
laughable
listen,
maker.
mister
nervous.
organization.
orgasm
overrated,
parallel
premises.
radiator
reader
recession
relate
ring,
run-down
satellite
sections.
see!
skimping
sleeve
specialty.
tahini
tones
transit
turnaround
tx
underage
vine
wheat,
wing.
##!!\"
##-colored
##-home
##..to
##ack
##california
##ei
##es:
##extra
##fly
##g's
##iced
##ing)
##lands
##li,
##mashed
##master
##mble
##mies
##mps
##sm
##style
##vanilla
##vated
##ziki
$110
12th
8:30pm
\"she
awesome...
barked
blender
blog
boar
bolt
constructed
corrected.
costs!
crema
deaf
deconstructed
dove
driving,
dropout
dueling
empty!
fascinating
flights.
good....
hats,
hear,
herd
howard
luggage,
mango.
mcdonald's,
meatloaf.
neutral
ok;
papago
patrick
portland
potatos
price.\n\ni
rapport
refreshed
restored
rita's
shawn
simply,
six.
sliced,
smear
soured
stadium,
staying.
subjected
sundaes
sworn
though.\n\ni
thunder
translates
treadmill
tuesdays.
uneaten
unused
vegetarians,
warner
well;
##''
##-hand
##...i'm
##.\n\none
##;t
##?????
##\n\nfree
##\n\ntake
##\n\nyes
##\nnever
##\nordered
##berg
##chon
##ea
##house,
##ke.
##lone
##mar
##mond
##point.
##sorry
##tely
##tz
##wall
'i
(&
(could
16oz
600
\"food
\"healthy\"
\n5.
admitting
appreciates
arepas
arroz
ave,
ballet
blood.
bothered.
branded
cioppino
combination,
conference,
coordinator
dana
dangerous.
dog!
economy,
efficiently.
either...
execute
faster,
fiasco
fromage
gosh,
gyoza,
hairdresser
hit,
insists
john,
later...
menu.\n\nthe
olympic
parm.
pig.
plein
results,
rights
spaces.
stickers,
stretches
t-bone
teh
texas.
thrilled.
unforgettable
updating.
voiced
washed.
whirlpool
wright
##'ing
##-stop
##..well,
##/13.
##\n\nbig
##\nlove
##\nonce
##ay.
##bonus
##bucks
##cular
##cun
##ep
##ishment
##lities
##milk
##nting
##oise
##ologist
##rah
##ret
##sized
##spice
##stars
##time.
##truffle
##vegetable
(!)
24th
33
50/50
72
\"spicy\"
\n\nthings
accident,
afternoons
alfredo.
all-time
aloo
annoys
anyway!
appalling
awaited
bitch.
bosses
brilliant.
buckwheat
bullshit.
burger:
by!
card!
cement
cities,
connoisseur,
coolant
deceiving
devouring
diaper
disappoints
dollars!
doughy.
entirely.
excellence
fieri
fixes
frittata
fruits.
generic.
get's
good.\n\nmy
grout
healing
here....
inconvenienced
ivy
jerry's
jumps
licensed
macaroon
majorly
martinis,
marvel
massaged
miles,
minority
mommy
mouthwatering
needs!
nodded
okra,
outlets.
owned.
palmer
plastic,
praying
price).
recipes.
recycled
restaurant;
rubio's
seniors
shelled
slowly.
streak
sunset.
superior.
teeth,
transactions
treadmills
ugly.
unload
uptown,
weights,
wisdom
yelp's
young.
!!!!!
##$40
##-6
##..nothing
##aly
##boards
##cents
##cribe
##early
##eric
##gel
##hal
##iance
##life
##pi
##vier
##wow.
##zle
$50.00
(basically
(do
(forgot
10min
38
7-11
\"yes
allen
alley,
b,
balancing
baskin
chocolatey
clutch
comment,
congee
couples,
course:
crispness
cutlet
disappearing
economy.
facade
fathom
filters
frazzled
funniest
furnished
galaxy
granny
hid
inspiring
jokingly
law.
liz
lumps
mail,
manager/owner
manual
meat?
molasses
monitors
mouths.
nathan
of!
oregon
overpriced!
perimeter
piling
place....
populated
protein,
provolone,
respect,
shoulder.
stars.\n\ni
stupidly
sunlight
surfaces
tension
think?
tone,
trained.
tripping
unappealing.
##-five
##-show
##/person.
##\n\nlunch
##\nstaff
##ate.
##claimed
##classic
##culate
##mile
##okay,
##rito
##udy
##unlike
##up,
$42
$6.95
20min
\n\nthen,
addictive.
allergies,
apples.
appointments,
artist.
bangkok
banned
bar/lounge
calm,
catches
chaque
clouds
cooks,
cristo
crummy
egyptian
example:
fantastically
forgot,
fulfilling
gallons
gf's
grassy
hadnt
here),
in.\n\ni
irritating.
jour
leather.
may.
me?!
money?
montreal's
morsels
neighborhood!
offensive.
ontrac
pre-cooked
presenting
ps
raging
restrooms,
savored
scalloped
scraps
secured
shipment
sister-in-law
sop
splurged
steadily
stick,
sunken
tech,
theaters.
update,
vacuuming
verdict:
veterinary
waitstaff,
weekdays.
when,
wrappers
##$,
##05
##500
##99,
##alth
##bers
##eit
##erated
##ett
##foot
##hell
##irs
##liest
##minutes
##nto
##oit
##ola
##ons,
##ous,
##plain
##rmally
##sashimi
##yer
2009.
250
\n\nokay,
addicting
aloof
anywhere!
appearing
baked.
beat!
bellini
bi
blasted
blowing.
bogus
broke,
brownie.
btw)
buddy's
caliber.
caring,
carrot,
casey
caucasian
cheesesteak.
chips!
complimentary.
consultant
coyote
croutons.
deserved.
disorganized,
disrespectful.
distracting.
draught
drums
exquisite.
flexibility
fog
for:
gear.
give.
glaze.
good...but
graffiti
growth
handed.
headphones
it!\n\nthe
it.\n\nthis
laughable.
lend
lingerie
logic
lol).
mien
monica
museums
nature.
neglect
neighborhoods
non-chain
ob
off)
on.\n\nthe
organic.
ot
paprika
praises
promised,
pv
requisite
revolution
rx
sakana
satisfying,
setup,
singles
sirens
slowed
smiling,
so)
spain
spotless.
starbuck's
store?
temporarily
tenders.
thanking
time!!!
tom's
umm,
unlocked
upped
vacationing
viewed
winners
years)
##!!!\n\ni
##!\n\nit
##$9
##-by
##-ed
##-service
##\n\nspeaking
##aning
##bang
##ee,
##ers\"
##formation
##general
##hash
##isch
##k\"
##meh.
##mill
##na's
##out.
##rred
##summary:
##urance
##your
##za.
(possibly
23rd
\"we'll
abrupt
addicting.
adorable,
airline.
ankle
asian.
asleep.
best!!
bj
breading,
conversations.
cruising
curl
cursing
deco
dependable
dull.
escapes
exterior.
fontina
freaky
glendale.
hassle,
hesitated
home...
hours)
kaya
kennel
laura
lifestyle
lucy
marvelous
massages.
may,
mesh
mismatched
neck.
nice.\n\ni
philippe
pittsburgh's
plateau
point?
portable
predictable
prescription.
quartier
race.
reimbursed
restaurant.\n\ni
salad\"
side!
slew
somehow.
suckers
surpassed
suspected
tooth,
uye
wait?
ware
was:
willingness
##-back
##-pop
##-range
##-roasted
##\n\nbtw,
##\n\nle
##another
##arian
##arily
##aro
##at,
##ations.
##ca.
##delivery
##iant
##orm
##ph
##phoenix
##rea
##side\"
##titute
##tock
##ware,
$8.95
60's
\"great
\"i've
\"our
\n\nwe'll
\nso,
\nwhile
approaches
arby's
arms.
branches
brews,
brittany
ceasars
changing.
chevy
chili's.
cleans
cloudy
combining
connections
cools
cordon
couples.
customers'
detour
dies
embarrassed.
examined
excuses.
flyers
fry's.
gifts,
hamburgers,
helped,
hike.
houston's
hula
inspire
ipic
like)
lying.
mercy
message,
mum
mysteriously
nasty!
necessary,
orzo
parm,
pastrami.
poked
puffs,
rapidly
rhubarb
rotting
shish
supports
tailored
tainted
tamale,
tlc
unusual.
utilized
vaut
wenig
what!
who've
wipes
yakisoba
yummy!!
##/10.
##19
##\"the
##\n\nbreakfast
##\n\nmore
##^
##bathrooms
##broken
##crowded
##ds.
##ed)
##employees
##ffee
##fore
##guys
##hair
##it,
##itation
##lucky
##nier
##p\"
##problem
##tery
##ura
$5.95
$7.95
$9.95
(last
101.
3+
6pm,
7pm,
\"its
\n\nlocated
\n\nwhere
adopt
adovada
anyplace
appearance,
arctic
attraction.
bad.\n\nthe
basing
baths
beat,
boots,
boston,
cases.
cheddar.
contributed
definitly
deleted
dinner...
dismay,
doubts
dumpster
enticed
entr\u00e9e,
error,
fleming's
halibut,
hangar
hk
horrific.
inn,
inspector
itemized
ja
known,
laced
lil'
lingered
lollipops
malbec
matcha
meal)
mess!
mistaken.
moron
nancy
nevada.
parisian
party!
preference,
reclining
representing
salesmen
sell,
southwest.
speak.
squad
substantially
tricked
truth,
ubiquitous
us..
workout,
worn.
##-man
##-this
##.\n\nfirst
##/coffee
##change
##cleaning
##considering
##feel
##flower
##gan
##gans
##ions,
##lating
##linging
##lv
##n)
##original
##posing
##suade
##turn
##ug
##vet
(being
(e.g.,
15.
accepts
agreeing
agua
alien
andy's
belts
blink
blt.
boat.
bummer,
carded
ceux
charm,
christine
civic
coconut.
come!
cougars
danger
departing
dissatisfied.
divine!
dungeness
eateries.
even,
expired.
expressing
fail!
filth
galore.
graze
gripes
growler
inconvenient.
inebriated
inspection.
insulting.
itching
joey
johnson
lends
lighten
makeup,
mar
mocha,
monopoly
night.\n\ni
noone
novice
obvious.
patty's
pedicures.
powder,
procedure.
quarter.
restocking
reviews...
rule,
salad-
scooter
session,
snippy
trust.
unwelcoming
vendors.
violations
websites
##).\n\nmy
##-inch
##-ins
##-your-own
##.\n\nnot
##\n\natmosphere:
##\n\ndinner
##ated,
##cer
##co,
##cons
##country
##cup
##dated
##dation
##de.
##eta
##foie
##gal
##ggle
##greasy
##ination
##j's
##look,
##lu
##mmer
##mos
##par
##starting
##ure,
##warning:
($10
(new
3pm,
8:45
8pm,
\"fancy\"
\n\nprobably
assholes
bastard
bathed
being,
bill's
carwash
complexity
compliment.
connection.
croutons,
cutlery
darned
demands
diff
dq
einstein's
entry,
exceeds
fest.
fitness.
floats
forth,
fyi.
gamey
gold.
gone!
grandfather
grouper
harass
hippie
inspection,
intrusive.
knot
latino
laughter
mean?
mekong
nevertheless
numb
omlette
park!
patronage
perplexed
pinch,
pizza\"
pristine
reading.
reg
replica
right?)
rules,
seattle,
secondly
seriously?!
shannon
spiciness.
strive
suck!
swiss,
syrupy
table.\n\nthe
time-
too?
translate
violation
wage
whimsical
whiz
##$15
##'nt
##79
##\n\nbased
##\n\nthough
##bel
##core
##dles
##excuse
##gled
##hidden
##io's
##lded
##lty
##mari
##mmmm
##nack
##nis
##reasonably
##regardless
##sh,
##sky
##something
##titutes
##uh,
##uma
##ure.
##vip
17th
1hr
\"when
\n1)
\nonce
acts,
alone!
berries,
closet,
comments,
defend
delight,
deliveries
dinner?
dissatisfaction
examine
excalibur,
fav.
fixture
flirt
fondue.
freely
friendly...
gambler
greatest,
hell?
hibiscus
hmmm.
hotel)
humor,
independence
jicama
lamp.
lesson.
meeting,
metropolitan
modify
mortgage
moving,
newbies
not).
october.
optimistic
overcook
patience.
performers.
petting
poker.
puffy
randy
rates,
reef
restaurants!
reviewer,
roll:
secondary
sinks,
spanish,
sportsbook
suitcase
summary:
talent.
ted
tellement
the,
though)
tip).
to?
treasures
usage
warranty,
weddings
west,
wholesome
wowed.
##$7
##/night.
##\n\nthen,
##bar,
##ction.
##ders
##dre
##ery.
##ex
##fantastic
##fication
##know
##licious
##rist
##riving
##sage
##ty\"
##way.
#4
$17.
(compared
(should
***
*sigh*
115
20,
2011,
42
7:30pm
\n\nis
\n\nsadly,
\n\nstay
\n\nthough
archi's
arepa
back)
bacon!
ballroom
blech.
breaded,
brownies,
buffet?
burden
challenges
cheating
chief
competition,
consumers
creamer
cringe
deliberately
dirty!
eaters,
foodie,
gets,
glove
healthcare
hearts,
hem
honors
hoops
in-n-out.
inexcusable.
items:
jail
japanese.
jobs,
kitsch
l\u00e0
laptops
leaks
liability
livingsocial
martini's
mixer
penny!
photo.
presume
prizes
proportion
pseudo
rapid
rays
reveal
schedules
scratch,
sichuan
smiling.
steven
surgery,
tearing
tree.
unattended
uniqueness
v's
vais
waiter/waitress
wax,
yams
you!!!
##--just
##/2014
##65
##\n\ngiven
##\nbeef
##\ntwo
##ables
##arm
##books
##bow
##chio
##compared
##do's
##iel
##lare
##mex
##nce,
##okay
##ord
##plan
##rine
##rring
##soft
##tention
##tically
##uthentic
##yard
$.50
$9.00
(keep
(white
.the
accidents
aliante
allure
andrea
avenue.
bean.
bonus!
canvas
chee
chris.
circus,
cos
crackers,
customary
dal
departments
desire.
dim,
distraction
existed.
expensive)
flesh
fluorescent
forgo
goofy
guy)
hoa
hold,
ipa,
it.)
joy.
legend
measurements
menu),
mondays.
monroe
morsel
motivation
nastiest
nifty
ouch.
overbooked
probably.
sauce.\n\nthe
ski
skyline
smokey.
snickers
speaking,
spills
spraying
thirst
throwback
try...
undergoing
universe
vacations
versed
wa
whim.
yep.
yesterday's
##$1
##-chinese
##-fat
##-related
##-which
##14
##:\n1)
##\n\neach
##\nby
##cino
##co.
##han
##ic\"
##mbiance:
##ripe
##sal
##sin
##wanted
##wild
(food
(note
),
808
\n\ntoo
abysmal
adventurous,
again....
anyone?
appeared.
asset
bleed
boss.
buds,
called)
capers,
choose,
cleanse
colorful,
craved
crudo
customers?
dedication
east,
evaluate
fail,
fil
funk
gated
golf.
humus
loosely
malaysian
medications
out:
out\".
overhaul
owning
parkway
passes,
peppermill
perspective.
pierogies
pitiful
place\"
plague
pottery
prepping
profits
qt
retreat
shishito
soaps
specials!
spread,
studied
subbed
substitution
sufficiently
themes
time.\"
understanding.
winds
yet?
##!!!!!!!!!
##.\n\nnow
##24
##75.
##athing
##charge
##duce
##i\"
##imal
##ith
##monday
##oma
##pear
##pending
##position
##rite
##tated
##ui
##vian
##vs
##wings
##woman
$34
105
\"be
\n\nsecond,
\neverything
\nwith
\u00c0
amazing!!!!
ant
aspect.
bam
bar).
batting
bitching
blu
bosa
caf\u00e9.
cares,
certificate,
concoction.
crabby
dac
daniels
destination,
disbelief
discerning
disconnect
dishes:
engaging.
experts
feat
for).
funky.
get?
glendale,
helps.
hooks
hover
hurricane
interestingly
jonesing
kabuki
melt,
mimosas,
mother.
moved,
nose.
of...
officers
one),
pinks
plot
promotion.
quoi
rangoons
relation
savers
schwartz's
scorpion
sheep
sickly
siracha
sorry\"
sparse,
squishy
stems
that?\"
thy
wholly
xo
##-new
##.....i
##...all
##\n.
##\n\nyeah,
##\nlike
##\noh,
##braised
##eh,
##fic
##gne
##guard
##h...
##lips
##looked
##mg
##private
##rous
##sie
##table.
##train
$100+
$4.95
(way
365
\n\nhave
accosted
adjusting
advertisements
all:
angry,
arm.
begin,
boss,
bragging
brands,
caf\u00e9,
cancelled.
canyon.
captured
cares?
cents,
challah
challenge,
charged,
charlie's
chicken\"
choices!
contract,
convert
d\u00e9j\u00e0
dangerously
david's
deck.
delivers.
denying
detract
dingy.
documents
eatery,
eventually.
excessive.
face!
for!!
fragrance
fulfilled
garnishes
grains
grapes,
greeting.
herbed
hotels.com
ideas.
incorporate
indoors.
installer
ipa.
ironically,
joe's,
julia
junkie
kebabs
landlord
lavish
lent
manageable
managed.
massively
michaels
negotiate
nouveau
offend
offre
pacing
pancit
pb&j
poke,
purposes
reality.
relish,
remnants
research,
robot
rough,
salted,
smores
sonoma
sorbet,
souffl\u00e9
strip)
stupid,
targets
underwhelming,
upload
users
vertical
veterans
vieux
vip.
williams
witty
xl
yup
##!,
##$4
##-eat
##/hot
##\n\npeople
##aded
##bes
##ey,
##family
##hh.
##kies
##l\"
##left
##ntal
##oned
##own
##reason
##ton's
##trained
##uating
##valent
($5
\n\nside
absorbed
ac.
accessible.
awsome
bi\u00e8res
booked,
bottoms
breakfast/lunch
butchered
chicken:
chile,
ciao
comped,
convo
cranberries
crowed
curtains,
diabetic
dime.
disagree.
entr\u00e9e.
famed
france.
fringe
genghis
gilbert,
girls'
goin
grade.
grasp
hope.
ici
imho.
infront
inspiration
jackpot
jameson
january.
kale,
kaow
labor.
luncheon
maintained,
march.
merit
metallic
night),
outrageous,
pack.
pairing.
path,
pet.
pilaf
precooked
prom
rain,
revamp
say!
sectional
shrimps,
solidly
souper
spend,
swift
task.
tech.
them!!
throat.
thyme
unbeatable
understandably
vietnamese,
weekly.
whining
##+)
##9)
##?!\"
##\n4
##charged
##ckle
##famous
##gb
##ginger
##ha,
##ie\"
##ister
##lip
##listic
##lves
##okie
##rrifying
##ss,
##sson
##suite
##ugh,
##ument
##uper
##uries
##v\u00e9
##ww
(definitely
(near
(shrimp
30.
30mins
45min
7:45
\"chicken
\"famous\"
all?
also!
alway
anywho,
appease
arriving.
biking
bridesmaid
brownie,
buddy,
buildings.
carpaccio,
cleared.
corny
decadent.
december.
delicious)
designed.
dinner)
drive-thru,
dryer,
dunkin'
excalibur.
famished
flakey
gels
girlfriends.
goyemon
groceries,
happen?
highlights.
hmm.
intended)
july,
knick
knife,
lake,
leak.
lobsters
location...
luscious
mattresses
melted,
mentality
mislead
north,
older.
overflow
overrun
pallet
payment,
personal.
personalities
prominent
queso,
removed,
retarded
rip-off
rolls!
routes
scarce
seen!
service).
sexy.
sighed
slammed.
slicing
soap.
splashed
supervisor.
sustainable
tasty.\n\nthe
the.
though:
tornado
toutes
trustworthy
uploaded
valets
vomit.
weight,
##!\n\nfor
##-in-law
##-ish,
##-pack
##..great
##\n*the
##\n\n6.
##\n\ngive
##\n\ntried
##bound
##bowl
##ck!
##cluded
##dder
##eo
##gible
##lime
##lized
##mc
##n\u00e9
##nked
##non
##possibly
##riel
##s\",
##ulating
(aside
50+
\"check
accompaniments
ahh
allot
architectural
attack.
bad;
be...
behind,
beim
blackout
blueberries,
bull.
cam
chicken...
croquettes
d'y
devil's
did)
downing
economical
edit
emerald
employer
eyelashes
fianc\u00e9e
firecracker
flan,
grub,
hate.
here.\n\nwe
immature
impersonal
interpretation
joe,
laptop,
larb
lbs.
learn.
me.\"
milkshakes.
monkeys
montr\u00e9al.
my!
nice)
opener
padded
paddle
phil
powers
prepares
pricey!
readers
rebel
side).
strands
strap
sympathetic
tank,
too;
travel,
true!
twins
typed
unlock
upon.
wafting
weakest
##!\".
##-like,
##.99.
##\nlast
##],
##aya
##berries
##bridge
##cure
##cuts
##dered
##gi's
##i'll
##ias
##ience
##lah
##lion
##lying
##oning
##orse
##proof
##rita
##thought
##uses
##west
##yrs
$1.75
(hard
.i
32nd
4+
:-/
\"ok
acrobatics,
addict
album
ans
appalling.
approach.
assemble
atmosphere:
baby's
bar's
brains
butt.
cannelloni
catherine
construction,
consumption
crappy,
dealer.
deceptive
dolls
drink...
duke
exam,
existence.
flats
fondue,
galore
genius.
grandpa
heights
hits.
hyde
i\"m
jokes.
laugh,
letdown
lunch...
mike,
naughty
notion
nov
palak
pencil
performance,
pied
point:
price.\n\nthe
qu'ils
reaches
representatives
reste
rotors
shrimp)
sounds,
surcharge
symphony
taller
taxi.
teri
that\".
titanic
toute
trimming
trouble,
tso
typically,
unclear
validated
well....
##!\n-
##-out.
##-serve
##\n\notherwise,
##bs,
##cheers!
##decided
##drive
##iable
##ime
##mping
##nating
##number
##ny,
##packed
##pink
##rting
##sign
##tacos
##thus
##ttering
##u's
##uity
##ulation
##ux,
##works
(obviously
.99
15$
\n\nkeep
\nmaybe
\u00c7a
anderen
apparel
bills,
bliss.
blt,
bowling,
bratwurst
buck,
buffet's
byob.
cause.
cela
cheese\"
chocolates.
classify
combos.
commonly
correcting
croissants,
darts,
developing
disappointments
doubtful
electricity
engineering
eve,
favorite)
floor)
food),
gorge
guiness
gvr
harley
hastily
house)
hunan
in-store
leery
loser
lower.
magazine.
me!!!
month!
nori
o,
on.\n\ni
outweigh
p.m.,
partner's
plane,
playoff
raspberries
relleno,
reviews?
samurai
sandwiches!
savvy
scissors
sloppily
speed,
split,
star)
staycation
stories.
stove,
suggested.
surgeon
tartare.
them..
thoroughly.
though;
tomorrow,
troubles
truly,
yours.
##--so
##..good
##.\n\noverall
##25.
##:\n\n*
##\nlots
##\nthanks
##aise
##aka
##brunch
##ctually,
##desert
##fill
##final
##find
##ilities
##lack
##later
##major
##s!!!
##sun
##tell
##urst
##wards
##went
##yay
$37
(:
2/5
\"bar\"
\"off
\"very
aggravated
allegedly
answered,
arrives,
astonished
away!!
bread?
brushes
chateau
choco
cindy
clarified
coma.
combines
continuous
contribute
coronado
costed
crabcake
crackers.
crew,
cucumber.
dealerships
decision,
delicious...
disposal
dolphins
donkey
drive-ins
dryer.
evening!
exceptions
festivals
financing
flea
food\".
gelatinous
ghetto,
golds
immensely
inventory.
it!\n\ni
its'
joe.
lau
lindsey
lunches.
markup
mechanic.
minuscule
one.\n\ni
order\"
outing.
payless
piccata
preparation,
progressive
review?
sandwich...
sd
shoppes
shoulder,
sneaking
special...
stolen.
tenderloin,
uneasy
us.\n\nwe
uv
valle
vinaigrette,
want!
wheat.
win!
##&s
##)\n\nmy
##-bedroom
##-boy
##...very
##..one
##39
##\n\nbad
##\nof
##aries
##ater
##bean
##color
##deo
##dian
##eated
##ffles
##imate
##kers
##la's
##link
##mm.
##ots
##ridge
##sure,
##usa
(ok
(pun
(three
(under
12oz
\"because
\nwould
act,
bitterness
bitty
chao
cheering
clicked
clubhouse
concentrated
courts,
cowboys
creations.
delay,
dry!
ends,
fashionable
film.
filming
foremost
gear,
gimmicky
gloves,
gravel
humans
jug
kitchen!
kohl's
lackluster,
marry
mccormick
mildew
moments.
mozz
mucho
nowhere.
piper
promoted
ranchero
sanctuary
sf,
shuttle,
simpler
spago
sterling
supported
tablespoons
taxes.
tokens
touch!
trouver
uninspiring
veal,
wires
wood-fired
##.\n\nto
##af
##built
##counter
##dan
##ffed
##fine
##fo
##g!
##harge
##ian.
##lant
##lles
##m)
##mmm,
##moral
##nding
##off.
##pineapple
##pressed
##rky
##summer
##tand
##took
##vin'
$19.99
$9,
(8
(literally)
7-10
\"over
\"there's
\n\nstill
acknowledgment
agedashi
amounted
before?
belt.
brew,
bubbling
bulgogi,
buzz.
camper.
candles,
charge!
continues.
coveted
cream?
decades.
delicious;
dish)
do...
eh?
enormous.
epicenter
fantastic!!
giada
glared
grandmother's
grille.
grime
illinois
infection.
jared
jj's
kidding?
limp.
litter
love?
males
managers,
mindful
money...
much)
needles
notably
nugget.
okay..
onsite
oral
painless.
palette.
partying.
philly,
pisses
plants,
player.
pocket,
pork)
premise
prepare.
prettiest
realised
rice?
room's
self,
shaken
sideways
slushy
smiley
snobs
softball
spur
stern
streaks
successful.
tapped
then...
theory,
throughout,
tide
tony's
ugly,
unexpected.
wallets
way.\n\nthe
whopper
willingly
writes
wrong...
##..go
##/salad
##/waitress
##08
##98
##\n\nstarted
##asian
##ath
##ax
##con
##ed!
##gg
##her's
##kle
##lings
##netheless,
##oped
##quer
##really?
##roast
##through
##thumbs
##ugh.
##ulent
$12.00
(4)
\"a-ok\"
\"resort\"
\n\n5.
\n\navoid
\n\nprice
\nnext
absolut
amaretto
amazed.
better\"
brushing
buffalo,
cayenne
chiropractor
concerns,
conventional
crashed
criteria
directly.
douchey
eat?
ect.
especially,
favorites!
firing
firm,
glare
grimy
hesitation.
hilton.
implied
in..
indoor/outdoor
inevitable
june.
l'atelier
late!
lest
lexus
lifetime.
line...
lui
manor
marks.
mi.
miserably
months!
neighbor's
nickle
no-frills
nola
now.\"
oktoberfest
opinion)
pamela's
pending
photographs
prime.
proactive
rancho
realtor
ripoff.
sahara.
salle
scooping
servings.
shade,
snail
spark
steamy
storyline
swollen
sysco
theatres
tiny!
vehicles.
yes...
##$10
##-pay
##....so
##...in
##\n\nlocation
##\n\npizza
##\nnothing
##\u00eate
##bia
##bob
##ception
##cio
##dam
##ender
##ged.
##greek
##herent
##ita's
##m...
##ove
##pen
##pparently
##r\u00e9e
##rina
##seat
##v,
##wow!
##yea
(make
(side
12pm
15,
\"a\"
\"bar
\n\nseriously,
abused
aesthetics
aj
alittle
around...
barefoot
birthday!
brother.
bush
c\u00f4t\u00e9
cafe's
cappuccino.
catfish.
championship
cry.
cult
curls
dentist,
desert!
double.
dusting
each!
embarrassing.
experience!!
farmer
feast.
fetch
franchise.
frantically
go.\n\nthe
holiday,
homestyle
inattentive,
know).
knows?
least)
loaves
masks
massages,
methinks
myself)
now).
ow
packages.
pales
part:
party's
pecans,
piercings
preferably
preise
puerto
qualms
realizes
records.
refresh
remedied
replenished
romance
ronin
scallop,
sensory
side...
slippers
st,
though?
took.
tummy.
utah
vic
vida
wardrobe
water...
way\"
you:
##(1)
##--no
##-1/2
##-25
##.'
##........
##...there
##...well
##\n8.
##ati
##calamari
##du
##dy's
##experience
##fair
##fancy
##favorite
##ff.
##ffe
##jected
##lini
##ni,
##nine
##nky
##outside
##pg
##ppetizers
##prints
##simple
##smoking
##stiness
##vietnamese
##y's.
#2:
$45.
($10)
(20
(fresh
(he's
(we're
24/7,
88
\"small
\"vip\"
\n\nan
area).
attitude!
batch.
bons
bundle
celebratory
champaign.
channel.
che
cobblestone
contemplated
d\u00e9cor.
db
degrees,
dense.
disclose
dished
drai's
duplicate
ebay
encourages
establish
ever!!!!
explicitly
fleet
flies.
flour.
footage
forewarned
frustrated,
functions
gotten.
haha,
happening,
haute
heres
hilarious,
hotel?
hour?
hunks
invented
jake
jw
ka,
katsu,
kept,
leader
loosing
manly
marco
mmmmm
more).
next!
obese
old!
pistachios
really...
remover
rent,
safeway.
scammed
secret,
shrug
shutting
software
specialty,
stirred
store-bought
strangest
succeed.
suppose,
table).
television.
then!
threaten
tourist,
w/out
##-)
##-check
##-loving
##.\nmy
##/hostess
##16
##\n5
##bits
##changing
##con:
##ctual
##eous
##ey.
##fle
##ggles
##ha.
##ii
##ism.
##itable
##location:
##lost
##morning
##nc
##nity
##oto
##rong
##rrow
##stered
##tries
##uille
##uise
##ules
##washed
##yummy
$44
$9.50
(okay,
54
\"buy
\"sorry\"
a$$
a1
added,
admission,
advertised,
anxiously
arteries
away).
barry
behave
blizzard
cali.
camelback.
carnevino
carts.
chelsea
chore
clumps
coca-cola
colour
crack.
crisis
crisped
dad.
died.
disappointed!!
ear.
emergency.
ethernet
explored
fine...
firearms
gateway
god!
grave
grigio
heck.
honeydew
hourly
house\"
humorous
improvement,
in/out
knew.
lakes
language,
limit.
longhorn
loose.
mention.
minimal,
mis
mixers
mold.
more.\n\nthe
na
nation
neighbourhood
nj
nuong
nutella,
orchestra
paste,
playful
position.
precision
pretzels.
prevents
print.
ratings,
reds
room).
seasonings.
shelling
sing.
smells.
solar
starred
stars!!
strip...
sympathy
tasteful.
tears.
that!!
understandable,
university.
waitress's
way),
week's
##!\n\nas
##**\n
##-bag
##.com.
##9,
##\n\nis
##\n\nps:
##\n\ntotal
##alted
##ary.
##bt
##build
##cloth
##couple
##ean
##entious
##face
##fyi,
##gaming
##iano
##inos
##men,
##ners
##oa
##pop
##rr
##serving
##so.
##tent
##vory
$100.00
$14,
(based
\"hello\"
\"real
\"red
\"service\"
aiming
anal
anyhow
anyway).
bearnaise
caterpillar
clogging
conversing
creatures
culture,
daikon
defined
depuis
douse
dunk
er,
exploded
exterior,
for.\n\nthe
froze
fun!!
giant,
grandson
half-price
halves
headaches
hindsight,
ignorance
inadequate
iphone.
it.\n\nif
lot)
luxury.
maintenance,
mamma
marketplace.
mayonnaise.
me....
much...
off?
oyshi
partied
pico,
quench
rare)
repairs,
resources
responsive.
scale,
serious,
sleeves
soir\u00e9e
stem
stir-fried
strip.\n\nthe
studio,
supplier
take-out,
timing.
tonight!
torte
up!!
wayne
worn,
woulda
##.he
##/owner
##\n\nmain
##\n\nsushi
##aked
##burger,
##chairs
##che,
##ds,
##fix
##he.
##hu
##il,
##latte
##pack
##ready
##right,
##sent
##shower
##tained
##uon
$20+
(yeah
52
\n2
\n\natmosphere
\n\nwhat's
\ni'll
acidity
area?
assault
avg
backyard.
blue.
boots.
bueno
carmax
ceasar's
channels.
charts
cheese),
concern,
conditioning.
congested
contractors
courage
decadent,
dobson
drop.
experience?
flavored,
flow.
freaks
fred
gc
gloves.
goddamn
hills,
hires
hoppy
impeccably
jack's
ladies'
lowering
macchiato
messes
mocha.
montreal!
nursery
out!!!
over-priced,
palatable.
pane
peculiar
poo
preparations
punching
quelque
resturant.
right?\"
said!
sanitizer
sheet.
showered
skimpy.
smart,
smoky.
snails
so..
stable
staffed,
stains.
steakhouses.
stone.
stroke
styles,
take,
tarte
there!!!
though-
tick
to/from
toast!
towers.
us.\n\ni
want?\"
werden
##-11
##...she
##.95).
##/restaurant
##95,
##\n\nbeef
##\n\nplace
##\natmosphere
##\ngot
##\nprices
##\u00e4re
##b\"
##chic
##dgy
##f\"
##here's
##ider
##iler
##luck
##mand
##mulated
##nant
##og
##passes
##rable.
##rade
##rette
##rich
##sible
##t)
(again)
(her
3.5.
80's.
\n3)
\n\n3)
\neven
again)
again-
alle
arizona!
artfully
atmosphere...
bead
coat.
commute
described.
donne
douchebags
draft,
estimates
expansion
expense.
favorites:
forget,
gaudy
glam
grinder
handwritten
heads,
hells
hotel...
indulging
izakaya
jokes,
license,
lifeless
loaner
loathe
mealy
meaty.
mirrors,
ni
oct
overhyped
pager
perch
pins
pittsburgh!
place!!!!
players.
pm)
pods
potent
project.
purpose,
recieve
reschedule.
respond.
restaurant\"
serviceable
showering
silly,
sorts.
soundtrack
stated.
strongest
supervisor,
tamale.
tiesto
touched.
traditional.
unbearably
upkeep
value!
vegas..
velvety
wayyyyy
whiskey,
##!\n\ni've
##-infused
##15.
##50,
##\n\nworst
##\nprice:
##bartender
##cture
##es!
##ffle
##ga,
##ggling
##gic
##lling
##mazing!
##mportant
##pic
##rayed
##shredded
##sis
##tep
##th.
##thursday
##tually
##twice
##ve,
##vil
##ya,
##yl
$80.
's
(literally
(many
(similar
20s
4pm,
\n\nlots
\u00e9galement
adventures
away!!!
bad.\n\ni
bases
beforehand,
best)
bits,
blah!
blob
booster
camper
cardinal
ceaser
chocolate!
competitive.
complicated.
crashing
creep
curries,
declined,
derby
disappoint,
discernible
dit
donut,
dope
dunno.
dynamic
eat...
essentials
excellently
exhibit,
exists.
fairways
fathers
flavoring.
forgiven
gee,
glamour
go.\n\ni
grade:
greek,
happiest
hula's
improves
jesse
jungle.
kirin
library,
livid
merchandise,
messages.
misplaced
nice;
off\"
ohh
outlet.
patches
po'
porcini
proving
sais
search.
spectacle
splashing
sundae,
survive.
swallowed
sweat.
sweetness,
tans
train.
treatments.
tunes.
venues.
vocal
wagon
warned!
wasabi.
water)
yoga.
##!\nwe
##-fixe
##-hard
##33
##cue
##dis
##dress
##dryer
##eller
##go,
##hang
##itude
##ley,
##ll's
##olive
##said
##servers
##sten
##ue.
##wrap
(yet
-_-
11:30am
11am,
\"first
\"hole
\nnever
alaska
arms,
back).
blunt
brisk
bummer!
burned,
camarones
cheesesteak,
circled
conclude
condescending,
contracts
crawfish.
detracted
donna
downsides
elk
explanations
fiji
files
frown
galbi
gow
gristle.
gros
gyros.
home.\n\nthe
hostel
injera
intricate
kyle
long?
march\u00e9
medieval
order.\n\ni
ovens
parma
peace.
pig,
planned.
pomme
pool!
pp
prone
proposed
pure,
rack,
ranting
ritual
rodeo
rueben
russell
sad!
sammich
satay,
scant
senor
serveuse
simple:
sinful
sommes
spare.
special:
splendid
strategically
table.\n\ni
taking.
thirsty.
though..
trois
trucks.
up..
voicemail.
wouldve
you..
##(2)
##-be
##-box
##-month
##...he
##.she
##\npork
##\nspicy
##\u00e8rement
##aaaaay
##ance,
##ani
##az
##days
##dont
##ery,
##evaluate
##given
##hoe
##isson
##j,
##lished
##me,
##melted
##naire
##nish
##ones
##oong
##ound
##ry's
##teak
##ubling
##yum
$2000
$70.
(kinda
6\"
=/
\"medium\"
\"meh.\"
\n\nlooking
agrees
assaulted
bad..
bday.
best!!!
bleh
buddy.
bummed.
cabana.
canned.
carlo,
cartoon
cedar
ceilings.
chad
chanel
coasters
consecutive
coverage.
cursed
cycling
declining
dirtiest
eliminate
ensures
explode
exposure
fettucini
fight,
fillers
fremont.
had:
hadn't.
hearty.
hefe
hiked
hops
horchata.
hum
hyper
ihop,
indulgent
initiative
intelligent
intro
judge.
lap.
legally
lengths
location?
makeup.
meiner
neil
night..
nightmares
nonsense.
notes.
occurrence
odor.
optical
pair.
paycheck
pedis
pluses
preceded
purse,
quickest
remodeled.
reno
requests,
roe
roku
scares
sculptures
shine.
skeptical.
smokiness
stir-fry
student.
succulent,
ta
tame
test,
tow.
tradition.
tranquil
travelled
tripped
val
wer
wilted.
win,
zombies
##&t
##-13
##\n\nfriendly
##ari
##aus
##cu
##gated
##gestion
##gh.
##icient
##ida
##ide.
##ipped
##izable
##ml
##oil
##rather
##rer
##robe
##season
##speaking
##tes,
##till
##u'\u00e0
##vie
##ware.
##xie
$22.
$30.00
'no
(chocolate
(extra
(remember
\"bad
\"best\"
\"never
\n\nback
\n\nstill,
\n\ntake
\nhad
\nonly
\nthank
announcement
aside.
attributed
bat,
bedienung
bellies
bowling.
checkers
cheerful,
chompies
chubby
club\"
cochinita
cooler,
costumes.
crate
creeped
crispier
crucial
definitely.
diluted
disappointed...
divide
divine,
docking
door)
drinks:
exhibits.
falafel.
fiery
flawless.
flour,
food.\"
gallo.
garbage,
gimme
golf,
gumbo.
hell!
hob
immense
informal
invitation
jill
jordan
lanes.
leafy
masterpiece
measures
nap.
nature,
nauseous
oc
orleans.
ownership,
pleasurable
poker,
pretzel.
prosciutto.
queens.
reduction.
relations
relive
rental,
routine.
sapphire
scum
seller
service!!!!
shortbread
silverado
squeaky
stocks
store)
supportive
tables)
tepid
thunderbird
times).
underdone
verdict
vet,
village,
wealth
years...
zoo,
##-miss
##-standard
##....we
##.95.
##.\n\nat
##.\nthey
##\n\nmoving
##\n\nworth
##\nbest
##\nfriendly
##\nfrom
##\nshrimp
##ald
##belly
##bill
##buffalo
##cashier
##ctions
##erson
##finally,
##holic
##meh,
##p!
##rg
##rrived
##ship
##truct
##uel
##ughter
##ural
##vp
#1.
$3.75
(depending
2010,
5:45
\"house
\n\nle
accusing
adventurous.
advising
afterthought
all),
almost.
attached.
bf,
branch.
bread)
bronze
browse.
button.
calzone,
cared.
cask
chickpea
china,
coffee?
confess
cow,
craigslist
d'
d'\u00eatre
damaged.
disappointed.\n\nthe
dorm
down.\n\nthe
earliest
event!
ever...
faces,
folks!
frost
gaga
goblet
grief
grit
gut.
hahaha
hairstylist
id's
imaginative
line?
lyrics
main.
margs
marmalade
moose
mousse.
nooks
noteworthy
noticeable.
notifying
of:
organizing
outback.
palate,
parc
patio!
permit
pinkberry
player,
porridge
problem:
quiznos
ramekin
rao's
rash
realise
recipe,
regions
relied
ridden
rubs
rum,
saltier
scary,
seams
sf.
shoulders.
speakers.
staff...
strip).
teriyaki.
there.\n\nwe
thou
towel,
tropicana.
unorganized,
updated,
welcomes
well.\n\nwe
whiskey.
worries.
##-piece
##....not
##..\nthe
##..only
##..why
##.that
##38
##:55
##?!?!?
##\n\nla
##\n\nme
##ative.
##da.
##entrees
##esy
##gating
##ggie
##inating
##itize
##ject
##lting
##pair
##power
##red.
##ront
##wful
$1500
'til
1am.
2pm,
3:
\"thanks
\"vegas
\"white
a/c.
addressed.
adult,
all-around
amd
appropriately.
april.
bacon)
balance,
before...
betty
between,
bored,
camera.
captive
cat,
champaign,
chang
cleaners.
close!
crowding
cubs
danielle
did).
differentiate
dressed,
dumbfounded
empanadas,
entering.
enthusiast
facial,
felt.
finest.
georgia
glassware
great).
how,
incidents
incomplete
innocent
itty
jelly.
lily
manners.
mans
mansion
much.\n\nthe
murals
n'a
numbers,
omelettes,
pals
phoenix's
powering
progress.
qua
quart
queen.
reputation,
roll!
satisfied!
scenery.
scramble.
screaming,
screwed.
secrets
shwarma
size)
sneeze
sparsely
spotty,
stair
strip?
sturdy
sumo
sway
terminal,
they,
this\"
to).
toll
tongs
tyler
voucher,
warmer.
well-stocked
wheel.
whirl.
whites,
wierd
winner,
xiao
yelper's
zumba
##).\nthe
##,and
##-35
##-op
##-work
##.\n\nthat
##01
##\n\nanyway
##\n\napparently
##\n\ntook
##ald's
##band
##cc
##cy,
##day,
##eille
##ent,
##er:
##gee
##hind
##hole.
##ig.
##isen
##kki
##lat
##lift
##logical
##lounge
##mein
##mole
##nks
##oting
##pies
##rot
##unted
##uz
##vert
##wtf
##zing.
##zzo
$2.50.
(these
2005
3am.
\"didn't
\"little
\"maybe
\"only
\n\nyour
\ndo
anybody.
aria's
banana.
bikes.
bones,
carnitas.
church,
client,
compelling
conflicted
cranberries,
criss
daring
days)
decided,
dente.
dinosaur
dispatch
doch
dyed
esthetician
flan.
flights,
foam.
foot,
forgetful
friendly.\n\ni
fries\"
getting,
heat!
hvac
icon
imagination.
inconvenience,
jacuzzi.
joseph
kc
knew,
logged
lynn
mac,
macbook
mains,
meh!
mixed,
nerd
nichts
octopus.
omni
options:
pang
passive
patios
philly.
pizzeria.
poison
pompous
possible!
precise
production.
pt
redemption
redone.
repairing
restricted
saddest
shells.
shriveled
shuffled
spirits.
tamales.
tarter
tenderness
tot
trigger
trim.
truffles.
understanding,
wall\"
way?
wear,
were!
##-around
##-going
##-hot
##17
##\n-no
##\n\nplus
##ades
##balanced
##cards
##dim
##etc
##few
##gone
##hoo,
##iter
##kid
##nded
##ni.
##ons.
##oy
##picked
##pound
##pr
##quent
##quito
##ritos
##rupt
##salsa
##scale
##ssie
##tho
##tte,
##vor
##wonderful
##yson
##za,
#1:
(ask
5pm,
afterward,
agitated
ancho
anna
audience,
away.\n\nthe
b's
babies.
bad)
beer)
blend.
boot!
bouchon.
bought,
breed
brides
cantaloupe
castle.
chatter
chicken).
chile.
choking
church's
cinnamon.
commons
comprehend
cowfish
diese
dogfish
draining
earning
edgy
ew,
fascinated
field,
flavour,
fresca
gaps
giddy
good-sized
gouging
gourmet.
greenway
guinea
here!!!!
higher-end
highly.
how's
i?
ie
involved,
jose,
jus.
know\"
krazy
lag
lamps,
launch
lawyer
location's
longing
marcus
material.
menu.\n\ni
methods
motions
ms
name),
namely
off).
on).
optometrist
paranoid
pendant
pregnant,
preventing
proscuitto
ramsey's
renewal
right)
rio's
sadly.
sausages.
sectioned
segment
selective
semblance
singing,
slopped
sometime,
subpar,
tapenade
tastier.
terrific!
unevenly
unruly
unwrapped
verde,
worried.
##!\n\nwhen
##-eyed
##....they
##..who
##/8
##\n\nright
##\n\nsorry,
##\nevery
##\nmost
##\nprice
##\ntry
##\nyes,
##ar.
##bf
##clair
##clean,
##dom
##drop
##inous
##lining
##lute
##lved
##n!
##nced
##rants
##rator
##rious
##rt's
##spend
##sted
##tend
##tore
##ubs
##vette
##years
##zel
##zero
(15
(be
(old
1,000
2am,
\n\nwalking
\n\nyes
amazes
asu.
august,
blvd,
both!
bussed
calling.
cellphone
chatting.
cholesterol
circumstances.
combinations,
committing
companion's
concierge,
cow.
cows
dish.\n\nthe
double,
doughy,
down?
down\"
drench
either).
exceptional!
exercises
expresso
fall,
fireplace.
firm.
fixtures,
fuss.
galleries
good.\"
guarantees
here\".
hookahs
hooker
hustled
imagining
indifferent.
insane!
invites
it.\n\nthey
jacuzzi,
keller's
komol
leaf.
leeks
lincoln
locating
m&ms
marbled
marking
marrow,
masala.
mirror,
natural,
nightmare,
nighttime
ouch!
overcharging
participation
petits
phoenician
poorly,
possible?
pour.
predict
producing
rating:
realm
relleno.
rogue
sauna.
scrubbing
service....
sets,
shirley
shocked,
skim
speakeasy
spins
spun
staff:
standing.
starchy
starring
stationary
strangers.
stretch.
super,
tammie
tapping
tavern.
tisch
toasts
track,
triangle
tricks.
twist,
unreal
watering.
weeks!
william
woefully
yada
yelper,
zur
##)\n\nthis
##-school
##32
##\"you
##\n\nbasically,
##\n\nloved
##\n\nunless
##\nget
##\ni'd
##\nnow,
##ball,
##chain
##cially
##culation
##day.
##ein
##enjoy!
##eurs
##fold
##furthermore,
##geration
##held
##hol
##iment
##ized,
##ligence
##lpful
##mpa
##oc
##quire
##rst
##tax
##ton.
##tons
##vocado
(during
10\"
12:00
9am.
=p
\"here
\"look
\nwell
area;
autumn
bar.\n\nthe
bedrooms
before).
blandest
bobbie
bread...
breakfast?
brewery,
brutal
cavernous
cigarettes,
coaches
colossal
cosmetics
couture
credit/debit
day),
diameter
dicks
disapointed
disappointingly
disdain
edition
fermented
filler.
financially
foccacia
friendly.\n\nthe
geez,
grungy
hassled
hookah.
hooked!
illy
independently
induced
it...i
jacks
kahlua
kenny
korea
laughing,
lg
lou
martial
meilleur
mil
minimums
miscellaneous
mornings,
nuclear
pace,
paved
placed,
pow
pre-dinner
professionalism,
prop
provided,
puppies.
quickly!
recall.
relieve
renovated.
restore
riesling
robertos
rouge
rumors
sack
selling.
seriously...
side:
silverton
sixth
sleeping.
small)
sources
squat
staples.
strand
swamp
think),
tighten
truthfully
tryon
understood.
unlv.
usually.
vietnam
waygu
weekdays,
yelling,
zest
##'s:
##+,
##.or
##\"..
##\".\n\ni
##\n\nlocation:
##\u00e9e,
##a's.
##aret
##chet
##del
##ear
##ene
##giant
##ides
##ika
##ka,
##le's
##ope
##ori
##points
##rab
##rde
##ress,
##rip
##tement
##ume
##yellowtail
$95
(ordered
11pm,
13th
6:45
\"no.\"
\"open
\"two
\n\npeople
\n\nplus
adamant
all\u00e9e
assistance,
attendees
biersch
blast,
brgr
buffet...
burgundy
carolina's
cheerfully
cityscape
climate
cocky
coco's
comforting.
competent.
curbside
d'autres
dame
dealership,
dirt,
diverse,
do\"
doing!
drift
embedded
end!
essayer
extraordinary,
extras.
farm.
feelings.
female,
fluke,
fondant
footlong
forgets
fridays,
frugal
grass-fed
guest's
gumbo,
had.\n\nthe
improperly
jj
law,
lindo
lurking
madness.
manager\"
mao
margarita's
maternity
medium-well
mid-week
mode.
monitoring
no-one
november.
ones)
order).
ordered!
ostrich
overlooked.
pasty.
piggy
pit,
pong,
positives.
produces
prosecco
raunchy
recline
rectified
refunding
renowned
rep.
republic,
rhythm
rocked.
roger
roof,
rookie
salsa!
savoy
scheduled.
seattle.
seitan
shrunk
singing.
sizing
sketch
sketchy,
sleek,
smile!
sort,
spiral
super.
swearing
tagged
talented,
there.\"
thighs
trumps
untrained
us\"
utmost
vacuums
varieties,
were:
whatnot.
why!
wohl
write.
yup.
##!\n\ni'm
###1
##-fresh
##-prepared
##.75
##/club
##18
##;)
##\"we
##\n\ndecor
##bic
##bs.
##cado
##cheers
##ckey
##ct.
##erging
##gas
##hawk
##hone
##ke\"
##lieve
##llen
##llon
##maine
##ngs
##nned
##nos
##oid
##out,
##pense
##rks
##rose
##uds
##usement
##viche
##wrong
$300.
(huge
(located
21+
28th
34
39
6:15
\"yes\"
accented
again!!!!
ambiance:
anything...
apartments.
artists,
attic
avondale
belt,
booming
bugs,
busy)
butterfish
c)
caesar's.
callus
calmed
celiac
ceremony.
chance!
checker
chianti
compressor
conservatory
cream)
cushy
deal?
dillard's
disturb\"
drastic
dressings.
dump!
eliminated
elusive
emailing
endured
equate
excited!
excitement.
fairy
feather
feta.
flakes.
for\"
freshness,
funny!
glaze,
grass,
had!!
haphazardly
hardened
horseradish.
hot)
is..
jalape\u00f1os,
jc
knots,
laughed.
linked
marred
mattress.
mimosa.
mirrored
motif
murder
muted
nit
now\"
oldies
organ
outdoors,
overpowering,
part!
planner
popeyes
positives:
re-do
registers.
restraunt
rite
rolls:
rounds.
safety.
separation
seul
shifts
showtime
sirloin.
sneakers
something's
stare.
stratosphere.
stuffing,
swayed
ted's
thurs
trading
understated
was).
windshield.
wontons.
work?
##%.
##&g
##)\ni
##-oriented
##-very
##..had
##.\n\n-
##.\n\nso,
##/f
##bal
##be,
##c'est
##certainly
##cky
##cription
##dy,
##ibly
##icious
##ield
##iest,
##ioned
##lapping
##llow
##min.
##ned.
##nizing
##nking
##ops
##orn
##ource
##reasonable
##return
##terday
##turing
##urmet
##vation.
##yn
$1.25
$10.99
(particularly
(those
3.5,
40's
\"home
\"like
\"small\"
\ni'd
a-ok,
annie
applebee's.
authorization
averaged
awarded
bam!
breathtaking.
brother-in-law
canada.
claim,
crowded!
dared
decline.
departed
depot,
dodging
dump,
either.\n\ni
excite
fine!
flatscreen
flushed
foursquare
frequents
gal,
gratuity,
gucci
hello!
hilton,
hours?
improved,
incapable
inconsistent,
incorrectly.
ipad.
ist,
jelly,
kill.
l'air
lawry's
leadership
locking
lunchtime,
manhattan.
measure.
mediocrity.
meth
midday
mieux
mochi,
more.\n\ni
mri
musique
n9ne
nowadays.
pappardelle
pho!
pots,
pr
privately
psyched
pubic
puking
pure.
quesadillas.
rachel's
replacement,
savings.
sharing,
skates
soju
spaces,
steal!
summers
tattoo.
tease
temper
thanksgiving,
transplant
travis
tuscany
ungodly
uninspiring.
usa.
vow
whiff
winco
ymca
yuppie
zwei
##-do
##-half
##-lit
##/lunch
##/salsa
##95)
##?'
##\n\nfinal
##\n\nmany
##\n\nuntil
##ah,
##ake
##ard's
##bland
##burger.
##cited
##coast
##curry
##egrated
##ense
##h'
##iding
##ism,
##ito's
##kly
##mall
##plus,
##presentation
##rack
##ulations
(per
35th
9:30pm
\"nice\"
\n\napparently
\n\nspeaking
\n\nthree
achieved
adored
ahhh
announcing
anyhow.
az!
ballys
bar:
barbershop
blankly
bojangles
bungalow
chat,
cheated.
clock.
clump
comp.
confit,
date!
defintely
denim
dimmed
dirtier
disclosed
donations
drink).
due.
dull,
emails.
enormous,
eyebrows.
fake,
farthest
flag.
fly.
forbidden
freshman
gun.
here?\"
hooters,
hors
hour...
hurt,
hustling
incompetent,
intolerant
it'
kama
laziness
lock.
loooong
lotion,
mac.
marinara,
marine
meal:
mine!
mu
nazi
nellis
others'
pedi,
permitted
place.\n\nwe
providence
quaint.
quality:
quoted.
rained
recommande
regret.
renewed
resemblance
roll\"
s\u00e9lection
salvation
seeing.
server)
shack.
shit!
snide
sober,
soup?
specialties.
step.
store...
straw,
stuffy,
suicide
thieves
this.\n\nthe
toes,
towers,
trouv\u00e9
unclean
us;
viande
virginia
wasabi,
wildlife
with...
woody
##(s).
##-faced
##-friendly.
##-just
##-peak
##-thin
##07
##?,
##\nhave
##ages
##but,
##cale
##dust
##hawaiian
##holiday
##ifying
##lam
##lter
##lug
##male
##mp.
##mpson
##nate
##nia
##owed
##presso
##rays
##rical
##ries.
##surprisingly
##tte.
##tween
##uro
##ut,
##weet
##y\".
$3.50.
(different
(french
10-20
2\"
30,
\n\neach
\n\ngive
ab
airport!
assign
association
bally's.
biscotti
bitches
block,
burger)
busboys
bust.
caf\u00e9s
capri
cashiers.
casino!
chimichangas
chopsticks.
choreography
cici's
cider.
cobbler.
considered,
consulted
corners.
coworkers,
crayons
cubano
damn!
deck,
delis
dennis
dente,
difficulties
digs
docked
donald
drips
ears,
eigentlich
exits
floppy
forgettable,
free\"
gee
gesture.
go!!
goats
gold,
guard.
hair)
hairy
hallmark
hint:
hmmm...
hour).
hunter
hushpuppies
in:
infinitely
legacy
ling
lo-lo's
long...
love/hate
magazines,
mahi,
makeover.
management!
matinee
matthew
merits
milkshakes,
miraculously
mundane
n'\u00e9tait
naming
necessity
nest
oj.
one-time
order;
origin
overload.
pampering
pan,
pearls
perfected
pics.
pie!
plainly
professionals.
puny
quiz
random,
realization
refers
renovations.
royalty
rust
seulement
shabby,
showers.
slogan
smelly,
strapped
sugar-free
suit,
superstition
sushi...
temptation
than,
unfortunate.
vendors,
vince
warehouse.
waterfall.
waxing.
windsor
wrinkled
##++
##-for
##-off.
##-wise.
##..because
##.\n\nalso,
##.\n\nfood
##4t
##\n\ndecent
##\n\nhopefully
##\n\nhubby
##\n\nseriously
##\nreally
##acon
##ala
##conscious
##cts
##eastern
##eted
##fyi:
##fying
##gious
##hmancy
##id.
##inant
##ines,
##ining
##ior
##ischen
##ita,
##l)
##lange
##lm
##ohl
##ot.
##pointment
##ri,
##sadly,
##shopping
##size
##ssen
##tasting
##thick
##tips
##toria
##vais
##verse
$11.99
'em.
(used
12am
about...
absolutely.
antibiotic
b4
backdrop
backpack
barbecue.
bartending
basics,
bearable.
beer...
beginners
beware:
biased.
bitten
blush
bob's
cans.
chives
collective
companies,
complements
convey
covered,
crib
daiquiri
darkness
darling
ddd
decisions.
disappears
disaster,
easy!
embarrass
excused
fabrics
fears
fiction
fillings.
flavor...
flavourful
freshener
fuku
fund
gastropub
gina
good!\n\nthe
grounds,
hammer
headlights
home).
hospitals
in-n-out,
lane,
lasagne
length.
line)
liquid.
lola's
mark's
mazda
menu-
miffed
minutes\"
neighbors,
nora's
norm,
observing
opi
orchid
orderd
orleans,
out),
peeves
perhaps.
played,
police.
presidential
pur\u00e9e
renovating
sandwhiches
sculpture
server!
share!
shoulda
single,
sings
slowly,
smidge
sopapillas
sora
sponsored
spoonfuls
stationed
still...
surprising,
suspects
tarts,
there-
time.\n\nwe
try.\n\ni
unreliable
ups,
vegas;
viable
victorian
waits.
walk-ins
weeds
westside
whoa
widely
wonderland
wong
##(they
##-busy
##-high
##...for
##..\n\nmy
##..now
##36
##5.00
##59
##9.00
##\n-i
##\n\ngoing
##\n\nout
##\n\nsee
##\nfree
##aled
##aw
##eee
##eil
##eld
##eum
##flat
##grill
##group
##led.
##loppy
##mlet
##pire
##pper
##ranean
##rations
##shire
##stones
##ties.
##tunately,
##uan
##}
$1,
$14.99
$40.00
(comes
(would
3-course
700
8:15
\n\npretty
\nme:
all-
amigos
appreciated,
approachable
aren't.
astounded
bagging
boycott
breeze,
buffet\"
burgh
butler
charging.
chooses
clipped
definitley
delete
devils
dreamed
eel,
empathy
energetic,
etc.\n\nthe
evenings,
everybody.
evidenced
examination
favorite),
fettucine
fillets
fish!
flay's
foolish
fries).
gel.
gift,
global
goodies,
imagined.
indoors,
june,
kam
keno
kool
lame!
lays
liquors
locksmith
medication.
misunderstanding
monsieur
montagu
northeast
nuked
okay?
one..
out-
outcome.
outfits.
outlets,
paella,
[...]
